&@@ 198589
; 176904
ap@@ 174272
os@@ 174046
, 172635
. 156180
de 110805
la 58170
et 54136
est 53288
que 52219
le 48289
à 47157
les 45772
l@@ 42230
un 41926
des 36678
d@@ 36358
en 35365
une 33753
vous 31789
nous 30831
a 29228
qui 28092
ce 27623
dans 25054
-@@ 24843
@ 24792
@@@ 24786
Et 24145
pas 24047
pour 23598
quo@@ 23505
t; 23493
qu@@ 21799
il 21615
je 20950
c@@ 16889
du 16829
ne 15996
plus 15694
n@@ 14520
sur 13372
y 13230
ai 13034
? 12962
on 12660
j@@ 11943
sont 11519
avec 11270
-- 11151
au 11022
ils 11016
fait 10653
se 10354
C@@ 10044
Je 10004
: 9965
ces 9679
ça 9363
ont 9354
comme 9256
cette 9019
par 9017
faire 8961
s@@ 8747
si 8701
être 8680
Il 8659
avons 8637
était 8508
tout 8087
Mais 7638
mais 7634
ou 7533
Nous 7489
très 6967
bien 6365
peut 6269
elle 6209
monde 6028
gens 6005
même 5903
chose 5783
J@@ 5453
dit 5435
cela 5330
me 5279
aux 5069
quand 4959
où 4947
Vous 4822
là 4798
vraiment 4733
leur 4725
suis 4632
tous 4579
Donc 4560
été 4538
notre 4530
La 4510
donc 4395
choses 4325
beaucoup 4312
parce 4282
m@@ 4208
aussi 4153
deux 4148
mon 4142
autre 4120
Ce 4044
♫ 4007
ans 3992
Les 3880
dire 3836
quelque 3826
voir 3793
Le 3769
ici 3722
son 3687
moi 3619
vie 3581
- 3535
Ils 3504
autres 3471
avait 3454
pouvez 3417
i 3370
temps 3352
peu 3351
avoir 3347
é 3337
votre 3306
nos 3250
fois 3168
entre 3166
On 3103
avez 3095
En 3084
elles 3039
Alors 3007
ma 2919
ée 2864
sommes 2839
L@@ 2834
pense 2820
comment 2816
er 2753
ant 2738
Si 2628
ent 2611
dont 2610
és 2589
encore 2578
années 2570
façon 2457
vais 2452
maintenant 2450
sa 2430
leurs 2422
juste 2378
toutes 2377
alors 2372
hu@@ 2354
va 2325
personnes 2309
ait 2274
mes 2271
lui 2266
enfants 2259
ons 2248
veux 2213
besoin 2200
non 2179
sans 2134
jour@@ 2123
au@@ 2117
quelques 2103
savez 2088
idée 2083
pouvons 2075
histoire 2042
pays 2019
jamais 1996
après 1977
eu 1976
ses 1973
Voici 1971
eux 1961
ées 1938
es 1905
problème 1901
pendant 1892
parler 1891
moins 1863
toujours 1859
seulement 1854
chaque 1822
dé@@ 1814
étaient 1808
peuvent 1786
voyez 1778
soit 1774
trois 1772
ez 1768
Elle 1760
partie 1750
moment 1729
personne 1713
quoi 1688
grand 1687
exemple 1665
êtes 1659
vers 1657
jour 1653
toute 1643
première 1636
cet 1624
avant 1621
e 1619
étais 1616
tant 1614
commencé 1596
eau 1590
manière 1590
puis 1585
in@@ 1584
re@@ 1564
Maintenant 1558
sûr 1551
question 1540
travail 1540
aient 1534
te 1529
système 1528
Merci 1515
point 1513
t 1477
jus@@ 1445
sorte 1438
pourquoi 1437
Un 1430
assez 1427
avais 1426
petit 1411
rien 1401
Une 1388
sous 1373
font 1365
aller 1362
vu 1362
Cela 1358
bon 1356
... 1351
depuis 1350
grande 1347
prendre 1347
! 1333
Parce 1330
D@@ 1325
pourrait 1315
technologie 1310
quel@@ 1309
Quand 1308
ais 1288
cas 1284
Ça 1281
passe 1279
important 1277
genre 1272
% 1271
cerveau 1271
environ 1268
an 1256
A 1251
trouver 1249
millions 1247
10 1245
tu 1240
vos 1234
Dans 1232
utiliser 1232
peux 1223
appelle 1222
9@@ 1219
devons 1216
ceci 1212
faut 1192
s 1192
avaient 1189
comprendre 1184
passé 1180
premier 1157
créer 1154
données 1146
train 1144
sais 1143
ation 1140
crois 1136
nouveau 1135
#@@ 1131
sens 1130
femmes 1129
voici 1123
chez 1121
montrer 1120
ement 1113
bonne 1109
eur 1106
ensuite 1104
mettre 1102
simplement 1095
bas 1092
S@@ 1082
donner 1081
o 1079
année 1067
homme 1066
pouvoir 1064
laquelle 1061
ale 1058
problèmes 1056
Pour 1055
plutôt 1055
plupart 1053
car 1052
forme 1044
dollars 1040
é@@ 1038
jours 1032
déjà 1021
petite 1019
énergie 1019
ceux 1016
000 1011
ensemble 1007
savoir 998
serait 997
travers 988
mois 985
allons 984
ants 983
importe 981
ante 978
Tout 972
près 965
agit 963
nouvelle 962
pris 962
ci 961
ainsi 960
espace 954
mieux 954
argent 953
aire 952
trop 951
20 949
corps 944
penser 943
raison 942
vont 939
veut 936
côté 934
doit 934
gros 934
tes 925
fin 924
vrai 924
ques 921
Afrique 918
Qu@@ 916
projet 910
simple 909
ré@@ 907
lieu 904
compte 901
dessus 900
ère 897
femme 893
Unis 890
sera 890
Comment 889
is 886
trouve 882
ité 881
contre 877
quel 873
faites 868
expérience 866
endroit 865
ie 864
autour 863
age 861
nombre 861
eurs 860
enfant 859
passer 855
air 853
différentes 852
propre 851
idées 850
mère 849
faisons 848
Pourquoi 847
planète 846
ville 842
celui 835
cours 834
changer 833
certains 832
quatre 830
seule 830
l 828
possible 828
niveau 824
part 823
allez 822
image 822
haut 814
lumière 806
celle 805
difficile 796
voulez 796
able 793
type 793
place 792
tard 792
mêmes 787
santé 784
aires 779
réalité 777
mis 775
arrive 768
reste 765
mal 761
trouvé 758
lorsque 754
50 752
probablement 752
Cette 751
Est 751
essayer 751
produit 751
Au 748
maison 747
souvent 746
marché 745
seul 744
vue 744
cellules 743
savons 743
Eh 742
école 742
A@@ 737
donne 737
jeu 737
sujet 737
parle 736
partir 736
Ces 733
groupe 733
regardez 732
2 730
vient 730
ine 729
pu 729
travailler 727
Voilà 726
milliards 724
3 721
tellement 721
esprit 719
nature 718
devez 717
société 716
voilà 714
également 714
hommes 713
3@@ 712
30 711
De 711
avions 711
construire 710
petits 706
Bon 703
al 703
commencer 701
différents 701
donné 699
changement 698
Bien 697
presque 697
cent 696
époque 696
1@@ 695
Elles 694
moyen 693
univers 692
main 691
accord 686
livre 685
photo 683
cinq 682
in 682
nouvelles 681
cause 680
humains 680
ations 675
Oui 672
apprendre 671
long 667
Des 666
heures 666
regarder 664
complètement 662
humain 660
pouvait 660
E@@ 659
intérieur 658
signifie 657
en@@ 655
Ceci 654
ligne 654
demandé 653
guerre 652
plusieurs 652
as 651
fais 649
réponse 649
100 648
environnement 648
terre 648
entendu 646
tête 645
famille 643
N@@ 642
quelle 642
ordinateur 641
commence 640
rendre 640
Non 639
début 638
dernière 637
yeux 637
aurait 636
d 635
T@@ 634
disent 632
animaux 630
Que 629
intéressant 629
processus 625
Inde 622
P@@ 617
ts 617
Terre 612
antes 609
nourriture 609
aime 608
aide 607
aider 606
science 606
Dieu 605
voiture 605
partout 604
propos 604
appelé 603
modèle 603
us 602
M@@ 601
vidéo 601
questions 599
dis 597
père 597
1 596
OK 596
appris 595
musique 595
voit 594
pensé 593
voyons 592
face 589
minutes 589
développement 587
re 587
voulais 587
Comme 586
TED 586
lequel 586
aucun 584
recherche 582
capacité 581
5 580
information 579
Mon 577
mesure 575
u 575
histoires 573
B@@ 571
ales 571
im@@ 571
té 570
4 567
abord 567
vivre 567
exactement 566
Ainsi 565
certaines 565
existe 565
meilleur 565
montre 565
état 565
communauté 564
dois 563
base 562
jouer 562
public 562
t@@ 562
voulons 562
coup 561
marche 561
ag@@ 560
nom 560
réellement 558
décidé 556
dernier 555
dernières 553
grands 553
informations 553
devenir 552
prix 552
film 551
semble 551
ens 550
sait 549
États 549
ateur 548
amis 547
écrit 547
loin 546
mort 545
incroyable 544
ter 543
ables 542
rapidement 542
ni 541
centre 540
aucune 539
cancer 539
15 538
New 538
effet 536
images 535
peur 534
r@@ 534
politique 532
découvert 530
petites 529
ressemble 529
mer 527
grâce 526
ar@@ 524
créé 521
oui 521
pré@@ 521
regarde 521
choix 520
endroits 520
art 518
longtemps 518
venir 518
ers 516
futur 516
grandes 516
arriver 514
pensez 514
force 513
gauche 512
siècle 512
différence 510
culture 508
six 507
ères 506
fille 504
milliers 504
population 504
obtenir 503
suite 503
b@@ 502
p@@ 502
euse 498
entier 497
par@@ 497
taille 497
arrivé 493
ch@@ 493
av@@ 491
demande 490
F@@ 489
aimerais 488
el 487
évolution 487
ique 486
veulent 486
devient 485
mots 485
con@@ 484
attention 482
importante 482
jeunes 482
design 480
mot 480
énorme 480
devrait 479
o@@ 479
Ou 478
gouvernement 477
meilleure 477
compris 476
économie 476
éducation 476
Oh 474
c 474
K@@ 473
capable 473
devant 473
parfois 473
Chine 472
Internet 471
fut 471
milieu 471
permet 471
échelle 468
surface 467
sécurité 467
tique 467
parlé 466
voudrais 464
scientifiques 463
termes 462
amour 461
cher 461
différent 461
produits 460
sortes 460
droite 459
plein 459
vite 459
âge 459
particulier 458
selon 458
Amérique 457
Pas 457
humaine 457
machine 455
salle 455
utilise 455
Puis 454
chance 454
facile 454
technologies 454
Par 453
puisse 453
porte 452
systèmes 452
parents 451
York 445
chacun 445
tion 445
am@@ 444
mouvement 444
étudiants 444
6 443
heure 443
ance 442
certain 441
combien 441
G@@ 439
afin 438
équipe 436
devenu 435
dû 435
jeune 432
présent 432
but 431
demander 431
V@@ 430
finalement 430
imaginer 430
sur@@ 428
at 427
inter@@ 427
programme 427
doivent 426
nuit 425
allé 424
prend 424
rapport 424
changé 422
maladie 421
villes 421
situation 420
utilisé 420
al@@ 419
contrôle 419
droit 419
physique 419
points 418
40 417
bout 416
seconde 416
ite 415
Tu 414
autant 414
or@@ 414
heureux 413
rer 411
sortir 411
étions 410
mondiale 409
deuxième 408
livres 408
moitié 408
H@@ 407
espèce 407
tions 407
vies 407
R@@ 406
g@@ 406
mètres 405
pensons 405
ADN 404
terme 404
fonctionne 403
pièce 403
rez 403
carte 402
lire 402
pouvais 402
C 401
produire 401
solution 401
ue 400
viennent 400
di@@ 399
els 398
site 398
certaine 397
era 397
semaines 397
7 396
as@@ 396
nouveaux 396
che 395
construit 395
différente 395
pourrions 395
filles 394
photos 393
y@@ 393
gars 392
bâtiment 391
espère 390
semaine 390
Ensuite 389
Etats 389
raisons 388
O@@ 386
espèces 386
fond 386
propres 386
ordinateurs 385
structure 385
vision 385
derrière 384
entreprise 384
f 384
is@@ 384
comportement 382
virus 381
croissance 380
ou@@ 380
pourriez 380
soient 380
ti@@ 380
uns 379
centaines 378
enne 378
essayé 378
théorie 377
arrière 376
disait 375
laisser 374
objet 374
étude 374
ents 373
soleil 373
écrire 373
60 372
h 372
8 371
ailleurs 370
partager 370
travaille 370
troisième 370
objets 369
pensent 369
jeux 368
plan 368
raconter 368
trucs 368
avenir 367
réel 366
réseau 366
v@@ 366
impression 365
isme 365
outils 365
valeur 365
faisant 364
scientifique 364
domaine 363
i@@ 363
océan 363
super 363
vois 363
ins 362
12 361
faisait 361
formes 361
pourraient 360
résoudre 360
Au@@ 359
ton 359
compassion 358
résultat 358
vitesse 358
a@@ 357
ac@@ 357
matière 357
sol 357
truc 356
quantité 355
relation 355
entreprises 354
faite 354
économique 354
devrions 353
voix 353
étant 353
maladies 352
prise 352
conférence 351
ence 351
it 351
résultats 351
alité 350
ente 350
expliquer 350
acheter 349
nombreuses 349
règles 349
journée 348
iste 347
taux 347
ir 346
pétrole 346
Peut 345
co@@ 345
nombreux 345
premiers 345
tel 345
développer 344
montré 344
ise 343
action 342
aura 342
rendu 342
allait 341
demi 341
travaillé 341
80 340
parmi 340
réfléchir 340
assis 339
ellement 339
tas 339
tendance 339
Europe 338
ab@@ 338
m 338
née 338
poser 338
seront 338
tent 338
Ici 337
ages 337
cou@@ 337
mains 337
utilisant 337
zone 337
venu 336
ateurs 335
erait 335
ressources 335
sept 334
types 334
bonnes 333
bons 333
matin 333
voulait 333
projets 332
25 331
celles 331
qualité 331
fils 330
bras 329
période 329
tour 329
etc 328
modèles 328
fini 327
patients 327
mauvais 326
e@@ 324
langage 324
table 324
bou@@ 322
groupes 322
crée 321
vent 321
Qui 320
classe 320
ex@@ 320
gènes 320
ment 320
voie 320
k@@ 319
lors@@ 319
savent 319
scène 319
général 318
per@@ 318
visage 318
Après 317
réalisé 317
source 317
vi@@ 317
voyage 317
CA 316
li@@ 316
rend 316
téléphone 316
É@@ 316
animal 315
extrêmement 315
pourtant 315
études 315
atteindre 314
bonheur 314
chemin 314
million 314
lement 313
né 313
parties 313
tés 312
os 311
pouvaient 311
ét@@ 311
h@@ 310
istes 310
succès 310
génération 309
sou@@ 309
voitures 309
Ma 308
chercher 308
or 308
change 307
cœur 307
ites 307
n 307
ements 306
confiance 304
suivre 304
traitement 304
tre 304
zones 304
200 303
disant 303
mo@@ 303
teur 303
vérité 303
absolument 302
an@@ 302
impact 302
mauvaise 302
utilisent 302
B 301
prenez 301
accès 300
meilleurs 300
pauvres 300
peine 300
unique 300
bureau 299
importance 299
manger 299
ines 298
patient 298
éléments 297
couleur 296
fil 296
industrie 296
pro@@ 296
À 296
découvrir 295
glace 295
su@@ 295
vivent 295
approche 294
met 294
moyenne 294
représente 294
série 294
avion 292
dedans 292
anglais 291
noir 291
rouge 291
si@@ 291
ad@@ 290
crise 290
tres 290
90 289
Sud 289
expériences 289
marcher 289
particulièrement 289
activité 288
dis@@ 288
f@@ 288
Avec 287
Google 287
conscience 287
espoir 287
iser 287
morceau 287
revenir 287
effectivement 286
fort 286
rapide 286
risque 286
instant 285
pensais 285
11 284
climatique 284
vieux 284
conception 283
papier 283
robot 283
500 282
I@@ 281
lesquelles 281
nés 281
recherches 281
èrent 281
arrêter 280
belle 280
construction 280
tée 280
nes 279
totalement 279
réussi 278
utilisons 278
version 278
écran 278
Ca 277
complexe 277
delà 277
gène 277
mettez 277
on@@ 277
perdu 277
Ne 276
entrer 276
récemment 276
sein 276
tu@@ 276
Regardez 275
appelée 275
capables 275
dites 275
ette 275
prochaine 275
production 275
beau 274
direction 274
entendre 274
extraordinaire 274
rôle 273
soi 273
dehors 272
puissance 272
x 272
huit 271
pi@@ 271
étudier 271
lors 270
po@@ 270
telle 270
étape 270
changements 269
sentiment 269
tez 269
tiques 269
village 269
bi@@ 268
deviennent 268
littéralement 268
pensée 268
rée 268
suivante 268
écoles 268
aine 267
lo@@ 267
merci 267
merveilleux 267
Certains 266
impossible 266
rester 266
ta 266
tons 266
Même 265
ami 265
dur 265
es@@ 265
position 265
possibilité 265
rue 265
région 265
soir 265
Notre 264
défi 264
exemples 264
directement 263
ds 263
er@@ 263
incroyablement 263
it@@ 263
langue 263
pire 263
continuer 262
isation 262
liste 262
appareil 261
extérieur 261
iques 261
mur 261
op@@ 261
ver@@ 261
code 260
croire 260
em@@ 260
rés 260
service 260
tr@@ 260
vraie 260
chiffres 259
développé 259
Plus 258
création 258
durant 258
kilomètres 258
plantes 258
auto 257
disons 257
doute 257
enfin 257
esse 257
message 257
9 256
chanson 256
fi@@ 256
peau 256
reçu 256
sociétés 256
res 255
surtout 255
travaillent 255
êtres 255
carbone 254
commencent 254
large 254
rencontré 254
terrain 254
traiter 254
Nord 253
médicaments 253
secondes 253
W@@ 252
ge 252
ri@@ 252
Beaucoup 251
com@@ 251
concept 251
k 251
longue 251
politiques 251
page 250
devait 249
haute 249
intérêt 249
matériaux 249
vivant 249
connu 248
fin@@ 248
tôt 248
conditions 247
70 246
affaires 246
façons 246
savais 246
uniquement 246
Chaque 245
ci@@ 245
envoyer 245
laboratoire 245
pourrais 245
18 244
toi 244
Chris 243
arbres 243
permettre 243
simples 243
viens 243
auparavant 242
euses 242
intéressante 242
loi 242
moyens 242
parti 242
premières 242
électricité 242
ar 241
biologie 241
dès 241
humanité 241
rait 241
Imaginez 240
architecture 240
ies 240
ions 240
retour 240
solaire 240
certainement 239
mal@@ 239
rons 239
fonction 238
laissez 238
route 238
université 238
apprentissage 237
bébé 237
innovation 237
masse 236
répondre 236
social 236
étoiles 236
Là 235
cellule 235
der 235
gu@@ 235
u@@ 235
Pendant 234
at@@ 234
ate 234
commun 234
continue 234
essentiellement 234
individus 234
organisation 234
S 233
Tous 233
améliorer 233
ciel 233
coeur 233
morts 233
nord 233
révolution 233
écouter 233
coût 232
ler 232
vit 232
vivons 232
voler 232
fabriquer 231
importantes 231
pratique 231
quement 231
réaliser 231
rées 231
sociale 231
sociaux 231
essayons 230
feu 230
ner 230
ni@@ 230
ème 230
amener 229
contexte 229
mé@@ 229
Quel 228
concevoir 228
dessous 228
finir 228
mode 228
Par@@ 227
courant 227
ennes 227
eront 227
gaz 227
médias 227
portable 227
prennent 227
relations 227
ér@@ 227
/ 226
Car 226
aise 226
car@@ 226
répondu 226
aurais 225
clair 225
connaissance 225
gagner 225
liberté 225
ues 225
beauté 224
faits 224
ren@@ 224
souris 224
In@@ 223
allais 223
ets 223
graphique 223
bo@@ 222
démocratie 222
machines 222
sang 222
so@@ 222
be 221
faible 221
fallait 221
gr@@ 221
imaginez 221
km 221
libre 221
paix 221
pauvreté 221
pied 221
sauver 221
sud 221
suivant 221
test 221
robots 220
tourner 220
ayant 219
revenu 219
dix 218
neuf 218
regardé 218
transformer 218
Uni@@ 217
ah 217
films 217
organismes 217
dimensions 216
mourir 216
naturel 216
web 216
alement 215
D 214
Laissez 214
communautés 214
ille 214
isé 214
médecine 214
poissons 214
teurs 214
Très 213
Z@@ 213
génial 213
il@@ 213
logique 213
tif 213
um 213
court 212
lancer 212
ordre 212
pieds 212
proche 212
vécu 212
z@@ 212
ai@@ 211
cr@@ 211
internet 211
minute 211
ouvert 211
professeur 211
z 211
évidemment 211
Où 210
cartes 210
chef 210
ettes 210
hôpital 210
permis 210
ra 210
ro@@ 210
tenir 210
tirer 210
tomber 210
trouvent 210
potentiel 209
réseaux 209
température 209
E 208
amp 208
contenu 208
droits 208
essaye 208
milliard 208
sie 208
solutions 208
&amp; 207
arrivent 207
lien 207
réduire 207
actuellement 206
concerne 206
faux 206
génétique 206
ir@@ 206
mi@@ 206
pression 206
réponses 206
sentir 206
Quelle 205
adore 205
ain 205
essaie 205
fier 205
nécessaire 205
verrez 205
violence 205
article 204
océans 204
om@@ 204
opportunité 204
soins 204
ure 204
utilisation 204
appelons 203
décisions 203
facilement 203
issant 203
manque 203
créativité 202
désormais 202
eaux 202
formation 202
magnifique 202
moteur 202
origine 202
poisson 202
sérieux 202
Combien 201
Mars 201
besoins 201
communication 201
Lorsque 200
donnent 200
envers 200
mar@@ 200
outil 200
plaisir 200
plastique 200
quant 200
vert 200
choisir 199
efficace 199
sau@@ 199
seraient 199
services 199
valeurs 199
étrange 199
Al@@ 198
conduit 198
cuisine 198
lesquels 198
moderne 198
no@@ 198
noire 198
pièces 198
pousser 198
tri@@ 198
tâche 198
compagnie 197
ent@@ 197
et@@ 197
final 197
informatique 197
inventé 197
devraient 196
mise 196
particules 196
tiens 196
VIH 195
ard 195
atteint 195
bactéries 195
erie 195
issait 195
lez 195
lit 195
puissent 195
aiment 194
attendre 194
entes 194
habitude 194
intéresse 194
oiseaux 194
poids 194
parlons 193
voulaient 193
complexité 192
discours 192
décision 192
faisaient 192
fs 192
ités 192
médecin 192
payer 192
personnel 192
pose 192
unes 192
èrement 192
300 191
Sur 191
blanc 191
campagne 191
clairement 191
gouvernements 191
nucléaire 191
posé 191
qué 191
aviez 190
forces 190
grandi 190
marchés 190
membres 190
mission 190
monter 190
numérique 190
observer 190
16 189
ade 189
allés 189
auraient 189
ché 189
lancé 189
numéro 189
objectif 189
passent 189
prenons 189
progrès 189
prêt 189
riez 189
tiers 189
Personne 188
appeler 188
entièrement 188
immédiatement 188
limites 188
oh 188
preuve 188
raient 188
garder 187
to@@ 187
ve 187
da 186
erreurs 186
oxygène 186
présentation 186
voulu 186
affaire 185
bateau 185
consommation 185
moments 185
mon@@ 185
parlent 185
pouvions 185
rou@@ 185
sé@@ 185
20@@ 184
Toutes 184
américains 184
coin 184
cré@@ 184
découverte 184
man 184
sorti 184
to 184
trans@@ 184
trou 184
éviter 184
américain 183
atif 183
bois 183
contact 183
molécules 183
naissance 183
pain 183
permettent 183
porter 183
principe 183
protéger 183
présenter 183
télévision 183
électrique 183
Ok 182
bébés 182
compréhension 182
cu@@ 182
former 182
isse 182
passait 182
perdre 182
atmosphère 181
dents 181
hors 181
pr@@ 181
sommet 181
tableau 181
tive 181
vendre 181
Ch@@ 180
arbre 180
chambre 180
commençons 180
familles 180
passion 180
venait 180
véritable 180
bleu 179
différences 179
effets 179
forte 179
intelligence 179
prison 179
rêve 179
technique 179
ut 179
armée 178
cor@@ 178
mondial 178
police 178
puissant 178
év@@ 178
agir 177
bles 177
can@@ 177
chimiques 177
cl@@ 177
devais 177
départ 177
importants 177
laisse 177
religion 177
responsabilité 177
ser@@ 177
sion 177
èmement 177
24 176
bord 176
couleurs 176
riche 176
ti 176
adultes 175
artistes 175
br@@ 175
bu@@ 175
concentrer 175
disaient 175
2@@ 174
I 174
Mo@@ 174
ances 174
bizarre 174
distance 174
erreur 174
g 174
issent 174
lignes 174
phénomène 174
pl@@ 174
regardant 174
revenus 174
sauf 174
télé 174
venue 174
14 173
Afghanistan 173
arrê@@ 173
charge 173
derniers 173
ire 173
mathématiques 173
verre 173
élément 173
19@@ 172
all@@ 172
complexes 172
course 172
devriez 172
entière 172
fonctionner 172
institutions 172
naturelle 172
riches 172
sons 172
sub@@ 172
Américains 171
neurones 171
obtenez 171
sujets 171
évolué 171
am 170
armes 170
bouger 170
ches 170
chien 170
collègues 170
devenue 170
dos 170
hum@@ 170
issons 170
lu 170
publique 170
regardons 170
tuer 170
utile 170
T 169
appel 169
connaissez 169
laissé 169
lois 169
lé 169
majorité 169
notion 169
somme 169
vidéos 169
è@@ 169
L 168
Per@@ 168
avis 168
connaissons 168
côte 168
dez 168
durable 168
fantastique 168
fu@@ 168
mesurer 168
montrent 168
nez 168
pou@@ 168
servir 168
suivi 168
vol 168
Cet 167
cool 167
dre 167
enc@@ 167
expression 167
gue 167
imagination 167
man@@ 167
possibilités 167
super@@ 167
tées 167
étudiant 167
Deux 166
bâtiments 166
conçu 166
diversité 166
définition 166
génome 166
nulle 166
opération 166
rythme 166
st@@ 166
détails 165
explorer 165
faisais 165
nation 165
pensait 165
sal@@ 165
seuls 165
toucher 165
énormes 165
199@@ 164
Londres 164
apporter 164
calcul 164
clé 164
douleur 164
erai 164
mor@@ 164
mortalité 164
né@@ 164
quelles 164
structures 164
tifs 164
élèves 164
alimentaire 163
cerveaux 163
créatures 163
el@@ 163
envie 163
joue 163
lent 163
ouvrir 163
profondément 163
sciences 163
souviens 163
vis 163
2000 162
P 162
aspect 162
boîte 162
gagné 162
gi@@ 162
ré 162
travaillons 162
Encore 161
américaine 161
and 161
chaîne 161
conséquences 161
célèbre 161
profond 161
remarqué 161
sez 161
élevé 161
CO2 160
Californie 160
chinois 160
eu@@ 160
hasard 160
ires 160
matériel 160
mères 160
programmes 160
règle 160
sort 160
statistiques 160
vide 160
émissions 160
évident 160
Pensez 159
actuelle 159
café 159
devoir 159
fer@@ 159
gé@@ 159
humaines 159
identité 159
niveaux 159
parfait 159
plaît 159
prochaines 159
rappelle 159
sites 159
étiez 159
M 158
choisi 158
conflit 158
connaître 158
croyez 158
dent 158
forêt 158
garçons 158
grosse 158
logiciel 158
marque 158
meilleures 158
onn@@ 158
q@@ 158
r 158
tement 158
zéro 158
John 157
Su@@ 157
contrôler 157
cour@@ 157
ju@@ 157
ore 157
pouviez 157
œil 157
Quel@@ 156
artiste 156
erais 156
graphie 156
jambes 156
lieux 156
ment@@ 156
moindre 156
mouvements 156
occasion 156
pages 156
planètes 156
rencontrer 156
techniques 156
tests 156
allée 155
amène 155
ats 155
coûte 155
hydro@@ 155
médecins 155
passant 155
émotions 155
G 154
actions 154
garçon 154
iss@@ 154
justice 154
merveilleuse 154
parfaitement 154
pauvre 154
peuple 154
tives 154
tombe 154
ul@@ 154
fié 153
gar@@ 153
mettons 153
p 153
preuves 153
prêts 153
ressemblent 153
savait 153
suffisamment 153
18@@ 152
ant@@ 152
avance 152
carrière 152
critique 152
difficiles 152
déplacer 152
le@@ 152
opér@@ 152
réaction 152
second 152
secteur 152
stade 152
voient 152
équilibre 152
13 151
En@@ 151
bruit 151
cultures 151
demandez 151
espaces 151
insectes 151
perspective 151
rues 151
ène 151
écou@@ 151
$ 150
U@@ 150
ajouter 150
amus@@ 150
chacune 150
connais 150
dynamique 150
déchets 150
enseignants 150
exposition 150
individu 150
mettent 150
our 150
presse 150
tor@@ 150
venus 150
versité 150
abeilles 149
cal@@ 149
caméra 149
devenus 149
dirais 149
mémoire 149
pe 149
protection 149
usine 149
400 148
Asie 148
David 148
abilité 148
appelait 148
changent 148
connaissent 148
contient 148
couche 148
envoyé 148
formidable 148
hier 148
lettres 148
présente 148
risques 148
titre 148
17 147
Parfois 147
auquel 147
champ 147
dés 147
fonctionn@@ 147
ill@@ 147
manières 147
one 147
pleine 147
tient 147
un@@ 147
vo@@ 147
Orient 146
Richard 146
augmenter 146
avancer 146
contraire 146
dizaines 146
doigts 146
entrée 146
erons 146
galaxies 146
gérer 146
médicament 146
produisent 146
présence 146
président 146
tester 146
étudié 146
œuvre 146
Moyen 145
acte 145
agriculture 145
atique 145
bio@@ 145
capacités 145
courbe 145
end@@ 145
grippe 145
illes 145
quartier 145
réalis@@ 145
ves 145
ative 144
augmentation 144
b 144
compliqué 144
conversation 144
danse 144
eraient 144
fou 144
héros 144
maisons 144
mauvaises 144
nées 144
ol@@ 144
rappeler 144
tait 144
Cependant 143
acheté 143
aff@@ 143
ancien 143
biologique 143
cadre 143
connexion 143
fonctionnent 143
mille 143
montagne 143
semblent 143
trouvez 143
amené 142
anti 142
appareils 142
arrivée 142
bouche 142
compétences 142
fasse 142
logie 142
maths 142
musée 142
précis 142
puisque 142
responsable 142
Japon 141
Mar@@ 141
Votre 141
ains 141
allaient 141
augmente 141
ca 141
caractéristiques 141
classique 141
fallu 141
iez 141
ingénieurs 141
malgré 141
our@@ 141
pêche 141
soin 141
souches 141
cer@@ 140
du@@ 140
débat 140
dée 140
fon@@ 140
hé@@ 140
langues 140
morale 140
ob@@ 140
parlait 140
pont 140
possède 140
principes 140
remarquable 140
Ar@@ 139
Celui 139
ble 139
existence 139
sphère 139
ss@@ 139
taient 139
ur@@ 139
â@@ 139
An@@ 138
Con@@ 138
X 138
consiste 138
cro@@ 138
dangereux 138
doigt 138
désir 138
idé@@ 138
morceaux 138
ologie 138
personnage 138
prochain 138
survivre 138
télé@@ 138
agent 137
boulot 137
char@@ 137
communiquer 137
connecter 137
ile 137
micro 137
molécule 137
revient 137
régions 137
tissu 137
téléphones 137
él@@ 137
45 136
assurer 136
chaleur 136
chaud 136
dinosaures 136
dirait 136
ier 136
ig@@ 136
intelligents 136
membre 136
populaire 136
protéines 136
radio 136
septembre 136
sombre 136
vin 136
visible 136
visite 136
Nos 135
R 135
apprennent 135
coté 135
devrais 135
décider 135
emploi 135
for@@ 135
fournir 135
ger 135
inc@@ 135
journal 135
men@@ 135
ours 135
possibles 135
sert 135
sité 135
suppose 135
trouvons 135
Al 134
Mes 134
Pouv@@ 134
SIDA 134
Washington 134
citoyens 134
fera 134
flux 134
fonds 134
fr@@ 134
gl@@ 134
ma@@ 134
oeil 134
ori@@ 134
per 134
pile 134
quels 134
rencontre 134
Ah 133
Avant 133
Son 133
ane 133
arrivés 133
bande 133
civilisation 133
conférences 133
décrire 133
froid 133
ignor@@ 133
incroyables 133
joie 133
noirs 133
nommé 133
ph@@ 133
propriété 133
ste 133
vaut 133
états 133
île 133
Y 132
aspects 132
aurons 132
danger 132
différemment 132
ingénierie 132
min@@ 132
obtenu 132
pen@@ 132
perte 132
portables 132
pri@@ 132
prises 132
ront 132
sent 132
sortie 132
style 132
venez 132
150 131
Depuis 131
amusant 131
bar@@ 131
clients 131
colère 131
comp@@ 131
davantage 131
employés 131
essence 131
essentiel 131
ferme 131
isent 131
lé@@ 131
meurent 131
principalement 131
publié 131
quent 131
198@@ 130
Dr 130
National 130
ayons 130
chercheurs 130
col@@ 130
cycle 130
do@@ 130
faim 130
frère 130
isés 130
jou@@ 130
lentement 130
méthode 130
por@@ 130
rentrer 130
soldats 130
séquence 130
us@@ 130
viande 130
analyse 129
apprend 129
atrice 129
dessin 129
disponible 129
enseignement 129
ey 129
galaxie 129
iller 129
proches 129
profonde 129
retourner 129
reux 129
sagesse 129
similaire 129
vol@@ 129
.. 128
domaines 128
fabrication 128
intelligent 128
jouent 128
nourrir 128
organisations 128
passage 128
principal 128
ressentir 128
référence 128
régime 128
équivalent 128
ération 128
Dé@@ 127
Hé 127
ay 127
cardiaque 127
charbon 127
conduire 127
degrés 127
essais 127
fer 127
lever 127
telles 127
tourne 127
utilisée 127
volonté 127
vrais 127
Einstein 126
Grande 126
accep@@ 126
atifs 126
ber@@ 126
bre 126
disais 126
donnez 126
ess@@ 126
intéressé 126
liens 126
lu@@ 126
magie 126
murs 126
principale 126
trice 126
vouloir 126
Angleterre 125
Ceux 125
Rien 125
Y@@ 125
climat 125
co 125
ges 125
matériau 125
mou@@ 125
puissante 125
pé@@ 125
.@@ 124
Irak 124
Juste 124
belles 124
convaincre 124
cortex 124
défis 124
déjeuner 124
dépend 124
enfance 124
fourmis 124
issement 124
mener 124
partage 124
passés 124
précisément 124
secret 124
terres 124
traverser 124
7@@ 123
Av@@ 123
San 123
ass@@ 123
commerce 123
comportements 123
connaissances 123
considérer 123
enseigner 123
garde 123
génér@@ 123
influence 123
lettre 123
organes 123
queue 123
sociales 123
trous 123
ures 123
ép@@ 123
6@@ 122
Homme 122
complet 122
comprend 122
disponibles 122
donnée 122
durée 122
désert 122
ences 122
essayez 122
fenêtre 122
ferait 122
mètre 122
noms 122
obtient 122
occuper 122
paysage 122
personnelle 122
portée 122
tais 122
usage 122
vêtements 122
économiques 122
M. 121
aimons 121
bon@@ 121
cercle 121
commencez 121
continué 121
investissement 121
micro@@ 121
mu@@ 121
recevoir 121
ser 121
texte 121
transformation 121
tue 121
tué 121
utilisés 121
ète 121
échec 121
MIT 120
ancienne 120
ban@@ 120
basé 120
chaussures 120
conséquent 120
contr@@ 120
créent 120
effort 120
expériment@@ 120
parti@@ 120
représentent 120
tels 120
tonnes 120
197@@ 119
Car@@ 119
ang@@ 119
aurions 119
auront 119
camp 119
correctement 119
dou@@ 119
existent 119
explique 119
générations 119
intéressantes 119
jeter 119
mariage 119
pensées 119
pluie 119
pourra 119
quitté 119
réelle 119
serez 119
signaux 119
singes 119
stratégie 119
surprise 119
th@@ 119
utilis@@ 119
° 119
écl@@ 119
écriture 119
éro@@ 119
Ro@@ 118
Royaume 118
ates 118
chiffre 118
comprennent 118
cé@@ 118
demain 118
décennies 118
efforts 118
empêcher 118
ing@@ 118
limite 118
menace 118
pousse 118
signal 118
soutenir 118
survie 118
écoute 118
Re@@ 117
bientôt 117
chimie 117
composants 117
di 117
feuille 117
iles 117
imagin@@ 117
lée 117
maintenir 117
perception 117
pointe 117
rendent 117
requins 117
ressembler 117
richesse 117
réchauffement 117
réduit 117
terminer 117
vieille 117
.000 116
Public 116
ager 116
emplois 116
ici@@ 116
légèrement 116
quer 116
raconte 116
regardent 116
res@@ 116
rêves 116
sexe 116
sources 116
suffit 116
terrible 116
touche 116
électriques 116
3D 115
arrête 115
bas@@ 115
bouteille 115
cas@@ 115
cheveux 115
clinique 115
conflits 115
dessiner 115
extrait 115
labo 115
lycée 115
semblait 115
vélo 115
Jus@@ 114
Mexique 114
Uni 114
appar@@ 114
avantage 114
ayez 114
bus 114
capital 114
cherche 114
debout 114
demandent 114
directeur 114
dure 114
efficaces 114
efficacité 114
esprits 114
honte 114
leçon 114
locaux 114
malheureusement 114
montagnes 114
national 114
organisme 114
ouest 114
professeurs 114
unité 114
voulions 114
épidémie 114
accident 113
auriez 113
continent 113
croyons 113
distribution 113
décrit 113
experts 113
joueurs 113
joué 113
mets 113
monte 113
opportunités 113
organis@@ 113
participer 113
phrase 113
pierre 113
sable 113
son@@ 113
x@@ 113
8@@ 112
Du 112
autor@@ 112
don 112
emmener 112
ic@@ 112
métaphore 112
normal 112
ouvre 112
pu@@ 112
regard 112
rent 112
repas 112
résolution 112
thé@@ 112
tisme 112
électronique 112
ï@@ 112
35 111
Enfin 111
attraper 111
biens 111
bro@@ 111
descendre 111
dieu 111
découvertes 111
frontières 111
gravité 111
identifier 111
instruments 111
lait 111
largement 111
met@@ 111
nel 111
neuro@@ 111
particulière 111
puissions 111
rel@@ 111
retrouver 111
ru@@ 111
venant 111
énormément 111
équipement 111
Certaines 110
H 110
Mon@@ 110
ach@@ 110
adulte 110
aille 110
alis@@ 110
bal@@ 110
budget 110
cho@@ 110
cri@@ 110
côtés 110
foie 110
gie 110
générale 110
heureuse 110
inqui@@ 110
isant 110
jardin 110
jaune 110
jet@@ 110
leaders 110
lumières 110
mari 110
note 110
offrir 110
soie 110
vis@@ 110
édi@@ 110
éri@@ 110
Pourtant 109
anciens 109
arrêté 109
devaient 109
end 109
engagement 109
généralement 109
invent@@ 109
ira 109
nationale 109
normale 109
positif 109
sions 109
spectacle 109
étapes 109
N 108
Times 108
and@@ 108
auteur 108
auxquels 108
chimique 108
complète 108
comprends 108
concernant 108
constamment 108
drôle 108
décennie 108
eusement 108
go@@ 108
ises 108
malade 108
publicité 108
rais 108
représentation 108
restaurant 108
rions 108
rouges 108
soutien 108
soyez 108
vivants 108
600 107
U 107
alimentation 107
attaque 107
battre 107
chances 107
conseil 107
dési@@ 107
fou@@ 107
internationale 107
magasin 107
microbes 107
of 107
offre 107
parfaite 107
réussite 107
souvenez 107
tumeur 107
vaste 107
victimes 107
1000 106
Malheureusement 106
Quelques 106
activités 106
aurez 106
business 106
carré 106
chant@@ 106
chent 106
comprenons 106
correspond 106
essayant 106
fabriqué 106
grav@@ 106
liquide 106
local 106
montr@@ 106
prouver 106
signe 106
sucre 106
suit 106
te@@ 106
w 106
étranger 106
196@@ 105
99 105
Anderson 105
Bill 105
Mal@@ 105
NASA 105
Occident 105
Web 105
actif 105
arts 105
chirurgie 105
compagnies 105
dollar 105
double 105
dr@@ 105
essai 105
guerres 105
hor@@ 105
horrible 105
intéress@@ 105
journaux 105
nouvel 105
quatrième 105
ressemblait 105
sol@@ 105
tenter 105
tour@@ 105
travaillant 105
utilisez 105
verte 105
George 104
Ouais 104
Sh@@ 104
Soleil 104
application 104
beaux 104
bl@@ 104
considère 104
entrepreneurs 104
goût 104
ing 104
intérêts 104
motif 104
pour@@ 104
quitter 104
sem@@ 104
serais 104
soci@@ 104
spiritu@@ 104
sé 104
sélection 104
tempor@@ 104
thème 104
théâtre 104
élec@@ 104
étoile 104
75 103
Kenya 103
Po@@ 103
ande 103
appellent 103
boite 103
centres 103
cheval 103
compétition 103
designers 103
direct 103
entr@@ 103
forment 103
infrastructure 103
instrument 103
isée 103
mentale 103
nie 103
objectifs 103
oiseau 103
organiser 103
pensaient 103
portent 103
reconnaître 103
récompense 103
termin@@ 103
tis@@ 103
utiles 103
val@@ 103
Charles 102
Harvard 102
actuel 102
appell@@ 102
atomes 102
concepts 102
courir 102
croient 102
exprimer 102
fondamentalement 102
frères 102
lié 102
marketing 102
mélange 102
plat 102
pon@@ 102
rivière 102
serons 102
siège 102
sûrement 102
tort 102
ture 102
utilisateurs 102
venons 102
étonnant 102
Bonjour 101
Com@@ 101
Darwin 101
Toute 101
aines 101
ancêtres 101
angle 101
artistique 101
autrement 101
bes 101
bibliothèque 101
connecté 101
disparu 101
déterminer 101
historique 101
lune 101
maman 101
normalement 101
pli@@ 101
répon@@ 101
sensation 101
spécial 101
sse 101
tables 101
Allez 100
Le@@ 100
Trois 100
axe 100
ballon 100
bases 100
combinaison 100
consommateurs 100
dirigeants 100
facteurs 100
fondamentale 100
her@@ 100
its 100
longueur 100
nent 100
parc 100
prends 100
rap@@ 100
réunion 100
spectre 100
ter@@ 100
total 100
vues 100
Los 99
Sa 99
active 99
adapter 99
ah@@ 99
aimer 99
batterie 99
conclure 99
couverture 99
coûts 99
emment 99
hy@@ 99
inspiration 99
j 99
lou@@ 99
lées 99
mas@@ 99
ne@@ 99
notes 99
ouverture 99
parlez 99
physiques 99
rendez 99
retrouve 99
sac 99
sentiments 99
sérieusement 99
ten@@ 99
terminé 99
travaux 99
tâches 99
éré 99
Big 98
Paul 98
Prenez 98
appro@@ 98
champs 98
coll@@ 98
dé 98
entends 98
erez 98
fonctions 98
globale 98
immense 98
jo@@ 98
messages 98
photographie 98
prom@@ 98
rassembler 98
rayons 98
rement 98
schéma 98
technologique 98
tera 98
triste 98
tures 98
visuel 98
véhicules 98
ê@@ 98
Ré@@ 97
alisation 97
aliser 97
auprès 97
cependant 97
chefs 97
chimpanzés 97
conscient 97
destruction 97
distribu@@ 97
extraordinaires 97
lie 97
lin 97
moteurs 97
mène 97
mécanique 97
ok 97
phase 97
probabilité 97
transforme 97
véhicule 97
Bo@@ 96
alisme 96
apporté 96
bleue 96
chant 96
conclusion 96
conserv@@ 96
coup@@ 96
dic@@ 96
die 96
dés@@ 96
enregistr@@ 96
frais 96
hauteur 96
id@@ 96
iner 96
invention 96
longues 96
mour@@ 96
opérations 96
ouv@@ 96
ouverte 96
présenté 96
quasiment 96
soudain 96
sées 96
visages 96
F 95
Facebook 95
acteurs 95
agréable 95
alisé 95
appliquer 95
courte 95
dispar@@ 95
enf@@ 95
espérons 95
graphiques 95
gé 95
habitants 95
midi 95
métal 95
nu@@ 95
oeuvre 95
parole 95
passée 95
port 95
relativement 95
restent 95
retraite 95
réflexion 95
the 95
toit 95
voisins 95
échange 95
émer@@ 95
K 94
Quoi 94
ais@@ 94
chute 94
condition 94
exposé 94
fémin@@ 94
implique 94
investir 94
occup@@ 94
personnages 94
positive 94
pourcentage 94
rie 94
spécifique 94
supplémentaires 94
tandis 94
tente 94
tourné 94
utilisées 94
ô@@ 94
Br@@ 93
Iran 93
Sans 93
aban@@ 93
applications 93
baisse 93
collaboration 93
commenc@@ 93
dessins 93
facteur 93
fonctionnement 93
fondamental 93
grandir 93
génétiques 93
hiver 93
itaires 93
magazine 93
mobile 93
moral 93
ordinaire 93
plac@@ 93
religions 93
responsables 93
souffrance 93
sympa 93
uni@@ 93
van@@ 93
21 92
4@@ 92
Leur 92
Pakistan 92
Peu 92
The 92
Twitter 92
Voyons 92
aborder 92
aliments 92
anniversaire 92
anti@@ 92
basée 92
centaine 92
cents 92
corruption 92
cule 92
degré 92
dessin@@ 92
engager 92
explication 92
form@@ 92
gence 92
inspiré 92
intégr@@ 92
itaire 92
let 92
magique 92
milli@@ 92
offici@@ 92
parlant 92
pingouins 92
poin@@ 92
présent@@ 92
ram@@ 92
ramener 92
similaires 92
situations 92
stimul@@ 92
surpris 92
volume 92
Deuxi@@ 91
architecte 91
ari@@ 91
atiques 91
ay@@ 91
conf@@ 91
conséquence 91
devions 91
dispositif 91
donnant 91
eff@@ 91
extraire 91
extrême 91
foi 91
ge@@ 91
ign@@ 91
lis@@ 91
nécessaires 91
partenaires 91
pensions 91
poche 91
rai 91
résist@@ 91
solide 91
souhai@@ 91
suivent 91
traitements 91
éthique 91
J 90
Sal@@ 90
aveugle 90
bataille 90
crime 90
cru 90
créature 90
date 90
do 90
déplace 90
gramme 90
génie 90
ingénieur 90
invisible 90
iter 90
médi@@ 90
ombre 90
profondeur 90
quantités 90
rencontr@@ 90
sépar@@ 90
têtes 90
um@@ 90
établir 90
étudi@@ 90
évoluer 90
19 89
5@@ 89
Islam 89
Michael 89
Moi 89
Pacifique 89
Pro@@ 89
achet@@ 89
allant 89
ana 89
articles 89
attaquer 89
centrale 89
collec@@ 89
compter 89
créée 89
discu@@ 89
fascinant 89
fl@@ 89
fleurs 89
fossiles 89
mul@@ 89
nombres 89
origin@@ 89
oubli@@ 89
pensant 89
poésie 89
procédé 89
prof@@ 89
provient 89
respect 89
rire 89
réparer 89
transport 89
voire 89
yez 89
émission 89
én@@ 89
évolu@@ 89
Mondiale 88
No@@ 88
Premi@@ 88
accepter 88
actu@@ 88
ad 88
aidé 88
anim@@ 88
app@@ 88
banque 88
commercial 88
créons 88
dans@@ 88
détru@@ 88
ends 88
entre@@ 88
forcément 88
furent 88
interaction 88
issez 88
lutte 88
magnifiques 88
majeure 88
mes@@ 88
mesures 88
montrant 88
nations 88
oreilles 88
panneaux 88
partis 88
pes 88
placer 88
polio 88
port@@ 88
remplacer 88
reti@@ 88
ris@@ 88
senti@@ 88
serv@@ 88
souhaite 88
souvenir 88
vote 88
w@@ 88
énergétique 88
Angeles 87
Brésil 87
Finalement 87
Francisco 87
aident 87
amoureux 87
baleines 87
chi@@ 87
chiens 87
color@@ 87
connaît 87
cont@@ 87
continu@@ 87
cs 87
emb@@ 87
entrain@@ 87
faudrait 87
foule 87
glob@@ 87
habit@@ 87
interagir 87
militaires 87
modernes 87
médical 87
naturellement 87
obé@@ 87
panneau 87
psychologie 87
réussir 87
se@@ 87
stupide 87
thérapie 87
tiennent 87
totale 87
touché 87
tradition 87
ément 87
étendre 87
Canada 86
James 86
ON@@ 86
PIB 86
africains 86
citation 86
collabor@@ 86
comprenez 86
dimension 86
donnons 86
débarrasser 86
déc@@ 86
définir 86
essayent 86
fil@@ 86
gestion 86
hypothèse 86
imagine 86
industrielle 86
jambe 86
lat@@ 86
liés 86
mené 86
mises 86
mondes 86
motivation 86
odeur 86
pal@@ 86
plante 86
posez 86
pourrons 86
proté@@ 86
requin 86
scanner 86
serai 86
tissus 86
tomb@@ 86
tombé 86
venaient 86
villages 86
véritablement 86
échantillons 86
1,@@ 85
acier 85
altitude 85
amie 85
aperçu 85
architectes 85
are 85
atoire 85
blancs 85
civile 85
diriger 85
don@@ 85
dons 85
ec@@ 85
fréquence 85
honnête 85
héritage 85
infantile 85
interface 85
neige 85
nécessairement 85
plans 85
probable 85
profit 85
prédire 85
puissiez 85
récupérer 85
savions 85
toile 85
traditionnelle 85
transmettre 85
tte 85
voyager 85
Aussi 84
Don@@ 84
Grand 84
Pr@@ 84
Voyez 84
ablement 84
affec@@ 84
attirer 84
auto@@ 84
basse 84
chanter 84
chirurgien 84
circulation 84
cordes 84
couches 84
dépenser 84
dépression 84
détecter 84
excitant 84
forêts 84
graines 84
mi 84
nerveux 84
oublié 84
pollution 84
quiconque 84
remonte 84
reproduire 84
silence 84
sortent 84
tar@@ 84
vendu 84
visuelle 84
Bretag@@ 83
Celle 83
Chicago 83
France 83
Gu@@ 83
Nations 83
acc@@ 83
aimez 83
appliqu@@ 83
auxquelles 83
balle 83
connait 83
discussion 83
docteur 83
domin@@ 83
donnait 83
exploration 83
explosion 83
famili@@ 83
hôtel 83
invité 83
itent 83
mange 83
ministre 83
motifs 83
mécanisme 83
orbite 83
pas@@ 83
pattes 83
personnalité 83
pourrez 83
pratiquement 83
puissants 83
ridicule 83
sentez 83
senti 83
surprenant 83
tra 83
vaccin 83
vienne 83
vérifier 83
èse 83
2008 82
Allemagne 82
Guerre 82
Li@@ 82
Steve 82
Union 82
af@@ 82
amélior@@ 82
avantages 82
aï@@ 82
bactérie 82
bio 82
blanche 82
blog 82
ch 82
cinéma 82
client 82
corail 82
eté 82
explo@@ 82
hôpitaux 82
inventer 82
isons 82
lar@@ 82
log@@ 82
mat@@ 82
mémor@@ 82
nuage 82
pilote 82
posent 82
privé 82
profondes 82
station 82
ta@@ 82
trouvait 82
vaisseaux 82
élève 82
îles 82
Vi@@ 81
anc@@ 81
attend 81
augmenté 81
bureaux 81
chron@@ 81
disparaître 81
décou@@ 81
détruire 81
eh 81
explor@@ 81
gagne 81
global 81
intégrer 81
marin 81
monté 81
médicale 81
médicaux 81
ologues 81
oreille 81
plait 81
propriétés 81
prototype 81
remettre 81
représenter 81
respec@@ 81
résistance 81
résolu 81
sav@@ 81
sible 81
souff@@ 81
sup@@ 81
tation 81
tis 81
traite 81
transform@@ 81
vente 81
éli@@ 81
événement 81
Bush 80
Noël 80
O 80
accro@@ 80
ailles 80
apparemment 80
audi@@ 80
bouge 80
calculs 80
central 80
certitude 80
conver@@ 80
densité 80
empathie 80
examiner 80
fication 80
français 80
frontière 80
gratuitement 80
locale 80
méthodes 80
nucléaires 80
passons 80
post@@ 80
poème 80
publi@@ 80
rare 80
rem@@ 80
sommeil 80
sport 80
synthèse 80
thé 80
tiré 80
traité 80
transformé 80
v 80
videmment 80
vus 80
écosystème 80
.com 79
Ben 79
Co@@ 79
Ouest 79
Vidéo 79
accomplir 79
actifs 79
admettre 79
apparaître 79
attendez 79
bour@@ 79
cach@@ 79
carburant 79
chés 79
composé 79
courage 79
dame 79
der@@ 79
entendez 79
exercice 79
feuilles 79
foyer 79
honneur 79
ient 79
innovations 79
jusque 79
littérature 79
morte 79
onde 79
ondes 79
out 79
publics 79
reçoit 79
reçoivent 79
sme 79
souffle 79
ustralie 79
vole 79
équation 79
événements 79
Di@@ 78
ace 78
apprenons 78
arme 78
bat@@ 78
biologiques 78
cre@@ 78
détail 78
ff@@ 78
fête 78
impliqué 78
installer 78
intelligente 78
intuition 78
joueur 78
matéri@@ 78
mettant 78
média 78
opinion 78
pollen 78
réduction 78
satellite 78
savaient 78
sourire 78
spécialis@@ 78
transition 78
té@@ 78
économies 78
émotion 78
65 77
Apple 77
Cro@@ 77
Ju@@ 77
Mc@@ 77
Thomas 77
Ti@@ 77
YouTube 77
adap@@ 77
arm@@ 77
automatiquement 77
champignons 77
chauff@@ 77
descend 77
donn@@ 77
entend 77
envoie 77
fais@@ 77
fondation 77
formé 77
go 77
gê@@ 77
hi@@ 77
immeuble 77
inten@@ 77
militaire 77
obscur@@ 77
ome 77
orchestre 77
puis@@ 77
quit@@ 77
sai@@ 77
ton@@ 77
trait 77
ven@@ 77
vieillissement 77
vité 77
élevés 77
1990 76
250 76
Ac@@ 76
Allons 76
Boston 76
Congrès 76
Ma@@ 76
adop@@ 76
airement 76
ani@@ 76
aqu@@ 76
arrivait 76
arrivez 76
asse 76
cliniques 76
combin@@ 76
coups 76
enlever 76
exploitation 76
gamme 76
gouvernance 76
grand@@ 76
intitulé 76
irait 76
lette 76
leçons 76
local@@ 76
observe 76
ol 76
ous 76
plan@@ 76
populations 76
principales 76
quantique 76
sculpture 76
siècles 76
standard 76
symétrie 76
tourn@@ 76
trouverez 76
tt@@ 76
vague 76
via 76
volant 76
âme 76
élev@@ 76
Col@@ 75
Or 75
Voila 75
accue@@ 75
arité 75
artificielle 75
aventure 75
bref 75
chansons 75
cherché 75
coupe 75
dérou@@ 75
effray@@ 75
encourager 75
four 75
his@@ 75
iPhone 75
identiques 75
intéressants 75
ley 75
mathématique 75
menac@@ 75
naturels 75
observé 75
obten@@ 75
oc@@ 75
passionn@@ 75
permanence 75
protéine 75
rentre 75
resté 75
routes 75
saison 75
salles 75
simplicité 75
sinon 75
sœur 75
tendances 75
vari@@ 75
vas 75
ver 75
vraies 75
2005 74
Quelque 74
Vraiment 74
accor@@ 74
accéder 74
agents 74
apparaissent 74
apparaît 74
apporte 74
araignée 74
attitude 74
bombe 74
bouton 74
caractère 74
claire 74
combat 74
connexions 74
connue 74
convaincu 74
créatif 74
de@@ 74
désolé 74
développent 74
enseignant 74
enseigne 74
espérance 74
finit 74
fix@@ 74
fo@@ 74
graphe 74
har@@ 74
ho@@ 74
ind@@ 74
indépend@@ 74
libérer 74
légumes 74
mangent 74
miroir 74
montée 74
net 74
nég@@ 74
permettez 74
plage 74
poly@@ 74
post 74
poulet 74
pourront 74
press@@ 74
présents 74
rai@@ 74
religieux 74
sauter 74
serre 74
seules 74
sûre 74
ve@@ 74
économistes 74
église 74
23 73
AB 73
DH 73
Hu@@ 73
Unies 73
accessible 73
accumul@@ 73
analyser 73
attaques 73
calculer 73
chers 73
cible 73
commande 73
connectés 73
contre@@ 73
croit 73
dant 73
difficulté 73
défense 73
escal@@ 73
expliqué 73
fal@@ 73
four@@ 73
fre@@ 73
gras 73
grave 73
indi@@ 73
inf@@ 73
inst@@ 73
isez 73
marchent 73
marins 73
minuscule 73
muscles 73
oppos@@ 73
optimiste 73
peinture 73
perd 73
personnellement 73
philosophie 73
plate 73
prévu 73
pyramide 73
quelconque 73
ras@@ 73
rayon 73
remarquer 73
servent 73
studio 73
tionn@@ 73
toilettes 73
épuis@@ 73
étique 73
étudie 73
32 72
800 72
95 72
Lune 72
Suède 72
V 72
accepté 72
amélioration 72
ase 72
assise 72
autorité 72
biais 72
brill@@ 72
ca@@ 72
cité 72
collective 72
cop@@ 72
douce 72
déprim@@ 72
développe 72
enti@@ 72
eriez 72
expansion 72
goutte 72
gées 72
he@@ 72
intervention 72
journaliste 72
land 72
lecture 72
limité 72
neu@@ 72
nom@@ 72
politiciens 72
potentiellement 72
préfér@@ 72
préparer 72
reconnaissance 72
représent@@ 72
retirer 72
retourné 72
réactions 72
répond 72
suggère 72
travailleurs 72
vache 72
variole 72
État 72
2004 71
22 71
27 71
City 71
He@@ 71
Paris 71
Street 71
ador@@ 71
airs 71
aisse 71
ak@@ 71
aliste 71
boire 71
bor@@ 71
bulle 71
casse 71
caus@@ 71
censé 71
commune 71
content 71
créateurs 71
dité 71
doulou@@ 71
démarrer 71
démonstration 71
empreinte 71
franchement 71
gés 71
illusion 71
imprim@@ 71
institution 71
irs 71
isol@@ 71
mine 71
modifier 71
mérite 71
ner@@ 71
obtenons 71
organisé 71
parl@@ 71
permettant 71
pez 71
piano 71
primaire 71
rac@@ 71
reur 71
sonne 71
suiv@@ 71
surfaces 71
tat 71
tie 71
tin 71
tire 71
tivement 71
tus 71
voy@@ 71
ç@@ 71
écras@@ 71
électroniques 71
élever 71
élevée 71
2007 70
Aucun 70
BF 70
Faites 70
MS 70
Microsoft 70
Nouvelle 70
Oxford 70
World 70
apparu 70
arrivera 70
bie 70
bâ@@ 70
calcul@@ 70
cap@@ 70
circonstances 70
crimin@@ 70
déplacent 70
détail@@ 70
environnements 70
expert 70
fausse 70
fous 70
fruits 70
hab@@ 70
indique 70
infini 70
inquiète 70
intention 70
ks 70
laser 70
lendemain 70
lev@@ 70
lic@@ 70
lions 70
lunettes 70
mang@@ 70
marine 70
mental 70
merveilleuses 70
oublier 70
paludisme 70
peurs 70
poste 70
poussé 70
préféré 70
rejet@@ 70
rentr@@ 70
rég@@ 70
répar@@ 70
réserve 70
sentent 70
sieurs 70
stes 70
sée 70
tenu 70
titres 70
tours 70
traduire 70
tro 70
tromp@@ 70
ultime 70
viol@@ 70
vouliez 70
Art 69
Bre@@ 69
Esp@@ 69
aimé 69
alternative 69
appréci@@ 69
atten@@ 69
blé 69
cadeau 69
chat 69
cher@@ 69
chev@@ 69
colonie 69
confi@@ 69
considéré 69
câble 69
descend@@ 69
dy 69
démo@@ 69
entoure 69
faisions 69
gamin 69
générer 69
heureusement 69
interprétation 69
inverse 69
li 69
logiciels 69
lève 69
mari@@ 69
marqu@@ 69
mer@@ 69
multiples 69
mystère 69
observ@@ 69
observation 69
pareil 69
porté 69
provenant 69
pâte 69
race 69
rempli 69
scolaire 69
tension 69
terait 69
terrorisme 69
travaillait 69
épaule 69
éti@@ 69
10@@ 68
Bang 68
Life 68
Lo@@ 68
Nobel 68
Robert 68
Russie 68
absence 68
accompag@@ 68
adopter 68
agriculteurs 68
agé 68
ajou@@ 68
algorithmes 68
apparence 68
appu@@ 68
atives 68
attendent 68
ber 68
causes 68
clés 68
coins 68
confrontés 68
dépend@@ 68
ennemi 68
entré 68
gagn@@ 68
grosses 68
iment 68
lac@@ 68
millier 68
muscle 68
ois 68
organique 68
partenaire 68
payé 68
physiquement 68
positions 68
principaux 68
produc@@ 68
professionnel 68
racon@@ 68
rapports 68
remonter 68
reuse 68
réserves 68
réunions 68
sage 68
sauce 68
semblable 68
sensible 68
seuil 68
sh@@ 68
spectaculaire 68
statut 68
symbole 68
terrestre 68
tien 68
trajectoire 68
transmission 68
vir@@ 68
voisin 68
voyait 68
ég@@ 68
évidence 68
Bible 67
Dan 67
Ex@@ 67
IRM 67
Mam@@ 67
Obama 67
acteur 67
allum@@ 67
apprécier 67
arrivons 67
asseoir 67
avancée 67
baleine 67
bilité 67
blogs 67
bru@@ 67
chang@@ 67
chocolat 67
construite 67
cour 67
créant 67
dignité 67
discuter 67
dégâts 67
effectu@@ 67
emmené 67
enregistré 67
finance 67
formule 67
ger@@ 67
impliquer 67
inform@@ 67
ingrédients 67
interactions 67
jouets 67
laboratoires 67
landais 67
lour@@ 67
lâ@@ 67
multi@@ 67
naturelles 67
parcours 67
pourcent 67
retrouvé 67
roi 67
siff@@ 67
simulation 67
sor@@ 67
su 67
technologiques 67
tou@@ 67
tra@@ 67
ux 67
vieill@@ 67
vieilles 67
ès 67
échoué 67
éclairage 67
économ@@ 67
élections 67
étendue 67
Ho@@ 66
Jo@@ 66
Monde 66
Nigeria 66
ades 66
aimerions 66
alités 66
arabe 66
ath@@ 66
baisser 66
barrière 66
batt@@ 66
caméras 66
circuit 66
copie 66
courbes 66
curieux 66
diverses 66
divertissement 66
déclin 66
dépendance 66
dîner 66
enregistrement 66
favor@@ 66
feront 66
fri@@ 66
idité 66
iv@@ 66
liées 66
locales 66
ls 66
marques 66
musulmans 66
més 66
numériques 66
parlais 66
partageons 66
passez 66
performance 66
prenant 66
qualités 66
quart 66
quête 66
rappelez 66
rend@@ 66
renouvel@@ 66
respirer 66
ressource 66
réfléchissez 66
supérieur 66
symptômes 66
terrifi@@ 66
tombée 66
totalité 66
traditionnel 66
vivaient 66
échantillon 66
Chinois 65
Coca 65
De@@ 65
Gr@@ 65
Ou@@ 65
abandonner 65
ac 65
activ@@ 65
affecte 65
aie 65
ailes 65
ame 65
ards 65
argument 65
attend@@ 65
blague 65
boucle 65
cardiaques 65
catégories 65
centr@@ 65
chaise 65
concentration 65
construisent 65
contrôl@@ 65
culturelle 65
dait 65
diable 65
débu@@ 65
enter 65
estime 65
exception 65
exist@@ 65
forts 65
gratuit 65
guer 65
géni@@ 65
hom@@ 65
ina 65
incar@@ 65
iront 65
itation 65
japonais 65
kg 65
lance 65
ly 65
ly@@ 65
maïs 65
musiciens 65
option 65
pause 65
pic 65
poursuivre 65
poussent 65
productivité 65
précision 65
quotidien 65
racines 65
rares 65
reproduction 65
ressenti 65
rest@@ 65
retenir 65
rom@@ 65
som@@ 65
soyons 65
tab@@ 65
tapis 65
terriblement 65
théories 65
uc@@ 65
utilisateur 65
vend@@ 65
voies 65
çons 65
écar@@ 65
égar@@ 65
équipes 65
Corée 64
Fr@@ 64
RB 64
abondance 64
abri 64
administr@@ 64
administration 64
aimait 64
ali@@ 64
anciennes 64
assembler 64
britannique 64
capteurs 64
carrés 64
catastrophe 64
chinoise 64
confir@@ 64
couper 64
disposition 64
déf@@ 64
eng@@ 64
enn@@ 64
ennuyeux 64
enter@@ 64
eures 64
faciles 64
faibles 64
financier 64
installations 64
intitu@@ 64
ke 64
kilos 64
mammifères 64
microscope 64
mée 64
nu 64
ologique 64
ordinaires 64
pai@@ 64
paire 64
pay@@ 64
placé 64
prê@@ 64
périodes 64
ralentir 64
remon@@ 64
riv@@ 64
réfléchi 64
saisir 64
sanguins 64
secteurs 64
sensibles 64
sois 64
sp@@ 64
spatial 64
travaillais 64
tribus 64
viv@@ 64
ètes 64
égale 64
épargne 64
œufs 64
Africains 63
Chacun 63
Histoire 63
Institu@@ 63
Rwanda 63
Som@@ 63
Stanford 63
ambi@@ 63
ange 63
antique 63
ars 63
autom@@ 63
cit@@ 63
comparé 63
conseils 63
couvrir 63
dise 63
dite 63
déplac@@ 63
développés 63
esses 63
exécu@@ 63
fascin@@ 63
fenêtres 63
frappe 63
frustr@@ 63
geant 63
infrastructures 63
intéresser 63
joli 63
lais@@ 63
liée 63
modifi@@ 63
négatif 63
omni@@ 63
onne 63
pres@@ 63
précise 63
précédent 63
prépar@@ 63
ralenti@@ 63
rapides 63
rav@@ 63
rendue 63
singe 63
stable 63
tiez 63
transporter 63
traverse 63
Bar@@ 62
Dev@@ 62
Dès 62
Quelles 62
Regardons 62
X@@ 62
accent 62
aises 62
allions 62
automobile 62
avéré 62
bloc 62
boule 62
bres 62
caractéristique 62
catégorie 62
chasse 62
choc 62
communications 62
concours 62
confort 62
croyances 62
directions 62
décès 62
défen@@ 62
délic@@ 62
détec@@ 62
détection 62
existait 62
fantôme 62
fermé 62
fiction 62
frappé 62
globe 62
ha 62
illé 62
imagerie 62
imaginé 62
intelligentes 62
lac 62
levé 62
maire 62
moléculaire 62
nant 62
obstacles 62
occidentale 62
off@@ 62
ones 62
pho@@ 62
phrases 62
pires 62
poitrine 62
pom@@ 62
possèdent 62
privée 62
propose 62
propriétaire 62
publiques 62
puce 62
pén@@ 62
radi@@ 62
radicalement 62
rarement 62
remercie 62
récompenses 62
simul@@ 62
sive 62
talents 62
tionné 62
touch@@ 62
urgence 62
vaccins 62
virtuel 62
vivante 62
échou@@ 62
éliminer 62
émotionnelle 62
étranges 62
évènement 62
195@@ 61
Ap@@ 61
Atten@@ 61
Bi@@ 61
Haïti 61
Heureus@@ 61
Mesdames 61
Or@@ 61
Pays 61
Q@@ 61
accou@@ 61
adolescents 61
ain@@ 61
assurance 61
atrices 61
autonome 61
avi@@ 61
aéroport 61
bière 61
bombes 61
cen@@ 61
charges 61
chons 61
cohér@@ 61
combattre 61
contrairement 61
contribuer 61
conversations 61
cul@@ 61
céréales 61
demie 61
dirige 61
dées 61
essaient 61
etc. 61
front 61
gal@@ 61
golf 61
gris 61
inspirer 61
ka 61
lique 61
mesur@@ 61
mâle 61
mé 61
mélang@@ 61
nano@@ 61
ong@@ 61
options 61
pan@@ 61
pe@@ 61
posée 61
profiter 61
pure 61
revue 61
ron@@ 61
seriez 61
signes 61
soigner 61
spéci@@ 61
suffisant 61
tiss@@ 61
urbain 61
voyages 61
écologique 61
épi@@ 61
17@@ 60
1960 60
2001 60
2006 60
2009 60
26 60
700 60
Ghana 60
Rome 60
So@@ 60
accidents 60
ajouté 60
ang 60
asse@@ 60
associé 60
attribu@@ 60
auteurs 60
blo@@ 60
cancers 60
chaude 60
comparaison 60
conserver 60
considérons 60
continuent 60
correc@@ 60
curiosité 60
demandais 60
diapo 60
diffus@@ 60
diront 60
donnés 60
enregistrer 60
entend@@ 60
entrent 60
exister 60
fauteuil 60
fro@@ 60
fusion 60
gagnent 60
gues 60
innov@@ 60
interne 60
ist@@ 60
isées 60
lements 60
mani@@ 60
manqu@@ 60
maximum 60
nôtre 60
paradigme 60
parent 60
paysages 60
permet@@ 60
piste 60
plier 60
prim@@ 60
printemps 60
professionnels 60
raconté 60
recul@@ 60
rentré 60
restaurants 60
réaliste 60
sauvé 60
sec@@ 60
secondaires 60
sif 60
signifi@@ 60
signification 60
spécifiques 60
traver@@ 60
trouver@@ 60
up 60
usines 60
verts 60
vulnérabilité 60
étern@@ 60
--@@ 59
1950 59
29 59
Am@@ 59
Antarctique 59
Do@@ 59
Manhattan 59
abou@@ 59
adi@@ 59
ajoute 59
attendu 59
attente 59
bé@@ 59
bénéfices 59
classes 59
colle 59
collègue 59
concentr@@ 59
designer 59
diabète 59
effond@@ 59
engag@@ 59
enlève 59
entrez 59
ert 59
examen 59
fail@@ 59
financiers 59
fleur 59
grille 59
géant 59
informatiques 59
intense 59
kilomètre 59
lanc@@ 59
leadership 59
lier 59
manuel 59
march@@ 59
match 59
nuages 59
occupe 59
ole 59
open 59
organe 59
pierres 59
provoque 59
pub 59
pères 59
pèse 59
ri 59
récente 59
rétro@@ 59
sain 59
sculp@@ 59
souri@@ 59
stress 59
supplémentaire 59
sûrs 59
thon 59
til@@ 59
travaillez 59
tube 59
vaisseau 59
volé 59
yer 59
élég@@ 59
évènements 59
120 58
Moore 58
acquis 58
alimentaires 58
bien@@ 58
bil@@ 58
cam@@ 58
circuits 58
cm 58
comparer 58
comportement@@ 58
coutez 58
crev@@ 58
crucial 58
crâne 58
demandant 58
diapositive 58
diviser 58
déta@@ 58
effectuer 58
effrayant 58
embr@@ 58
emp@@ 58
enceinte 58
essentielle 58
fourmi 58
fournit 58
fé@@ 58
glamour 58
ides 58
impressionn@@ 58
initiative 58
insul@@ 58
introduit 58
istique 58
iti@@ 58
jeunesse 58
minuscules 58
musicale 58
mécanismes 58
mén@@ 58
nager 58
nav@@ 58
nécessite 58
ocy@@ 58
origami 58
pani@@ 58
paquet 58
partagent 58
participation 58
parvenir 58
percevoir 58
peuples 58
pommes 58
poumons 58
recette 58
rejoindre 58
retourne 58
résumer 58
soudainement 58
spatiale 58
tableaux 58
tombent 58
transparence 58
vagues 58
vingt 58
écouté 58
ête 58
û@@ 58
Bronx 57
Gal@@ 57
Italie 57
Ouganda 57
accompl@@ 57
africain 57
ands 57
animation 57
arrêt 57
aï 57
biologistes 57
blement 57
bri@@ 57
bulles 57
cacher 57
chaos 57
compliquée 57
concer@@ 57
créatifs 57
crédit 57
dense 57
distinc@@ 57
divis@@ 57
démontrer 57
dépenses 57
développée 57
endommag@@ 57
entour@@ 57
esclavage 57
expliqu@@ 57
fibres 57
fit 57
focal@@ 57
folle 57
frapp@@ 57
grandissent 57
habitat 57
idéal 57
ignent 57
infirmières 57
injec@@ 57
inspir@@ 57
intéressés 57
mines 57
métier 57
négoci@@ 57
oo@@ 57
optique 57
performances 57
pertin@@ 57
perç@@ 57
pes@@ 57
portes 57
pratiques 57
prête 57
reconstruire 57
reli@@ 57
remercier 57
repose 57
retour@@ 57
réunir 57
sachant 57
section 57
servi 57
siez 57
signifiait 57
sophistiqu@@ 57
stupéfi@@ 57
suc@@ 57
superbe 57
supporter 57
sure 57
teau 57
tentative 57
tom@@ 57
tournée 57
traduction 57
trai@@ 57
traversé 57
universités 57
vacances 57
vers@@ 57
vivait 57
vivez 57
œuvres 57
16@@ 56
28 56
Fl@@ 56
Gore 56
Israël 56
Mu@@ 56
Tom 56
adresse 56
aéro@@ 56
barrières 56
bourse 56
cel@@ 56
chois@@ 56
comporte 56
compéti@@ 56
conçus 56
croyais 56
denti@@ 56
diffusion 56
discipline 56
discussions 56
dor@@ 56
défi@@ 56
désastre 56
désor@@ 56
ell@@ 56
embar@@ 56
eries 56
eut 56
faudra 56
frapper 56
froide 56
fum@@ 56
hyper@@ 56
immédi@@ 56
instructions 56
laissent 56
matières 56
mondialisation 56
orange 56
ot 56
perc@@ 56
perdez 56
prisonniers 56
procès 56
proposer 56
proposition 56
quartiers 56
qués 56
ra@@ 56
remplir 56
ressembl@@ 56
retard 56
rédu@@ 56
salaire 56
secrets 56
sièges 56
souhait 56
souvenirs 56
syndrome 56
tionnel 56
trac@@ 56
tragédie 56
troupes 56
typique 56
télescope 56
unités 56
universel 56
ur 56
vend 56
voyant 56
électro@@ 56
équ@@ 56
érer 56
évidente 56
Aucune 55
Banque 55
For@@ 55
Nature 55
Pen@@ 55
Quatre 55
Ver@@ 55
anie 55
antibiotiques 55
appartement 55
augment@@ 55
bain 55
bleus 55
brillant 55
chée 55
concepteurs 55
constitu@@ 55
coopération 55
devienne 55
dions 55
dioxyde 55
docteurs 55
démocratique 55
dépensé 55
dériv@@ 55
effondrement 55
em 55
entropie 55
excité 55
extinction 55
figure 55
fortes 55
fumée 55
géné@@ 55
héroï@@ 55
immobil@@ 55
inconnu 55
intellectu@@ 55
isi@@ 55
jac@@ 55
journalistes 55
malades 55
massive 55
meurt 55
méthane 55
métro 55
oeuvres 55
offert 55
orient@@ 55
paradis 55
paraît 55
paraître 55
partagé 55
pot 55
potable 55
privilège 55
proposé 55
préserv@@ 55
rapproch@@ 55
ressent 55
riz 55
roman 55
réagir 55
sacré 55
sauvages 55
secondaire 55
sembler 55
soeur 55
substance 55
supérieure 55
symboles 55
tier 55
time 55
tro@@ 55
ule 55
urban@@ 55
vagin 55
vallée 55
variété 55
viendra 55
voila 55
èmes 55
éclai@@ 55
économiser 55
écoutez 55
écrivain 55
éduc@@ 55
Commençons 54
Golfe 54
II 54
Martin 54
Me@@ 54
ONG 54
Pour@@ 54
USA 54
Voix 54
actes 54
ail@@ 54
amen@@ 54
artifici@@ 54
assur@@ 54
ationnel 54
atro@@ 54
attendant 54
bel 54
biodiversité 54
branche 54
calme 54
cesse 54
collision 54
compar@@ 54
composition 54
concert 54
corde 54
correspon@@ 54
couvre 54
câbles 54
deman@@ 54
description 54
diagnostic 54
décid@@ 54
détermin@@ 54
ed 54
empêche 54
enquête 54
entrain 54
escalier 54
europé@@ 54
fabriqu@@ 54
fantastiques 54
financière 54
flott@@ 54
gang 54
hauts 54
humanitaire 54
igne 54
impliqués 54
incorpor@@ 54
industriel 54
infection 54
installation 54
int@@ 54
intellectuelle 54
international 54
ion 54
ition 54
lab@@ 54
larmes 54
léger 54
mail@@ 54
maternelle 54
mobiles 54
motiv@@ 54
nid 54
nourr@@ 54
outre 54
partag@@ 54
personnelles 54
plafond 54
positifs 54
positives 54
pouss@@ 54
préparé 54
ramen@@ 54
recev@@ 54
recul 54
refus@@ 54
réserv@@ 54
résumé 54
sacs 54
scénario 54
suivantes 54
surmonter 54
surviv@@ 54
séquences 54
tale 54
tap@@ 54
témoin 54
variations 54
vertic@@ 54
vérifi@@ 54
ya 54
écart 54
étonnante 54
évit@@ 54
0,@@ 53
Bu@@ 53
Congo 53
Im@@ 53
King 53
Mor@@ 53
Président 53
Science 53
Soud@@ 53
Wo@@ 53
abr@@ 53
aigu@@ 53
arrach@@ 53
association 53
bar 53
barre 53
by 53
bénéfici@@ 53
cad@@ 53
coch@@ 53
collection 53
conduite 53
connaissait 53
constante 53
constructions 53
contiennent 53
diez 53
direc@@ 53
enthousiasme 53
ev@@ 53
excellent 53
exploiter 53
extr@@ 53
fabrique 53
fassent 53
fondé 53
football 53
fur 53
if 53
illage 53
illir 53
imp@@ 53
intermédi@@ 53
investissements 53
jette 53
libres 53
linéaire 53
magnétique 53
marchait 53
mondiaux 53
oncle 53
pa@@ 53
passion@@ 53
piques 53
plant@@ 53
plongée 53
pomme 53
pos@@ 53
programmer 53
rage 53
rang@@ 53
regroup@@ 53
remarquables 53
ressens 53
roue 53
réalise 53
répondent 53
serions 53
signer 53
sour@@ 53
subi 53
tic@@ 53
tionner 53
traditions 53
trafic 53
use 53
volontaire 53
élimin@@ 53
établ@@ 53
éte@@ 53
ôt 53
1980 52
2003 52
2010 52
Atl@@ 52
Coran 52
El@@ 52
Lu@@ 52
Sch@@ 52
Sou@@ 52
Texas 52
abord@@ 52
achète 52
aig@@ 52
alli@@ 52
appels 52
ard@@ 52
brûl@@ 52
camion 52
centimètres 52
cer 52
chim@@ 52
commerciaux 52
créateur 52
cultiv@@ 52
cérébral 52
difficultés 52
diplôme 52
dynamiques 52
décharge 52
démontré 52
efficacement 52
employer 52
entouré 52
essayais 52
faveur 52
fermer 52
fédér@@ 52
geste 52
habitués 52
honor@@ 52
ide 52
immunitaire 52
iquement 52
jouet 52
ker 52
levez 52
lig@@ 52
liv@@ 52
lot 52
lutter 52
majeur 52
mangé 52
millén@@ 52
nat@@ 52
nommée 52
normes 52
obligé 52
opposé 52
ouverts 52
pandémie 52
physicien 52
portant 52
provoquer 52
prévention 52
puits 52
reconn@@ 52
relier 52
rendus 52
rent@@ 52
ressentez 52
récifs 52
secours 52
souffrent 52
spécialement 52
synchron@@ 52
tent@@ 52
tienne 52
tim@@ 52
tocine 52
transports 52
travaillaient 52
troubles 52
uses 52
veille 52
verser 52
vit@@ 52
âgées 52
èr@@ 52
écologie 52
étonnamment 52
Cambridge 51
Center 51
Cinq 51
Go@@ 51
Islam@@ 51
PDG 51
Turquie 51
annu@@ 51
aque 51
astéroïde 51
autrefois 51
blocs 51
brillants 51
bruits 51
cercles 51
cherchons 51
cogni@@ 51
confortable 51
consommer 51
continuons 51
devenues 51
dieux 51
dures 51
empê@@ 51
ennu@@ 51
entrepreneur 51
environnement@@ 51
espérer 51
essayait 51
ethni@@ 51
examin@@ 51
examiné 51
famine 51
fermiers 51
fibre 51
fic@@ 51
gamins 51
génocide 51
hautement 51
ia 51
inquiéter 51
interagissent 51
ive 51
malheureux 51
me@@ 51
meubles 51
mig@@ 51
mique 51
océ@@ 51
oit 51
origines 51
ous@@ 51
parcourir 51
passées 51
pente 51
pompe 51
poussière 51
produite 51
programmation 51
promen@@ 51
précieux 51
préfère 51
prévoir 51
puissantes 51
pur 51
pâ@@ 51
péri@@ 51
quée 51
rationn@@ 51
rec@@ 51
relever 51
reprendre 51
respir@@ 51
ry 51
régl@@ 51
sauv@@ 51
sauvage 51
simuler 51
stabilité 51
stratégies 51
survécu 51
tribu 51
trou@@ 51
universitaire 51
venais 51
verrons 51
vides 51
écosystèmes 51
éloigner 51
évolue 51
5000 50
Grâce 50
Har@@ 50
Her@@ 50
Hollywood 50
Howard 50
Parmi 50
Prenons 50
Selon 50
Sin@@ 50
Valley 50
affiche 50
africaine 50
aill@@ 50
allemand 50
appartient 50
ati@@ 50
attends 50
attentes 50
avocat 50
avocats 50
baiss@@ 50
bandes 50
banques 50
bateaux 50
berg 50
bâton 50
capture 50
cinquième 50
command@@ 50
commença 50
compl@@ 50
comptes 50
conten@@ 50
continents 50
cuisiner 50
culturel 50
cérébrale 50
deviez 50
diminue 50
dirige@@ 50
distinguer 50
divers 50
dormir 50
due 50
démarré 50
dépassé 50
détecteur 50
détermine 50
engagé 50
enseign@@ 50
exponentielle 50
expos@@ 50
expressions 50
ferai 50
foyers 50
garanti@@ 50
gestes 50
géniale 50
handicap@@ 50
human@@ 50
illons 50
impressionnant 50
introduire 50
itali@@ 50
lecteurs 50
mati@@ 50
migr@@ 50
mâles 50
nait 50
normaux 50
partant 50
passerait 50
photographe 50
plateforme 50
pleur@@ 50
proportion 50
quotidienne 50
rab@@ 50
réchauff@@ 50
régler 50
réunis 50
sentais 50
significative 50
solaires 50
sorti@@ 50
structu@@ 50
subir 50
support 50
tend 50
territoire 50
tromper 50
vaches 50
vascul@@ 50
vieil 50
volent 50
volontaires 50
échecs 50
écr@@ 50
écrite 50
élarg@@ 50
élément@@ 50
énergies 50
évaluer 50
00 49
55 49
Mad@@ 49
Man@@ 49
Met@@ 49
To@@ 49
Wikipedia 49
absur@@ 49
acqu@@ 49
adorent 49
adéqu@@ 49
annonce 49
assistance 49
attendais 49
avancées 49
aî@@ 49
bouteilles 49
bre@@ 49
caché 49
camions 49
ceau 49
chromosome 49
civilisations 49
colon@@ 49
combiner 49
commerciale 49
comprend@@ 49
compromis 49
consommateur 49
constater 49
construisons 49
contribu@@ 49
courag@@ 49
critiques 49
cultiver 49
cycles 49
des@@ 49
diagramme 49
dialogue 49
diamètre 49
diminuer 49
dinosaure 49
document 49
dram@@ 49
défini 49
employ@@ 49
encourage 49
engin 49
enlevé 49
ennuy@@ 49
fac@@ 49
gen@@ 49
génère 49
hautes 49
ic 49
indienne 49
individu@@ 49
individuelle 49
insecte 49
inutile 49
irons 49
laissons 49
lampe 49
manipul@@ 49
mythe 49
nettoyer 49
neurone 49
noter 49
original 49
pensiez 49
personnels 49
photo@@ 49
pleurer 49
portait 49
promouvoir 49
prouvé 49
préférés 49
prévenir 49
pun@@ 49
rats 49
reconnu 49
recours 49
remplac@@ 49
respiration 49
restait 49
revoir 49
robotique 49
rément 49
semblables 49
soldat 49
séparer 49
tail@@ 49
taper 49
terrestres 49
toits 49
traités 49
tubes 49
tur@@ 49
uniques 49
vapeur 49
ventre 49
visiter 49
Égyp@@ 49
éch@@ 49
échapper 49
émotionnel 49
0@@ 48
194@@ 48
33 48
85 48
Bob 48
Cor@@ 48
Environ 48
Indiens 48
Mas@@ 48
Nigéri@@ 48
Saturne 48
Si@@ 48
Soit 48
TED@@ 48
abandonné 48
acides 48
affronter 48
aimais 48
ampoule 48
anci@@ 48
appren@@ 48
approcher 48
arti@@ 48
atelier 48
att@@ 48
autorou@@ 48
avancé 48
az@@ 48
banlieue 48
batteries 48
boîtes 48
capturer 48
chou@@ 48
chu@@ 48
cine 48
colonne 48
concurrence 48
connaissais 48
connus 48
constru@@ 48
couvert 48
croyance 48
créez 48
cur@@ 48
cô@@ 48
dira 48
drapeau 48
durables 48
découvre 48
déroule 48
emprun@@ 48
exprim@@ 48
extra 48
extrêmes 48
familier 48
far@@ 48
genoux 48
gou@@ 48
gross@@ 48
géo@@ 48
habitu@@ 48
horizon 48
invisibles 48
lucratif 48
magasins 48
mensonge 48
minimum 48
mons 48
monsieur 48
mortes 48
mur@@ 48
nage 48
nerfs 48
néanmoins 48
occidental 48
omb@@ 48
papiers 48
participants 48
perdent 48
pertes 48
plu@@ 48
proviennent 48
précoce 48
ps 48
radicale 48
radio@@ 48
rassembl@@ 48
rat 48
regret 48
rose 48
rouler 48
répandre 48
satellites 48
serp@@ 48
solides 48
surpren@@ 48
th 48
thons 48
traduc@@ 48
tront 48
tsunami 48
vement 48
vols 48
ège 48
éduquer 48
15@@ 47
21ème 47
3000 47
Aux 47
Be@@ 47
Cal@@ 47
Monsieur 47
Quels 47
Ru@@ 47
SW 47
Second 47
Super 47
Th@@ 47
achètent 47
amment 47
apparue 47
assist@@ 47
attrap@@ 47
authenti@@ 47
balles 47
bizarres 47
bouts 47
brut 47
casque 47
cellulaire 47
chère 47
concev@@ 47
conscients 47
courants 47
cricket 47
croyait 47
deviner 47
dictionnaire 47
din@@ 47
dingue 47
disparaissent 47
drogue 47
débarr@@ 47
décor@@ 47
décr@@ 47
département 47
entraîner 47
est@@ 47
excit@@ 47
fac 47
factu@@ 47
feriez 47
finissent 47
fondamentaux 47
fortement 47
gratu@@ 47
graves 47
ili@@ 47
immeubles 47
initi@@ 47
internationales 47
intégré 47
ki 47
leader 47
ling 47
lisez 47
lun@@ 47
mangeons 47
mathématiciens 47
mentionné 47
miracle 47
mis@@ 47
mm 47
mét@@ 47
mê@@ 47
na 47
nan@@ 47
nettoy@@ 47
od@@ 47
paraly@@ 47
parking 47
passera 47
passi@@ 47
physiciens 47
problémati@@ 47
professionnelle 47
promesse 47
propos@@ 47
prédictions 47
présentes 47
quasi 47
recherch@@ 47
rep@@ 47
romantique 47
sensibilité 47
sortis 47
traces 47
tran@@ 47
tré@@ 47
verbe 47
voudrait 47
voyais 47
çant 47
écri@@ 47
écrivains 47
éloign@@ 47
élé@@ 47
éteindre 47
1970 46
AR@@ 46
Américain 46
Faisons 46
Feynman 46
Hey 46
Mark 46
Ne@@ 46
Né@@ 46
PC 46
agne 46
allumer 46
appel@@ 46
applau@@ 46
archives 46
attentivement 46
avanc@@ 46
blessures 46
bénéfice 46
caractères 46
catastrophes 46
chanceux 46
chapitre 46
club 46
collectif 46
commentaire 46
commençait 46
communs 46
concentré 46
connecte 46
consac@@ 46
consomm@@ 46
coton 46
créés 46
demandait 46
dge 46
dirai 46
dirigé 46
douzaine 46
déclaration 46
démar@@ 46
ell 46
emmen@@ 46
envisager 46
estimation 46
exploit@@ 46
fassiez 46
fonctionnait 46
fromage 46
fréqu@@ 46
gh 46
glaci@@ 46
graisse 46
grimper 46
heur@@ 46
horloge 46
hur@@ 46
hypothèses 46
ick 46
imprimer 46
indien 46
influ@@ 46
ingéni@@ 46
installé 46
intensi@@ 46
jolie 46
lets 46
littér@@ 46
logo 46
lumin@@ 46
luxe 46
mammographie 46
mienne 46
modes 46
moelle 46
moustiquaires 46
nation@@ 46
observant 46
opposition 46
opérer 46
oss@@ 46
parlaient 46
partenariat 46
partent 46
peindre 46
physi@@ 46
pleins 46
plonger 46
poignée 46
profits 46
progressivement 46
propul@@ 46
prédiction 46
prét@@ 46
pé 46
raisonnable 46
record 46
remarquerez 46
ressenti@@ 46
ressort 46
réfléch@@ 46
sach@@ 46
sandwich 46
saut@@ 46
sensori@@ 46
session 46
sexuelle 46
spéciale 46
str@@ 46
suggérer 46
supposé 46
tal@@ 46
teront 46
trace 46
tragique 46
tremblement 46
tron@@ 46
tér@@ 46
urbaine 46
veill@@ 46
vier 46
viseur 46
visions 46
échanger 46
échapp@@ 46
échelles 46
écris 46
équations 46
Frank 45
Gar@@ 45
Pal@@ 45
abeille 45
abor@@ 45
accessibles 45
accélérer 45
adaptation 45
adoption 45
aile 45
aler@@ 45
all 45
architectur@@ 45
artificiel 45
atta@@ 45
attrape 45
aver@@ 45
brillante 45
bruy@@ 45
chass@@ 45
chaînes 45
cherchent 45
citer 45
civi@@ 45
clo@@ 45
conducteur 45
connues 45
cosmo@@ 45
culturelles 45
côtes 45
danser 45
devoirs 45
distances 45
dose 45
dégrad@@ 45
délici@@ 45
désespoir 45
détruit 45
enrich@@ 45
enseigné 45
entraînement 45
exo@@ 45
fiable 45
finale 45
fondamentales 45
gigantesque 45
grammes 45
influencer 45
intégration 45
intérieure 45
jouant 45
juin 45
laiss@@ 45
laissant 45
limitée 45
mainten@@ 45
mand@@ 45
marqué 45
mettait 45
mées 45
navire 45
noci@@ 45
oblig@@ 45
obstacle 45
oire 45
ologue 45
ot@@ 45
panne 45
pap@@ 45
parallèle 45
pardon 45
patho@@ 45
photographi@@ 45
phénomènes 45
plaque 45
plastiques 45
ports 45
prenait 45
processeur 45
pur@@ 45
regardais 45
reine 45
rejoint 45
remarquez 45
rendant 45
ressentent 45
reviennent 45
reviens 45
récolter 45
régulièrement 45
réputation 45
répét@@ 45
réus@@ 45
sache 45
sexuels 45
souci@@ 45
séparation 45
tend@@ 45
tionnelle 45
tonn@@ 45
tournant 45
traduit 45
transcend@@ 45
traî@@ 45
tri 45
trices 45
trouvée 45
tumeurs 45
vendredi 45
verse 45
viend@@ 45
vôtre 45
watts 45
ève 45
écrans 45
égalité 45
étiquette 45
Adam 44
Benjamin 44
Bur@@ 44
Earth 44
Hum@@ 44
Ni@@ 44
Passons 44
Saint 44
Tony 44
US 44
absorb@@ 44
adress@@ 44
agr@@ 44
aiss@@ 44
aj@@ 44
algorithme 44
analogie 44
analy@@ 44
annoncé 44
applique 44
arri@@ 44
audience 44
aw@@ 44
bat 44
be@@ 44
bords 44
branch@@ 44
brûler 44
chapeau 44
cole 44
colline 44
combustibles 44
commentaires 44
constaté 44
constituent 44
conven@@ 44
conçue 44
crimes 44
dauphins 44
descendu 44
djihad 44
doucement 44
défendre 44
ennemis 44
expédition 44
expérimenter 44
faute 44
femelle 44
fol@@ 44
fondations 44
formés 44
ga 44
gagnant 44
gén@@ 44
hal@@ 44
hol@@ 44
id 44
implications 44
inage 44
inattend@@ 44
interag@@ 44
interpréter 44
interrom@@ 44
interviewer 44
introdu@@ 44
invite 44
isson 44
jam@@ 44
ky 44
laver 44
magné@@ 44
modern@@ 44
moustiques 44
mèmes 44
ney 44
obtiend@@ 44
obtiennent 44
ologiques 44
paires 44
papa 44
pare@@ 44
possé@@ 44
pouvoirs 44
promet@@ 44
rassemblé 44
recycl@@ 44
remarqu@@ 44
ressor@@ 44
restée 44
rier 44
roues 44
réag@@ 44
réfugiés 44
saine 44
satisfaire 44
sig@@ 44
ski@@ 44
susceptibles 44
systématiquement 44
sédu@@ 44
sélec@@ 44
talent 44
températures 44
till@@ 44
transparent 44
tron 44
ty@@ 44
veu@@ 44
victime 44
végét@@ 44
éduqu@@ 44
émerger 44
émotionn@@ 44
établi 44
étrangers 44
étrangère 44
0 43
2,@@ 43
2002 43
20ème 43
AK 43
Arc@@ 43
CD@@ 43
Delhi 43
Du@@ 43
Désolé 43
Ford 43
Gandhi 43
Long 43
Ok@@ 43
Ray 43
Six 43
Vou@@ 43
Wikipédia 43
abstrai@@ 43
acide 43
actives 43
adolescence 43
ama 43
amas 43
améliore 43
araignées 43
ascens@@ 43
assembl@@ 43
assemblage 43
ationn@@ 43
atri@@ 43
attiré 43
balay@@ 43
blanches 43
capteur 43
chirurgiens 43
chromosomes 43
colonies 43
commun@@ 43
comédie 43
constitué 43
contribution 43
coupé 43
dance 43
dessiné 43
destin 43
diplom@@ 43
disque 43
documents 43
duquel 43
débar@@ 43
dél@@ 43
email 43
encourage@@ 43
envoient 43
esthétique 43
eure 43
exag@@ 43
fiers 43
financement 43
fixe 43
flam@@ 43
for 43
fournissent 43
gers 43
gonfl@@ 43
grat@@ 43
gâ@@ 43
gée 43
ien 43
improvis@@ 43
impulsion 43
incendie 43
iz@@ 43
jeté 43
libér@@ 43
ling@@ 43
lég@@ 43
malaria 43
mesuré 43
oubliez 43
ouvriers 43
oy@@ 43
pairs 43
part@@ 43
permettra 43
planter 43
plong@@ 43
populaires 43
posi@@ 43
posséder 43
programm@@ 43
progress@@ 43
prédateurs 43
préférée 43
publier 43
qui@@ 43
regar@@ 43
regardait 43
relâ@@ 43
reuses 43
rir 43
risqu@@ 43
réalisation 43
récent 43
rô@@ 43
sc@@ 43
scep@@ 43
situ@@ 43
souffre 43
souligner 43
st 43
suivez 43
supermarché 43
surveillance 43
sèche 43
séduis@@ 43
tendre 43
terribles 43
tes@@ 43
tournent 43
tradu@@ 43
tranquille 43
traumati@@ 43
tués 43
vio@@ 43
visionn@@ 43
éducatif 43
élabor@@ 43
épanou@@ 43
47 42
Bal@@ 42
Hong 42
Johnson 42
LA 42
Peter 42
Pi@@ 42
Sar@@ 42
Shakespeare 42
Vietnam 42
acceptable 42
achetez 42
activer 42
adhé@@ 42
agissent 42
aison 42
ak 42
algues 42
aléatoire 42
apprenez 42
aptitude 42
arr@@ 42
assi@@ 42
atomique 42
authentique 42
bin@@ 42
boulang@@ 42
branches 42
brièvement 42
brû@@ 42
bétail 42
camps 42
charg@@ 42
chasseurs 42
chevaux 42
commandes 42
comptent 42
conceptu@@ 42
const@@ 42
content@@ 42
contrat 42
coucher 42
couloir 42
couple 42
couver@@ 42
cy@@ 42
célébr@@ 42
célébrer 42
dilemme 42
doublé 42
défaut 42
déménagé 42
déser@@ 42
déten@@ 42
emporter 42
essai@@ 42
estim@@ 42
exact 42
extérieure 42
ferais 42
filet 42
filtre 42
financer 42
fonctionné 42
fraction 42
généré 42
géométrie 42
idio@@ 42
ill 42
illustr@@ 42
imiter 42
inscri@@ 42
inspirés 42
inte 42
intr@@ 42
inévitable 42
issaient 42
lettes 42
licence 42
limit@@ 42
livrer 42
lè@@ 42
magici@@ 42
manipuler 42
masses 42
massi@@ 42
merde 42
mince 42
mutuellement 42
mènent 42
mér@@ 42
métabolisme 42
métaux 42
météo 42
noyau 42
néo@@ 42
occidentaux 42
orique 42
perpétu@@ 42
phénomén@@ 42
poches 42
poign@@ 42
porc 42
priorités 42
précédente 42
psychologues 42
pê@@ 42
qualifi@@ 42
quotidi@@ 42
ramène 42
ran@@ 42
rant 42
refl@@ 42
remarque 42
reprises 42
requ@@ 42
récit 42
récom@@ 42
réels 42
répète 42
rétine 42
saut 42
saviez 42
sel 42
sens@@ 42
sexuelles 42
silencieux 42
sonde 42
spécifiquement 42
supprim@@ 42
séparés 42
sœurs 42
tam@@ 42
textes 42
tion@@ 42
trajet 42
transmis 42
trons 42
uer 42
ulaire 42
ultra 42
variation 42
ventes 42
versé 42
vois@@ 42
échanges 42
éloigné 42
éléphant 42
érique 42
étage 42
étend@@ 42
Anglais 41
Clinton 41
Ethiopie 41
Homo 41
Jamais 41
Jésus 41
Ki@@ 41
Leurs 41
Mac@@ 41
Malgré 41
Me 41
Newton 41
Revenons 41
Santé 41
Se@@ 41
Tr@@ 41
Z 41
adopté 41
apprise 41
arriver@@ 41
assure 41
augmentent 41
autonomie 41
ax@@ 41
bactéri@@ 41
briser 41
chats 41
chercheur 41
constitue 41
contente 41
contribué 41
corbeaux 41
créative 41
demandons 41
destination 41
dette 41
devenez 41
divisé 41
dress@@ 41
décoll@@ 41
défin@@ 41
démographique 41
effectué 41
encourag@@ 41
enveloppe 41
erions 41
escence 41
explic@@ 41
fasciné 41
forcer 41
forcé 41
formul@@ 41
fuite 41
future 41
garage 41
gique 41
gouvernement@@ 41
gren@@ 41
génétiquement 41
harmonie 41
horribles 41
hé 41
hér@@ 41
ignorer 41
import@@ 41
indice 41
individuel 41
iner@@ 41
ings 41
jazz 41
joindre 41
lam@@ 41
lourd 41
low 41
légère 41
lés 41
mange@@ 41
marionn@@ 41
marr@@ 41
mentionner 41
microscop@@ 41
my@@ 41
médit@@ 41
nage@@ 41
parlerai 41
particip@@ 41
participé 41
particule 41
perspectives 41
ponts 41
puzzle 41
radios 41
religieuses 41
rit 41
roulant 41
répand@@ 41
salon 41
suff@@ 41
syn@@ 41
sérieuse 41
ters 41
tière 41
toxiques 41
up@@ 41
ut@@ 41
versions 41
well 41
électrons 41
épic@@ 41
épouse 41
étages 41
12@@ 40
19ème 40
350 40
Ber@@ 40
Blanche 40
Haw@@ 40
Jim 40
Maison 40
Mi@@ 40
Monterey 40
Numéro 40
Prix 40
Pôle 40
Ses 40
Shanghai 40
Talibans 40
Tur@@ 40
abond@@ 40
accompli 40
approvisionnement 40
arch@@ 40
ativement 40
aéri@@ 40
ba 40
barres 40
brouill@@ 40
bête 40
capitale 40
capitalisme 40
ceinture 40
cli@@ 40
coopér@@ 40
cru@@ 40
destruc@@ 40
deviendra 40
diarrh@@ 40
diminué 40
directe 40
doux 40
dur@@ 40
définit 40
dépasser 40
dépensent 40
déplacement 40
détr@@ 40
dévas@@ 40
emball@@ 40
embre 40
employé 40
environnementaux 40
espér@@ 40
excellente 40
exig@@ 40
fan 40
fie 40
fondre 40
fron@@ 40
gent 40
gh@@ 40
grandeur 40
grandit 40
gro@@ 40
inclut 40
infectés 40
infirmière 40
ino@@ 40
install@@ 40
intim@@ 40
iture 40
ière 40
juge 40
lage 40
lisi@@ 40
los 40
men 40
mondiales 40
monnaie 40
mono@@ 40
moralité 40
méd@@ 40
neutr@@ 40
nutriments 40
négociations 40
observons 40
paroles 40
pat@@ 40
pirat@@ 40
pit@@ 40
piét@@ 40
pleinement 40
plom@@ 40
pouce 40
poète 40
progression 40
pétroli@@ 40
quali@@ 40
radical 40
rechercher 40
rembour@@ 40
retrouvent 40
robe 40
révé@@ 40
sale 40
sanguin 40
scope 40
signature 40
significatif 40
situe 40
sols 40
sonore 40
sors 40
souten@@ 40
spécialistes 40
supprimer 40
ther@@ 40
traversée 40
tru@@ 40
universelle 40
utilisaient 40
visualiser 40
ètent 40
ém@@ 40
étonnantes 40
évalu@@ 40
évoluent 40
42 39
AS 39
Abraham 39
Alzheim@@ 39
CD 39
Conseil 39
Fer@@ 39
Gates 39
Groenland 39
Jan@@ 39
Lincoln 39
Mer@@ 39
PM 39
Smith 39
Soyez 39
Tanzanie 39
Tou@@ 39
Vos 39
accélère 39
acoustique 39
afficher 39
agricoles 39
ail 39
aint 39
ala 39
alternatives 39
alumini@@ 39
anglaise 39
ap 39
apparten@@ 39
appuie 39
arriva 39
articul@@ 39
asi@@ 39
atti@@ 39
blessure 39
cage 39
canopée 39
cassé 39
cep@@ 39
change@@ 39
changeant 39
cherchant 39
cherchez 39
combatt@@ 39
combustible 39
condi@@ 39
connectivité 39
considé@@ 39
considér@@ 39
contraintes 39
convertir 39
copi@@ 39
coraux 39
correct 39
correspondent 39
daient 39
dangereuses 39
dat@@ 39
dictat@@ 39
distinction 39
distribuer 39
donnera 39
dossier 39
débuts 39
dépasse 39
dépensons 39
enfu@@ 39
engend@@ 39
eur@@ 39
excell@@ 39
explosé 39
fondée 39
fossé 39
fê@@ 39
gel@@ 39
gros@@ 39
guider 39
ico@@ 39
identifi@@ 39
identique 39
iers 39
illez 39
illustrer 39
ilée 39
industries 39
interdit 39
internationaux 39
interro@@ 39
intervenir 39
investi 39
itu@@ 39
ity 39
jugement 39
juridique 39
lande 39
librement 39
libération 39
lim@@ 39
lion 39
litres 39
longs 39
lue 39
majeures 39
mante 39
manuels 39
maîtrise 39
mec 39
mélo@@ 39
naissent 39
nera 39
observez 39
occupé 39
opinions 39
ors 39
osité 39
parcouru 39
passionné 39
pein@@ 39
perdue 39
permission 39
planification 39
planétaire 39
pp@@ 39
prend@@ 39
prendra 39
prenne 39
proximité 39
pèler@@ 39
quanti@@ 39
racine 39
rappelé 39
rat@@ 39
rebon@@ 39
recommand@@ 39
recyclage 39
reflète 39
religieuse 39
renseign@@ 39
repenser 39
représenté 39
roche 39
réelles 39
réfléchit 39
répéter 39
réussissent 39
sac@@ 39
signific@@ 39
souhaitez 39
stabil@@ 39
séparé 39
terie 39
tho@@ 39
tir 39
vastes 39
vice 39
visualisation 39
vivantes 39
voyagé 39
vé@@ 39
èg@@ 39
éloigne 39
épar@@ 39
éteint 39
î@@ 39
2020 38
48 38
72 38
Aristote 38
Bas@@ 38
Brian 38
Chili 38
Gro@@ 38
Jack 38
Kong 38
Lors@@ 38
Norden 38
Papa 38
Pe@@ 38
S. 38
Silicon 38
Titan 38
Vo@@ 38
Wall 38
XX@@ 38
aces 38
ache 38
acquérir 38
agence 38
agressi@@ 38
aiguille 38
alliez 38
alphab@@ 38
amin@@ 38
amor@@ 38
ampleur 38
apprécie 38
arc@@ 38
assiette 38
associés 38
assu@@ 38
attaqu@@ 38
aval@@ 38
ave 38
aveugles 38
azote 38
aérienne 38
ba@@ 38
bleues 38
bougent 38
briques 38
bénévoles 38
cache 38
calories 38
cardi@@ 38
changez 38
chemins 38
classiques 38
cochons 38
commençant 38
connections 38
conservateurs 38
contempor@@ 38
contrôlée 38
corrélation 38
coupable 38
courante 38
coût@@ 38
célèbres 38
dent@@ 38
destin@@ 38
dies 38
différenci@@ 38
directeurs 38
diri@@ 38
disparition 38
domestique 38
douzaines 38
drogues 38
démocrati@@ 38
dévou@@ 38
emmène 38
enlev@@ 38
entraî@@ 38
espagno@@ 38
estimer 38
extension 38
extraterres@@ 38
ey@@ 38
fabriqués 38
fatigu@@ 38
fausses 38
fermes 38
fins 38
fis@@ 38
fixer 38
formidables 38
fourn@@ 38
février 38
gosses 38
grandiss@@ 38
guide 38
génomes 38
habituellement 38
hectares 38
hiérarchie 38
honnê@@ 38
ica 38
illumin@@ 38
illusions 38
imprimante 38
incapable 38
inclin@@ 38
initiale 38
intrig@@ 38
inviter 38
islam@@ 38
jouait 38
lant 38
lecteur 38
levée 38
libé@@ 38
lobe 38
luci@@ 38
mail 38
manquer 38
menaces 38
mil@@ 38
mobilité 38
mol@@ 38
méchant 38
métique 38
neur@@ 38
nourrit 38
nouveauté 38
nov@@ 38
noy@@ 38
ond@@ 38
organiques 38
out@@ 38
ouvrez 38
ov@@ 38
pathogènes 38
payés 38
pilo@@ 38
plon@@ 38
poils 38
polar@@ 38
pollu@@ 38
poumon 38
premi@@ 38
professionn@@ 38
propag@@ 38
proph@@ 38
propriétaires 38
provo@@ 38
précises 38
prédit 38
quez 38
raisonnement 38
remis 38
rempl@@ 38
rends 38
ress@@ 38
robu@@ 38
récolte 38
régul@@ 38
réplic@@ 38
résister 38
révélé 38
scan@@ 38
soirée 38
sombres 38
statistique 38
stock@@ 38
substances 38
tenté 38
terrains 38
terroristes 38
texture 38
than@@ 38
thèmes 38
traditionnels 38
traits 38
troisi@@ 38
trom@@ 38
typiquement 38
télécharger 38
urgences 38
venues 38
vez 38
vulnérables 38
way 38
yant 38
éclat@@ 38
écologiques 38
élu 38
épargner 38
étal@@ 38
14@@ 37
2,5 37
Ad@@ 37
Arab@@ 37
Autrement 37
BG 37
Berlin 37
Bou@@ 37
Centre 37
Copenhague 37
Cyrus 37
Femme 37
Geographic 37
Henry 37
Indus 37
Institute 37
Inter@@ 37
Irlande 37
Larry 37
My@@ 37
Mère 37
Pl@@ 37
Por@@ 37
Scott 37
Se 37
Seulement 37
abil@@ 37
absolu 37
abstrait 37
affichage 37
agricole 37
allées 37
américaines 37
apparait 37
appor@@ 37
aspir@@ 37
asser 37
attaché 37
attrapé 37
audition 37
aus@@ 37
baie 37
biologiste 37
cha@@ 37
chaine 37
clavier 37
cle 37
comm@@ 37
compil@@ 37
concentre 37
connectée 37
considèrent 37
considérez 37
contamin@@ 37
conviction 37
conçues 37
costume 37
creuser 37
culp@@ 37
demand@@ 37
destiné 37
diction 37
diminu@@ 37
dirigeant 37
disper@@ 37
document@@ 37
dopamine 37
débuté 37
déclaré 37
déclen@@ 37
démarche 37
dépense 37
désesp@@ 37
eli@@ 37
engagés 37
entourent 37
entraîne 37
essez 37
ession 37
femelles 37
financ@@ 37
fiée 37
fragile 37
fré@@ 37
fœtus 37
genres 37
gentil 37
gentillesse 37
geons 37
gloire 37
grains 37
grim@@ 37
gè@@ 37
habitant 37
habitudes 37
historiques 37
homosexu@@ 37
hélium 37
iPod 37
ienne 37
immenses 37
implant@@ 37
implication 37
inclure 37
indépendant 37
infections 37
inférieure 37
inhabituel 37
ini@@ 37
inie 37
instantanément 37
investisseurs 37
iso@@ 37
ja 37
la@@ 37
lointain 37
mangez 37
modifié 37
météor@@ 37
naviguer 37
naître 37
norme 37
nœu@@ 37
occasions 37
permanente 37
plaisant@@ 37
procédure 37
profondeurs 37
projet@@ 37
pronon@@ 37
prospérité 37
prostate 37
prototypes 37
pru@@ 37
précé@@ 37
préparation 37
présentent 37
psycho@@ 37
quar@@ 37
quette 37
radiation 37
ramasser 37
rencontrés 37
rendait 37
rendement 37
repousser 37
reviend@@ 37
rivières 37
récession 37
récif 37
réduite 37
réf@@ 37
réguli@@ 37
résume 37
réun@@ 37
révéler 37
sacrée 37
sch@@ 37
schémas 37
sexuel 37
sis@@ 37
sortez 37
spécialiste 37
stations 37
suici@@ 37
symétries 37
tasse 37
tations 37
termine 37
tivité 37
toxique 37
transforment 37
tre@@ 37
trouvaient 37
virtuelle 37
voile 37
voyaient 37
yo@@ 37
épidémi@@ 37
équipements 37
36 36
4,@@ 36
Can@@ 36
Caroline 36
Cola 36
Egyp@@ 36
Everest 36
Ko@@ 36
Mandela 36
Messi@@ 36
Mil@@ 36
Paix 36
Park 36
Partout 36
Puisque 36
Sauf 36
TV 36
Troisi@@ 36
Virg@@ 36
absolue 36
accélér@@ 36
aimaient 36
alie 36
alier 36
amateurs 36
annon@@ 36
ano 36
anony@@ 36
apport@@ 36
approfon@@ 36
appropriée 36
audio 36
aviaire 36
bag@@ 36
billet 36
biomasse 36
biosphère 36
brin 36
bénéfique 36
caf@@ 36
case 36
chaises 36
chal@@ 36
changeons 36
charger 36
chimiothérapie 36
choisis 36
cibles 36
cin@@ 36
clig@@ 36
collectiv@@ 36
collège 36
communiquent 36
condam@@ 36
condu@@ 36
constituer 36
contac@@ 36
continu 36
copier 36
courtes 36
coûteux 36
cyber@@ 36
cycl@@ 36
cylindre 36
célibat@@ 36
cérébrales 36
dan@@ 36
dangereuse 36
devin@@ 36
devinez 36
dispositifs 36
doctorat 36
domesti@@ 36
dro@@ 36
durs 36
duré 36
empire 36
espérant 36
fabule@@ 36
familial 36
fine 36
gences 36
glu@@ 36
gre@@ 36
hausse 36
hélicoptère 36
ick@@ 36
idiot 36
inez 36
infinie 36
institut 36
interfaces 36
inégal@@ 36
janvier 36
jaunes 36
justement 36
lai@@ 36
larges 36
lep@@ 36
lisses 36
logement 36
logiques 36
lointain@@ 36
mach@@ 36
ments 36
miles 36
mo 36
moléculaires 36
multipli@@ 36
mutation 36
mâ@@ 36
normal@@ 36
nuits 36
onnement 36
paie 36
parachute 36
partagée 36
passions 36
patron 36
peint 36
peintures 36
permettait 36
photographié 36
plats 36
pler 36
poubelle 36
poudre 36
poèmes 36
préservatifs 36
préserver 36
public@@ 36
rang 36
rassemble 36
refusé 36
respecter 36
reten@@ 36
revenons 36
rituel 36
rituels 36
roul@@ 36
résul@@ 36
sec 36
sexy 36
so 36
souven@@ 36
spati@@ 36
squelette 36
star 36
stupides 36
sulfure 36
superfici@@ 36
surement 36
surveiller 36
tage 36
tech 36
tenant 36
tenez 36
test@@ 36
thermique 36
tol@@ 36
tos 36
touchent 36
traversent 36
ty 36
télescopes 36
téri@@ 36
valis@@ 36
vendent 36
viendrait 36
vrai@@ 36
âgés 36
èle 36
ètre 36
émet 36
éo@@ 36
évaluation 36
3,@@ 35
Ag@@ 35
Bell 35
Cer@@ 35
Chacune 35
Dar@@ 35
Des@@ 35
Disons 35
Durant 35
Gen@@ 35
Island 35
Loi 35
Musée 35
Plutôt 35
Rappel@@ 35
Seattle 35
Seconde 35
She@@ 35
Sor@@ 35
Souven@@ 35
Tant 35
Tim 35
Time 35
Val@@ 35
académi@@ 35
adapté 35
admi@@ 35
affi@@ 35
agences 35
anesthésie 35
appelés 35
apportent 35
appuyer 35
arro@@ 35
associ@@ 35
attendons 35
atterrir 35
avril 35
battu 35
bidonville 35
boue 35
bu 35
cachée 35
cess@@ 35
chair 35
cham@@ 35
chirurgic@@ 35
cic@@ 35
cir@@ 35
citoyen 35
class@@ 35
coincé 35
collecter 35
comics 35
compare 35
comportent 35
concevons 35
confron@@ 35
contents 35
corpor@@ 35
cou 35
croquis 35
créations 35
den@@ 35
deuxi@@ 35
devint 35
dir 35
disparaît 35
dits 35
diver@@ 35
durer 35
dégu@@ 35
détermination 35
ed@@ 35
emplacement 35
entrés 35
environs 35
essay@@ 35
explications 35
exponenti@@ 35
export@@ 35
exposés 35
extrémité 35
fertil@@ 35
feux 35
file 35
franch@@ 35
fusil 35
gn@@ 35
gouvern@@ 35
haï@@ 35
ilité 35
individuels 35
inférieur 35
ins@@ 35
jouez 35
jus 35
kin@@ 35
lancement 35
lave 35
libéraux 35
lèvres 35
mai@@ 35
manifestement 35
marqueurs 35
marée 35
matrice 35
milieux 35
modé@@ 35
montent 35
mouche 35
moustique 35
music@@ 35
musulman 35
neurosciences 35
nécessité 35
observations 35
octobre 35
ouer 35
ouvrières 35
paro@@ 35
pav@@ 35
pin@@ 35
pleines 35
polaire 35
portrait 35
prisonnier 35
provoqué 35
prédateur 35
psychologique 35
pul@@ 35
quitte 35
rapproche 35
recommencer 35
recru@@ 35
refaire 35
relie 35
restre@@ 35
retours 35
reven@@ 35
reçois 35
rière 35
rur@@ 35
réd@@ 35
rési@@ 35
sain@@ 35
satisfaction 35
sensé 35
sortant 35
soupe 35
spor@@ 35
ster 35
sti@@ 35
suffis@@ 35
sympath@@ 35
synthétique 35
tante 35
taxe 35
terons 35
tolérance 35
torture 35
transformée 35
trop@@ 35
trotto@@ 35
trouvés 35
télécharg@@ 35
utilisait 35
valait 35
valent 35
verra 35
vou@@ 35
Être 35
çà 35
économiste 35
égoïste 35
éoli@@ 35
étab@@ 35
étag@@ 35
œuf 35
130 34
13@@ 34
1999 34
Actu@@ 34
BC 34
Brown 34
DVD 34
Entre 34
Européenne 34
Fin@@ 34
Franç@@ 34
GPS 34
Gene 34
Hol@@ 34
Joshua 34
LED 34
Lego 34
Milo 34
Mé@@ 34
Nelson 34
Ren@@ 34
Ser@@ 34
Steven 34
Sé@@ 34
We@@ 34
Wright 34
accro 34
adolescent 34
ajoutez 34
ajust@@ 34
allé@@ 34
ambiti@@ 34
appelées 34
appr@@ 34
approches 34
ara 34
arriverait 34
artisan@@ 34
associée 34
astronom@@ 34
astéroïdes 34
atre 34
attendait 34
attire 34
autorités 34
bo 34
bouse 34
bousi@@ 34
buts 34
bénéficier 34
canaux 34
chameau 34
chauffeur 34
choisissent 34
cite 34
climatiques 34
clip 34
clon@@ 34
coller 34
colonnes 34
commencement 34
communautaire 34
comparable 34
comporter 34
connec@@ 34
considérable 34
construites 34
construits 34
contenir 34
contradiction 34
cousins 34
couteau 34
creus@@ 34
cube 34
cul 34
dessine 34
devenait 34
digit@@ 34
diplomatie 34
diraient 34
dirent 34
donateurs 34
dra 34
décembre 34
enfer@@ 34
erre 34
exal@@ 34
exploser 34
exprime 34
fardeau 34
fascinante 34
ferons 34
fications 34
fonc@@ 34
format 34
fus@@ 34
glac@@ 34
goû@@ 34
grain 34
graphi@@ 34
guer@@ 34
guérir 34
gère 34
généri@@ 34
habil@@ 34
herbes 34
immun@@ 34
incit@@ 34
inconnue 34
inconnus 34
incré@@ 34
indiquent 34
indiquer 34
individuelles 34
inquiet 34
interview 34
intègre 34
intéressée 34
invit@@ 34
jet 34
joint 34
las@@ 34
lav@@ 34
longé@@ 34
lumineux 34
lèvent 34
magazines 34
mai 34
marches 34
mini@@ 34
miroirs 34
misphère 34
mobil@@ 34
moy@@ 34
mutations 34
nor@@ 34
oph@@ 34
orale 34
ota 34
palestini@@ 34
paramètres 34
parie 34
particuliers 34
pau@@ 34
perd@@ 34
persist@@ 34
pla@@ 34
plancton 34
plat@@ 34
prenaient 34
primiti@@ 34
privés 34
probabilités 34
producteurs 34
progresser 34
promotion 34
préfèrent 34
puces 34
pêcheurs 34
raccour@@ 34
raté 34
reconnaitre 34
relle 34
rels 34
remise 34
remède 34
rencontrent 34
royaume 34
récits 34
régulation 34
résol@@ 34
réveill@@ 34
révélation 34
salaires 34
scand@@ 34
scolaires 34
secou@@ 34
semblaient 34
sentons 34
sil@@ 34
simultan@@ 34
sis 34
soutenu 34
stockage 34
stress@@ 34
taire 34
temple 34
tenais 34
tenait 34
tombés 34
train@@ 34
trains 34
traitons 34
transférer 34
tronc 34
vel@@ 34
vendus 34
visuelles 34
ède 34
échouer 34
écrits 34
éman@@ 34
épaules 34
éradiquer 34
érant 34
érup@@ 34
étendu 34
étudient 34
--- 33
1998 33
20e 33
37 33
Bangladesh 33
Ble@@ 33
Bos@@ 33
Cambo@@ 33
Charlie 33
Cou@@ 33
Faire 33
Force 33
May@@ 33
New@@ 33
Projet 33
SETI 33
SMS 33
Tokyo 33
Tro@@ 33
aci@@ 33
actuels 33
align@@ 33
aliment@@ 33
altern@@ 33
amélioré 33
anor@@ 33
ans@@ 33
appartements 33
appropri@@ 33
ash 33
astronomie 33
ata 33
atis@@ 33
atome 33
attach@@ 33
aur@@ 33
aurai 33
banqui@@ 33
bibli@@ 33
billets 33
bond 33
boutique 33
béton 33
canal 33
centrales 33
chambres 33
chemise 33
clô@@ 33
cog@@ 33
compliqués 33
composés 33
compréhen@@ 33
concentrés 33
conclusions 33
confronté 33
consciemment 33
continuellement 33
conç@@ 33
courses 33
coûtent 33
crab@@ 33
curieuse 33
dev@@ 33
dimanche 33
dispose 33
division 33
donnerait 33
douleurs 33
décide 33
déform@@ 33
désespérément 33
déterminé 33
effondr@@ 33
effor@@ 33
envah@@ 33
ere 33
examens 33
extrémis@@ 33
fermier 33
fli@@ 33
flèche 33
gour@@ 33
grise 33
gâteau 33
géants 33
haine 33
hanche 33
hormones 33
humil@@ 33
ich 33
impliqu@@ 33
indiens 33
infec@@ 33
infiniment 33
injection 33
institu@@ 33
int 33
intestin 33
inventeur 33
irais 33
ivre 33
juger 33
kins 33
lap@@ 33
lin@@ 33
lon@@ 33
légi@@ 33
lét@@ 33
marge 33
margin@@ 33
mathématicien 33
modeler 33
montant 33
mouches 33
nigéri@@ 33
nou@@ 33
nourrissent 33
nutri@@ 33
négocier 33
ort 33
paradoxe 33
parcour@@ 33
participent 33
paysans 33
perdons 33
pertinent 33
philanthropie 33
plaques 33
plateau 33
pol@@ 33
policiers 33
pots 33
prati@@ 33
prime 33
prisons 33
projection 33
protégées 33
préc@@ 33
précip@@ 33
pénétr@@ 33
quoique 33
rayonnement 33
recettes 33
regardaient 33
regre@@ 33
rejo@@ 33
relève 33
remédier 33
retar@@ 33
récepteur 33
réci@@ 33
réfléchissons 33
réformes 33
rén@@ 33
répond@@ 33
résolus 33
révèle 33
sab@@ 33
saute 33
sexes 33
sifs 33
sinc@@ 33
soutient 33
spirale 33
statique 33
suivons 33
tan@@ 33
thérapies 33
traditionnelles 33
transport@@ 33
trav@@ 33
trompe 33
trouvais 33
tuberculose 33
tuent 33
tuyau 33
uniforme 33
vation 33
vents 33
vertes 33
violent 33
voté 33
voudriez 33
véri@@ 33
éco@@ 33
éditeur 33
électrodes 33
électromagné@@ 33
éprouv@@ 33
érée 33
éventail 33
,@@ 32
Alexand@@ 32
Ben@@ 32
Bonne 32
Conn@@ 32
Docteur 32
Eu@@ 32
Fi@@ 32
Fondation 32
Irani@@ 32
Juli@@ 32
Kosovo 32
Lewis 32
Lors 32
Mac 32
McDonal@@ 32
Narrateur 32
Probablement 32
Ric@@ 32
Sir 32
Sovi@@ 32
Sylvia 32
US@@ 32
Yé@@ 32
achè@@ 32
affectent 32
agré@@ 32
allume 32
ancêtre 32
annoncer 32
appelez 32
approprié 32
arabes 32
atterri 32
atterriss@@ 32
autonom@@ 32
balance 32
bert 32
bidonvilles 32
bits 32
bonus 32
campus 32
cancéreuses 32
carton 32
cauchem@@ 32
censés 32
centimètre 32
champignon 32
chau@@ 32
cherch@@ 32
chô@@ 32
cités 32
clic 32
cliquer 32
combler 32
composit@@ 32
compét@@ 32
conqu@@ 32
consist@@ 32
consul@@ 32
contraste 32
contribue 32
contrôlent 32
contrôlé 32
copies 32
cri 32
cue@@ 32
cuisini@@ 32
cé 32
descendent 32
dess@@ 32
dessinée 32
devenons 32
diff@@ 32
discuté 32
div@@ 32
domicile 32
drait 32
déclar@@ 32
dépit 32
dérange 32
ensembles 32
erg@@ 32
ex 32
exacte 32
excités 32
expertise 32
expliquent 32
ext@@ 32
extraits 32
fabriquent 32
fabuleux 32
faibl@@ 32
familiers 32
financé 32
fourni 32
frag@@ 32
fragment@@ 32
fréquences 32
gare 32
geait 32
gouver@@ 32
géographique 32
hallucinations 32
ical 32
illégal 32
impacts 32
indices 32
influenc@@ 32
intrinsèquement 32
introduction 32
intuiti@@ 32
invités 32
inévitablement 32
iraient 32
itures 32
jetons 32
jets 32
justi@@ 32
lentilles 32
levier 32
lo 32
mac@@ 32
mage 32
majeurs 32
mam@@ 32
marchant 32
mentir 32
milit@@ 32
missions 32
more 32
moutons 32
mun@@ 32
musées 32
mécan@@ 32
naiss@@ 32
naï@@ 32
nerveu@@ 32
nette 32
neutre 32
noires 32
nommer 32
nul 32
nus 32
omè@@ 32
onné 32
orm@@ 32
parlions 32
pass@@ 32
pati@@ 32
perfec@@ 32
pis@@ 32
plais@@ 32
plaisante 32
posons 32
poster 32
pper 32
privilégi@@ 32
privées 32
prochains 32
prothèse 32
préférées 32
prévisions 32
publication 32
rapprocher 32
regarder@@ 32
reç@@ 32
rond 32
règ@@ 32
réagissent 32
réc@@ 32
récol@@ 32
récup@@ 32
régimes 32
sculptures 32
sen@@ 32
sign@@ 32
soign@@ 32
sondage 32
ssent 32
standards 32
sui@@ 32
surg@@ 32
survivent 32
tactile 32
terez 32
tiend@@ 32
tirée 32
tit 32
transplant@@ 32
vierge 32
violents 32
vœu 32
ze 32
Ê@@ 32
écrivent 32
égal 32
élas@@ 32
éléphants 32
émerge 32
épaiss@@ 32
épo@@ 32
00@@ 31
Ab@@ 31
Air@@ 31
App@@ 31
Arrê@@ 31
Atlant@@ 31
Brooklyn 31
Eco@@ 31
Es@@ 31
Indoné@@ 31
Johnny 31
Jones 31
Jupiter 31
Kevin 31
Lac@@ 31
Laden 31
Levez 31
Ministère 31
Montana 31
Neandertal 31
Phoenix 31
Pittsburgh 31
Premier 31
Révolution 31
Singap@@ 31
Ste@@ 31
Sécurité 31
Vol@@ 31
WK 31
West 31
Wi@@ 31
Wil@@ 31
accéléré 31
achat 31
ado 31
affecter 31
ajoutons 31
alistes 31
ambition 31
ampoules 31
amusante 31
anch@@ 31
angles 31
antenne 31
anthropolo@@ 31
anxiété 31
apprécié 31
aptitudes 31
assassin@@ 31
astuce 31
atteign@@ 31
atteignent 31
audaci@@ 31
autorisé 31
bac@@ 31
baig@@ 31
balis@@ 31
basés 31
battent 31
bombar@@ 31
bris@@ 31
brute 31
cesser 31
chanti@@ 31
charité 31
circuler 31
commençaient 31
composent 31
connaitre 31
consacrer 31
conservation 31
consomme 31
construisez 31
courri@@ 31
coïncid@@ 31
crayon 31
critères 31
croyaient 31
crédi@@ 31
créées 31
curseur 31
dal@@ 31
denses 31
diagnosti@@ 31
diffuser 31
dig@@ 31
dispos@@ 31
disposons 31
dissements 31
distr@@ 31
divor@@ 31
dri@@ 31
dus 31
décident 31
découpe 31
découvrez 31
découvrons 31
détecteurs 31
déteste 31
dî@@ 31
effon@@ 31
empreintes 31
emprunter 31
enrou@@ 31
entendent 31
enthousiastes 31
envoyez 31
esp@@ 31
essayaient 31
essentiels 31
esti@@ 31
eter 31
exploré 31
extraordinairement 31
faci@@ 31
ff 31
filmer 31
filtres 31
fun@@ 31
fusée 31
gag@@ 31
grenouilles 31
griff@@ 31
ham@@ 31
initial 31
inno@@ 31
ino 31
instantan@@ 31
intentions 31
investi@@ 31
iron@@ 31
issue 31
je@@ 31
kin 31
lisent 31
listes 31
lutt@@ 31
légal 31
manifeste 31
maquette 31
marchandises 31
marrant 31
maître 31
merveille 31
miel 31
migration 31
minim@@ 31
musicien 31
mycélium 31
méritent 31
négatifs 31
orientation 31
parait 31
parasite 31
parfaits 31
paye 31
percev@@ 31
personnalis@@ 31
philosophique 31
pies 31
pitié 31
piège 31
planche 31
promis 31
prostitu@@ 31
prélever 31
prêter 31
ramené 31
reconstruction 31
regardiez 31
représentations 31
ressortir 31
retiré 31
reurs 31
riers 31
rive 31
robo@@ 31
réalisée 31
réduc@@ 31
répand 31
réponds 31
résonance 31
révolutionnaire 31
rêver 31
sauvetage 31
sci@@ 31
serviette 31
signal@@ 31
sixième 31
sk@@ 31
soigneusement 31
soulève 31
soumis 31
sph@@ 31
stylo 31
submer@@ 31
sucr@@ 31
suppos@@ 31
surveill@@ 31
tempête 31
testé 31
tex@@ 31
tième 31
traitent 31
transfert 31
triangle 31
trist@@ 31
tunnel 31
téléphon@@ 31
urb@@ 31
vertical 31
vibr@@ 31
vions 31
voeu 31
voter 31
voyage@@ 31
vulnérable 31
âmes 31
échafaud@@ 31
épou@@ 31
.... 30
1,5 30
38 30
Alex 30
Alpha 30
Arthur 30
Bel@@ 30
Cl@@ 30
Craig 30
Daniel 30
Disney 30
Enfant 30
Essayez 30
Essayons 30
Fille 30
Indien 30
Lab 30
Mike 30
Nami@@ 30
Pau@@ 30
Pop@@ 30
Regarde 30
Ret@@ 30
Ros@@ 30
Stephen 30
Ter@@ 30
Teszler 30
Van 30
Watson 30
Whit@@ 30
abatt@@ 30
accident@@ 30
accords 30
activistes 30
ajuster 30
aléatoires 30
anecdote 30
angiogen@@ 30
ani 30
anique 30
arc 30
arrivais 30
arrivant 30
ash@@ 30
assisté 30
asth@@ 30
astronomes 30
atom@@ 30
attr@@ 30
bal 30
basant 30
baseball 30
basses 30
blogu@@ 30
cali@@ 30
candidats 30
carre@@ 30
cascade 30
casser 30
centi@@ 30
chante 30
chaus@@ 30
choqu@@ 30
cognitive 30
cognitives 30
commer@@ 30
complét@@ 30
composer 30
composée 30
compétence 30
connaissaient 30
consistait 30
contacts 30
cosmique 30
crises 30
crois@@ 30
croyant 30
dauphin 30
demandaient 30
demandes 30
destinée 30
dominante 30
doués 30
drogu@@ 30
drôles 30
définie 30
déplaçant 30
développ@@ 30
déç@@ 30
emails 30
embrasser 30
enceintes 30
entendons 30
entendue 30
enthousiaste 30
entiers 30
esclaves 30
essions 30
estom@@ 30
exceptionn@@ 30
existaient 30
existé 30
expul@@ 30
faculté 30
fermement 30
flo@@ 30
fonctionnel 30
foot 30
fragments 30
frustration 30
fus 30
féminin 30
gardé 30
gg@@ 30
glise 30
gradu@@ 30
gratuits 30
grossi@@ 30
gy@@ 30
générosité 30
hommage 30
hydr@@ 30
héli@@ 30
iceberg 30
identifié 30
improbable 30
inconsci@@ 30
indépendamment 30
inement 30
instants 30
institutionn@@ 30
interviews 30
intér@@ 30
inventions 30
invitation 30
iné@@ 30
ironie 30
irré@@ 30
isolé 30
kilo@@ 30
levure 30
lex@@ 30
libère 30
lingu@@ 30
liqu@@ 30
maintenance 30
mix@@ 30
mortel 30
motive 30
musulman@@ 30
mutu@@ 30
médiatique 30
navigation 30
négatives 30
objec@@ 30
ocul@@ 30
om 30
onner 30
onto@@ 30
ouvertes 30
oï@@ 30
parcs 30
particuli@@ 30
pens@@ 30
peupl@@ 30
plongé 30
pneu@@ 30
polaires 30
possédons 30
pous@@ 30
pratiquer 30
pre 30
projeter 30
prop@@ 30
propager 30
prothèses 30
préservation 30
présid@@ 30
quettes 30
rationnel 30
recevez 30
renverser 30
respire 30
ressemblerait 30
restaurer 30
rurales 30
règne 30
réalisent 30
récipi@@ 30
réforme 30
résilience 30
sachiez 30
sahari@@ 30
sangu@@ 30
score 30
scènes 30
seringue 30
sin@@ 30
stat@@ 30
stocker 30
suggéré 30
suprême 30
suspend@@ 30
tac@@ 30
temp@@ 30
terreur 30
thè@@ 30
thèse 30
timi@@ 30
tionnellement 30
tiquement 30
tirent 30
toxines 30
victoire 30
vingtaine 30
véritables 30
we@@ 30
zoomer 30
çon 30
épouvant@@ 30
équit@@ 30
étouff@@ 30
œu@@ 30
160 29
180 29
190@@ 29
21e 29
34 29
3ème 29
50@@ 29
52 29
97 29
Amy 29
BJ 29
Bat@@ 29
Berkeley 29
Cap@@ 29
Département 29
FM@@ 29
Jane 29
Kennedy 29
Mag@@ 29
Mau@@ 29
Musulmans 29
Natasha 29
Organ@@ 29
Pan@@ 29
R.@@ 29
Rou@@ 29
Stop 29
Tasmanie 29
Util@@ 29
acqui@@ 29
activement 29
ader 29
affir@@ 29
affirmer 29
agrand@@ 29
agu@@ 29
aimant 29
amenés 29
ami@@ 29
anatomie 29
anéanti@@ 29
appliqué 29
aquarium 29
arguments 29
armées 29
arrang@@ 29
associer 29
athée 29
attraction 29
austr@@ 29
automatique 29
baby 29
bancaire 29
bibliothèques 29
blessés 29
boites 29
bén@@ 29
cabinet 29
carottes 29
carreaux 29
carri@@ 29
cascades 29
certi@@ 29
cet@@ 29
chariot 29
chasser 29
chauffer 29
circon@@ 29
cloche 29
communes 29
comparez 29
compliquées 29
concre@@ 29
concurr@@ 29
connectome 29
conseill@@ 29
considération 29
construisant 29
coordination 29
coqu@@ 29
corrom@@ 29
couv@@ 29
couvrent 29
coû@@ 29
cultu@@ 29
céan 29
diapos 29
dirigent 29
diss@@ 29
doubler 29
découvri@@ 29
défil@@ 29
détest@@ 29
embau@@ 29
embê@@ 29
emplo@@ 29
entendrez 29
entrons 29
envoy@@ 29
ester 29
feraient 29
fice 29
fiche 29
fluide 29
foncé 29
fusionn@@ 29
futurs 29
galerie 29
gardez 29
gasp@@ 29
glaciers 29
gré 29
guér@@ 29
géante 29
généreux 29
heureuses 29
historiquement 29
hop 29
hospit@@ 29
ication 29
icône 29
impôts 29
industri@@ 29
indépendants 29
infos 29
inhabitu@@ 29
innover 29
inquiets 29
inspec@@ 29
instinct 29
interventions 29
introver@@ 29
intégrée 29
intéri@@ 29
isions 29
issante 29
itié 29
jalou@@ 29
jouons 29
judici@@ 29
les@@ 29
libellules 29
line 29
liques 29
manifestation 29
manifestations 29
mention@@ 29
meur@@ 29
morales 29
motiver 29
mouton 29
mystérieux 29
métri@@ 29
no 29
notamment 29
obsession 29
oct@@ 29
optimisme 29
orgas@@ 29
ose 29
parabo@@ 29
passante 29
penseurs 29
phases 29
phone 29
piles 29
poli@@ 29
polluants 29
pompiers 29
postes 29
postul@@ 29
potenti@@ 29
poulets 29
prendrait 29
preniez 29
pressions 29
priorité 29
producteur 29
productive 29
prof 29
prolif@@ 29
prolong@@ 29
protest@@ 29
précieuses 29
préoccuper 29
présentations 29
prétend@@ 29
psychologiques 29
publiée 29
ref@@ 29
remplie 29
rencontrez 29
renforcer 29
roy@@ 29
réuni@@ 29
satisfait 29
sauté 29
semblant 29
shirt 29
sphères 29
spontanément 29
spéciales 29
sugg@@ 29
susceptible 29
symbolique 29
techniciens 29
tel@@ 29
théorique 29
tir@@ 29
tirez 29
tranch@@ 29
tuiles 29
ub@@ 29
urbaines 29
urg@@ 29
valor@@ 29
variable 29
vendeur 29
vergure 29
verriez 29
viez 29
visité 29
vitamine 29
voyag@@ 29
éclaté 29
écrivais 29
électeurs 29
élevées 29
élè@@ 29
émergent 29
éparg@@ 29
étiques 29
étrangères 29
évolutionn@@ 29
évoque 29
.org 28
1500 28
1900 28
24@@ 28
98 28
Alaska 28
Albert 28
Caraï@@ 28
Cho@@ 28
Indi@@ 28
JA 28
Jay 28
Jeff 28
Min@@ 28
Ministre 28
Norv@@ 28
Parlons 28
Pu@@ 28
Rick 28
Rouge 28
Réc@@ 28
Sarah 28
Sept 28
Sierra 28
Souv@@ 28
Star 28
Trouv@@ 28
Tu@@ 28
Voie 28
accueill@@ 28
accélération 28
acu@@ 28
adoré 28
alphabet 28
als 28
altru@@ 28
amp@@ 28
analysé 28
anatom@@ 28
animés 28
ann@@ 28
antéri@@ 28
apprises 28
arrêtez 28
astu@@ 28
atin 28
ato@@ 28
auti@@ 28
avançons 28
avo@@ 28
avouer 28
bagu@@ 28
bassin 28
biom@@ 28
biotechnologie 28
bloquer 28
brancher 28
brevet 28
brins 28
brisé 28
britanniques 28
brûle 28
bê@@ 28
calculé 28
campagnes 28
capitaine 28
centri@@ 28
chagr@@ 28
chan@@ 28
chargé 28
chimiste 28
châ@@ 28
circul@@ 28
clef 28
collecte 28
combinaisons 28
compatiss@@ 28
compose 28
comprenait 28
concernés 28
condamné 28
connaissions 28
consciente 28
conseiller 28
contemporain 28
contourner 28
contrô@@ 28
convient 28
crier 28
crist@@ 28
croy@@ 28
croître 28
cruciale 28
cuivre 28
descendez 28
disciplines 28
divise 28
donnaient 28
doses 28
débattre 28
débit 28
déci@@ 28
dédié 28
définissent 28
dépendent 28
déploy@@ 28
détestent 28
endor@@ 28
enthousias@@ 28
entraîné 28
entrepris 28
escar@@ 28
esthé@@ 28
excitante 28
fau@@ 28
favori 28
ferions 28
financières 28
fixé 28
fiés 28
flu@@ 28
fond@@ 28
gorge 28
gouvernementales 28
graphis@@ 28
greffe 28
guérison 28
génomique 28
habite 28
habituelle 28
humili@@ 28
hésit@@ 28
illustration 28
impulsions 28
inclu@@ 28
industriels 28
infrarou@@ 28
interrupteur 28
inv@@ 28
jugés 28
lancée 28
lentille 28
lins 28
lis 28
loc@@ 28
lots 28
maintient 28
manqué 28
mariée 28
mascul@@ 28
mette 28
meu@@ 28
misère 28
mosqu@@ 28
moto 28
moule 28
mousson 28
mus@@ 28
muscul@@ 28
mysti@@ 28
mystères 28
mâchoire 28
mème 28
méch@@ 28
médicales 28
nationaux 28
notation 28
notions 28
ore@@ 28
organise 28
originaire 28
oul@@ 28
ourn@@ 28
panique 28
parasites 28
parent@@ 28
personn@@ 28
ple@@ 28
plie 28
pointes 28
primitive 28
profession 28
profil 28
progr@@ 28
projec@@ 28
propor@@ 28
protocellule 28
py@@ 28
pénétrer 28
pôle 28
raisonn@@ 28
rajou@@ 28
ralenti 28
rassemblent 28
recueillir 28
relativité 28
relev@@ 28
rendons 28
rentrent 28
renvoy@@ 28
ressemblera 28
restes 28
rey 28
rotation 28
rural 28
ry@@ 28
récentes 28
rép@@ 28
répandu 28
réside 28
réussit 28
réveiller 28
révél@@ 28
sections 28
simpli@@ 28
sonor@@ 28
sophistiqué 28
souviennent 28
sperme 28
subventions 28
sul@@ 28
symétrique 28
sécher@@ 28
séquencer 28
tabac 28
tau@@ 28
terri@@ 28
tor 28
tranches 28
travail@@ 28
tuées 28
twe@@ 28
témoign@@ 28
universitaires 28
verrou@@ 28
violente 28
virtuels 28
visualis@@ 28
vivais 28
voc@@ 28
vr@@ 28
vécue 28
vérités 28
vêtement 28
wa 28
week 28
y. 28
yn 28
âgé 28
èce 28
éclairé 28
écolog@@ 28
écoutent 28
éloignés 28
émerg@@ 28
émergé 28
énig@@ 28
équi@@ 28
éro 28
évoquer 28
) 27
31 27
43 27
450 27
900 27
Ach@@ 27
Arabie 27
Autre 27
Bir@@ 27
Bouddha 27
Cas@@ 27
Cham@@ 27
Eric 27
Général 27
Hall 27
Hans 27
Harry 27
IM@@ 27
International 27
Isl@@ 27
Jill 27
Joe 27
Joseph 27
Nu@@ 27
Pennsyl@@ 27
Petit 27
Première 27
Ri@@ 27
Rover 27
Sir@@ 27
Square 27
St 27
TE@@ 27
Thé@@ 27
Tor@@ 27
Viens 27
abat@@ 27
aboutir 27
accrocher 27
activé 27
africaines 27
aider@@ 27
alarme 27
ambul@@ 27
ament 27
anche 27
angl@@ 27
anneaux 27
anticorps 27
appe 27
apprend@@ 27
arrêtés 27
artistiques 27
assister 27
attributs 27
aut 27
autru@@ 27
ayer 27
ballons 27
bam@@ 27
bile 27
blesser 27
bot@@ 27
bricol@@ 27
bureaucrati@@ 27
calcule 27
camp@@ 27
canard 27
capitaux 27
carburants 27
cartographi@@ 27
catastrophi@@ 27
cav@@ 27
centimes 27
chanteurs 27
chaussure 27
chips 27
choisissez 27
chrétiens 27
cieux 27
cip@@ 27
cis@@ 27
cles 27
cliché 27
coiff@@ 27
coli 27
confin@@ 27
conn@@ 27
contrain@@ 27
crain@@ 27
cuir 27
cuisson 27
cybercrimin@@ 27
cérémonie 27
dale 27
dement 27
den 27
dialo@@ 27
diplômés 27
documentaire 27
dorm@@ 27
drap@@ 27
dul@@ 27
durabilité 27
débris 27
décriv@@ 27
démarre 27
démocratiques 27
déplacé 27
dérang@@ 27
dévelop@@ 27
effac@@ 27
ego 27
eme 27
emporte 27
ena 27
ench@@ 27
endre 27
endur@@ 27
entités 27
entrant 27
espoirs 27
essi@@ 27
estimé 27
eue 27
européenne 27
excitation 27
excl@@ 27
exerc@@ 27
fas@@ 27
fassions 27
fichier 27
fierté 27
filmé 27
flexible 27
fossile 27
franchir 27
futures 27
gang@@ 27
gangs 27
gau@@ 27
gel 27
gentils 27
glacier 27
gobel@@ 27
grade 27
gér@@ 27
géré 27
hall 27
ham 27
han 27
imaginiez 27
immer@@ 27
impressions 27
inaugur@@ 27
incluant 27
indiennes 27
infecti@@ 27
influencé 27
inond@@ 27
insé@@ 27
interfér@@ 27
interpr@@ 27
intégrés 27
investiss@@ 27
juillet 27
lan 27
latér@@ 27
lois@@ 27
léopard 27
marchera 27
mariages 27
massives 27
mentors 27
mesdames 27
minéraux 27
model@@ 27
modeste 27
multination@@ 27
musical 27
mystéri@@ 27
méditation 27
méduse 27
méfi@@ 27
mélanger 27
mû@@ 27
obsol@@ 27
oivent 27
ong 27
orbit@@ 27
ordres 27
orteils 27
oublions 27
partenariats 27
partez 27
passaient 27
passerelle 27
pend@@ 27
persu@@ 27
pesticides 27
pharmaceu@@ 27
photographes 27
pill@@ 27
pivo@@ 27
planning 27
politiquement 27
prior@@ 27
priv@@ 27
produites 27
profonds 27
programmeurs 27
propulsion 27
protec@@ 27
protège 27
prouve 27
précieuse 27
précédem@@ 27
préférence 27
psych@@ 27
publicités 27
pénible 27
pô@@ 27
racontent 27
raffin@@ 27
ran 27
rappel 27
rayonn@@ 27
reconnaiss@@ 27
recueill@@ 27
reposer 27
représentés 27
repérer 27
responsabilités 27
ressentons 27
restez 27
reusement 27
réglement@@ 27
résidents 27
réuni 27
sa@@ 27
san@@ 27
semblerait 27
semblé 27
sensations 27
sexualité 27
signé 27
sit@@ 27
souffrir 27
sovi@@ 27
spécul@@ 27
subit 27
suffisante 27
suicide 27
supéri@@ 27
sus 27
sélection@@ 27
taxi 27
tentent 27
tionnaire 27
tors 27
touchée 27
tracer 27
transformant 27
tuyaux 27
ultrasons 27
universel@@ 27
utilité 27
vas@@ 27
verront 27
vibration 27
vint 27
virale 27
visuels 27
voudraient 27
voudrions 27
vélos 27
vén@@ 27
vér@@ 27
vê@@ 27
zz@@ 27
âgée 27
âtre 27
ènes 27
éc@@ 27
émeutes 27
énergétiques 27
éno@@ 27
équip@@ 27
étroitement 27
évapor@@ 27
évidentes 27
évolutionnaire 27
18ème 26
30@@ 26
6000 26
Alice 26
Brad 26
Canyon 26
Chez 26
Dis@@ 26
El 26
FG 26
Je@@ 26
Louis 26
MA 26
Man 26
Mme 26
Mont 26
Nouv@@ 26
Pol@@ 26
Prince 26
Professeur 26
SI 26
SR@@ 26
Saou@@ 26
South 26
W 26
William 26
ab 26
accepte 26
act@@ 26
actionn@@ 26
ado@@ 26
affirme 26
aidez 26
aisses 26
album 26
alliés 26
animale 26
anmoins 26
anticip@@ 26
anticiper 26
août 26
arbitr@@ 26
arrivées 26
aussitôt 26
automobiles 26
bais@@ 26
basculer 26
battements 26
bijoux 26
blessé 26
bosse 26
bouff@@ 26
boutons 26
bran@@ 26
brer 26
brevets 26
bâtir 26
cardio@@ 26
carit@@ 26
cellulaires 26
cessé 26
chao@@ 26
chaudes 26
chauds 26
choisissons 26
choléra 26
chorale 26
chèque 26
cibl@@ 26
ciné@@ 26
clam@@ 26
combiné 26
commerciales 26
composant 26
composante 26
comprim@@ 26
concrè@@ 26
conduits 26
configuration 26
confor@@ 26
confronter 26
consentement 26
continuité 26
convul@@ 26
copyright 26
corriger 26
croyable 26
crè@@ 26
créatives 26
crête 26
cules 26
danseurs 26
devra 26
diam@@ 26
digne 26
diminution 26
dominant 26
dommages 26
déchi@@ 26
défini@@ 26
dépendants 26
désaccord 26
désirs 26
développons 26
eBay 26
embarrass@@ 26
empi@@ 26
encad@@ 26
encour@@ 26
encyclopédie 26
engr@@ 26
enregistrements 26
entières 26
entrées 26
envelop@@ 26
environnementales 26
envoyée 26
envoyés 26
excus@@ 26
excuse 26
exposer 26
exécuter 26
fense 26
flash 26
flexibilité 26
flotte 26
flou@@ 26
flèches 26
flû@@ 26
fondateur 26
fournisseurs 26
fran@@ 26
gam@@ 26
gelé 26
gol@@ 26
graine 26
hackers 26
hamburger 26
ices 26
iculture 26
illustre 26
imaginons 26
impression@@ 26
inquiét@@ 26
instinc@@ 26
insur@@ 26
interrup@@ 26
isoler 26
itement 26
jardins 26
jouaient 26
ki@@ 26
limiter 26
localisation 26
lèvement 26
légers 26
maintes 26
malnutrition 26
marier 26
marines 26
maîtr@@ 26
merveilles 26
mesu@@ 26
minorité 26
minu@@ 26
montage 26
montrez 26
moraux 26
municip@@ 26
métaphores 26
nais 26
nions 26
noix 26
obli@@ 26
occupés 26
ok@@ 26
optim@@ 26
opère 26
palais 26
pantal@@ 26
parallèles 26
partage@@ 26
perdues 26
permettrait 26
peu@@ 26
pharmaceutiques 26
pie 26
pilules 26
plaindre 26
plas@@ 26
pollin@@ 26
pop 26
portraits 26
poussant 26
prairies 26
primaires 26
produ@@ 26
profit@@ 26
promener 26
prosp@@ 26
protégée 26
préfrontal 26
présume 26
psychologue 26
publications 26
pét@@ 26
rassemblement 26
refer@@ 26
remet 26
respectu@@ 26
resse 26
restant 26
reté 26
revenue 26
rigi@@ 26
ruisse@@ 26
russe 26
réalités 26
réconcili@@ 26
récupéré 26
régénérer 26
réjou@@ 26
réper@@ 26
répu@@ 26
répétition 26
rétaire 26
rêvé 26
satis@@ 26
segment 26
sel@@ 26
sensibil@@ 26
situé 26
ski 26
slogan 26
soeurs 26
sonn@@ 26
souffrances 26
soumettre 26
spontan@@ 26
stimulation 26
stop 26
symphon@@ 26
systémati@@ 26
sépare 26
séries 26
techniquement 26
terai 26
terroriste 26
tomate 26
tombez 26
trez 26
troubl@@ 26
trouble 26
trouvera 26
tz 26
téléphonique 26
télévis@@ 26
variables 26
viendront 26
viol 26
violon@@ 26
viser 26
visibles 26
vocabulaire 26
volcan@@ 26
wood 26
yp@@ 26
égaux 26
émet@@ 26
épin@@ 26
épon@@ 26
érité 26
étiquet@@ 26
étudions 26
100@@ 25
17ème 25
4000 25
5.000 25
96 25
Absolu@@ 25
Africain 25
Andrew 25
Applau@@ 25
At@@ 25
Bangal@@ 25
CA@@ 25
CAPTCHA 25
Carl 25
Chris@@ 25
Danemar@@ 25
Data 25
Dix 25
East 25
Elizabeth 25
Ger@@ 25
Ham@@ 25
Himalay@@ 25
IBM 25
Iraq 25
Kansas 25
Kar@@ 25
Ken 25
Kibera 25
Lama 25
Lau@@ 25
Lin@@ 25
Luther 25
MT 25
Mach@@ 25
Media 25
Mou@@ 25
Nor@@ 25
Olym@@ 25
Ph@@ 25
Presque 25
Rio 25
Républic@@ 25
Santa 25
School 25
Sibéri@@ 25
Sid@@ 25
Sous 25
Temp@@ 25
Toronto 25
Té@@ 25
UV 25
Venez 25
Wat@@ 25
Wolfram 25
_ 25
accus@@ 25
addi@@ 25
affecté 25
affich@@ 25
affron@@ 25
agement 25
aimerait 25
alentours 25
alimenter 25
amateur 25
amén@@ 25
ango@@ 25
ano@@ 25
aspirations 25
attachement 25
attaqué 25
atte@@ 25
atteints 25
auditoire 25
aut@@ 25
autop@@ 25
autoroutes 25
boudd@@ 25
brûlé 25
budgets 25
cachés 25
calendrier 25
can 25
canap@@ 25
caoutchou@@ 25
causé 25
chem@@ 25
chevau@@ 25
choisit 25
chuté 25
cir 25
codes 25
coincés 25
collaborative 25
commençais 25
complè@@ 25
concentrez 25
conducteurs 25
conduis@@ 25
considérablement 25
constant 25
constitution 25
contenter 25
contenus 25
continuez 25
contribuent 25
controvers@@ 25
coquille 25
cosmos 25
couru 25
couss@@ 25
crai@@ 25
croissante 25
crème 25
cuis@@ 25
cyber 25
cécité 25
descente 25
deviens 25
diplô@@ 25
disponibilité 25
dispu@@ 25
disques 25
dist@@ 25
distribué 25
dy@@ 25
dynam@@ 25
débats 25
déch@@ 25
déclenche 25
définis 25
dérouler 25
eil 25
empris@@ 25
ennuis 25
err@@ 25
excuses 25
exige 25
externe 25
fabriquons 25
faisiez 25
fast 25
fondu 25
fonte 25
formée 25
fruit 25
fusées 25
garantir 25
gardiens 25
gaspillage 25
gecko 25
genou 25
glisser 25
glori@@ 25
gor@@ 25
graph@@ 25
guit@@ 25
géométri@@ 25
habill@@ 25
handicap 25
high 25
honnêteté 25
hôte 25
ice 25
illent 25
illi@@ 25
imit@@ 25
improvisation 25
impré@@ 25
indirec@@ 25
indépendantes 25
infecté 25
infectées 25
interprét@@ 25
invers@@ 25
irement 25
issus 25
jongl@@ 25
juif 25
justes 25
lan@@ 25
lang@@ 25
laï@@ 25
leur@@ 25
leuse 25
libéré 25
longu@@ 25
lâcher 25
magiques 25
malh@@ 25
manifes@@ 25
manipulation 25
mardi 25
maîtriser 25
membrane 25
mentales 25
menée 25
merveilleusement 25
modéliser 25
mortelle 25
mè@@ 25
natale 25
netto@@ 25
nomme 25
non@@ 25
obligés 25
oeu@@ 25
off 25
oies 25
otte 25
oublie 25
ouvri@@ 25
oxyde 25
pacifi@@ 25
pair 25
partition 25
passive 25
penche 25
pencher 25
philosoph@@ 25
philosophe 25
pilule 25
places 25
pleure 25
portez 25
portons 25
primates 25
procurer 25
promesses 25
protégé 25
prud@@ 25
précipit@@ 25
précéd@@ 25
pus 25
pée 25
pétro@@ 25
racontons 25
radiations 25
rapporter 25
redéfinir 25
remporté 25
rencontres 25
renvoie 25
repli@@ 25
restera 25
retire 25
retournons 25
reviendrai 25
rock 25
région@@ 25
répliquer 25
résolu@@ 25
réussi@@ 25
révolutions 25
sages 25
sains 25
scénarios 25
sent@@ 25
seurs 25
sorties 25
souffert 25
spaghetti 25
spectateur 25
spectateurs 25
stag@@ 25
sév@@ 25
tag@@ 25
tapez 25
techno@@ 25
tendent 25
tenons 25
tig@@ 25
traient 25
travailleur 25
tremp@@ 25
troupeau 25
trouv@@ 25
tues 25
typo@@ 25
ung 25
utop@@ 25
utér@@ 25
vétér@@ 25
wi@@ 25
yons 25
écoutant 25
égoï@@ 25
énerv@@ 25
équivaut 25
éradication 25
étroite 25
étudiante 25
100.000 24
140 24
40@@ 24
44 24
Ah@@ 24
Amsterdam 24
Ass@@ 24
Bab@@ 24
Beach 24
Britanni@@ 24
Bro@@ 24
CO 24
College 24
Colom@@ 24
Cy@@ 24
Danny 24
Dean 24
Dem@@ 24
Design 24
Far@@ 24
Hou@@ 24
Hun@@ 24
Jefferson 24
Ke@@ 24
Lee 24
Luc@@ 24
Mili@@ 24
Mur@@ 24
Natu@@ 24
Norman 24
Op@@ 24
RW 24
Remarquez 24
Robo@@ 24
Ross 24
Sén@@ 24
Tibet 24
Ty@@ 24
Windows 24
Zimbabwe 24
activis@@ 24
adaptés 24
admis 24
af 24
affam@@ 24
agrandir 24
allumé 24
amè@@ 24
anges 24
anneau 24
approuvé 24
arché@@ 24
ari 24
assises 24
assés 24
ater 24
atisation 24
attachés 24
atténu@@ 24
autorisés 24
bab@@ 24
balad@@ 24
ball 24
banqu@@ 24
bioluminescence 24
blagues 24
bottes 24
bouill@@ 24
cabane 24
calam@@ 24
calcium 24
capitalis@@ 24
caric@@ 24
cartographier 24
cathédr@@ 24
causer 24
chatou@@ 24
cherchait 24
chèvre 24
cim@@ 24
cinquante 24
civiles 24
clas@@ 24
classement 24
collaborer 24
collines 24
combat@@ 24
comédi@@ 24
concentrent 24
conclu 24
conden@@ 24
conduisent 24
connectent 24
considérée 24
constat@@ 24
continuera 24
convainc@@ 24
convictions 24
coralliens 24
couples 24
courent 24
célébrité 24
demanda 24
dimension@@ 24
diner 24
diplômé 24
disiez 24
dissi@@ 24
district 24
dom@@ 24
donna 24
dormi 24
déclarations 24
déclin@@ 24
décoller 24
décro@@ 24
dép@@ 24
dépôt 24
désertification 24
désh@@ 24
empil@@ 24
entendues 24
entrainer 24
envoyait 24
ep 24
estimations 24
exceptionnel 24
exer@@ 24
fabricant 24
fabricants 24
fant@@ 24
favorite 24
ferez 24
figur@@ 24
fière 24
fièvre 24
fleuve 24
fourni@@ 24
frac@@ 24
furi@@ 24
fût 24
galeries 24
gaz@@ 24
ges@@ 24
grandement 24
grandi@@ 24
grati@@ 24
grenouille 24
gri@@ 24
habitent 24
hind@@ 24
hostile 24
hysi@@ 24
icole 24
ignore 24
impati@@ 24
impliquent 24
impliquée 24
imprimé 24
imprég@@ 24
inaire 24
inciter 24
inconvéni@@ 24
inscrit 24
inspire 24
intimid@@ 24
intégrante 24
irez 24
ision 24
ital 24
ium 24
japon@@ 24
jardin@@ 24
jumeaux 24
jungle 24
lib@@ 24
librai@@ 24
limités 24
mails 24
maintien 24
male 24
mammaire 24
management 24
marchez 24
masque 24
mesurée 24
mondi@@ 24
monie 24
montrait 24
moqu@@ 24
motivations 24
mutil@@ 24
mélange@@ 24
narration 24
nerf 24
nons 24
nour@@ 24
nécess@@ 24
obsc@@ 24
oeufs 24
offrent 24
oni@@ 24
opèrent 24
organisée 24
orie 24
ots 24
ouragan 24
ouvrent 24
oxy@@ 24
passionnés 24
patience 24
patiente 24
patte 24
permette 24
perturb@@ 24
pharmac@@ 24
photographier 24
phy@@ 24
pic@@ 24
pili@@ 24
pirates 24
pixels 24
planifier 24
planté 24
plateformes 24
pluies 24
poison 24
portés 24
potentielle 24
pourr@@ 24
prenions 24
prescri@@ 24
procéder 24
produisant 24
projeté 24
promo@@ 24
propage 24
protocellules 24
préfé@@ 24
présentée 24
prêtes 24
pées 24
périphérie 24
rapporté 24
rassemblés 24
refroidir 24
refroidissement 24
remor@@ 24
reproduisent 24
représentant 24
ressemblaient 24
restés 24
retournée 24
retrouvez 24
rigou@@ 24
ro 24
russes 24
réalisons 24
réception 24
réfugi@@ 24
référ@@ 24
répartition 24
répertoire 24
réservoir 24
rétablir 24
révol@@ 24
sang@@ 24
scop@@ 24
seins 24
sies 24
soirs 24
soulever 24
souple 24
statue 24
stéréotypes 24
supérieurs 24
sym@@ 24
sû@@ 24
tal 24
tangible 24
tape 24
tat@@ 24
teraient 24
tourbill@@ 24
transf@@ 24
trich@@ 24
triomph@@ 24
ument 24
valoir 24
veil@@ 24
vendeurs 24
vern@@ 24
vertu 24
vibrer 24
violon 24
virtuellement 24
visit@@ 24
volants 24
zoom@@ 24
éclair@@ 24
économiquement 24
écriv@@ 24
écrivait 24
éditeurs 24
élaborer 24
éping@@ 24
épisode 24
épouser 24
étiquettes 24
évid@@ 24
= 23
AIMS 23
Age 23
Air 23
Amazon@@ 23
Ash@@ 23
Bomb@@ 23
Bor@@ 23
Contrairement 23
Dick 23
Développement 23
Ed@@ 23
Europé@@ 23
Galapagos 23
Jersey 23
Jet@@ 23
Juifs 23
Julia 23
Jérusal@@ 23
Kelly 23
Kyoto 23
Linux 23
Massachusetts 23
Observ@@ 23
Occident@@ 23
PA 23
Père 23
Pé@@ 23
Rand@@ 23
Reagan 23
Roi 23
Rus@@ 23
Sahara 23
Sam@@ 23
Sec@@ 23
Sel@@ 23
Seu@@ 23
Sil@@ 23
Sol@@ 23
Sony 23
Supposons 23
Système 23
TT@@ 23
Te@@ 23
Wor@@ 23
Youtube 23
abattre 23
abo@@ 23
abî@@ 23
accomp@@ 23
accroché 23
ach 23
achetons 23
achev@@ 23
adaptée 23
adé 23
affirm@@ 23
afr@@ 23
age@@ 23
aidera 23
aides 23
aidés 23
alimente 23
allongé 23
améliorations 23
analyses 23
animé 23
apparues 23
arrivaient 23
artères 23
ary 23
assimil@@ 23
atteinte 23
attir@@ 23
auc@@ 23
audace 23
auditorium 23
avatar 23
avertiss@@ 23
ban 23
banlieues 23
bav@@ 23
bilan 23
bli@@ 23
bonnement 23
boulevers@@ 23
brique 23
brutal@@ 23
cadeaux 23
cadres 23
cal 23
candidat 23
captiv@@ 23
capturé 23
cat@@ 23
catholique 23
certific@@ 23
chargée 23
charm@@ 23
chaî@@ 23
chèvres 23
commis 23
compag@@ 23
comport@@ 23
conc@@ 23
concentrons 23
concepteur 23
configur@@ 23
connaiss@@ 23
connaisse 23
construis@@ 23
conte 23
contrôles 23
convaincus 23
conventionnelle 23
corré@@ 23
couler 23
craign@@ 23
croix 23
cubes 23
cœurs 23
dangers 23
dd@@ 23
dem@@ 23
dimensionn@@ 23
ding@@ 23
dit@@ 23
diversi@@ 23
dives 23
doué 23
débatt@@ 23
décé@@ 23
définitivement 23
dégag@@ 23
délibé@@ 23
démén@@ 23
déployer 23
déposer 23
développées 23
embouteillages 23
empois@@ 23
enseignent 23
entendais 23
entité 23
entretenir 23
essu@@ 23
euros 23
exceptions 23
excès 23
exprimé 23
expérimenté 23
fan@@ 23
façade 23
fidè@@ 23
filtr@@ 23
financi@@ 23
fir@@ 23
fluides 23
formations 23
formons 23
ga@@ 23
gliss@@ 23
grottes 23
gâch@@ 23
générateur 23
habituel 23
hon@@ 23
hygiéni@@ 23
hypo@@ 23
immor@@ 23
implants 23
impliquées 23
inclus 23
informer 23
ingrédient 23
innovateurs 23
inscr@@ 23
insist@@ 23
interviewé 23
intrinsè@@ 23
intui@@ 23
intuitive 23
inégalités 23
ist 23
itude 23
ix 23
jetez 23
journalisme 23
lem@@ 23
lithium 23
location 23
lésions 23
mancho@@ 23
maqu@@ 23
mazou@@ 23
mentor 23
merveil@@ 23
ministres 23
mit@@ 23
modul@@ 23
montrons 23
moutarde 23
ms 23
nanomè@@ 23
narr@@ 23
numéros 23
obligation 23
obsédé 23
occupation 23
oles 23
ony 23
orang@@ 23
ortho@@ 23
ouver@@ 23
palmi@@ 23
paquets 23
paralysie 23
passagers 23
pelou@@ 23
perdus 23
perform@@ 23
pessim@@ 23
phil@@ 23
pilotes 23
pingou@@ 23
piqu@@ 23
placés 23
plaig@@ 23
portaient 23
poursuit 23
pouvant 23
procure 23
préoccup@@ 23
préoccupe 23
ption 23
raci@@ 23
racontée 23
rapporte 23
rar@@ 23
ration@@ 23
recherchons 23
reconnaissant 23
redress@@ 23
relié 23
remplace 23
remplis 23
rendra 23
repo@@ 23
repris 23
retrai@@ 23
retrouvés 23
rocher 23
roches 23
rupture 23
récepteurs 23
réfri@@ 23
réinventer 23
répliqu@@ 23
sanc@@ 23
scientifiquement 23
sensorielles 23
sentait 23
sim@@ 23
simil@@ 23
sincèrement 23
soud@@ 23
spectacles 23
squelettique 23
stein 23
stratégique 23
sécur@@ 23
talentu@@ 23
tentatives 23
testicules 23
teux 23
ties 23
tin@@ 23
tonne 23
tortues 23
tournés 23
traitée 23
tranche 23
transmettent 23
trente 23
triangles 23
trib@@ 23
tropicale 23
tropicales 23
tté 23
tê@@ 23
van 23
venti@@ 23
vil@@ 23
vital 23
vitale 23
yme 23
écho 23
écraser 23
écrites 23
écrivez 23
égal@@ 23
égyp@@ 23
élites 23
émergent@@ 23
émouv@@ 23
époustoufl@@ 23
éra 23
éradi@@ 23
érons 23
étr@@ 23
2.0 22
25@@ 22
57 22
64 22
8,@@ 22
83 22
Alabama 22
Alan 22
Apollo 22
Argent@@ 22
As@@ 22
Bienvenue 22
Bé@@ 22
C. 22
Cam@@ 22
Centr@@ 22
Chi@@ 22
Ci@@ 22
Dallas 22
Dame 22
Derni@@ 22
Dylan 22
Em@@ 22
Exact@@ 22
Fort 22
Ge@@ 22
Green@@ 22
Higgs 22
IM 22
Israel 22
J.@@ 22
Jam@@ 22
Joel 22
Katr@@ 22
Kiribati 22
Lagos 22
Leone 22
Map@@ 22
Mary 22
Mel@@ 22
Mozart 22
Moï@@ 22
Museum 22
Nike 22
Ori@@ 22
PC@@ 22
Parkin@@ 22
Plusieurs 22
Pri@@ 22
Qatar 22
RISD 22
Recherche 22
Réfléchissez 22
Sher@@ 22
Simon 22
Spoutni@@ 22
Surtout 22
Tam@@ 22
Tar@@ 22
Tri@@ 22
Ven@@ 22
Wal@@ 22
Zipcar 22
abstraction 22
accompagné 22
adolescent@@ 22
agenda 22
agon@@ 22
agres@@ 22
air@@ 22
aperç@@ 22
apparaitre 22
appartiennent 22
apparus 22
arrêtée 22
astronau@@ 22
attache 22
attacher 22
atteintes 22
auv@@ 22
aventures 22
banc 22
baptis@@ 22
basées 22
bel@@ 22
bis@@ 22
brillantes 22
brille 22
briller 22
brise 22
burg 22
béné@@ 22
cadav@@ 22
calottes 22
canadi@@ 22
catalyseur 22
cave 22
caver@@ 22
chré@@ 22
cident 22
civils 22
clar@@ 22
cocaï@@ 22
comb@@ 22
comité 22
communique 22
comptabilité 22
compté 22
comté 22
conclu@@ 22
connectées 22
consacré 22
conse@@ 22
consensus 22
contenant 22
continuait 22
contracter 22
conventionn@@ 22
convergence 22
copine 22
coque 22
coûterait 22
crack 22
crainte 22
cratique 22
croch@@ 22
crochet 22
croissant 22
croît 22
cure 22
câbl@@ 22
céré@@ 22
descendant 22
dil@@ 22
disparaiss@@ 22
dixième 22
dommage 22
donnais 22
dunes 22
débor@@ 22
débrouiller 22
dédi@@ 22
dédu@@ 22
défend@@ 22
déforest@@ 22
dégradation 22
démissionn@@ 22
dépendre 22
déplo@@ 22
dér@@ 22
dévor@@ 22
dôme 22
enci@@ 22
engendre 22
enten@@ 22
entraîn@@ 22
envis@@ 22
ern@@ 22
esc@@ 22
exi@@ 22
existant 22
expositions 22
extraver@@ 22
favoriser 22
feu@@ 22
figu@@ 22
filets 22
folie 22
food 22
franç@@ 22
gadgets 22
gagnez 22
gardent 22
gaspill@@ 22
gentiment 22
gram@@ 22
génèrent 22
he 22
hybride 22
iPad 22
icon@@ 22
ics 22
icônes 22
identi@@ 22
identification 22
imaginable 22
imite 22
impose 22
indu@@ 22
infl@@ 22
inhi@@ 22
inquiétez 22
intellectuels 22
interval@@ 22
invente 22
issues 22
jong@@ 22
joy@@ 22
ko@@ 22
lampes 22
larg@@ 22
licit@@ 22
lir 22
ludi@@ 22
légen@@ 22
légu@@ 22
mag@@ 22
mars 22
maximale 22
menu 22
mers 22
microbienne 22
ministère 22
modifications 22
modélisation 22
moine 22
monstre 22
mont@@ 22
motivés 22
multitude 22
mythes 22
mythologie 22
navigateur 22
navigu@@ 22
nectar 22
nécessit@@ 22
nô@@ 22
pag@@ 22
patri@@ 22
pel@@ 22
pelli@@ 22
penses 22
permanent 22
personnalités 22
pleu@@ 22
polici@@ 22
possédait 22
pourrai 22
poursuite 22
pren@@ 22
prenais 22
prit 22
proc@@ 22
procédures 22
produise 22
produisons 22
programmés 22
prononcé 22
prélimin@@ 22
présidenti@@ 22
présum@@ 22
périodi@@ 22
que@@ 22
races 22
rap 22
rapidité 22
rappellent 22
ravi 22
reconnaissante 22
reconnaissent 22
reconnaît 22
reflet 22
regardions 22
relative 22
remarquablement 22
remontent 22
remplacement 22
rentrée 22
ressentais 22
retournés 22
retrouvée 22
revenez 22
routine 22
ruban 22
réconfort 22
réfléchissant 22
réfrigér@@ 22
régulière 22
rénov@@ 22
réplique 22
rétab@@ 22
réuss@@ 22
rêv@@ 22
saisons 22
samedi 22
sation 22
sauve@@ 22
secrète 22
sements 22
serviettes 22
sexuellement 22
socialement 22
sourc@@ 22
souvient 22
spiration 22
stades 22
supposons 22
symbol@@ 22
séquoi@@ 22
séquoias 22
taches 22
tacti@@ 22
tari@@ 22
technici@@ 22
tecton@@ 22
tible 22
tiles 22
tourisme 22
transistor 22
transmet 22
transmet@@ 22
trem@@ 22
ttes 22
téléphoniques 22
unis 22
usages 22
utilisable 22
vain@@ 22
variantes 22
vention 22
violer 22
viscér@@ 22
visiteurs 22
vivi@@ 22
vivions 22
volumes 22
vraisemblablement 22
équival@@ 22
érées 22
étendues 22
éth@@ 22
éthiques 22
étis@@ 22
étonn@@ 22
éveillé 22
œ@@ 22
10.000 21
193@@ 21
2ème 21
46 21
56 21
76 21
Allen 21
Amazon 21
Bl@@ 21
Blue 21
Caltech 21
Carnegie 21
Comté 21
Constru@@ 21
Continu@@ 21
Cuba 21
Deuxième 21
Econom@@ 21
FDA 21
Flickr 21
Fon@@ 21
Foundation 21
Gi@@ 21
Gén@@ 21
Ivan 21
Japonais 21
Jazeera 21
Jobs 21
Lat@@ 21
Mama 21
Mumbai 21
Néander@@ 21
Octo@@ 21
Plat@@ 21
Portug@@ 21
Pre@@ 21
Reine 21
Rose 21
Russes 21
Sach@@ 21
Skype 21
Stewart 21
Super@@ 21
Sur@@ 21
Sy@@ 21
Trade 21
Tun@@ 21
Wilson 21
Women 21
Zero 21
Zo@@ 21
aa@@ 21
accroître 21
accumulation 21
adhérer 21
admiration 21
adresser 21
afflu@@ 21
agissons 21
aimeriez 21
anesthési@@ 21
apogée 21
apparent@@ 21
appartenance 21
appl@@ 21
assemble 21
assemblée 21
associées 21
assurément 21
assé 21
ast@@ 21
atrazine 21
barrage 21
biop@@ 21
biscuits 21
bonobo 21
bonobos 21
bougez 21
butin@@ 21
bêtes 21
cabine 21
ce@@ 21
cent@@ 21
cente 21
chimpanz@@ 21
chéri@@ 21
cigar@@ 21
cing@@ 21
comesti@@ 21
commandé 21
commencions 21
commerci@@ 21
communi@@ 21
comparons 21
comprenne 21
concernent 21
concerts 21
concierge 21
congr@@ 21
consci@@ 21
contagi@@ 21
contempl@@ 21
contradic@@ 21
convention 21
courrier 21
culte 21
curi@@ 21
dames 21
deau 21
del 21
demeure 21
descendus 21
dictionnaires 21
dirigeons 21
disciplin@@ 21
dissémin@@ 21
divergence 21
divertiss@@ 21
divin@@ 21
dj@@ 21
docum@@ 21
dodo 21
domination 21
donnerai 21
doubl@@ 21
dues 21
dys@@ 21
découle 21
découper 21
découvrent 21
décédé 21
déficit 21
dépendant 21
déplacements 21
dépour@@ 21
désir@@ 21
développements 21
développeurs 21
embauché 21
ement@@ 21
envoyons 21
erectus 21
ery 21
essentielles 21
examine 21
exclu@@ 21
exempl@@ 21
expéri@@ 21
extraction 21
facilit@@ 21
faciliter 21
fat@@ 21
favorise 21
façonner 21
façonné 21
fi 21
flexi@@ 21
flor@@ 21
flottant 21
flottent 21
flu 21
focalisés 21
fondement 21
forcée 21
ford 21
fusionner 21
get 21
golfe 21
goûter 21
greff@@ 21
gribouillage 21
grég@@ 21
géographie 21
gérons 21
honn@@ 21
hyperbo@@ 21
héré@@ 21
ich@@ 21
ille@@ 21
illie 21
implic@@ 21
impératif 21
incapables 21
incident 21
informé 21
inhér@@ 21
injustice 21
insister 21
insisté 21
intangible 21
investissons 21
irai 21
isaient 21
jouais 21
jure 21
justifier 21
labyrin@@ 21
légale 21
maladro@@ 21
manquait 21
manteau 21
marquer 21
marées 21
mez 21
mim@@ 21
mini 21
missiles 21
modifie 21
métiers 21
nd 21
neuron@@ 21
niez 21
nitrique 21
od 21
ols 21
ombres 21
op 21
optimistes 21
orchestres 21
orphel@@ 21
paient 21
paradox@@ 21
paraissent 21
partageant 21
parvenus 21
pin 21
pionniers 21
pisto@@ 21
pizz@@ 21
placez 21
plages 21
plain@@ 21
planifi@@ 21
planét@@ 21
plément@@ 21
portions 21
posées 21
pourcents 21
pro 21
procédés 21
proie 21
propagation 21
proprement 21
protocole 21
province 21
précau@@ 21
prévision 21
pub@@ 21
pè@@ 21
pédi@@ 21
pénurie 21
pér@@ 21
ques@@ 21
question@@ 21
quinze 21
rail@@ 21
raisin 21
ramp@@ 21
ravis 21
reau 21
recensement 21
recommande 21
recréer 21
recue@@ 21
recycler 21
refait 21
refuser 21
remplacé 21
reu@@ 21
revenant 21
richesses 21
rochers 21
ruche 21
réalisés 21
récupé@@ 21
réflexi@@ 21
répandue 21
répété 21
résum@@ 21
réunissent 21
révolu@@ 21
sandwi@@ 21
servant 21
serveur 21
signaler 21
silic@@ 21
sit 21
sky 21
soli@@ 21
souche 21
soucier 21
sses 21
subsist@@ 21
subven@@ 21
suggèrent 21
surplus 21
susc@@ 21
synesthé@@ 21
séquençage 21
sés 21
sévère 21
tax@@ 21
titu@@ 21
transformations 21
transistors 21
transportent 21
travaill@@ 21
tric@@ 21
trouvées 21
tâ@@ 21
témoignage 21
ule@@ 21
user 21
uti@@ 21
vaccination 21
variabilité 21
veste 21
viable 21
vid@@ 21
viral 21
visiblement 21
vitr@@ 21
vive 21
volont@@ 21
végétari@@ 21
xi@@ 21
écu@@ 21
édu@@ 21
égo@@ 21
émo@@ 21
étrang@@ 21
étro@@ 21
éventuellement 21
évo@@ 21
0.@@ 20
1.000 20
3.@@ 20
49 20
AS@@ 20
AV 20
Améric@@ 20
Arizon@@ 20
Armstrong 20
Association 20
BMW 20
Bon@@ 20
CNN 20
Cassini 20
Char@@ 20
Command@@ 20
Costa 20
Cré@@ 20
Dal@@ 20
Désor@@ 20
Emma 20
Empire 20
Francis 20
Fre@@ 20
Fu@@ 20
Human@@ 20
Jerry 20
Jeux 20
Kal@@ 20
Kathry@@ 20
Ky@@ 20
March@@ 20
Marie 20
Moins 20
Nairobi 20
Nationale 20
Normal@@ 20
Personn@@ 20
Philip 20
Pres@@ 20
Princeton 20
Pâ@@ 20
Pér@@ 20
RO@@ 20
Reste 20
Rock@@ 20
Simplement 20
Thaï@@ 20
Trans@@ 20
Télé@@ 20
Vegas 20
Vén@@ 20
Warren 20
You@@ 20
Yves 20
abordé 20
accélé@@ 20
ack@@ 20
adapt@@ 20
adorable 20
affai@@ 20
aillent 20
aitre 20
ajoutant 20
amende 20
anes 20
anthropo@@ 20
anxi@@ 20
apercev@@ 20
applaudi@@ 20
appliquée 20
appréh@@ 20
assistant 20
associations 20
assum@@ 20
attachée 20
attirent 20
atur@@ 20
avanç@@ 20
avou@@ 20
banal 20
banan@@ 20
bang 20
banjo 20
battus 20
bosses 20
bouqu@@ 20
brul@@ 20
cacahu@@ 20
calc@@ 20
camarades 20
cancé@@ 20
cancéri@@ 20
catalo@@ 20
cension 20
chantent 20
cheminées 20
cherchaient 20
chs 20
comparant 20
complications 20
convain@@ 20
coordonnées 20
coule 20
courts 20
couverts 20
coûté 20
cryp@@ 20
crâ@@ 20
cérébr@@ 20
devrons 20
diab@@ 20
diaposi@@ 20
dispute 20
dossiers 20
douche 20
durent 20
décal@@ 20
démocr@@ 20
démontre 20
désin@@ 20
déséquilibre 20
ef 20
embaucher 20
empires 20
enfermé 20
engage 20
enquê@@ 20
enseignements 20
envahir 20
enzymes 20
es-- 20
etre 20
ever 20
excite 20
explore 20
exter@@ 20
fantas@@ 20
faune 20
faîtes 20
fel@@ 20
fissu@@ 20
fréquemment 20
gentil@@ 20
goudr@@ 20
grimp@@ 20
guid@@ 20
génit@@ 20
haches 20
has@@ 20
hip@@ 20
horizon@@ 20
horri@@ 20
hypothé@@ 20
hétéro@@ 20
ial 20
illon 20
impatients 20
incendies 20
ind 20
indiqué 20
indre 20
injecter 20
ink 20
inspirée 20
instal@@ 20
interagit 20
intimement 20
intrigu@@ 20
investis@@ 20
kr@@ 20
lancez 20
land@@ 20
liné@@ 20
logistique 20
lycé@@ 20
manquent 20
marchais 20
marchand@@ 20
matur@@ 20
mensonges 20
mentalité 20
mesurons 20
mic@@ 20
miracles 20
misér@@ 20
mit 20
mure 20
mérit@@ 20
métalli@@ 20
ners 20
nic 20
noctur@@ 20
noeu@@ 20
nourri 20
numériser 20
nutrition 20
néer@@ 20
obligations 20
observent 20
obsédés 20
offen@@ 20
olog@@ 20
ologi@@ 20
olym@@ 20
ond 20
onni@@ 20
ora 20
paralys@@ 20
parfum@@ 20
payez 20
perceptions 20
persuader 20
pertur@@ 20
philanthro@@ 20
phon@@ 20
pics 20
pieuvre 20
pigmentation 20
pit 20
ple 20
plis 20
plonge 20
porno@@ 20
posait 20
posant 20
posture 20
produisait 20
prouv@@ 20
préoccupations 20
prêtre 20
puiss@@ 20
pulmon@@ 20
punition 20
purement 20
ras 20
ray@@ 20
recouver@@ 20
recouvert 20
reliés 20
renoncer 20
repartir 20
reportage 20
reprodu@@ 20
représentait 20
représentants 20
restric@@ 20
retenu 20
retrait 20
retrouvons 20
rigo@@ 20
robin@@ 20
rois 20
réagit 20
réalisateur 20
réfléchiss@@ 20
références 20
rés@@ 20
résou@@ 20
résout 20
réveillé 20
sais@@ 20
satisfaits 20
savou@@ 20
serve 20
servir@@ 20
sessions 20
sex 20
show 20
sm@@ 20
souc@@ 20
souhaitons 20
space 20
spectaculaires 20
stars 20
stocks 20
stru@@ 20
sty@@ 20
sté@@ 20
stéri@@ 20
substitu@@ 20
subtil@@ 20
supposés 20
survivants 20
suspendu 20
séance 20
sément 20
sén@@ 20
tabou 20
tain 20
tapis@@ 20
tas@@ 20
tendu 20
tennis 20
tensions 20
tentant 20
thermi@@ 20
thique 20
thérapeu@@ 20
titudes 20
toi@@ 20
toires 20
transpar@@ 20
transplantation 20
tribunal 20
trions 20
ules 20
usion 20
vag@@ 20
vaincre 20
valable 20
valve 20
vecteur 20
vessi@@ 20
visi@@ 20
vocation 20
voiturette 20
votes 20
voyiez 20
végétation 20
win 20
ènent 20
écho@@ 20
édit@@ 20
élector@@ 20
émettre 20
émie 20
épini@@ 20
équilibr@@ 20
étonné 20
ë 20
ë@@ 20
ît 20
.A. 19
185@@ 19
1984 19
58 19
59 19
7,@@ 19
Act 19
Acumen 19
Alexander 19
Appar@@ 19
Assez 19
Avoir 19
Babyl@@ 19
Bond 19
Boudd@@ 19
Bulgar@@ 19
Central 19
Comp@@ 19
Coper@@ 19
DARPA 19
Direc@@ 19
Dr@@ 19
Droits 19
ET 19
Emily 19
Encel@@ 19
Evan 19
Fried@@ 19
Gall@@ 19
Grecs 19
Ground 19
Hawking 19
Hind@@ 19
Hon@@ 19
ID@@ 19
Jean 19
Jeu@@ 19
Keith 19
Kepler 19
Khan 19
Ku@@ 19
La@@ 19
Lar@@ 19
Les@@ 19
Libéri@@ 19
MO 19
Magazine 19
Margaret 19
Mid@@ 19
PD@@ 19
Panbanisha 19
Port 19
RG 19
Rit@@ 19
Romo 19
Septemb@@ 19
Stirling 19
Susan 19
Tex@@ 19
Village 19
abon@@ 19
aborde 19
absorber 19
accorde 19
achar@@ 19
acité 19
acquisition 19
act 19
affirmation 19
aim@@ 19
aimants 19
aisons 19
alimentée 19
ambassad@@ 19
amenée 19
analogi@@ 19
anger 19
animations 19
annuel 19
anç@@ 19
approxim@@ 19
appéti@@ 19
arder 19
arranger 19
arriverons 19
aspi@@ 19
athlètes 19
atu@@ 19
avancez 19
band@@ 19
barils 19
bars 19
bec@@ 19
bi 19
biologiquement 19
biomatéri@@ 19
bit@@ 19
bizar@@ 19
bloc@@ 19
boissons 19
brac@@ 19
brésili@@ 19
bur@@ 19
bénéficient 19
camera 19
carav@@ 19
carbonate 19
cascad@@ 19
cend@@ 19
changera 19
chants 19
chap@@ 19
chiff@@ 19
chil@@ 19
choré@@ 19
cibler 19
citoy@@ 19
clichés 19
cliqu@@ 19
coloni@@ 19
combine 19
commission 19
compagnon 19
comptons 19
con 19
conduisant 19
conduisez 19
considérés 19
contenait 19
contro@@ 19
convo@@ 19
couplement 19
cris 19
crit@@ 19
croissement 19
croûte 19
créationn@@ 19
darwin@@ 19
datant 19
del@@ 19
devenant 19
deviend@@ 19
diagrammes 19
diffusé 19
drag@@ 19
dre@@ 19
débou@@ 19
déchiffrer 19
déclench@@ 19
déclencher 19
décom@@ 19
découv@@ 19
défau@@ 19
dégr@@ 19
dépist@@ 19
dérange@@ 19
dévoiler 19
effacer 19
effici@@ 19
elas 19
eller 19
empiler 19
empor@@ 19
empêchent 19
ender 19
enthousiasm@@ 19
envahi 19
euph@@ 19
eus 19
exc@@ 19
exercices 19
existenti@@ 19
extéri@@ 19
faille 19
faus@@ 19
favorable 19
fonce 19
forage 19
forcés 19
formuler 19
fortu@@ 19
fortune 19
forum 19
frappant 19
gain 19
gains 19
gan@@ 19
germes 19
gez 19
gos 19
gratitude 19
guise 19
généalo@@ 19
habillé 19
harmon@@ 19
hôtels 19
idi 19
ids 19
illa 19
illis 19
imitation 19
impatient 19
implanter 19
impos@@ 19
impressionné 19
inadéqu@@ 19
installés 19
intensément 19
interrog@@ 19
invasion 19
invasive 19
irrigation 19
isait 19
israéli@@ 19
journé@@ 19
jug@@ 19
jum@@ 19
kings 19
lah 19
laissés 19
lancent 19
lement@@ 19
libertés 19
lies 19
liqui@@ 19
lisant 19
lite 19
logements 19
légitime 19
manette 19
mangeait 19
mann 19
mar 19
marqueur 19
mation 19
mato@@ 19
maxim@@ 19
menaç@@ 19
millisecon@@ 19
minimiser 19
mont 19
montait 19
montez 19
mousse 19
natur@@ 19
naz@@ 19
neig@@ 19
net@@ 19
nets 19
noble 19
noyaux 19
négli@@ 19
néglig@@ 19
occasionn@@ 19
odor@@ 19
offer@@ 19
ométri@@ 19
ors@@ 19
ozone 19
parviennent 19
parvient 19
passages 19
pathologi@@ 19
payons 19
person@@ 19
perçu 19
phones 19
pigeon 19
pluri@@ 19
porte@@ 19
possession 19
posés 19
poursuiv@@ 19
poussée 19
poè@@ 19
pre@@ 19
primordial 19
program@@ 19
programmé 19
propositions 19
proto@@ 19
provenance 19
préhen@@ 19
préparés 19
présentant 19
psychiatri@@ 19
pt 19
quelquefois 19
radical@@ 19
rafraîch@@ 19
raison@@ 19
rajouter 19
rassur@@ 19
reconnait 19
refroi@@ 19
regrets 19
relâche 19
renom@@ 19
repos@@ 19
représentée 19
requiert 19
restauration 19
roule 19
ruches 19
rudiment@@ 19
rythmes 19
réacteurs 19
réclam@@ 19
récoltes 19
réfléchis@@ 19
régénér@@ 19
résid@@ 19
rétic@@ 19
saig@@ 19
saisi 19
schizophré@@ 19
seur 19
silenci@@ 19
simplifi@@ 19
sortait 19
sortons 19
souci 19
soulevé 19
spon@@ 19
sports 19
stationn@@ 19
steak 19
stop@@ 19
stér@@ 19
surf 19
synapses 19
synthétis@@ 19
sè@@ 19
sédiments 19
sélectionner 19
sérieuses 19
tatouage 19
tempêtes 19
tenue 19
teste 19
ther 19
toir 19
topo@@ 19
touchant 19
tox@@ 19
transfé@@ 19
transporte 19
troupeaux 19
trouva 19
trouviez 19
tun@@ 19
turbul@@ 19
util@@ 19
variétés 19
ventilat@@ 19
vig@@ 19
virul@@ 19
vitesses 19
volcans 19
vons 19
véné@@ 19
weekend 19
zi@@ 19
échappe 19
1,3 18
110 18
200@@ 18
3,5 18
4ème 18
53 18
73 18
Afric@@ 18
American 18
Aus@@ 18
Ban@@ 18
Barack 18
Beethoven 18
Bhout@@ 18
Bono 18
Bruno 18
CE@@ 18
CIA 18
CM@@ 18
Christ@@ 18
Chré@@ 18
Columbia 18
Cr@@ 18
Cri@@ 18
DE@@ 18
DJ 18
Deman@@ 18
Derrière 18
Dur@@ 18
ES@@ 18
Excell@@ 18
Fro@@ 18
Galois 18
Gordon 18
Géni@@ 18
Géor@@ 18
Hudson 18
Hy@@ 18
Hyun 18
Intel 18
Jac@@ 18
Jackson 18
Jour 18
Journal 18
Joy@@ 18
Lak@@ 18
Lam@@ 18
Lawrence 18
Matt 18
Mer 18
Murray 18
Mus@@ 18
Nathan 18
Ni 18
Now 18
Ol@@ 18
On@@ 18
PH 18
Pepsi 18
Prê@@ 18
Rem@@ 18
Roosevelt 18
République 18
S.@@ 18
SA 18
Sam 18
Sen@@ 18
Soci@@ 18
Sook 18
Sri 18
Tami@@ 18
Tandis 18
Ten@@ 18
The@@ 18
Travail@@ 18
Trop 18
University 18
Ur@@ 18
XIX@@ 18
YR 18
absorbe 18
acari@@ 18
accesso@@ 18
accusé 18
activation 18
adversai@@ 18
affection 18
aiderait 18
aimeraient 18
ali 18
aliens 18
alig@@ 18
alimenté 18
alliance 18
amènent 18
aou@@ 18
apercevoir 18
apprends 18
approuv@@ 18
arrog@@ 18
arry 18
ascend@@ 18
astrolab@@ 18
athlè@@ 18
aud@@ 18
augmentant 18
autobio@@ 18
aéron@@ 18
aéronau@@ 18
balancer 18
banc@@ 18
bassa@@ 18
battant 18
beur@@ 18
blanch@@ 18
boom 18
boucles 18
boucli@@ 18
boule@@ 18
by@@ 18
camarade 18
cant@@ 18
caractér@@ 18
cartographie 18
ception 18
champi@@ 18
changerait 18
che@@ 18
cigarette 18
cipe 18
circulaire 18
circulent 18
classi@@ 18
climat@@ 18
coc@@ 18
cochlé@@ 18
coff@@ 18
collectionn@@ 18
commander 18
commettre 18
compati@@ 18
composantes 18
comprenais 18
concl@@ 18
consultation 18
consulter 18
consécu@@ 18
contes@@ 18
contin@@ 18
continuum 18
contrac@@ 18
correspondre 18
couloirs 18
coutu@@ 18
couvr@@ 18
cra@@ 18
crains 18
crash 18
cratère 18
crav@@ 18
critiquer 18
croi@@ 18
créait 18
crédits 18
cuisin@@ 18
cymati@@ 18
descendants 18
devenaient 18
devise 18
diagnostique 18
diagnostiquer 18
dimbour@@ 18
disposer 18
distingu@@ 18
doctor@@ 18
donneurs 18
dront 18
déb@@ 18
déchiré 18
décida 18
décidez 18
décisi@@ 18
déco@@ 18
décrivent 18
définitions 18
dépassent 18
déploiement 18
dépress@@ 18
désol@@ 18
détach@@ 18
déterminée 18
détérior@@ 18
dévoil@@ 18
ela 18
embryonn@@ 18
engage@@ 18
enlevez 18
enregistre 18
entrep@@ 18
ess 18
eth 18
exemplaire 18
expliquant 18
explos@@ 18
explosions 18
expres@@ 18
expéditions 18
fauteuils 18
feedback 18
fich@@ 18
finissez 18
fraî@@ 18
frontal 18
frott@@ 18
fér@@ 18
gee@@ 18
gies 18
giraf@@ 18
got 18
gouttes 18
graphies 18
gravitationn@@ 18
générée 18
habitats 18
han@@ 18
historien 18
hormon@@ 18
hémo@@ 18
hô@@ 18
icul@@ 18
ifs 18
immen@@ 18
industrialis@@ 18
infecter 18
inféri@@ 18
instru@@ 18
intention@@ 18
interess@@ 18
intern@@ 18
interroger 18
ints 18
intéressons 18
invitée 18
ion@@ 18
irration@@ 18
irrationn@@ 18
jail@@ 18
jon@@ 18
journ@@ 18
jur@@ 18
kit 18
lame 18
lancés 18
lanç@@ 18
lisais 18
légalement 18
législation 18
machinerie 18
magnifiquement 18
major@@ 18
marcherait 18
marijuana 18
marre 18
matin@@ 18
menées 18
messagerie 18
mettaient 18
mexic@@ 18
mile 18
mod@@ 18
monstr@@ 18
montrerai 18
montés 18
monét@@ 18
moustiqu@@ 18
muni@@ 18
neuroscience 18
nombrables 18
nuisi@@ 18
numéris@@ 18
occident@@ 18
occu@@ 18
offres 18
onneur 18
ops 18
optimiser 18
oral 18
orienter 18
orienté 18
ory 18
ox@@ 18
pan 18
pancré@@ 18
pari@@ 18
parles 18
partait 18
particul@@ 18
parvenu 18
passe@@ 18
phar@@ 18
pian@@ 18
pice 18
plai@@ 18
plaqué 18
pole 18
pompi@@ 18
poursuivi 18
prairie 18
pratiqu@@ 18
presti@@ 18
procur@@ 18
produira 18
protègent 18
prou@@ 18
préal@@ 18
préf@@ 18
prélevé 18
prépare 18
prévisi@@ 18
puber@@ 18
quin 18
quin@@ 18
racontait 18
rain 18
ramassé 18
rangée 18
rappel@@ 18
ratio 18
reconnaissez 18
reconnaissons 18
recruter 18
remerci@@ 18
remplit 18
renon@@ 18
renouv@@ 18
reproduc@@ 18
reproduit 18
requis 18
restons 18
revendi@@ 18
ric@@ 18
rideau 18
roule@@ 18
royal 18
rè@@ 18
réacteur 18
réduits 18
réfléchissent 18
réguler 18
républic@@ 18
rétré@@ 18
réussis@@ 18
sables 18
sap@@ 18
sar@@ 18
satur@@ 18
sauve 18
scolar@@ 18
scot@@ 18
sembl@@ 18
seringues 18
servi@@ 18
sinis@@ 18
sionn@@ 18
soix@@ 18
solo 18
soucient 18
souhaiterais 18
soulagement 18
sourcing 18
soustr@@ 18
squ@@ 18
ssant 18
stabiliser 18
stric@@ 18
structur@@ 18
subtile 18
suffisance 18
suivis 18
supermassi@@ 18
taxes 18
terais 18
teri@@ 18
testés 18
tile 18
top 18
torn@@ 18
touchez 18
traitées 18
tranquillement 18
transmise 18
transporté 18
trembl@@ 18
tricher@@ 18
turb@@ 18
témoins 18
ums 18
vapor@@ 18
veil 18
vendait 18
vici@@ 18
vie@@ 18
vin@@ 18
violation 18
violences 18
virage 18
visites 18
vivement 18
volontiers 18
volts 18
voudront 18
ys 18
çait 18
éloignées 18
éner@@ 18
épaisse 18
équipés 18
érir 18
étin@@ 18
étonnants 18
étrangement 18
étri@@ 18
étroit 18
™ 18
( 17
* 17
10,000 17
125 17
6,@@ 17
78 17
86 17
AT@@ 17
Aff@@ 17
Amanda 17
Archie 17
Autri@@ 17
Bay 17
Benki 17
Bertie 17
CT 17
Chan@@ 17
Clar@@ 17
Comm@@ 17
Cour 17
Dave 17
Dor@@ 17
Dou@@ 17
Démocr@@ 17
Ed 17
Enf@@ 17
Essenti@@ 17
FOXO 17
Faucon 17
Fondament@@ 17
Frank@@ 17
Ful@@ 17
Gardez 17
Guin@@ 17
HA 17
Had@@ 17
Han@@ 17
IR@@ 17
Imaginons 17
Jimmy 17
Julian 17
Kir@@ 17
Las 17
Lim@@ 17
Lis@@ 17
Léonard 17
Mahmoud 17
Mak@@ 17
Mary@@ 17
Mat@@ 17
Max 17
Miller 17
Molas 17
Montag@@ 17
Médec@@ 17
Net@@ 17
Nick 17
Nép@@ 17
Palest@@ 17
Pat@@ 17
Philadelph@@ 17
Point 17
Pou@@ 17
Py@@ 17
Rachel 17
Red 17
Res@@ 17
Research 17
Rob 17
Roger 17
Rom@@ 17
SD@@ 17
San@@ 17
Seign@@ 17
Sergio 17
Sky@@ 17
State 17
Sup@@ 17
Séri@@ 17
Tennessee 17
Titan@@ 17
UCLA 17
Ushahidi 17
Venter 17
Vir@@ 17
Voy@@ 17
Yorker 17
Young 17
abus@@ 17
access@@ 17
acron@@ 17
ada 17
adh@@ 17
allon@@ 17
allonger 17
alo@@ 17
ambigu@@ 17
amoureuse 17
amphi@@ 17
ams 17
anarch@@ 17
anc 17
antiqu@@ 17
apais@@ 17
apartheid 17
apicul@@ 17
apprenait 17
approch@@ 17
approximativement 17
appréciez 17
art@@ 17
aspiration 17
assemblé 17
assent 17
assis@@ 17
associe 17
ateliers 17
atmo@@ 17
ature 17
automati@@ 17
aw 17
aît 17
bob@@ 17
bourses 17
bronze 17
brou@@ 17
brus@@ 17
bâti@@ 17
caractéris@@ 17
cataly@@ 17
causée 17
censée 17
centrifug@@ 17
cherchais 17
chercher@@ 17
chop 17
clou@@ 17
cocktail 17
col 17
collisions 17
communiqu@@ 17
comparaisons 17
complément@@ 17
compress@@ 17
compteur 17
conférenci@@ 17
congé 17
constructeur 17
constructeurs 17
convaincu@@ 17
couch@@ 17
coul@@ 17
cousin 17
coûtait 17
crati@@ 17
crayons 17
cruci@@ 17
cueilleurs 17
devront 17
différenti@@ 17
distingue 17
dominé 17
douze 17
dune 17
débrouill@@ 17
décentralis@@ 17
déchir@@ 17
dénomin@@ 17
déplaç@@ 17
déposé 17
détecte 17
déterminent 17
ei@@ 17
emprunté 17
encer 17
enchant@@ 17
encom@@ 17
endant 17
enseignons 17
entendait 17
entourés 17
envoyées 17
enz@@ 17
ero@@ 17
excessi@@ 17
explorateurs 17
exten@@ 17
extinctions 17
facilité 17
fameux 17
façonn@@ 17
fidèle 17
fili@@ 17
flagr@@ 17
flotter 17
fondateurs 17
fonder 17
formules 17
fournisseur 17
fractal@@ 17
gage 17
gig@@ 17
gly@@ 17
gonfler 17
gout@@ 17
gress@@ 17
grimpe 17
group@@ 17
généralis@@ 17
géri@@ 17
hacker 17
haut@@ 17
hip 17
humor@@ 17
hybri@@ 17
hydrocar@@ 17
idéaux 17
illages 17
implant 17
incidence 17
inconn@@ 17
indicateur 17
indiqu@@ 17
inflig@@ 17
ini 17
innocent 17
instruction 17
insu@@ 17
intact 17
intervenants 17
intest@@ 17
intol@@ 17
isolation 17
itch@@ 17
ito@@ 17
ives 17
ième 17
jolies 17
jury 17
ked 17
kidn@@ 17
laps 17
lauré@@ 17
leu@@ 17
libr@@ 17
lice 17
logarith@@ 17
loir 17
long@@ 17
loy@@ 17
lueur 17
maitr@@ 17
massivement 17
maux 17
mement 17
mettiez 17
missile 17
mm@@ 17
mobiliser 17
modification 17
modélis@@ 17
moquer 17
motor@@ 17
métastas@@ 17
méthodo@@ 17
nag@@ 17
nar@@ 17
nettement 17
obsé@@ 17
ombe 17
onal 17
orial 17
oun@@ 17
parachu@@ 17
passais 17
pelu@@ 17
penché 17
perman@@ 17
photovoltaï@@ 17
politici@@ 17
ponctu@@ 17
prendrais 17
probation 17
produisaient 17
projette 17
proportions 17
prospec@@ 17
protons 17
prématu@@ 17
préoccupé 17
prés@@ 17
prétend 17
prétendre 17
pulvér@@ 17
pétr@@ 17
pêcher@@ 17
quadr@@ 17
raie 17
rectangle 17
redon@@ 17
redou@@ 17
registre 17
rel 17
remu@@ 17
renvoyer 17
ridi@@ 17
ridicul@@ 17
ron 17
réalisez 17
récupér@@ 17
réser@@ 17
résili@@ 17
réson@@ 17
sacrifi@@ 17
saisiss@@ 17
sales 17
sanitaire 17
saurez 17
scan 17
secrè@@ 17
sentie 17
sers 17
sey 17
simpl@@ 17
situés 17
solitude 17
sommets 17
sond@@ 17
sper@@ 17
sponsor@@ 17
spores 17
spé@@ 17
spécim@@ 17
stati@@ 17
statistici@@ 17
stigmati@@ 17
stratégi@@ 17
strictement 17
stupé@@ 17
suites 17
suscité 17
symbio@@ 17
synonyme 17
synthé@@ 17
sélectionné 17
séquencé 17
séroton@@ 17
tein@@ 17
tentation 17
terr@@ 17
testostér@@ 17
tics 17
ticul@@ 17
tofu 17
tonne@@ 17
tori@@ 17
transportée 17
trent@@ 17
tripl@@ 17
truc@@ 17
tueur 17
ulation 17
uli@@ 17
univers@@ 17
utiliserons 17
vau@@ 17
vielle 17
village@@ 17
volati@@ 17
volution 17
voudra 17
vres 17
vul@@ 17
yl@@ 17
zo@@ 17
ébau@@ 17
éclo@@ 17
égi@@ 17
émettent 17
émis 17
équili@@ 17
éthiop@@ 17
éveill@@ 17
éventu@@ 17
,7 16
1,2 16
39 16
89 16
93 16
AM 16
Afin 16
Arts 16
Beck 16
Bern@@ 16
Bow@@ 16
Bri@@ 16
Bruce 16
C.@@ 16
Camp@@ 16
Cha@@ 16
Compar@@ 16
Considérez 16
Coré@@ 16
Cu@@ 16
Curi@@ 16
DDT 16
Day 16
Deep 16
Dimitri 16
Doha 16
E. 16
E.@@ 16
Excus@@ 16
Explor@@ 16
FBI 16
Fant@@ 16
Fox 16
Fé@@ 16
Go 16
Gol@@ 16
Grace 16
Hab@@ 16
Hel@@ 16
Hiroshim@@ 16
Hitler 16
Hor@@ 16
Hubble 16
Hyper@@ 16
IDEO 16
Indus@@ 16
Jamie 16
Jord@@ 16
Langley 16
Lévi@@ 16
Mahatma 16
Manifest@@ 16
Marshall 16
Mich@@ 16
Médit@@ 16
News 16
Nolly@@ 16
Pap@@ 16
Pentag@@ 16
Philipp@@ 16
Ple@@ 16
Ram@@ 16
Reed 16
Rob@@ 16
Règle 16
Saddam 16
Sat@@ 16
Sau@@ 16
Sciences 16
Sobu@@ 16
Space 16
Stockhol@@ 16
Str@@ 16
Stu@@ 16
Sudhir 16
Sun 16
Superman 16
TB@@ 16
Techno@@ 16
Ted 16
Tric@@ 16
Venezuel@@ 16
Verme@@ 16
Vers 16
Virgin 16
War@@ 16
Williams 16
Win@@ 16
World@@ 16
Ye@@ 16
absorbent 16
adaptées 16
affectu@@ 16
agnostique 16
agricul@@ 16
aimerai 16
aimi@@ 16
aissance 16
alim@@ 16
allong@@ 16
alpinistes 16
amenant 16
amer 16
amuse 16
anecdo@@ 16
antiangiogéni@@ 16
aplati@@ 16
apocalyp@@ 16
apportait 16
apportons 16
apprenant 16
appréciation 16
attel@@ 16
attentats 16
atter@@ 16
attirés 16
avo 16
balader 16
ballet 16
bancs 16
bassins 16
ben 16
bigü@@ 16
bipè@@ 16
blin@@ 16
boeu@@ 16
brass@@ 16
brav@@ 16
bron@@ 16
bug 16
bul@@ 16
cac@@ 16
caillou@@ 16
canc@@ 16
captu@@ 16
casset@@ 16
celà 16
centré 16
clari@@ 16
classer 16
clubs 16
collectivités 16
coloss@@ 16
comman@@ 16
compatible 16
compren@@ 16
comprenaient 16
compreniez 16
comput@@ 16
confusion 16
consommé 16
coordonner 16
corn 16
cortic@@ 16
coré@@ 16
coupes 16
coute@@ 16
crach@@ 16
cristall@@ 16
cub@@ 16
cus 16
cussions 16
cyni@@ 16
céram@@ 16
day 16
demeur@@ 16
desquelles 16
det@@ 16
diap@@ 16
diffuse 16
dirigez 16
dissent 16
dizaine 16
dotés 16
déclarer 16
déliv@@ 16
démie 16
dépê@@ 16
déter@@ 16
dévers@@ 16
entraient 16
entrait 16
entrepreneuri@@ 16
enzyme 16
eras 16
erran@@ 16
erron@@ 16
excep@@ 16
exis@@ 16
exp@@ 16
fav@@ 16
fax 16
film@@ 16
financés 16
flot 16
fluctuations 16
fouiller 16
fournissant 16
fout@@ 16
friction 16
fécon@@ 16
gamma 16
gardi@@ 16
globu@@ 16
gran@@ 16
grec@@ 16
gèrent 16
hou 16
hygi@@ 16
illettr@@ 16
im 16
imaginant 16
ince 16
indicateurs 16
infiltr@@ 16
inflexi@@ 16
influencent 16
initiatives 16
instincts 16
intellig@@ 16
interconnec@@ 16
intuitions 16
issem@@ 16
itinér@@ 16
jarg@@ 16
jugements 16
ket@@ 16
kh@@ 16
kios@@ 16
lec@@ 16
lent@@ 16
lit@@ 16
lits 16
livrai@@ 16
lock 16
logies 16
manne@@ 16
mant@@ 16
mau@@ 16
maîtres 16
media 16
meurtri@@ 16
mign@@ 16
modes@@ 16
monarch@@ 16
moni@@ 16
multiplier 16
multipliez 16
my 16
métr@@ 16
ns 16
obser@@ 16
obè@@ 16
olive 16
opi@@ 16
orb@@ 16
ord@@ 16
ordonn@@ 16
orphelin@@ 16
paraitre 16
pendi@@ 16
percep@@ 16
percu@@ 16
persis@@ 16
perçus 16
pionnier 16
plaisirs 16
pointer 16
poiv@@ 16
portion 16
pratiqué 16
projections 16
proposent 16
préci@@ 16
prélev@@ 16
préoccupent 16
prêté 16
publiqu@@ 16
puc@@ 16
quelque@@ 16
racontant 16
radar 16
recevons 16
records 16
refu@@ 16
relax@@ 16
remix 16
rende 16
rentrez 16
replier 16
respecte 16
respirato@@ 16
retournent 16
revenait 16
rigu@@ 16
rup@@ 16
récupère 16
réflexe 16
rétrospec@@ 16
sant 16
scanners 16
scar@@ 16
seign@@ 16
selle 16
sen 16
sia 16
singuli@@ 16
sole 16
souffrait 16
soul@@ 16
soulig@@ 16
souterr@@ 16
spir@@ 16
stand 16
standardis@@ 16
ster@@ 16
ston 16
stopper 16
substanti@@ 16
successi@@ 16
suivaient 16
surf@@ 16
surgit 16
séro@@ 16
taine 16
tapé 16
tatouages 16
théâtr@@ 16
tigr@@ 16
tirant 16
tortur@@ 16
traitait 16
transduc@@ 16
traversant 16
tè@@ 16
tén@@ 16
ultraviolet 16
umes 16
uranium 16
ustr@@ 16
vacciner 16
vainqu@@ 16
varie 16
verb@@ 16
verrait 16
ves@@ 16
veuille 16
violée 16
virtu@@ 16
visu@@ 16
von 16
voulant 16
west 16
wo@@ 16
woodi@@ 16
zoo 16
¨ 16
² 16
Â@@ 16
èces 16
ènement 16
écoutons 16
éjec@@ 16
énon@@ 16
épiph@@ 16
ôte 16
ût 16
+ 15
5,@@ 15
50.000 15
62 15
74 15
94 15
99@@ 15
ABC 15
AM@@ 15
AN@@ 15
Abu 15
Academy 15
Aide@@ 15
Andy 15
BP 15
Bag@@ 15
Balk@@ 15
Barbara 15
Barbie 15
Bibli@@ 15
Bour@@ 15
Business 15
CO@@ 15
Cochrane 15
Coh@@ 15
Color@@ 15
Coop@@ 15
Créer 15
DL 15
Detroit 15
Diana 15
Doug 15
Dre@@ 15
Elec@@ 15
Er@@ 15
Extr@@ 15
Exxon 15
FA@@ 15
Gary 15
General 15
Graham 15
Green 15
H5N1 15
Hi@@ 15
Hus@@ 15
Imag@@ 15
Iraki@@ 15
Isra@@ 15
Jason 15
Jau@@ 15
Khmers 15
Kle@@ 15
Loc@@ 15
Lor@@ 15
Lou@@ 15
Maitreya 15
Mell@@ 15
Michig@@ 15
Minnes@@ 15
Mission 15
Mississippi 15
Mola 15
Mul@@ 15
Nav@@ 15
Neumann 15
Nevada 15
Oprah 15
Oreg@@ 15
Ot@@ 15
Oubliez 15
Pakistan@@ 15
Pas@@ 15
Petite 15
Photoshop 15
PowerPoint 15
Prize 15
Project 15
Prom@@ 15
Pré@@ 15
Présent@@ 15
Pur@@ 15
Qaï@@ 15
Red@@ 15
Roots 15
Royal 15
Shoo@@ 15
Sun@@ 15
Sw@@ 15
Tah@@ 15
Toyota 15
Tw@@ 15
Walmart 15
Walter 15
White 15
Wide 15
Witness 15
abl@@ 15
absorption 15
accueilli 15
adorons 15
affiché 15
agers 15
aimer@@ 15
aissez 15
allo@@ 15
aly@@ 15
ampli@@ 15
amplifi@@ 15
andes 15
anesthé@@ 15
anou@@ 15
ançons 15
aperçus 15
api@@ 15
appartenir 15
aps 15
architec@@ 15
architectural 15
argent@@ 15
arith@@ 15
artéri@@ 15
aspire 15
assemblent 15
atement 15
athan 15
atl@@ 15
attray@@ 15
atures 15
audit@@ 15
aventu@@ 15
ball@@ 15
barr@@ 15
baz@@ 15
besti@@ 15
bin 15
biomim@@ 15
blogo@@ 15
bomb@@ 15
borne 15
broch@@ 15
bulletin 15
buv@@ 15
cafétéri@@ 15
carbon@@ 15
cation 15
cein@@ 15
cell@@ 15
centrée 15
challenge 15
chat@@ 15
cid@@ 15
ck 15
clip@@ 15
clips 15
cliquez 15
colo@@ 15
combustion 15
compartim@@ 15
comparée 15
comple@@ 15
compression 15
consomment 15
contempler 15
coor@@ 15
corri@@ 15
costumes 15
cous@@ 15
cruel 15
culturel@@ 15
current 15
cée 15
demandera 15
desquels 15
deviendrait 15
deviendront 15
diagnostiqué 15
digital 15
discrè@@ 15
dispers@@ 15
disposent 15
dissement 15
dividen@@ 15
divisions 15
dorment 15
décap@@ 15
découver@@ 15
décri@@ 15
embl@@ 15
empiri@@ 15
employons 15
ene 15
enflam@@ 15
enracin@@ 15
enti 15
envisage@@ 15
escent 15
etait 15
ett 15
exclusi@@ 15
exclusivement 15
expédi@@ 15
fabriquant 15
fameuse 15
fans 15
fatigue 15
fertile 15
feuille@@ 15
fichi@@ 15
filtrer 15
fleur@@ 15
fondements 15
forc@@ 15
fur@@ 15
gagner@@ 15
gavi@@ 15
gay 15
geek 15
gs 15
gélat@@ 15
hambur@@ 15
hant@@ 15
haus@@ 15
hi 15
histori@@ 15
hiérarch@@ 15
horiz@@ 15
hostil@@ 15
identifie 15
ider 15
immersion 15
immin@@ 15
incluent 15
indic@@ 15
indispens@@ 15
induit 15
indéfin@@ 15
influences 15
initialement 15
initié 15
innoc@@ 15
innovantes 15
insis@@ 15
inspi@@ 15
intergalac@@ 15
interrogé 15
intersection 15
intègrent 15
irani@@ 15
ister 15
izz@@ 15
juxtap@@ 15
ken@@ 15
laissée 15
language 15
len@@ 15
locu@@ 15
look 15
luc@@ 15
lux@@ 15
magnitude 15
manie 15
manus@@ 15
marathon 15
mass@@ 15
massacre 15
matern@@ 15
mec@@ 15
menant 15
miracule@@ 15
mondialis@@ 15
moralement 15
moralis@@ 15
morpho@@ 15
mourut 15
mèner@@ 15
még@@ 15
mépris@@ 15
métabo@@ 15
of@@ 15
old 15
orch@@ 15
ote 15
palette 15
palé@@ 15
paraissait 15
paress@@ 15
paru 15
passa 15
pel 15
peri@@ 15
personnaliser 15
ping 15
placebo 15
plani@@ 15
plaçons 15
plomb@@ 15
primordi@@ 15
process@@ 15
provoqu@@ 15
préoccupés 15
prési@@ 15
prêtent 15
quarks 15
questionn@@ 15
quo 15
rad@@ 15
rag@@ 15
rappell@@ 15
rati@@ 15
read 15
reb@@ 15
reconnaî@@ 15
rection 15
regrou@@ 15
remar@@ 15
remettent 15
remix@@ 15
renaissance 15
rendaient 15
rendues 15
ressent@@ 15
rh@@ 15
rice 15
rides 15
ries 15
risquent 15
roulé 15
rs 15
rus@@ 15
ruée 15
réconfor@@ 15
répartis 15
répéti@@ 15
révèlent 15
saisit 15
sapiens 15
sauver@@ 15
scol@@ 15
scri@@ 15
sep@@ 15
series 15
signifierait 15
soi@@ 15
sorci@@ 15
soucie 15
souf@@ 15
soupçonne 15
soutenue 15
souver@@ 15
statistiquement 15
stimule 15
stock 15
strato@@ 15
stéré@@ 15
stéréo@@ 15
suivait 15
sum@@ 15
supernova 15
supposer 15
surer 15
sy@@ 15
synap@@ 15
sémin@@ 15
talons 15
thi@@ 15
théori@@ 15
théorici@@ 15
ticket 15
tortu@@ 15
total@@ 15
tourment@@ 15
tranqu@@ 15
transpor@@ 15
triez 15
tueurs 15
tuons 15
tyran@@ 15
tél@@ 15
téro@@ 15
unicellul@@ 15
union 15
urgent 15
va@@ 15
veiller 15
vent@@ 15
vertébr@@ 15
visant 15
vième 15
végi@@ 15
vétérans 15
war@@ 15
wn 15
zoï@@ 15
Éco@@ 15
á@@ 15
échang@@ 15
échantillon@@ 15
égl@@ 15
élo@@ 15
éloig@@ 15
équivalente 15
étoil@@ 15
évoqué 15
ö@@ 15
ü@@ 15
1.@@ 14
187@@ 14
1918 14
21@@ 14
60@@ 14
650 14
68 14
Alfred 14
Arkans@@ 14
Aurora 14
Bank 14
Beat@@ 14
Bient@@ 14
Bol@@ 14
British 14
Bureau 14
CB@@ 14
CL 14
Cameron 14
Celsi@@ 14
Champ@@ 14
Chang@@ 14
Che@@ 14
Chef 14
Connecticut 14
Cop@@ 14
Daw@@ 14
Différ@@ 14
Dod@@ 14
Dro@@ 14
Déj@@ 14
E8 14
Eames 14
Eden 14
Face 14
Fo@@ 14
Fur@@ 14
GPHIN 14
Gag@@ 14
Gaz@@ 14
Global 14
Grey 14
Ha@@ 14
Han 14
I.@@ 14
Impossible 14
Internation@@ 14
Isaac 14
Jonas 14
Kamen 14
Kanzi 14
Ker@@ 14
Kerry 14
Kur@@ 14
Liber@@ 14
Lig@@ 14
Luke 14
Ly@@ 14
Mann 14
Mari@@ 14
Marine 14
Miami 14
Mongo@@ 14
Naz@@ 14
Neil 14
Netra 14
OM@@ 14
OPE@@ 14
Open 14
PE@@ 14
PIPA 14
Parad@@ 14
Philippe 14
RD@@ 14
Rac@@ 14
Radio 14
Rag@@ 14
Rift 14
Riverside 14
Rocket@@ 14
Ronald 14
Roy 14
SE@@ 14
SOPA 14
Society 14
Sp@@ 14
Stanley 14
Star@@ 14
Studio 14
Suprê@@ 14
Tel 14
Tre@@ 14
Type 14
UN@@ 14
Urugu@@ 14
Vole 14
Walker 14
Warner 14
Wh@@ 14
Yale 14
York@@ 14
accr@@ 14
accél@@ 14
admir@@ 14
adorait 14
ag 14
agno@@ 14
agran@@ 14
aidant 14
ake 14
alib@@ 14
allocu@@ 14
amic@@ 14
analo@@ 14
analys@@ 14
andro@@ 14
anthro@@ 14
apol@@ 14
apparaî@@ 14
arbi@@ 14
aspirent 14
asser@@ 14
astro@@ 14
atteindra 14
augmentez 14
aversion 14
aître 14
bay@@ 14
beign@@ 14
bicy@@ 14
big@@ 14
biscu@@ 14
bless@@ 14
bor 14
botan@@ 14
bouch@@ 14
bourge@@ 14
boursi@@ 14
boî@@ 14
bra 14
breb@@ 14
brevet@@ 14
budgét@@ 14
bury 14
béqu@@ 14
candidat@@ 14
capit@@ 14
catég@@ 14
cellulose 14
centralis@@ 14
cevoir 14
cherchions 14
ck@@ 14
cobra 14
commis@@ 14
communaut@@ 14
communic@@ 14
compos@@ 14
comprenions 14
concentrations 14
conceptions 14
conform@@ 14
cons 14
control@@ 14
controver@@ 14
cot@@ 14
cristaux 14
criti@@ 14
crocodi@@ 14
crowd@@ 14
cu 14
dad 14
dam@@ 14
devrez 14
dialogu@@ 14
did@@ 14
dilu@@ 14
discute 14
distor@@ 14
divine 14
dop@@ 14
duc@@ 14
déchiff@@ 14
déconcer@@ 14
décré@@ 14
défaill@@ 14
défavor@@ 14
dég@@ 14
déjeu@@ 14
dénon@@ 14
dénu@@ 14
désastr@@ 14
détent@@ 14
ectu@@ 14
emblémati@@ 14
empir@@ 14
encer@@ 14
enfre@@ 14
enseig@@ 14
entret@@ 14
environn@@ 14
envoyant 14
escl@@ 14
escro@@ 14
esqu@@ 14
essayions 14
excessive 14
expose 14
fai@@ 14
façon@@ 14
festival 14
filaments 14
fla@@ 14
fluorescent@@ 14
fourch@@ 14
gardant 14
garder@@ 14
gigantes@@ 14
gorg@@ 14
gouff@@ 14
gravit@@ 14
guê@@ 14
génétici@@ 14
ha@@ 14
habits 14
habitué 14
hio 14
hippo@@ 14
hominidé@@ 14
hongro@@ 14
horizontal 14
hou@@ 14
humanit@@ 14
hâ@@ 14
idi@@ 14
ignée 14
illum@@ 14
impéri@@ 14
incul@@ 14
incur@@ 14
index 14
indication 14
infin@@ 14
infinité@@ 14
informatici@@ 14
infr@@ 14
inhal@@ 14
interactive 14
interprété 14
intég@@ 14
involon@@ 14
ish@@ 14
job 14
lag@@ 14
lau@@ 14
let@@ 14
lition 14
lons 14
loyau@@ 14
léopards 14
maintiennent 14
mentionn@@ 14
migraine 14
migrations 14
miniatur@@ 14
minuti@@ 14
mir@@ 14
montraient 14
motion 14
multiplié 14
myth@@ 14
mémo@@ 14
métabol@@ 14
métaph@@ 14
nagé 14
navig@@ 14
neurotransmet@@ 14
nomin@@ 14
nover 14
numéri@@ 14
océani@@ 14
offrant 14
onom@@ 14
optimal 14
ord 14
othèque 14
oxyd@@ 14
param@@ 14
parcelle 14
partiellement 14
parts 14
patrimoine 14
patrio@@ 14
payent 14
pays@@ 14
pelo@@ 14
pension 14
perroqu@@ 14
persévér@@ 14
plaçant 14
ples 14
pollinis@@ 14
polysty@@ 14
polémi@@ 14
primi@@ 14
prince 14
progressi@@ 14
préju@@ 14
préoccupation 14
préparais 14
préparent 14
ptions 14
pull 14
pâtur@@ 14
pédago@@ 14
pénicill@@ 14
pêch@@ 14
q 14
rattrap@@ 14
recueilli@@ 14
regards 14
rempli@@ 14
renfer@@ 14
rhét@@ 14
rig@@ 14
ril 14
risquer 14
rugo@@ 14
réduisez 14
réinvent@@ 14
rétin@@ 14
rétréc@@ 14
réveil@@ 14
réverb@@ 14
sabo@@ 14
sacrifice 14
saisonni@@ 14
sanctu@@ 14
saï@@ 14
scru@@ 14
seg@@ 14
sensu@@ 14
sha 14
sir 14
slide 14
sor 14
souffr@@ 14
sphin@@ 14
ss 14
statu 14
stimulus 14
sto@@ 14
styles 14
suggestion 14
support@@ 14
tali@@ 14
temporal 14
thro@@ 14
tickets 14
til 14
times 14
tionne 14
titan@@ 14
toni@@ 14
top@@ 14
trai 14
transactions 14
transi@@ 14
traîner 14
tremb@@ 14
triang@@ 14
trillions 14
trimes@@ 14
trouverons 14
trouvions 14
trè@@ 14
tter 14
tère 14
ucky 14
usement 14
vac@@ 14
vaccin@@ 14
vase 14
vec@@ 14
vendaient 14
vendant 14
ventilation 14
vet@@ 14
vre 14
web@@ 14
wer 14
zoom 14
çaient 14
éblou@@ 14
éments 14
émeu@@ 14
éni@@ 14
épat@@ 14
équilib@@ 14
œstro@@ 14
186@@ 13
360 13
41 13
750 13
82 13
84 13
Alber@@ 13
Ali 13
Bec@@ 13
Billy 13
Black@@ 13
Bollywood 13
Boo@@ 13
Botsw@@ 13
Brun@@ 13
Buff@@ 13
Ca@@ 13
Cancer 13
Cape 13
Carter 13
Club 13
Commer@@ 13
Coo@@ 13
D.@@ 13
Dic@@ 13
Dol@@ 13
Emmanuel 13
Equ@@ 13
Eur@@ 13
Fem@@ 13
Fri@@ 13
Gehry 13
Glenn 13
Great 13
Harlem 13
Hay@@ 13
Herbie 13
Hill 13
Hill@@ 13
Holocau@@ 13
I. 13
IN@@ 13
IP 13
Istan@@ 13
Jesse 13
Lanka 13
Len 13
Liby@@ 13
Lit@@ 13
Lumi@@ 13
Madagas@@ 13
Map 13
Math@@ 13
Mathematic@@ 13
Mill@@ 13
Milli@@ 13
Negroponte 13
Neu@@ 13
Nin@@ 13
Nov@@ 13
PR 13
Pet@@ 13
Picasso 13
Plan@@ 13
Puis@@ 13
Rab@@ 13
Raj@@ 13
Rand 13
Rest@@ 13
Roc@@ 13
SO@@ 13
Samuel 13
Sand@@ 13
Shar@@ 13
Side 13
South@@ 13
Starbucks 13
Stuxnet 13
Sul@@ 13
Sus@@ 13
Swe@@ 13
Tarahumara 13
Thula 13
Tour 13
Transition 13
Vag@@ 13
Wol@@ 13
Yu@@ 13
Yém@@ 13
ace@@ 13
addiction 13
addition 13
ads 13
adul@@ 13
affin@@ 13
ald 13
algorith@@ 13
alleman@@ 13
ampu@@ 13
anth@@ 13
antidote 13
apo@@ 13
apper 13
argument@@ 13
arin 13
ario 13
asy@@ 13
ath 13
attitudes 13
ave@@ 13
axes 13
azz@@ 13
bad@@ 13
badge 13
balanc@@ 13
barbar@@ 13
bizarr@@ 13
blan@@ 13
bun@@ 13
cami@@ 13
captur@@ 13
cass@@ 13
champion 13
chapi@@ 13
chino@@ 13
chol@@ 13
clamation 13
collections 13
conserve 13
consoli@@ 13
consult@@ 13
contours 13
contrari@@ 13
cool@@ 13
descriptions 13
deu@@ 13
dialec@@ 13
diffici@@ 13
dilem@@ 13
discer@@ 13
discrimination 13
distant 13
dol@@ 13
doub@@ 13
dyslex@@ 13
décl@@ 13
dégoû@@ 13
ectom@@ 13
eg@@ 13
eline 13
elli 13
empl@@ 13
emplac@@ 13
ene@@ 13
enny 13
ensoleill@@ 13
ental 13
entrepren@@ 13
estion 13
extrapol@@ 13
fa@@ 13
familiar@@ 13
fascination 13
fe 13
figures 13
fluor@@ 13
forcement 13
forme@@ 13
fracture 13
fragment 13
gad@@ 13
galvan@@ 13
gav@@ 13
ghan@@ 13
hallucin@@ 13
hectare 13
homo@@ 13
hormone 13
hélicopt@@ 13
icol@@ 13
igh 13
impér@@ 13
infi@@ 13
info@@ 13
inon@@ 13
intelli@@ 13
invas@@ 13
inver@@ 13
inversion 13
ita 13
jeun@@ 13
join@@ 13
kilo 13
lament@@ 13
lation 13
latitude 13
leton 13
liber@@ 13
ligence 13
lik@@ 13
limitations 13
lor 13
lymph@@ 13
macro@@ 13
mammif@@ 13
manu@@ 13
massac@@ 13
match@@ 13
mate 13
matr@@ 13
med 13
membranes 13
mite 13
mois@@ 13
mous@@ 13
multiplic@@ 13
nac@@ 13
nas@@ 13
nig@@ 13
obligato@@ 13
olympi@@ 13
once 13
opa@@ 13
orph@@ 13
oue 13
ow@@ 13
own 13
paras@@ 13
perplex@@ 13
photons 13
pil@@ 13
pins 13
pirate 13
plane 13
pragmati@@ 13
pris@@ 13
pron@@ 13
propo@@ 13
pseu@@ 13
psy@@ 13
psychia@@ 13
puiser 13
pénè@@ 13
quarant@@ 13
quoi@@ 13
refuse 13
reg@@ 13
ren 13
rhinovirus 13
roll 13
romanti@@ 13
row 13
rum@@ 13
salu@@ 13
san 13
schizoph@@ 13
scin@@ 13
scul@@ 13
secour@@ 13
set@@ 13
solidi@@ 13
souverain@@ 13
splend@@ 13
splendi@@ 13
stone 13
subsahari@@ 13
substr@@ 13
succ@@ 13
suggestions 13
suppli@@ 13
supporte 13
supposée 13
suppression 13
surestim@@ 13
surpasser 13
surprises 13
surrection 13
synthétiser 13
systémi@@ 13
tenti@@ 13
territo@@ 13
textile 13
tha 13
tic 13
timité 13
ting 13
tissent 13
tournaient 13
trach@@ 13
transformons 13
tridimensionn@@ 13
triple 13
ts@@ 13
tter@@ 13
udi@@ 13
uniform@@ 13
vain 13
varient 13
veau 13
victori@@ 13
video 13
vierg@@ 13
ving@@ 13
vor@@ 13
wan 13
ward 13
water 13
yaour@@ 13
yn@@ 13
écrivant 13
émis@@ 13
éphalo@@ 13
érance 13
érat@@ 13
établit 13
étés 13
ï 13
11@@ 12
170 12
54 12
Accent@@ 12
Administr@@ 12
Allem@@ 12
Angel@@ 12
Anim@@ 12
As 12
Aug@@ 12
Aur@@ 12
Avi@@ 12
Bay@@ 12
Bilbao 12
Blackber@@ 12
Bonnet 12
Brigades 12
Browne 12
Bun@@ 12
Cant@@ 12
Capit@@ 12
Charlo@@ 12
Cis@@ 12
Clark 12
Corn@@ 12
D.C. 12
Dan@@ 12
Darwin@@ 12
Del@@ 12
Diplomat 12
Diver@@ 12
Donnell 12
Eduardo 12
Ess@@ 12
Fil@@ 12
Fis@@ 12
Freud 12
G. 12
Gapmin@@ 12
Georgetown 12
Gillian 12
Gius@@ 12
Gl@@ 12
Goldman 12
Gram@@ 12
Grav@@ 12
Greg 12
Guardi@@ 12
Guatem@@ 12
Hamp@@ 12
Harr@@ 12
Hondur@@ 12
Il@@ 12
Independent 12
Infin@@ 12
Ir@@ 12
Jab@@ 12
Jacques 12
Jennifer 12
Jour@@ 12
Kis@@ 12
Kiva 12
LH@@ 12
Labor@@ 12
Lord 12
Luci@@ 12
Lé@@ 12
Maj@@ 12
Mao 12
Maria 12
Mark@@ 12
Men@@ 12
Mexic@@ 12
Mik@@ 12
Miss@@ 12
Moham@@ 12
Mondi@@ 12
Natalie 12
Nicholas 12
O.@@ 12
OL@@ 12
Objec@@ 12
Oliver 12
Oscar 12
Pack@@ 12
Pascal 12
Pier@@ 12
Potter 12
Ra@@ 12
Ral@@ 12
Rec@@ 12
Reven@@ 12
Ron 12
ST 12
Sac@@ 12
Sally 12
Service 12
Shir@@ 12
Sim@@ 12
Sk@@ 12
Soy@@ 12
Spe@@ 12
Stal@@ 12
Stone 12
Sym@@ 12
Syn@@ 12
Tay@@ 12
Telescope 12
Tyrannosau@@ 12
Wired 12
Wiscons@@ 12
Zambi@@ 12
abas@@ 12
ack 12
ade@@ 12
akist@@ 12
aks 12
ambulance 12
anonym@@ 12
ané@@ 12
apath@@ 12
aph@@ 12
are@@ 12
asphal@@ 12
astrop@@ 12
atan 12
ation@@ 12
ator 12
atori@@ 12
attent@@ 12
atterri@@ 12
avantag@@ 12
avier 12
back 12
barbec@@ 12
bler 12
blou@@ 12
box@@ 12
boy@@ 12
briquettes 12
bs 12
buff@@ 12
bét@@ 12
cab@@ 12
cable 12
cano@@ 12
cape 12
capitul@@ 12
cases 12
centen@@ 12
champagne 12
chocol@@ 12
choisi@@ 12
clandest@@ 12
coalition 12
com 12
comment@@ 12
commet@@ 12
commod@@ 12
complex@@ 12
compost 12
concili@@ 12
confis@@ 12
conjec@@ 12
construc@@ 12
consum@@ 12
conventions 12
correspond@@ 12
corro@@ 12
craft 12
crat@@ 12
critiqu@@ 12
croqu@@ 12
cyl@@ 12
câ@@ 12
côti@@ 12
desc@@ 12
deven@@ 12
diagon@@ 12
différ@@ 12
digesti@@ 12
disson@@ 12
dog@@ 12
doubles 12
ducation 12
débrou@@ 12
découvr@@ 12
défail@@ 12
désas@@ 12
détes@@ 12
ee 12
embry@@ 12
ennent 12
ens@@ 12
exam@@ 12
extern@@ 12
faç@@ 12
filament 12
fluctu@@ 12
frai@@ 12
ghet@@ 12
gonf@@ 12
graci@@ 12
gribouill@@ 12
grou@@ 12
head 12
him@@ 12
hop@@ 12
humble 12
ii@@ 12
indul@@ 12
informe@@ 12
inger 12
instruc@@ 12
instrument@@ 12
intellect 12
ish 12
ison 12
itz@@ 12
jeans 12
khe@@ 12
lamin@@ 12
linguis@@ 12
lob@@ 12
lobby 12
lobes 12
légend@@ 12
législ@@ 12
main@@ 12
mangro@@ 12
manifest@@ 12
marath@@ 12
marshmal@@ 12
master 12
meuble 12
miniature 12
missionn@@ 12
modules 12
mond 12
monit@@ 12
monument@@ 12
municipal 12
mut@@ 12
ménag@@ 12
night 12
nuclé@@ 12
oas@@ 12
obscure 12
obsessionn@@ 12
och@@ 12
oir 12
ois@@ 12
omat@@ 12
org@@ 12
organ@@ 12
orthop@@ 12
pandémi@@ 12
papill@@ 12
passer@@ 12
photocopi@@ 12
pige@@ 12
pist@@ 12
pitch 12
plantation 12
plastic@@ 12
plo@@ 12
polit@@ 12
pore 12
poussi@@ 12
poé@@ 12
princ@@ 12
prison@@ 12
provisions 12
pse 12
pyram@@ 12
péd@@ 12
quad@@ 12
rais@@ 12
rassemb@@ 12
reconnai@@ 12
refro@@ 12
regard@@ 12
reliant 12
restriction 12
ret 12
romance 12
rone 12
ryth@@ 12
réfu@@ 12
sacri@@ 12
sacrifices 12
saint 12
satisfais@@ 12
scription 12
set 12
shopping 12
similar@@ 12
smart@@ 12
ste@@ 12
ston@@ 12
strat@@ 12
stream 12
subjective 12
submersibles 12
synago@@ 12
syner@@ 12
tech@@ 12
temples 12
tempér@@ 12
than 12
thiop@@ 12
tibles 12
timid@@ 12
toxi@@ 12
trade 12
transit 12
transvers@@ 12
troit 12
tude 12
tum 12
tunnels 12
typi@@ 12
ush@@ 12
vagu@@ 12
valence 12
valves 12
vesti@@ 12
vic@@ 12
vo 12
vô@@ 12
wat@@ 12
zoo@@ 12
zéro@@ 12
éloqu@@ 12
éton@@ 12
étu@@ 12
♪ 12
1600 11
400@@ 11
91 11
;@@ 11
AC 11
Adri@@ 11
Aimee 11
Andr@@ 11
Ann 11
Ann@@ 11
Anth@@ 11
Ari@@ 11
Auschwit@@ 11
B.@@ 11
Blair 11
Brit@@ 11
Brothers 11
Bru@@ 11
Budap@@ 11
Cat@@ 11
Chap@@ 11
Cher@@ 11
Chr@@ 11
Chuck 11
Cir@@ 11
Clevel@@ 11
Comb@@ 11
Cul@@ 11
Dak@@ 11
Dalai 11
Davis 11
Deniso@@ 11
Diam@@ 11
Dra@@ 11
Dubai 11
Duke 11
EEG 11
Edward 11
Effec@@ 11
Eleanor 11
Evel@@ 11
FedE@@ 11
Franklin 11
Fred 11
Gil@@ 11
Glas@@ 11
Gold@@ 11
Hawaii 11
Health 11
Helvetic@@ 11
Hom@@ 11
Homer 11
Hopkins 11
Hul@@ 11
Illin@@ 11
Intellig@@ 11
Inu@@ 11
Is@@ 11
It@@ 11
JPL 11
Joh@@ 11
Jon 11
Juan 11
June 11
Justice 11
Karl 11
Kent@@ 11
Kh@@ 11
LEDs 11
Light 11
MA@@ 11
MBA 11
MS@@ 11
Macintosh 11
Malaw@@ 11
Manch@@ 11
Marc 11
Matthieu 11
McC@@ 11
Mey@@ 11
My 11
NO@@ 11
Najmu@@ 11
Nash@@ 11
Netflix 11
Norm@@ 11
Oak@@ 11
Ob@@ 11
Office 11
One 11
Palestini@@ 11
Pat 11
Pin@@ 11
Question 11
Quo@@ 11
Ralph 11
Regar@@ 11
Rid@@ 11
River 11
Robicsek 11
Rum@@ 11
Réfléch@@ 11
Sachs 11
Sain@@ 11
Sao 11
Serv@@ 11
Simpson 11
Sing@@ 11
Son@@ 11
Spi@@ 11
St@@ 11
T.@@ 11
TEDGlobal 11
TEDTalk 11
TO@@ 11
Tech 11
Tech@@ 11
Theater 11
Tour@@ 11
Tribun@@ 11
Tul@@ 11
Un@@ 11
Vic@@ 11
Victoria 11
Video 11
Virtual 11
Von 11
WI@@ 11
Woo@@ 11
Woody 11
WorldWide 11
Wy@@ 11
abandon 11
abdom@@ 11
abrup@@ 11
acidification 11
acts 11
agi@@ 11
agit@@ 11
ague 11
aka 11
aller@@ 11
alpha 11
angio@@ 11
annul@@ 11
apparaiss@@ 11
appari@@ 11
appe@@ 11
applic@@ 11
arbor@@ 11
archive 11
ardi@@ 11
arg@@ 11
aris@@ 11
arrangement 11
arriv@@ 11
arsen@@ 11
athé@@ 11
atr@@ 11
aç@@ 11
basket 11
best 11
bifur@@ 11
boom@@ 11
briqu@@ 11
bureaucr@@ 11
bénéfi@@ 11
capsule 11
cassette 11
cha 11
changing 11
chas@@ 11
chlor@@ 11
chloro@@ 11
cock@@ 11
commercialis@@ 11
compens@@ 11
compréhensi@@ 11
confec@@ 11
confrontation 11
connection 11
consistent 11
constructive 11
contex@@ 11
contextu@@ 11
contras@@ 11
cosmi@@ 11
ction 11
cumul@@ 11
cut@@ 11
dec@@ 11
dements 11
derni@@ 11
descen@@ 11
design@@ 11
designs 11
discre@@ 11
disposi@@ 11
disproportion@@ 11
dissoci@@ 11
doctrine 11
douc@@ 11
déli@@ 11
démi@@ 11
déri@@ 11
détend@@ 11
ect 11
emph@@ 11
enco@@ 11
ennem@@ 11
erge 11
espac@@ 11
essive 11
etc@@ 11
eval 11
exploit 11
facil@@ 11
facul@@ 11
falsi@@ 11
fantô@@ 11
fasc@@ 11
fe@@ 11
ferment@@ 11
floc@@ 11
fractu@@ 11
fraîch@@ 11
ft 11
futur@@ 11
gger 11
gi 11
giving 11
glom@@ 11
gon@@ 11
graiss@@ 11
gripp@@ 11
guéri@@ 11
hav@@ 11
hero 11
ho 11
hockey 11
hot@@ 11
hym@@ 11
hypno@@ 11
iPods 11
ik@@ 11
ile@@ 11
immigr@@ 11
incidents 11
incl@@ 11
incompati@@ 11
intercep@@ 11
interview@@ 11
intes 11
intro@@ 11
inventi@@ 11
invo@@ 11
inévit@@ 11
ivent 11
jaun@@ 11
just@@ 11
ke@@ 11
ko 11
labori@@ 11
lak@@ 11
ligator 11
limitation 11
logi@@ 11
lose 11
lum@@ 11
léch@@ 11
légis@@ 11
mature 11
mess@@ 11
mili@@ 11
mitochondri@@ 11
muff@@ 11
médical@@ 11
nap@@ 11
natures 11
ning 11
nomb@@ 11
nyl@@ 11
olu@@ 11
ome@@ 11
ondation 11
oney 11
opho@@ 11
orbital 11
orni@@ 11
osc@@ 11
other@@ 11
pH 11
pac@@ 11
paisi@@ 11
parade 11
paradig@@ 11
paraph@@ 11
pedia 11
perdu@@ 11
pet@@ 11
photor@@ 11
pieu@@ 11
placement 11
polym@@ 11
pran@@ 11
prob@@ 11
proch@@ 11
procé@@ 11
prototyp@@ 11
provis@@ 11
psychi@@ 11
pulsion 11
pus@@ 11
péch@@ 11
péni@@ 11
rain@@ 11
rami@@ 11
rappro@@ 11
rase 11
recharge 11
recyc@@ 11
ree 11
relation@@ 11
report@@ 11
reptiles 11
restaur@@ 11
rex 11
rompu@@ 11
rovi@@ 11
résis@@ 11
rê@@ 11
sama 11
scoo@@ 11
scores 11
script 11
semes@@ 11
seu@@ 11
silhou@@ 11
sir@@ 11
slav@@ 11
sociét@@ 11
solu@@ 11
soupçonn@@ 11
spec@@ 11
spécific@@ 11
squat@@ 11
squel@@ 11
sten@@ 11
sters 11
stig@@ 11
studios 11
supports 11
suspec@@ 11
symptô@@ 11
symétri@@ 11
séch@@ 11
tain@@ 11
tak@@ 11
tang@@ 11
ten 11
term@@ 11
terminal 11
thal 11
thor@@ 11
théor@@ 11
toire 11
touches 11
tragédi@@ 11
transaction 11
transcri@@ 11
traqu@@ 11
troph@@ 11
tropolit@@ 11
tz@@ 11
uck 11
vant@@ 11
ventr@@ 11
versus 11
vian 11
view 11
vise 11
voirs 11
wit@@ 11
work 11
zer@@ 11
Î@@ 11
è 11
émi@@ 11
ître 11
A.@@ 10
AD@@ 10
Admin 10
Agnes 10
Ali@@ 10
America 10
Anonymous 10
Aqu@@ 10
Australi@@ 10
Ax@@ 10
Best 10
Betty 10
Boeing 10
Boltz@@ 10
Boyle 10
By@@ 10
CER@@ 10
Cargill 10
Casey 10
Cau@@ 10
Chand@@ 10
Christopher 10
Clay 10
Commun@@ 10
Concer@@ 10
Conservation 10
Considé@@ 10
Contr@@ 10
Corporation 10
Creative 10
Cree@@ 10
Cru@@ 10
Douglas 10
Drac@@ 10
Dun@@ 10
Démo@@ 10
Edison 10
Envir@@ 10
Farm@@ 10
Foo@@ 10
Fortune 10
Ghrai@@ 10
Gra@@ 10
Grou@@ 10
Hai@@ 10
Hal@@ 10
Hein@@ 10
High 10
High@@ 10
Hong@@ 10
Huck 10
Hyderab@@ 10
In 10
J. 10
Jer@@ 10
Jos@@ 10
Kaluza 10
Kinsey 10
Kofi 10
L.@@ 10
LOLcats 10
Lab@@ 10
Let@@ 10
Lind@@ 10
Lindber@@ 10
Linus 10
Lynn 10
MT@@ 10
Mah@@ 10
Mardu@@ 10
Marx 10
Matthew 10
Milan 10
Mitch@@ 10
Mont@@ 10
Mozambi@@ 10
Nancy 10
Nig@@ 10
Num@@ 10
Ny@@ 10
O. 10
Page 10
Palm 10
Part@@ 10
Paula 10
Play@@ 10
Proc@@ 10
Pun@@ 10
Q 10
Queen 10
RI@@ 10
Rap@@ 10
Rezero 10
Rice 10
Rich@@ 10
Robin 10
Rockefeller 10
Rol@@ 10
SA@@ 10
SE 10
Sa@@ 10
Sant@@ 10
Schwarzschild 10
Sergey 10
Serra 10
Shi@@ 10
Spr@@ 10
Street@@ 10
Sys 10
T. 10
TEDx@@ 10
Tal@@ 10
Termin@@ 10
Thanks@@ 10
Tim@@ 10
Tol@@ 10
Tulu 10
U.@@ 10
UNI@@ 10
Up 10
VI@@ 10
Vel@@ 10
Viagr@@ 10
Vie@@ 10
W. 10
We 10
West@@ 10
Wur@@ 10
Yam@@ 10
Yo@@ 10
Ze@@ 10
abri@@ 10
abs@@ 10
accé@@ 10
acul@@ 10
adage 10
ades@@ 10
agan 10
ago@@ 10
alg@@ 10
alive 10
aléato@@ 10
ancer 10
anom@@ 10
any 10
anz@@ 10
ape 10
apr@@ 10
argum@@ 10
ast 10
ati 10
aucon 10
autoris@@ 10
aven@@ 10
ax 10
bic@@ 10
ble@@ 10
bloqu@@ 10
bod@@ 10
bombardi@@ 10
bone 10
brand@@ 10
cam 10
cap 10
capill@@ 10
cartil@@ 10
cath@@ 10
cau@@ 10
cerv@@ 10
chemin@@ 10
civil 10
classification 10
clim@@ 10
cock 10
coinc@@ 10
come 10
compt@@ 10
confuse 10
connectom@@ 10
contest@@ 10
cook@@ 10
crack@@ 10
cris@@ 10
croiss@@ 10
célé@@ 10
dat 10
distinct 10
doctrines 10
dor 10
dors@@ 10
démonstr@@ 10
déroul@@ 10
ear@@ 10
effec@@ 10
ek 10
eld 10
eman 10
eps 10
exqu@@ 10
extrai@@ 10
faces 10
field 10
fleu@@ 10
fondament@@ 10
fossil@@ 10
frontal@@ 10
gade 10
gallon 10
gawat@@ 10
ght 10
glucose 10
gradi@@ 10
grill@@ 10
guil@@ 10
gur@@ 10
gâte@@ 10
halluc@@ 10
hand@@ 10
haw@@ 10
hosti@@ 10
hydropho@@ 10
hérit@@ 10
iPh@@ 10
ian 10
iff@@ 10
illet 10
incubat@@ 10
inflam@@ 10
ingu@@ 10
ingue 10
ink@@ 10
insi@@ 10
interi@@ 10
invari@@ 10
jeu@@ 10
ji@@ 10
jol@@ 10
juridi@@ 10
ken 10
kes 10
laparoscop@@ 10
lifi@@ 10
mafi@@ 10
males 10
market@@ 10
microphone 10
minér@@ 10
model 10
mouv@@ 10
niches 10
nostal@@ 10
nul@@ 10
occur@@ 10
occurr@@ 10
ode 10
offensive 10
okay 10
oko 10
omin@@ 10
ona 10
opath@@ 10
opt@@ 10
opérationn@@ 10
ouff@@ 10
oufl@@ 10
ould 10
partici@@ 10
peer 10
phalo@@ 10
plex@@ 10
plur@@ 10
pop@@ 10
popul@@ 10
posters 10
potassium 10
privil@@ 10
profil@@ 10
profitable 10
proscenium 10
provinces 10
puri@@ 10
périph@@ 10
quantit@@ 10
remè@@ 10
replac@@ 10
reporter 10
retrouv@@ 10
régi@@ 10
sag@@ 10
salin@@ 10
sat@@ 10
scenario 10
scor@@ 10
scro@@ 10
sensi@@ 10
shi@@ 10
side 10
singul@@ 10
solenn@@ 10
solidar@@ 10
soulev@@ 10
soup@@ 10
spectr@@ 10
spectroscop@@ 10
spi@@ 10
spic@@ 10
spin 10
start 10
stomatopo@@ 10
stu@@ 10
submersible 10
sum 10
suppor@@ 10
surve@@ 10
sushi 10
suspects 10
sw@@ 10
symbo@@ 10
séquenc@@ 10
tamp@@ 10
tangi@@ 10
tants 10
tar 10
technologi@@ 10
the@@ 10
ting@@ 10
toxic@@ 10
trag@@ 10
trail@@ 10
tumor@@ 10
tô@@ 10
ular 10
umb@@ 10
valid@@ 10
value 10
vidé@@ 10
vieilli@@ 10
vietnam@@ 10
vocal@@ 10
voil@@ 10
voitur@@ 10
vom@@ 10
véni@@ 10
xon 10
yg@@ 10
ype 10
½ 10
écol@@ 10
électri@@ 10
éris@@ 10
étér@@ 10
́ 10
€ 10
240 9
380 9
AC@@ 9
Action 9
Adam@@ 9
Afghan 9
Allan 9
Alvin 9
Anne 9
Arav@@ 9
Architecture 9
Arnold 9
Asi@@ 9
Ast@@ 9
Avel@@ 9
BM@@ 9
Bah@@ 9
Balti@@ 9
Beverly 9
Bez@@ 9
Black 9
Bobby 9
Boy@@ 9
Brilli@@ 9
Britann@@ 9
Buckminster 9
Budr@@ 9
Camer@@ 9
Canadi@@ 9
Capgras 9
Chag@@ 9
Chin@@ 9
Chron@@ 9
Citiz@@ 9
Clon@@ 9
Correc@@ 9
Dais@@ 9
Dec@@ 9
Den@@ 9
Deng 9
Derartu 9
Dewe@@ 9
Diff@@ 9
Dir@@ 9
Duoling@@ 9
EC@@ 9
Eff@@ 9
Ernest 9
Et@@ 9
Film 9
Flor@@ 9
Foot@@ 9
Franc@@ 9
Fuller 9
Gamble 9
Gor@@ 9
Gre@@ 9
Génér@@ 9
HIV 9
Hans@@ 9
Has@@ 9
Hewlet@@ 9
Hil@@ 9
ID 9
IP@@ 9
Initi@@ 9
Innov@@ 9
Inst@@ 9
Jav@@ 9
Jesus 9
KIP@@ 9
Kaab@@ 9
Karen 9
Kim@@ 9
Kit@@ 9
Kleiber 9
Kol@@ 9
Kurzweil 9
Lake 9
Land@@ 9
Layma 9
Leonard 9
Lev@@ 9
Liver@@ 9
London 9
Lyndon 9
M.@@ 9
MI@@ 9
Madison 9
Metropolitan 9
Mountain 9
NAN@@ 9
NBC 9
Narr@@ 9
Nat@@ 9
Nik@@ 9
Off@@ 9
Oklahom@@ 9
Ox@@ 9
Pand@@ 9
Peu@@ 9
Pic@@ 9
Port@@ 9
Power@@ 9
Prak@@ 9
Prin@@ 9
Proto@@ 9
Proz@@ 9
Rhode 9
Richar@@ 9
Rod@@ 9
Ross@@ 9
Russell 9
Sag@@ 9
Salman 9
Save 9
Sebas@@ 9
Sev@@ 9
Sex 9
Shu@@ 9
Sioux 9
Sop@@ 9
Sophi@@ 9
Splashy 9
Stand@@ 9
Stat@@ 9
Sty@@ 9
Sum@@ 9
Tes@@ 9
Tom@@ 9
Top 9
Torosau@@ 9
Trin@@ 9
Vas@@ 9
Willie 9
Yor@@ 9
abyte 9
aches 9
acoustici@@ 9
adjac@@ 9
admet@@ 9
ahah@@ 9
aho@@ 9
ails 9
alarm@@ 9
alien 9
aments 9
amou@@ 9
amplific@@ 9
analogies 9
ancestr@@ 9
anes@@ 9
anomal@@ 9
aqui@@ 9
ass 9
astron@@ 9
ativ@@ 9
aul@@ 9
aux@@ 9
aveug@@ 9
aveugl@@ 9
bale@@ 9
bee 9
berg@@ 9
bit 9
blog@@ 9
bol@@ 9
boss@@ 9
bow@@ 9
bracel@@ 9
bulldoz@@ 9
calend@@ 9
caval@@ 9
cel 9
cement 9
champion@@ 9
clic@@ 9
clin 9
clini@@ 9
collag@@ 9
compli@@ 9
comprom@@ 9
concoc@@ 9
conditionn@@ 9
constellations 9
contributions 9
coo@@ 9
coron@@ 9
cos@@ 9
courage@@ 9
crocod@@ 9
culmin@@ 9
curr@@ 9
célè@@ 9
cér@@ 9
desser@@ 9
dia 9
diagnostic@@ 9
disparaî@@ 9
distil@@ 9
dive 9
documentation 9
décol@@ 9
déj@@ 9
dépla@@ 9
eds 9
ellul@@ 9
embarr@@ 9
enfant@@ 9
ense@@ 9
env@@ 9
environ@@ 9
ep@@ 9
ering 9
escent@@ 9
ester@@ 9
exac@@ 9
exhaus@@ 9
exper@@ 9
expir@@ 9
extrém@@ 9
facts 9
fall@@ 9
fam@@ 9
favorites 9
fermi@@ 9
fléch@@ 9
foc@@ 9
franc@@ 9
fusi@@ 9
gging 9
gives 9
golf@@ 9
graffiti 9
grer 9
grin@@ 9
gymnosophis@@ 9
hen@@ 9
histo@@ 9
hob@@ 9
holocau@@ 9
house 9
hr@@ 9
humain@@ 9
hypothè@@ 9
hys@@ 9
igh@@ 9
illeurs 9
illégal@@ 9
ilo@@ 9
ima 9
immu@@ 9
impul@@ 9
incess@@ 9
intel@@ 9
intend@@ 9
internation@@ 9
interrompu@@ 9
investigation 9
io@@ 9
isotop@@ 9
istr@@ 9
iti 9
ité@@ 9
kang@@ 9
king 9
laid 9
lar 9
lest 9
lex 9
lif@@ 9
littleBits 9
légal@@ 9
maj@@ 9
manager 9
mathémati@@ 9
min 9
modu@@ 9
multicul@@ 9
musi@@ 9
mytho@@ 9
métaphori@@ 9
new 9
nitr@@ 9
noir@@ 9
ny 9
ophon@@ 9
orthodo@@ 9
outr@@ 9
outs 9
over@@ 9
paragrap@@ 9
partisan 9
peace 9
philosophi@@ 9
pipe 9
pix@@ 9
placent@@ 9
plant 9
plau@@ 9
poison@@ 9
pores 9
probio@@ 9
prédic@@ 9
quor@@ 9
radic@@ 9
rect@@ 9
recti@@ 9
registr@@ 9
rejoign@@ 9
religi@@ 9
renver@@ 9
ring 9
rotor 9
sand@@ 9
scans 9
sell@@ 9
sh 9
shirts 9
sod@@ 9
soulag@@ 9
sponsor 9
stitut 9
stoc@@ 9
stupi@@ 9
sty 9
subjec@@ 9
supersti@@ 9
supervis@@ 9
suspen@@ 9
sécu@@ 9
tant@@ 9
taxonom@@ 9
testant 9
thermo@@ 9
thermodynam@@ 9
thy 9
thémati@@ 9
tian 9
tit@@ 9
traditionn@@ 9
trainer 9
trang@@ 9
trap@@ 9
trement 9
tricité 9
truff@@ 9
témo@@ 9
ultravio@@ 9
uri@@ 9
uter@@ 9
verti@@ 9
volu@@ 9
wag@@ 9
war 9
ware 9
whis@@ 9
yan 9
you 9
zero 9
zig@@ 9
zu@@ 9
écos@@ 9
émati@@ 9
ôle 9
û 9
# 8
.C. 8
175 8
23@@ 8
26@@ 8
300@@ 8
4.@@ 8
46@@ 8
5,000 8
AA@@ 8
Afgh@@ 8
Améri@@ 8
Andre@@ 8
Ansari 8
Atlantic 8
Audi@@ 8
Az@@ 8
B. 8
Ball@@ 8
Barcel@@ 8
Bio@@ 8
Biosphere 8
Birming@@ 8
Blo@@ 8
Broad@@ 8
Bry@@ 8
Bud@@ 8
Buen@@ 8
Building 8
Buy 8
Catho@@ 8
Certain@@ 8
Cheet@@ 8
Ches@@ 8
Christian 8
Cin@@ 8
Clo@@ 8
Coach 8
Contin@@ 8
Cur@@ 8
D. 8
DA 8
DMCA 8
Dead 8
Dennis 8
Dhar@@ 8
Digital 8
Don 8
Dop@@ 8
Dravi@@ 8
Durg@@ 8
Dévelop@@ 8
EE@@ 8
Ear@@ 8
Ell@@ 8
Embr@@ 8
Engel@@ 8
Ey@@ 8
Ez@@ 8
FE@@ 8
Fab@@ 8
Fe@@ 8
Festival 8
Fluc@@ 8
Fol@@ 8
Food 8
G.@@ 8
Giacomet@@ 8
Gowan@@ 8
Gran@@ 8
H1N@@ 8
Hav@@ 8
Hillis 8
History 8
Ide@@ 8
Information 8
Jans@@ 8
Jonathan 8
K. 8
Karaj@@ 8
Kazakh@@ 8
Kermit 8
Kin@@ 8
Kne@@ 8
Krish@@ 8
LEG@@ 8
LI@@ 8
Law 8
Lei@@ 8
Leonardo 8
Lib@@ 8
Lyn@@ 8
ME@@ 8
MP3 8
Mai@@ 8
Martha 8
Mec@@ 8
Medic@@ 8
Mee@@ 8
Merce@@ 8
Mexico 8
Mir@@ 8
Mister 8
Moder@@ 8
Monter@@ 8
Moo@@ 8
More 8
Naomi 8
Nintend@@ 8
No 8
Noam 8
ONG@@ 8
Okinaw@@ 8
Ork@@ 8
Parks 8
Pati@@ 8
Patri@@ 8
Phil@@ 8
Phili@@ 8
Pix@@ 8
Que@@ 8
Queens@@ 8
Rebecca 8
Recor@@ 8
Reu@@ 8
Robin@@ 8
Rut@@ 8
Safe@@ 8
Sanghami@@ 8
Scal@@ 8
Shangh@@ 8
Shred@@ 8
Simple 8
Spider@@ 8
Stati@@ 8
Steven@@ 8
Swahil@@ 8
Syd@@ 8
TEMP@@ 8
Tai@@ 8
Taiwan 8
Tak@@ 8
That@@ 8
Ther@@ 8
Tig@@ 8
Tiger 8
Tit@@ 8
Trac@@ 8
Tradi@@ 8
UC@@ 8
UV@@ 8
Up@@ 8
Utop@@ 8
Van@@ 8
Vent@@ 8
Vibrio 8
Viking 8
Vish@@ 8
Vul@@ 8
Wag@@ 8
Water@@ 8
Whirl@@ 8
Who@@ 8
Whole 8
Won@@ 8
XI@@ 8
Xiaoping 8
Yanke@@ 8
Yoch@@ 8
about@@ 8
absol@@ 8
acro@@ 8
adem@@ 8
admire 8
adé@@ 8
ae 8
ago 8
ahi@@ 8
alan@@ 8
allem@@ 8
antibio@@ 8
ao@@ 8
aor@@ 8
apl@@ 8
apparti@@ 8
arit@@ 8
arium 8
arrange 8
aser 8
assign@@ 8
attein@@ 8
batro@@ 8
blas@@ 8
blat@@ 8
blu@@ 8
bonn@@ 8
book 8
box 8
bright 8
cameras 8
cannibal@@ 8
capr@@ 8
caram@@ 8
carni@@ 8
castle 8
catar@@ 8
catho@@ 8
challenges 8
charis@@ 8
chewing 8
cinqu@@ 8
civil@@ 8
civilis@@ 8
clitor@@ 8
coach 8
cocktail@@ 8
coerci@@ 8
compr@@ 8
connaî@@ 8
conser@@ 8
consol@@ 8
consorti@@ 8
contour@@ 8
corrompu@@ 8
coyo@@ 8
cubic@@ 8
cumulative 8
curs@@ 8
della 8
develop@@ 8
dg@@ 8
diaspor@@ 8
disparai@@ 8
disser@@ 8
dith 8
duction 8
décourag@@ 8
dépens@@ 8
détéri@@ 8
eck 8
eck@@ 8
effective 8
ele@@ 8
elli@@ 8
empath@@ 8
endi@@ 8
endo@@ 8
endu 8
endu@@ 8
enou@@ 8
entions 8
ere@@ 8
ese 8
eth@@ 8
expan@@ 8
fatal 8
fati@@ 8
fices 8
firm@@ 8
foot@@ 8
fratern@@ 8
frau@@ 8
free 8
game 8
gas 8
gest@@ 8
gey@@ 8
giga@@ 8
gin 8
gli@@ 8
gram 8
gras@@ 8
her 8
hexag@@ 8
his 8
horizontal@@ 8
ide@@ 8
if@@ 8
intimi@@ 8
invisi@@ 8
jec@@ 8
joint@@ 8
kar@@ 8
labor@@ 8
lad@@ 8
lamp@@ 8
lassi@@ 8
lesbi@@ 8
lescop@@ 8
lexi@@ 8
liance 8
lich@@ 8
lines 8
litt@@ 8
lows 8
lton 8
lus@@ 8
lyn@@ 8
magn@@ 8
managers 8
marin@@ 8
militar@@ 8
ming 8
minis@@ 8
mom@@ 8
monoli@@ 8
montag@@ 8
monum@@ 8
morph@@ 8
myri@@ 8
métho@@ 8
narrative 8
nes@@ 8
neutrin@@ 8
nic@@ 8
nér@@ 8
nétr@@ 8
obl@@ 8
oli@@ 8
oll 8
organ 8
ough 8
over 8
pacemak@@ 8
paci@@ 8
paraiss@@ 8
parano@@ 8
passes 8
perfection@@ 8
performan@@ 8
piss@@ 8
plasma 8
plates 8
position@@ 8
pot@@ 8
print 8
procu@@ 8
psychologi@@ 8
psychopath@@ 8
pt@@ 8
put@@ 8
putation 8
quet@@ 8
rabb@@ 8
rate 8
rements 8
reporters 8
respi@@ 8
responsabil@@ 8
revi@@ 8
rock@@ 8
rot@@ 8
rouge@@ 8
ruin@@ 8
rus 8
réflex@@ 8
réform@@ 8
révè@@ 8
sas@@ 8
sati@@ 8
sauc@@ 8
savo@@ 8
server 8
sexu@@ 8
sman 8
sni@@ 8
sno@@ 8
soupl@@ 8
spectro@@ 8
sphéri@@ 8
stri@@ 8
sy 8
tence 8
tern@@ 8
thal@@ 8
thri@@ 8
tiv@@ 8
tolér@@ 8
trading 8
trajec@@ 8
tribun@@ 8
trim@@ 8
trivial 8
trol@@ 8
try 8
tubul@@ 8
tural 8
tégr@@ 8
ténu@@ 8
térieur 8
umin@@ 8
unit 8
ups 8
usu@@ 8
venge@@ 8
ventive 8
vietnami@@ 8
vitam@@ 8
wand@@ 8
wards 8
wich 8
wif@@ 8
write 8
ws 8
ye@@ 8
you@@ 8
za 8
ère@@ 8
édie 8
énergi@@ 8
éric@@ 8
és@@ 8
ñ@@ 8
20,000 7
5.@@ 7
80@@ 7
AV@@ 7
Aar@@ 7
Agr@@ 7
Alban@@ 7
Alex@@ 7
An 7
Andro@@ 7
Appro@@ 7
Architec@@ 7
Ay@@ 7
BM 7
Ba@@ 7
Bak@@ 7
Bam@@ 7
Barr@@ 7
Bau@@ 7
Beijerinc@@ 7
Benn@@ 7
Biafr@@ 7
Big@@ 7
Bloo@@ 7
Brad@@ 7
Brah@@ 7
Bul@@ 7
Burger 7
CH@@ 7
Cab@@ 7
Carol@@ 7
Carri@@ 7
Chev@@ 7
Child 7
Chop@@ 7
Clin@@ 7
Cour@@ 7
Couste@@ 7
Croati@@ 7
DAR@@ 7
DI@@ 7
Dai 7
Domin@@ 7
Donal@@ 7
Dy@@ 7
Dynam@@ 7
Eag@@ 7
Eis@@ 7
Eisen@@ 7
Emer@@ 7
Enter@@ 7
Entre@@ 7
Erik 7
Exper@@ 7
Fas@@ 7
Feel 7
Financial 7
God@@ 7
Good@@ 7
Greg@@ 7
Gri@@ 7
HA@@ 7
Harri@@ 7
Hei@@ 7
Hen@@ 7
Hippocr@@ 7
Hob@@ 7
Hur@@ 7
Idr@@ 7
Ig@@ 7
Itali@@ 7
Jas@@ 7
Johan@@ 7
John@@ 7
Jud@@ 7
Jurassic 7
Kah@@ 7
Kap@@ 7
Kati@@ 7
Kor@@ 7
Kryp@@ 7
Lady 7
Latin 7
Laur@@ 7
Law@@ 7
Leh@@ 7
Lifesav@@ 7
Love 7
MO@@ 7
Mach 7
Mahabhar@@ 7
Maril@@ 7
Masters 7
Max@@ 7
May 7
McMur@@ 7
Medical 7
Mem@@ 7
Micro@@ 7
Molly 7
Moon 7
Music 7
Musul@@ 7
Myhr@@ 7
N. 7
Nic@@ 7
Nichol@@ 7
Niel@@ 7
Novo@@ 7
Octavi@@ 7
Olden@@ 7
Pachy@@ 7
Pari@@ 7
Particip@@ 7
Patriot 7
Pav@@ 7
Peace 7
Pearl 7
Peters@@ 7
Pit@@ 7
Plu@@ 7
Pra@@ 7
Prus@@ 7
Psy@@ 7
Rad@@ 7
Ray@@ 7
SS@@ 7
Sai@@ 7
Sargas@@ 7
Sculpe@@ 7
Send@@ 7
Shim@@ 7
Sho@@ 7
Show 7
Slo@@ 7
Snow 7
Spo@@ 7
Stuart 7
TEDster 7
Tas@@ 7
Terri@@ 7
Thail@@ 7
Treas@@ 7
Turk@@ 7
U.S. 7
Ul@@ 7
Univers@@ 7
Wall@@ 7
Water 7
Way@@ 7
Wiki@@ 7
Yellow@@ 7
Zul@@ 7
abol@@ 7
absolu@@ 7
accroch@@ 7
acousti@@ 7
aggr@@ 7
album@@ 7
alter@@ 7
amas@@ 7
amen 7
amo@@ 7
amplif@@ 7
anch 7
andis 7
anna 7
anne@@ 7
annonc@@ 7
app 7
apparent 7
arom@@ 7
arrangements 7
art. 7
ask@@ 7
asp@@ 7
aurer 7
avat@@ 7
azza 7
bai@@ 7
bare 7
bascul@@ 7
bask@@ 7
bau@@ 7
beac@@ 7
bez 7
bivor@@ 7
bling 7
board 7
bonds 7
borg@@ 7
boy 7
brainstor@@ 7
brow@@ 7
bullet@@ 7
camér@@ 7
cany@@ 7
capsu@@ 7
caves 7
chand@@ 7
chari@@ 7
chirurg@@ 7
cho 7
chréti@@ 7
circonst@@ 7
cle@@ 7
clin@@ 7
cloud 7
composite 7
compul@@ 7
condition@@ 7
consom@@ 7
consume 7
conséqu@@ 7
country 7
cowboy 7
coïn@@ 7
cute 7
cy 7
dam 7
dates 7
dermat@@ 7
ders 7
ding 7
discrimin@@ 7
distrac@@ 7
dome 7
down 7
dras@@ 7
débarras@@ 7
démarr@@ 7
dépass@@ 7
een 7
eer 7
ellip@@ 7
ello 7
embarqu@@ 7
emberer@@ 7
enir 7
ernand@@ 7
estin 7
exemp@@ 7
exu@@ 7
fischer@@ 7
fish 7
flation 7
focal 7
formal@@ 7
fractal 7
frap@@ 7
graffiti@@ 7
graph 7
gribou@@ 7
guides 7
had 7
has 7
homici@@ 7
hus@@ 7
hyperson@@ 7
ibuprof@@ 7
iceber@@ 7
ills 7
illus@@ 7
immuno@@ 7
imper@@ 7
imperfec@@ 7
improbab@@ 7
imprévisi@@ 7
iness 7
insè@@ 7
interf@@ 7
interstell@@ 7
intru@@ 7
intu@@ 7
irrit@@ 7
issi@@ 7
ith 7
jobs 7
km@@ 7
latitu@@ 7
ler@@ 7
lieu@@ 7
live 7
loge 7
logis@@ 7
magas@@ 7
mammo@@ 7
marcher@@ 7
medab@@ 7
medi@@ 7
meg@@ 7
mem@@ 7
memes 7
microflu@@ 7
microprocess@@ 7
moment@@ 7
mouill@@ 7
multiple 7
municipal@@ 7
na@@ 7
narco@@ 7
nau@@ 7
nick@@ 7
nis@@ 7
nit@@ 7
not@@ 7
nouveau@@ 7
numéro@@ 7
olo@@ 7
ology 7
omics 7
onch@@ 7
onco@@ 7
onel 7
oscill@@ 7
osi@@ 7
owit@@ 7
pail@@ 7
pand@@ 7
paragraph@@ 7
path@@ 7
perfor@@ 7
persuas@@ 7
pig@@ 7
pince@@ 7
podi@@ 7
pois@@ 7
poll@@ 7
poses 7
pourcent@@ 7
probab@@ 7
problè@@ 7
progressive 7
prohi@@ 7
propre@@ 7
provi@@ 7
provoc@@ 7
quadrup@@ 7
quantitative 7
raf@@ 7
rail 7
rak@@ 7
recomm@@ 7
relationn@@ 7
ressemb@@ 7
rid 7
ridge 7
rim@@ 7
rob@@ 7
ros@@ 7
récompens@@ 7
révolutionn@@ 7
sari 7
scr@@ 7
see 7
seniors 7
ship 7
sill@@ 7
simplif@@ 7
sing@@ 7
sion@@ 7
sister 7
snob@@ 7
sof@@ 7
sophistic@@ 7
spar@@ 7
spr@@ 7
spécifi@@ 7
stim@@ 7
stitu@@ 7
streaming 7
struction 7
stylis@@ 7
sulfuri@@ 7
survive 7
sus@@ 7
suspension 7
symptom@@ 7
sédi@@ 7
tambour@@ 7
tem@@ 7
thr@@ 7
tici@@ 7
timing 7
tree 7
tribal@@ 7
trillion 7
typ@@ 7
uctu@@ 7
ush 7
val 7
valu@@ 7
verbal 7
verbal@@ 7
verté@@ 7
volum@@ 7
véhicul@@ 7
vélo@@ 7
wal@@ 7
ways 7
wers 7
wind 7
xy 7
ym@@ 7
zuel@@ 7
£ 7
æ@@ 7
écologi@@ 7
énor@@ 7
100,000 6
105 6
2,000 6
2.@@ 6
27@@ 6
30,000 6
40,000 6
50,000 6
85@@ 6
A. 6
Aim@@ 6
Ain@@ 6
Arch@@ 6
Bron@@ 6
CI@@ 6
Calcul@@ 6
Christian@@ 6
Chur@@ 6
Clim@@ 6
Computer 6
Confuci@@ 6
Crai@@ 6
Dam@@ 6
Day@@ 6
Denn@@ 6
Dig@@ 6
Désol@@ 6
Encyclo@@ 6
Fahrenhe@@ 6
Fal@@ 6
Fam@@ 6
Gard@@ 6
Gat@@ 6
Geor@@ 6
Gh@@ 6
Goldiloc@@ 6
Good 6
Googl@@ 6
Gorg@@ 6
Grand@@ 6
H. 6
Heal@@ 6
Heu@@ 6
Him@@ 6
Holly@@ 6
Home 6
Hop@@ 6
Hosp@@ 6
IC@@ 6
Igbo 6
Incroy@@ 6
Intel@@ 6
Jaz@@ 6
Jeff@@ 6
Ji@@ 6
Jur@@ 6
Jé@@ 6
Kan@@ 6
Kev@@ 6
Kid@@ 6
Koso@@ 6
Labs 6
Laden@@ 6
Little 6
Liv@@ 6
Live 6
Lon@@ 6
Lum@@ 6
Lun@@ 6
Malcolm 6
Mand@@ 6
Mandel@@ 6
McLu@@ 6
NB@@ 6
NI@@ 6
Neuro@@ 6
North 6
Olympi@@ 6
Open@@ 6
Oper@@ 6
Ottoman 6
PL@@ 6
Pay@@ 6
Pho@@ 6
Photo@@ 6
Poly@@ 6
Pul@@ 6
Pyth@@ 6
Radi@@ 6
Respon@@ 6
Rev@@ 6
Road 6
Rober@@ 6
Saf@@ 6
Sav@@ 6
Scandin@@ 6
Scho@@ 6
Sci@@ 6
Sea 6
Sep@@ 6
Shak@@ 6
Sis@@ 6
Smith@@ 6
Stre@@ 6
TEDTalks 6
TN@@ 6
Tower 6
Trust 6
United 6
Veriz@@ 6
Virginia 6
Vis@@ 6
Web@@ 6
Wit@@ 6
Worldchang@@ 6
Yuc@@ 6
a.@@ 6
absor@@ 6
abu@@ 6
aby@@ 6
abytes 6
achi@@ 6
acres 6
acti@@ 6
addic@@ 6
adv@@ 6
afrai@@ 6
aid 6
aler 6
alé@@ 6
amaz@@ 6
ander@@ 6
andon 6
angiogéni@@ 6
antic@@ 6
any@@ 6
ator@@ 6
ators 6
attention@@ 6
autr@@ 6
ays 6
bati@@ 6
bent 6
bill@@ 6
billion 6
bioluminescent 6
bleu@@ 6
blogging 6
bouge@@ 6
burq@@ 6
bénévol@@ 6
cabin@@ 6
cables 6
caca@@ 6
cail@@ 6
camer@@ 6
cane 6
caro@@ 6
cellul@@ 6
choir 6
cliff@@ 6
coli@@ 6
commenç@@ 6
compliqu@@ 6
conflic@@ 6
confu@@ 6
connais@@ 6
conom@@ 6
consis@@ 6
conspir@@ 6
conting@@ 6
conv@@ 6
corporation 6
cost@@ 6
covery 6
croû@@ 6
cuse 6
cutt@@ 6
dai@@ 6
dang@@ 6
danger@@ 6
dies@@ 6
doc@@ 6
départ@@ 6
dô@@ 6
eb@@ 6
ecdo@@ 6
efficient 6
eful 6
ema 6
encor@@ 6
endormi@@ 6
ener@@ 6
enor@@ 6
ensole@@ 6
entou@@ 6
esh@@ 6
eus@@ 6
ez@@ 6
fates 6
festiv@@ 6
flash@@ 6
fois@@ 6
foli@@ 6
folk 6
ful@@ 6
fun 6
gal 6
gand@@ 6
gible 6
give 6
grades 6
gym@@ 6
had@@ 6
hh@@ 6
hilar@@ 6
home 6
ident 6
ight 6
ignorant 6
imm@@ 6
inhib@@ 6
inocul@@ 6
intensive 6
interes@@ 6
interven@@ 6
inté@@ 6
isra@@ 6
kep@@ 6
key 6
key@@ 6
kil@@ 6
kl@@ 6
ks@@ 6
lect 6
lection 6
list 6
list@@ 6
ll 6
loan 6
mak@@ 6
manufactu@@ 6
math 6
meme 6
mill@@ 6
minor@@ 6
misph@@ 6
mouth 6
musici@@ 6
mycelium 6
mâcho@@ 6
narciss@@ 6
ness 6
nor 6
norm@@ 6
nt 6
nugg@@ 6
obsessi@@ 6
oes 6
offshore 6
online 6
ood 6
opar@@ 6
orchestr@@ 6
orig@@ 6
orte@@ 6
ounded 6
outil@@ 6
paper@@ 6
parach@@ 6
parallè@@ 6
pend 6
permit 6
pers 6
perver@@ 6
ph 6
phere 6
pionni@@ 6
pital 6
pling 6
plor@@ 6
pond 6
pool 6
ppe 6
prescription 6
press 6
prin@@ 6
proces@@ 6
produis@@ 6
promp@@ 6
propri@@ 6
pros@@ 6
précis@@ 6
puni@@ 6
pup@@ 6
put 6
py 6
périphéri@@ 6
ready 6
relatives 6
relief 6
repouss@@ 6
restor@@ 6
ret@@ 6
revol@@ 6
reço@@ 6
ride 6
ring@@ 6
rival@@ 6
rr@@ 6
rugu@@ 6
résu@@ 6
sam@@ 6
sco@@ 6
scrip@@ 6
scén@@ 6
semb@@ 6
sex@@ 6
she@@ 6
sl@@ 6
smi@@ 6
smoking 6
sole@@ 6
sop@@ 6
speech 6
stap@@ 6
station@@ 6
stick 6
stil@@ 6
store 6
subli@@ 6
succè@@ 6
sun@@ 6
sures 6
suspici@@ 6
swag@@ 6
syst@@ 6
séqu@@ 6
tag 6
tan 6
tatou@@ 6
tec@@ 6
temberer@@ 6
tements 6
territ@@ 6
thropo@@ 6
thy@@ 6
titude 6
too 6
tory 6
town 6
trad@@ 6
traf@@ 6
tribu@@ 6
trics 6
trig@@ 6
trivi@@ 6
ttom@@ 6
tw@@ 6
uck@@ 6
ump 6
unic@@ 6
ushing 6
vacc@@ 6
vod@@ 6
volant@@ 6
voudr@@ 6
wake 6
was@@ 6
wks@@ 6
worth 6
www@@ 6
yach@@ 6
yl 6
ylon@@ 6
zon@@ 6
º 6
çage 6
ègent 6
électr@@ 6
éto@@ 6
000@@ 5
29@@ 5
9,@@ 5
AB@@ 5
Afri@@ 5
All 5
Americ@@ 5
Anon@@ 5
Atom@@ 5
Aust@@ 5
Bac@@ 5
Beij@@ 5
Berk@@ 5
Bil@@ 5
Blu@@ 5
Broo@@ 5
Buil@@ 5
Camp 5
Ce@@ 5
Cel@@ 5
Census 5
China 5
Cli@@ 5
Compassion 5
DO@@ 5
Der@@ 5
Dim@@ 5
Doc@@ 5
Dominic@@ 5
England 5
Eri@@ 5
Euro@@ 5
Everywhere 5
FAR@@ 5
Fai@@ 5
Fau@@ 5
Fel@@ 5
Financi@@ 5
Fran@@ 5
Gam@@ 5
Ghan@@ 5
Gon@@ 5
Google@@ 5
Gé@@ 5
HI@@ 5
Haiti 5
Heart 5
Hem@@ 5
House 5
I.M. 5
IT 5
India 5
Iron 5
Jack@@ 5
Kel@@ 5
Keny@@ 5
King@@ 5
LE@@ 5
Lad@@ 5
Lang@@ 5
Laptop 5
Lay@@ 5
Leg@@ 5
Long@@ 5
Marti@@ 5
Meet@@ 5
Michel@@ 5
Mis@@ 5
Mom@@ 5
Moun@@ 5
NAS@@ 5
NF@@ 5
Oc@@ 5
Oce@@ 5
Odyss@@ 5
P. 5
PT@@ 5
Pacific 5
Persi@@ 5
Princip@@ 5
Protec@@ 5
Prési@@ 5
R. 5
Ran@@ 5
Roman 5
Run@@ 5
Schwarz@@ 5
Scot@@ 5
Solar 5
Spec@@ 5
Sputnik 5
Start 5
Sub@@ 5
Take 5
Tat@@ 5
This 5
Today 5
U. 5
U.S@@ 5
Universit@@ 5
VC 5
Wildlife 5
You 5
Your 5
acre 5
add 5
add@@ 5
adr@@ 5
ady 5
ahil@@ 5
aik@@ 5
allu@@ 5
alu@@ 5
amat@@ 5
amph@@ 5
angu@@ 5
ank 5
ank@@ 5
annihil@@ 5
anniversai@@ 5
anny 5
aordin@@ 5
apar@@ 5
aphor@@ 5
api 5
apor@@ 5
apprentiss@@ 5
ate@@ 5
ato 5
atric@@ 5
atterr@@ 5
audiences 5
aume 5
avel 5
baby@@ 5
basketball 5
bee@@ 5
beg@@ 5
bell@@ 5
bercu@@ 5
berry 5
bes@@ 5
bet@@ 5
bia 5
bijou@@ 5
bioluminesc@@ 5
bir@@ 5
body 5
boys 5
bridge 5
bum 5
burst 5
buz@@ 5
calibr@@ 5
carto@@ 5
cast 5
cello 5
ches@@ 5
chimio@@ 5
chè@@ 5
circu@@ 5
cland@@ 5
client@@ 5
coccus 5
collap@@ 5
complic@@ 5
conce@@ 5
conduc@@ 5
consid@@ 5
consider@@ 5
contemp@@ 5
control 5
convers@@ 5
coralli@@ 5
cost 5
cover 5
cow 5
cram@@ 5
cras@@ 5
crowd 5
cry@@ 5
demo@@ 5
densit@@ 5
dges 5
déploi@@ 5
elle@@ 5
elling 5
ells 5
elo@@ 5
embou@@ 5
endom@@ 5
eni@@ 5
ensem@@ 5
entures 5
erer 5
eri@@ 5
estro@@ 5
esty@@ 5
etown 5
exclusive 5
experience 5
extrê@@ 5
fact 5
fain@@ 5
fair 5
flat@@ 5
forest@@ 5
fortun@@ 5
fourniss@@ 5
galac@@ 5
garç@@ 5
gas@@ 5
gent@@ 5
gentleman 5
grace 5
grad@@ 5
gyp@@ 5
génoci@@ 5
habit 5
hach@@ 5
hang@@ 5
hap@@ 5
hard@@ 5
heim@@ 5
hic@@ 5
hold 5
hosp@@ 5
hét@@ 5
icks 5
illu@@ 5
illég@@ 5
inal 5
infanti@@ 5
infer@@ 5
infirmi@@ 5
inhibit@@ 5
insec@@ 5
inser@@ 5
insurg@@ 5
invol@@ 5
jab@@ 5
jar@@ 5
jo 5
journalis@@ 5
jung@@ 5
kind 5
langu@@ 5
lectures 5
libellu@@ 5
liff 5
lives 5
longer 5
lot@@ 5
loud 5
loud@@ 5
love 5
marte@@ 5
medic@@ 5
medium 5
membran@@ 5
menti@@ 5
mergence 5
microbi@@ 5
mid@@ 5
médicam@@ 5
nest@@ 5
nouv@@ 5
odd 5
office 5
oo 5
parag@@ 5
parall@@ 5
peaux 5
people 5
percus@@ 5
pestici@@ 5
pet 5
phal@@ 5
phen@@ 5
pipeline 5
poles 5
possi@@ 5
pouv@@ 5
price 5
péti@@ 5
qua@@ 5
qualit@@ 5
queu@@ 5
quid 5
radioactive 5
ray 5
realis@@ 5
remédi@@ 5
repl@@ 5
requi@@ 5
rev@@ 5
rever@@ 5
rich@@ 5
rin@@ 5
rit@@ 5
ritu@@ 5
roboti@@ 5
rol@@ 5
rub@@ 5
rug@@ 5
récep@@ 5
rédi@@ 5
s. 5
sauvet@@ 5
scap@@ 5
scripts 5
serves 5
shak@@ 5
sham@@ 5
short 5
sin 5
slog@@ 5
spaghet@@ 5
span 5
spectacul@@ 5
speed 5
sporul@@ 5
squelet@@ 5
stac@@ 5
stage 5
stin@@ 5
sts 5
success@@ 5
sucré@@ 5
suppl@@ 5
sush@@ 5
suspect 5
syl@@ 5
syllab@@ 5
tap 5
terly 5
terror@@ 5
thane 5
thetic 5
thu@@ 5
thus 5
tine 5
transfer@@ 5
tric 5
trip@@ 5
tropical 5
tégrer 5
ultim@@ 5
ump@@ 5
var@@ 5
vibrant 5
vision@@ 5
vraisembl@@ 5
vécu@@ 5
watt 5
win@@ 5
wing 5
ya@@ 5
à@@ 5
á 5
ã@@ 5
ément@@ 5
éron@@ 5
ô 5
ȇ@@ 5
..@@ 4
1,000 4
1.2 4
22@@ 4
35,000 4
70@@ 4
80,000 4
Abrah@@ 4
Ang@@ 4
Angl@@ 4
Are 4
Astr@@ 4
Aw@@ 4
Bang@@ 4
Be 4
Beau@@ 4
Bob@@ 4
Book 4
California 4
Cent@@ 4
Challeng@@ 4
Children 4
Christi@@ 4
Coke 4
Conserv@@ 4
DN@@ 4
DR@@ 4
Det@@ 4
Development 4
Distric@@ 4
EL@@ 4
Eas@@ 4
Energy 4
English 4
Ever@@ 4
Evolution 4
Excep@@ 4
Extrem@@ 4
F. 4
FOX@@ 4
Fij@@ 4
For 4
Galileo 4
Garden 4
Genome 4
Gul@@ 4
His@@ 4
Hist@@ 4
II@@ 4
Ice 4
If 4
Isa@@ 4
It 4
Ital@@ 4
Jér@@ 4
Kenyan 4
Kris@@ 4
L.A. 4
Men 4
Middle 4
Miss 4
Mountains 4
Na@@ 4
Nob@@ 4
Orches@@ 4
Oubli@@ 4
Pep@@ 4
Person@@ 4
Ph.@@ 4
Poli@@ 4
Princ@@ 4
Projec@@ 4
Qaeda 4
Rach@@ 4
Rel@@ 4
Reli@@ 4
Sad@@ 4
Satur@@ 4
Saturn 4
Schwar@@ 4
Scienti@@ 4
Scientific 4
Scrip@@ 4
Shel@@ 4
Slow 4
Spring 4
Stan@@ 4
Sunday 4
Surve@@ 4
Sweeney@@ 4
Syst@@ 4
Technology 4
Thom@@ 4
Tod@@ 4
Tomor@@ 4
Ton@@ 4
Toy@@ 4
Treat@@ 4
Twe@@ 4
Twit@@ 4
USDA 4
Vin@@ 4
War 4
Wes@@ 4
Western 4
Will 4
Wis@@ 4
Woman 4
Women@@ 4
Zé@@ 4
accessi@@ 4
action@@ 4
adies 4
adro@@ 4
adu@@ 4
agnosti@@ 4
aked 4
alent@@ 4
alpin@@ 4
anné@@ 4
aper@@ 4
apon@@ 4
apprenti@@ 4
archiv@@ 4
ardo 4
ared 4
aren@@ 4
aries 4
asc@@ 4
aspor@@ 4
assem@@ 4
astic 4
asym@@ 4
ather 4
ather@@ 4
atrici@@ 4
ause 4
backs 4
bag 4
bassad@@ 4
batail@@ 4
beau@@ 4
beef 4
beer 4
ben@@ 4
better@@ 4
blue@@ 4
boo@@ 4
brah@@ 4
brev@@ 4
brio 4
bris 4
briè@@ 4
buc@@ 4
buck@@ 4
bus@@ 4
bush 4
business@@ 4
béri@@ 4
candidate 4
carro@@ 4
cash 4
chanc@@ 4
child 4
chrom@@ 4
clair@@ 4
clavi@@ 4
click 4
climati@@ 4
coali@@ 4
commenci@@ 4
commu@@ 4
computing 4
congestion 4
constell@@ 4
corporations 4
cros@@ 4
ctu@@ 4
cyborg@@ 4
cyn@@ 4
cœ@@ 4
dane 4
dating 4
deal@@ 4
deni@@ 4
desig@@ 4
desk 4
differ@@ 4
diffé@@ 4
digi@@ 4
disrup@@ 4
dissem@@ 4
diverse 4
dog 4
donations 4
dormi@@ 4
débat@@ 4
eco@@ 4
edi 4
elec@@ 4
elop@@ 4
ely 4
emboute@@ 4
emer@@ 4
ence@@ 4
encode 4
encyclopé@@ 4
enjo@@ 4
entag@@ 4
entrepreneurial 4
enture 4
espr@@ 4
essenti@@ 4
estiv@@ 4
even@@ 4
experiment@@ 4
express 4
factor@@ 4
faut@@ 4
fet@@ 4
fle@@ 4
fonction@@ 4
foss@@ 4
fru@@ 4
gen 4
gend@@ 4
gene 4
geni@@ 4
glo@@ 4
grass 4
grid 4
gru@@ 4
gy 4
hard 4
haz@@ 4
hhhh@@ 4
hil@@ 4
hit@@ 4
homicide 4
homin@@ 4
héro@@ 4
icon 4
ily 4
imag@@ 4
imin@@ 4
immédiat@@ 4
impact@@ 4
improvise 4
inadver@@ 4
inappropri@@ 4
indign@@ 4
inhabit@@ 4
input 4
instant@@ 4
intangi@@ 4
ip@@ 4
iron 4
itable 4
ite@@ 4
itr@@ 4
jan 4
jau@@ 4
judi@@ 4
juni@@ 4
killer 4
label 4
ladi@@ 4
lash 4
law@@ 4
lea@@ 4
leaf 4
lean 4
leg@@ 4
len 4
lettr@@ 4
lever@@ 4
lied 4
life 4
lip 4
liquid@@ 4
logarithmi@@ 4
lor@@ 4
machin@@ 4
major 4
maker 4
maladi@@ 4
mans 4
marri@@ 4
materi@@ 4
may@@ 4
meeting 4
mention 4
minimal 4
missi@@ 4
modè@@ 4
moi@@ 4
moiti@@ 4
monnai@@ 4
motions 4
moutar@@ 4
muc@@ 4
médic@@ 4
nam@@ 4
noi@@ 4
objective 4
obs@@ 4
occasion@@ 4
ographic 4
oly@@ 4
open@@ 4
ordi@@ 4
ordin@@ 4
orn 4
oscop@@ 4
osit@@ 4
ouvoir 4
panel 4
parli@@ 4
pec@@ 4
pensai@@ 4
percent 4
persé@@ 4
phili@@ 4
phony 4
pigment@@ 4
play@@ 4
possibil@@ 4
possè@@ 4
postu@@ 4
process 4
profile 4
promise 4
prote@@ 4
prun@@ 4
présu@@ 4
puzzles 4
quelcon@@ 4
raise 4
range 4
rece@@ 4
refroidi@@ 4
regis@@ 4
relate 4
rich 4
ridicu@@ 4
right 4
rog@@ 4
role 4
rough@@ 4
régu@@ 4
répan@@ 4
rése@@ 4
same 4
sant@@ 4
sec. 4
self 4
shal@@ 4
she 4
shore 4
sic 4
simp@@ 4
sist@@ 4
speci@@ 4
spray 4
square 4
strict 4
sug@@ 4
sujet@@ 4
surfing 4
surround 4
susp@@ 4
system@@ 4
tail 4
tends 4
tering 4
tern 4
them@@ 4
thers 4
ths 4
théâ@@ 4
tide 4
tidi@@ 4
tle 4
toc@@ 4
toun@@ 4
track@@ 4
tracking 4
traffic 4
trau@@ 4
tries 4
trip 4
tten@@ 4
ua 4
uch 4
ucli@@ 4
ula 4
ultr@@ 4
ultras@@ 4
und@@ 4
upp@@ 4
urban 4
ust 4
ved 4
vien@@ 4
virg@@ 4
viter 4
voi@@ 4
walk 4
wan@@ 4
we 4
wer@@ 4
western 4
who@@ 4
wid@@ 4
wn@@ 4
woo@@ 4
your 4
ze@@ 4
® 4
Ç@@ 4
èc@@ 4
échap@@ 4
électron@@ 4
énergé@@ 4
épau@@ 4
éré@@ 4
ême 4
êtr@@ 4
,00@@ 3
00,000 3
1,500 3
1.3 3
1.4 3
28@@ 3
3,000 3
35@@ 3
87@@ 3
90@@ 3
99.@@ 3
AID@@ 3
AIDS 3
AL@@ 3
Accor@@ 3
Agency 3
Ale@@ 3
And 3
Are@@ 3
August 3
Autom@@ 3
Babylon@@ 3
Bits 3
Board 3
Bosni@@ 3
Bush@@ 3
CN@@ 3
Californi@@ 3
Campaig@@ 3
Chall@@ 3
Chicken 3
Chil@@ 3
Christmas 3
Cit@@ 3
Cities 3
Colombi@@ 3
Council 3
Court 3
Cre@@ 3
Cs 3
DVD@@ 3
Edin@@ 3
End 3
Environmental 3
Ev@@ 3
Ever 3
Fif@@ 3
Forest 3
French 3
Gand@@ 3
Georg@@ 3
Get 3
Get@@ 3
Glob@@ 3
God 3
Golden 3
Guil@@ 3
Gulf 3
Hi 3
Hub@@ 3
Imagine 3
Is 3
Iv@@ 3
Japon@@ 3
Jim@@ 3
Jon@@ 3
Jose@@ 3
Jun@@ 3
Justic@@ 3
Kath@@ 3
Lank@@ 3
Lead@@ 3
League 3
Look 3
Mahab@@ 3
Med@@ 3
Mes@@ 3
Micha@@ 3
Mol@@ 3
Muhammad 3
Multi@@ 3
NG@@ 3
Naj@@ 3
Nan@@ 3
Nation@@ 3
Non. 3
OE@@ 3
Of 3
Organization 3
Out@@ 3
Ow@@ 3
Pacific@@ 3
Pass@@ 3
People 3
Phys@@ 3
Pon@@ 3
Power 3
Read@@ 3
Redwood 3
Remar@@ 3
Revolution 3
Ron@@ 3
Sever@@ 3
Simil@@ 3
Sm@@ 3
Soon 3
Sound 3
Stage 3
Steph@@ 3
Studi@@ 3
System 3
Talk 3
Tel@@ 3
They 3
Too 3
Tru@@ 3
Walk 3
What 3
When 3
Willi@@ 3
William@@ 3
Wr@@ 3
Yemen 3
Yes 3
Youn@@ 3
able@@ 3
abstr@@ 3
accommod@@ 3
accompli@@ 3
aes@@ 3
agas@@ 3
aim 3
aje@@ 3
alay@@ 3
aliz@@ 3
anni@@ 3
appare@@ 3
aquari@@ 3
archae@@ 3
artic@@ 3
assume 3
ated 3
ateur@@ 3
athers 3
atic 3
atic@@ 3
attrac@@ 3
ault 3
aun@@ 3
avid@@ 3
awes@@ 3
aze 3
bags 3
bak@@ 3
band 3
bank 3
bath@@ 3
bell 3
bet 3
bias 3
big 3
bird 3
blag@@ 3
blind@@ 3
block 3
blogg@@ 3
brave 3
bud@@ 3
building 3
bullet 3
burn 3
but@@ 3
cake 3
calci@@ 3
calyp@@ 3
candi@@ 3
captures 3
cars 3
ced 3
cens@@ 3
cev@@ 3
chauv@@ 3
chees@@ 3
chor@@ 3
cipl@@ 3
ciss@@ 3
clai@@ 3
clu@@ 3
coco@@ 3
colle@@ 3
colonial 3
coming 3
container 3
conve@@ 3
cott@@ 3
crosses 3
cues 3
cuiv@@ 3
cultur@@ 3
curiosit@@ 3
cus@@ 3
custom@@ 3
cœur@@ 3
defin@@ 3
derri@@ 3
dictionn@@ 3
diplomati@@ 3
dir@@ 3
dire@@ 3
distric@@ 3
diversit@@ 3
dogs 3
domestic@@ 3
done 3
douz@@ 3
dru@@ 3
dégradé@@ 3
e. 3
eas@@ 3
eau@@ 3
econom@@ 3
edi@@ 3
ee@@ 3
electron@@ 3
emin@@ 3
emission 3
emo@@ 3
empre@@ 3
encyclo@@ 3
ensement 3
entrop@@ 3
erra 3
esclav@@ 3
ever@@ 3
example 3
excav@@ 3
exhi@@ 3
expo@@ 3
export 3
extensive 3
fabri@@ 3
far 3
fashion@@ 3
feed@@ 3
fem@@ 3
feminine 3
fen@@ 3
ferti@@ 3
ficit 3
fire 3
fire@@ 3
firmi@@ 3
fix 3
flag@@ 3
flic@@ 3
focus 3
foods 3
ful 3
fœ@@ 3
gall@@ 3
gard@@ 3
gir@@ 3
girl 3
glass 3
gle 3
green 3
group 3
génom@@ 3
hall@@ 3
hardware 3
hel@@ 3
him 3
honey@@ 3
hot 3
hut 3
hélic@@ 3
iP@@ 3
incen@@ 3
incid@@ 3
induc@@ 3
ine@@ 3
influenz@@ 3
inner@@ 3
instance 3
intègr@@ 3
istine 3
itin@@ 3
iving 3
ize 3
jan@@ 3
jewel@@ 3
jihad 3
jun@@ 3
kat@@ 3
kit@@ 3
lay@@ 3
light 3
locations 3
lucr@@ 3
lumi@@ 3
made 3
marriage 3
mas 3
matri@@ 3
med@@ 3
menson@@ 3
messi@@ 3
mix 3
modi@@ 3
mud 3
music 3
médec@@ 3
méti@@ 3
new@@ 3
news 3
nin@@ 3
nine 3
nois@@ 3
nombr@@ 3
notice 3
notori@@ 3
now@@ 3
numér@@ 3
nut 3
négo@@ 3
obo 3
occasi@@ 3
oling@@ 3
onome 3
opol@@ 3
opportun@@ 3
oppres@@ 3
ources 3
outre@@ 3
pack 3
palu@@ 3
pant@@ 3
parad@@ 3
partial 3
pedi@@ 3
perf@@ 3
perm@@ 3
pharm@@ 3
phas@@ 3
philosopher 3
pick@@ 3
pie@@ 3
piece 3
plus@@ 3
poss@@ 3
ppy 3
presses 3
prices 3
prisonni@@ 3
profess@@ 3
promises 3
prospér@@ 3
prot@@ 3
préco@@ 3
puff@@ 3
pupp@@ 3
quatri@@ 3
r. 3
racin@@ 3
red@@ 3
reform@@ 3
relevant 3
repres@@ 3
ress 3
revenues 3
rir@@ 3
rise 3
roc@@ 3
rot 3
rott@@ 3
run@@ 3
sad@@ 3
saf@@ 3
sat 3
scanning 3
schiz@@ 3
shows 3
sing 3
sitting 3
slides 3
slo@@ 3
smo@@ 3
sociation 3
some 3
sonni@@ 3
sorts 3
soupç@@ 3
souv@@ 3
spo@@ 3
spot 3
spots 3
staf@@ 3
stas@@ 3
state 3
status 3
stell@@ 3
stre@@ 3
street 3
stro@@ 3
struc@@ 3
studi@@ 3
suck 3
survi@@ 3
suédo@@ 3
sweat 3
tagging 3
tags 3
tai@@ 3
talk 3
tats 3
taï@@ 3
techn@@ 3
then@@ 3
thou@@ 3
thédr@@ 3
timent 3
tionary 3
tiqu@@ 3
tom 3
tone 3
town@@ 3
tribal 3
trick@@ 3
tropic@@ 3
tsunam@@ 3
tum@@ 3
tuy@@ 3
twit@@ 3
ubi@@ 3
uel 3
under@@ 3
uring 3
ury 3
vat@@ 3
vendre@@ 3
versai@@ 3
victim@@ 3
videos 3
vill@@ 3
vocabul@@ 3
volon@@ 3
voul@@ 3
vous@@ 3
wai@@ 3
wall 3
want 3
way@@ 3
week@@ 3
whe@@ 3
women 3
works 3
yel@@ 3
ègle 3
édo@@ 3
égypti@@ 3
éma 3
émas 3
évi@@ 3
ù 3
ú 3
,000 2
-je 2
.5 2
.com. 2
1.5 2
12,000 2
150,000 2
1960s 2
2.5 2
250,000 2
300,000 2
4,000 2
6,000 2
70,000 2
Af@@ 2
Africa 2
All@@ 2
Amaz@@ 2
Amer@@ 2
Ander@@ 2
Arctic 2
Augu@@ 2
Babies 2
Bagh@@ 2
Bever@@ 2
Bh@@ 2
Bhu@@ 2
Bra@@ 2
Braz@@ 2
Bring 2
Brook@@ 2
Buck@@ 2
Buddha 2
But 2
CEO 2
Cambri@@ 2
Cany@@ 2
Childr@@ 2
Christop@@ 2
Civil 2
Clu@@ 2
Coc@@ 2
Coch@@ 2
Cold 2
Compu@@ 2
Congr@@ 2
Connec@@ 2
Conse@@ 2
Cost@@ 2
Coun@@ 2
County 2
DNA 2
Defense 2
Design@@ 2
Develop@@ 2
Dimi@@ 2
Do 2
Dutch 2
Développ@@ 2
Early 2
Earth@@ 2
Elizab@@ 2
Ency@@ 2
Engine@@ 2
Environ@@ 2
Europe@@ 2
Excuse 2
FO@@ 2
Face@@ 2
Femin@@ 2
Four 2
Freu@@ 2
Fun@@ 2
Furb@@ 2
GB@@ 2
Georgi@@ 2
Giac@@ 2
Gir@@ 2
Girl 2
Girls 2
Gold 2
Goo@@ 2
Goog@@ 2
Grow@@ 2
Half 2
Have 2
Hawaï@@ 2
Haï@@ 2
Hear@@ 2
Here 2
Hippo@@ 2
Hirosh@@ 2
Hoo@@ 2
How@@ 2
Human 2
Inde@@ 2
Indian 2
Intern@@ 2
Inv@@ 2
Iran@@ 2
Israë@@ 2
Jerusalem 2
Journ@@ 2
Jurassi@@ 2
Just 2
Ka@@ 2
Kaz@@ 2
Kell@@ 2
Ken@@ 2
Kno@@ 2
Kurz@@ 2
L. 2
LOL@@ 2
Lag@@ 2
Lakota 2
Language 2
Lap@@ 2
Lew@@ 2
Library 2
Ligh@@ 2
Like 2
Local 2
Macinto@@ 2
Magic 2
Mainten@@ 2
Maitr@@ 2
Make 2
Mass@@ 2
Massachus@@ 2
Matthe@@ 2
Modern 2
Moz@@ 2
Natur@@ 2
Nep@@ 2
Not 2
Ocean 2
Ougand@@ 2
Out 2
Over@@ 2
Pai@@ 2
Peti@@ 2
Play 2
Pole 2
Psycho@@ 2
Publi@@ 2
Qat@@ 2
RIS@@ 2
Real 2
Republic 2
Rho@@ 2
Right 2
River@@ 2
Roy@@ 2
Royau@@ 2
SM@@ 2
Scotland 2
Secon@@ 2
Secre@@ 2
Security 2
Serg@@ 2
Simp@@ 2
Six@@ 2
Southern 2
Stor@@ 2
Sud@@ 2
Swiss 2
Syl@@ 2
Syri@@ 2
TV@@ 2
Taliban 2
Tasmani@@ 2
Tell 2
Ten 2
There 2
Think 2
Thous@@ 2
To 2
Tran@@ 2
Uganda 2
V. 2
Valent@@ 2
Voice 2
Vrai@@ 2
Walk@@ 2
Wash@@ 2
Wonder@@ 2
X. 2
Y. 2
Yan@@ 2
Yel@@ 2
Yemen@@ 2
Yester@@ 2
Zer@@ 2
Zip@@ 2
^ 2
acidi@@ 2
acquisi@@ 2
acy 2
aero@@ 2
affects 2
afford 2
afford@@ 2
after@@ 2
alge@@ 2
ally 2
améric@@ 2
anced 2
ancy 2
angi@@ 2
angr@@ 2
animal@@ 2
anno@@ 2
ansons 2
answer 2
ant. 2
appeal 2
approvisi@@ 2
appy 2
arab@@ 2
argu@@ 2
arian 2
arity 2
aro@@ 2
artisti@@ 2
ask 2
astéro@@ 2
ater@@ 2
aug@@ 2
aupar@@ 2
aussi@@ 2
avant@@ 2
away 2
azo@@ 2
ballo@@ 2
balls 2
bang@@ 2
bap@@ 2
bari@@ 2
barri@@ 2
beat@@ 2
bed 2
better 2
bicycle 2
bing 2
biolumin@@ 2
bite 2
black 2
blob@@ 2
boat 2
book@@ 2
border 2
born 2
bottom 2
bow 2
bread 2
broc@@ 2
bug@@ 2
built 2
cade 2
cades 2
camar@@ 2
candidates 2
canni@@ 2
carcin@@ 2
card 2
care 2
carp@@ 2
cat 2
catastrop@@ 2
caï@@ 2
ceil@@ 2
centage 2
center 2
centrifu@@ 2
chae@@ 2
challeng@@ 2
check 2
ching 2
chirurgi@@ 2
cinq@@ 2
circ@@ 2
civ@@ 2
class 2
colli@@ 2
compo@@ 2
cone 2
conference 2
confér@@ 2
congreg@@ 2
consi@@ 2
consu@@ 2
continues 2
cope 2
core 2
cortical 2
cow@@ 2
coï@@ 2
craw@@ 2
crazy 2
creature 2
crevet@@ 2
croî@@ 2
cubat@@ 2
côté@@ 2
dad@@ 2
danc@@ 2
dare 2
dau@@ 2
democrati@@ 2
depend 2
depres@@ 2
dieu@@ 2
difference 2
diffu@@ 2
diges@@ 2
dign@@ 2
diman@@ 2
dioxide 2
dispens@@ 2
doctr@@ 2
dom 2
dot 2
draf@@ 2
dream 2
drive 2
drug 2
drô@@ 2
dum@@ 2
duplic@@ 2
dus@@ 2
dysle@@ 2
dégâ@@ 2
each 2
ears 2
ech 2
ecraf@@ 2
edy 2
egg@@ 2
eigh@@ 2
electrons 2
elev@@ 2
eley 2
else 2
emak@@ 2
emar@@ 2
ench 2
environment 2
enzy@@ 2
epo@@ 2
er. 2
ers@@ 2
ety 2
euri@@ 2
euro@@ 2
evit@@ 2
expedi@@ 2
experti@@ 2
explicit@@ 2
extrem@@ 2
eyes@@ 2
fade 2
feel 2
fess@@ 2
fici@@ 2
fid@@ 2
fig@@ 2
fit@@ 2
flower 2
fly@@ 2
foo@@ 2
fore 2
fores@@ 2
formid@@ 2
founder 2
fres@@ 2
from@@ 2
fronti@@ 2
fu 2
fund 2
fuse 2
fuzzy 2
gallons 2
games 2
gap 2
gap@@ 2
gate 2
geck@@ 2
gener@@ 2
genes 2
geo@@ 2
gho@@ 2
ging 2
going 2
goo@@ 2
good 2
goti@@ 2
graff@@ 2
grandis@@ 2
ground 2
grâ@@ 2
gun@@ 2
guéris@@ 2
hack@@ 2
half 2
hang 2
happ@@ 2
happy 2
hat 2
hau@@ 2
hide 2
histor@@ 2
hoo@@ 2
hook 2
hotel 2
hour 2
hour@@ 2
hun@@ 2
hydrothermal 2
ign 2
immedi@@ 2
immune 2
inch 2
infinite 2
informati@@ 2
inhab@@ 2
instrum@@ 2
inte@@ 2
interest 2
interpre@@ 2
intersec@@ 2
into 2
ior 2
ishing 2
istry 2
iter@@ 2
ival@@ 2
ization 2
izes 2
ja@@ 2
jar 2
jump 2
ka@@ 2
kiss 2
lady 2
lake 2
lands 2
led 2
leep@@ 2
leis@@ 2
lem 2
lenti@@ 2
lers 2
less@@ 2
lett@@ 2
lic 2
license 2
lick@@ 2
lifting 2
limin@@ 2
logy 2
lov@@ 2
lure 2
m. 2
mad 2
magaz@@ 2
malari@@ 2
map 2
map@@ 2
mark 2
mathématici@@ 2
matic 2
maz@@ 2
merci@@ 2
mere 2
messag@@ 2
million@@ 2
miss@@ 2
mission@@ 2
mitig@@ 2
mixture 2
moo@@ 2
mycel@@ 2
nam 2
natu@@ 2
necess@@ 2
nerv@@ 2
neural 2
nings 2
nitri@@ 2
noise 2
num@@ 2
ocean 2
oci@@ 2
offic@@ 2
offices 2
ograph@@ 2
ologu@@ 2
olumin@@ 2
only 2
oper@@ 2
oping 2
opoly 2
optimis@@ 2
orchestra 2
order 2
org 2
osop@@ 2
ound 2
output 2
outsi@@ 2
ovari@@ 2
own@@ 2
owns 2
paint 2
panc@@ 2
park@@ 2
pass 2
patch 2
paus@@ 2
perpetu@@ 2
peti@@ 2
peup@@ 2
phant@@ 2
pher@@ 2
phras@@ 2
physic@@ 2
physici@@ 2
phén@@ 2
pick 2
pier@@ 2
pir@@ 2
place@@ 2
planes 2
planet@@ 2
plants 2
play 2
ploy@@ 2
plum@@ 2
poitr@@ 2
politic@@ 2
popular@@ 2
present 2
present@@ 2
printer 2
promis@@ 2
pétu@@ 2
quarter 2
quas@@ 2
quest 2
quite 2
racial 2
random@@ 2
rassem@@ 2
recycle 2
ree@@ 2
regain 2
regime 2
region 2
repe@@ 2
report 2
represent@@ 2
resources 2
retri@@ 2
retro@@ 2
reus@@ 2
rhy@@ 2
rick@@ 2
ried 2
righ@@ 2
river 2
roo@@ 2
rope 2
rows 2
run 2
récu@@ 2
répli@@ 2
sans@@ 2
say@@ 2
scal@@ 2
scenari@@ 2
scene 2
school 2
sea 2
seat 2
seiz@@ 2
sell 2
send 2
senior 2
separ@@ 2
seri@@ 2
sermon@@ 2
sessi@@ 2
shop 2
sias@@ 2
single 2
sketch 2
slip 2
sn@@ 2
societ@@ 2
software 2
spe@@ 2
speakers 2
spher@@ 2
spin@@ 2
spring 2
ssi@@ 2
standar@@ 2
standing 2
star@@ 2
sted 2
steel 2
stic@@ 2
stops 2
stores 2
strang@@ 2
strum@@ 2
stume 2
success 2
sums 2
sun 2
supernov@@ 2
sures@@ 2
sweet 2
syndr@@ 2
synes@@ 2
synon@@ 2
synthè@@ 2
systè@@ 2
séquen@@ 2
tad@@ 2
tank 2
tanks 2
team 2
techni@@ 2
technolog@@ 2
tee 2
tered 2
testic@@ 2
teur@@ 2
tex 2
text 2
thir@@ 2
thop@@ 2
thwest 2
tice 2
tick@@ 2
tification 2
tilt 2
tiver 2
toilett@@ 2
tome 2
touch 2
tradi@@ 2
tradition@@ 2
trash 2
trick 2
tropol@@ 2
tting 2
tto@@ 2
tty 2
tutor@@ 2
two 2
télescop@@ 2
ug@@ 2
unk 2
upon 2
usal@@ 2
ute 2
utter 2
vach@@ 2
vasion 2
ven 2
ventil@@ 2
ventions 2
venture 2
vet 2
vide@@ 2
vil 2
ving 2
vocal 2
voit@@ 2
[...]
