, 178071
. 154650
the 118467
&@@ 99040
ap@@ 76861
os@@ 76701
;@@ 75297
to 73316
of 68934
a 63989
and 59880
that 53339
I 49570
in 44866
is 39851
you 39419
it 37314
s 36935
we 32300
And 29882
this 25476
quo@@ 21187
t; 21129
-- 19320
was 17882
for 16427
have 16370
are 16310
on 16165
they 15689
t 14634
with 14349
can 14055
So 13700
-@@ 13467
@ 13458
@@@ 13452
? 13366
what 13355
about 12870
be 12049
at 11316
as 11145
all 11023
do 10748
re 10737
there 10548
not 10484
one 9857
It 9813
like 9437
an 9215
people 9204
so 9017
from 8986
my 8850
: 8114
or 8049
just 7950
but 7863
very 7863
We 7715
But 7603
out 7516
these 7509
if 7462
The 7452
know 7393
our 7299
going 7287
up 7116
them 6845
me 6834
by 6718
because 6283
think 6276
see 6264
when 6234
which 6233
had 6210
he 6153
more 6088
m 6069
ve 6055
really 6025
get 5866
n 5830
would 5681
your 5677
here 5647
who 5641
were 5592
how 5591
; 5575
This 5506
their 5373
us 5352
You 5348
then 5344
time 5304
world 5103
actually 5079
way 5006
has 4935
things 4891
don 4880
into 4864
some 4844
years 4585
now 4525
go 4482
will 4445
where 4429
want 4412
other 4297
Now 4239
They 4174
could 4087
make 4073
been 4001
said 3992
♫ 3875
something 3870
right 3644
thing 3625
little 3615
two 3596
got 3536
much 3495
no 3471
first 3457
than 3362
look 3330
That 3308
back 3282
those 3269
say 3267
also 3184
kind 3127
over 3108
work 3035
life 3001
What 2927
she 2875
take 2857
only 2852
his 2851
lot 2842
need 2833
ll 2781
most 2779
There 2756
did 2735
around 2688
d 2682
In 2669
down 2606
ing 2602
good 2601
different 2584
even 2581
many 2569
ed 2540
new 2458
through 2414
Well 2392
same 2365
doing 2364
come 2356
able 2352
If 2315
being 2309
her 2305
put 2296
use 2275
every 2271
year 2253
He 2245
three 2215
called 2150
day 2124
well 2089
any 2024
made 1995
tell 1892
percent 1890
why 1842
fact 1839
talk 1816
y 1808
great 1796
its 1792
es 1789
human 1770
idea 1767
find 1765
did@@ 1724
went 1704
last 1695
today 1690
off 1683
big 1673
thought 1673
change 1660
course 1656
own 1655
let 1643
after 1635
started 1635
should 1621
another 1613
give 1599
important 1587
show 1557
before 1555
A 1530
ago 1530
problem 1527
start 1521
story 1509
bit 1507
part 1505
better 1498
never 1491
again 1489
place 1488
un@@ 1485
might 1478
together 1469
came 1465
er 1465
does 1459
mean 1450
long 1445
old 1445
system 1442
Because 1434
sort 1434
water 1432
him 1430
next 1430
en 1426
9@@ 1415
technology 1400
Thank 1392
still 1392
each 1388
used 1380
point 1374
brain 1363
few 1358
re@@ 1356
looking 1351
end 1345
done 1335
whole 1331
al 1311
between 1305
too 1295
ers 1291
try 1291
When 1277
#@@ 1274
does@@ 1262
example 1257
question 1253
million 1246
understand 1242
love 1218
real 1216
call 1198
found 1189
wanted 1188
How 1187
four 1184
away 1181
10 1179
always 1171
person 1170
children 1165
trying 1164
believe 1156
S@@ 1155
man 1155
working 1154
ever 1149
o 1149
ate 1139
ation 1138
ts 1124
live 1113
data 1112
feel 1110
may 1107
space 1098
light 1096
! 1088
women 1080
less 1078
took 1074
five 1064
using 1063
everything 1057
school 1057
thinking 1056
stuff 1055
design 1053
One 1044
kids 1037
getting 1031
sense 1029
country 1027
power 1026
information 1024
money 1022
food 1020
maybe 1020
create 1018
comes 1006
ated 1005
making 1002
means 1002
These 1001
building 1001
quite 996
second 995
help 992
play 986
Here 984
am 983
high 983
enough 980
probably 980
small 979
left 978
side 976
energy 974
happened 971
interesting 967
coming 957
Africa 946
number 944
future 939
times 937
talking 935
best 933
My 915
become 914
dollars 906
She 904
pretty 901
says 899
room 898
body 895
age 892
anything 892
home 892
half 890
ity 888
No 882
without 882
20 881
goes 876
ted 868
in@@ 864
hand 854
ah 847
happen 846
ask 843
ways 842
saw 841
ting 833
across 830
e 830
simple 830
else 826
OK 823
science 820
Why 819
seen 819
happens 816
is@@ 816
such 816
Let 814
told 811
Earth 800
having 800
basically 798
days 795
move 793
social 793
build 790
computer 786
hard 786
living 786
picture 785
countries 784
moment 784
ideas 783
makes 778
i 777
problems 774
case 773
planet 772
bad 768
car 768
lives 767
ay 766
ly 762
mind 762
experience 760
book 756
line 756
saying 754
six 753
ating 752
3@@ 750
set 749
All 745
asked 744
inside 743
top 743
process 742
e@@ 741
cells 740
billion 739
later 739
far 738
reason 736
single 736
child 730
ally 729
while 728
1@@ 727
project 722
care 719
learn 717
within 715
both 712
looks 709
s@@ 707
... 706
For 706
guy 706
almost 703
heard 703
form 700
B@@ 699
open 699
ous 699
yet 698
family 697
history 697
As 696
F@@ 696
possible 696
nothing 690
once 688
city 686
business 684
looked 683
wrong 683
piece 682
couple 681
sure 680
ds 678
dis@@ 676
bring 674
matter 674
head 672
health 672
already 670
New 669
imagine 669
T@@ 668
beautiful 668
universe 668
places 667
self 666
d@@ 665
hope 665
community 663
C@@ 662
young 662
months 661
keep 658
face 654
A@@ 653
men 653
read 653
God 651
50 650
India 649
P@@ 649
true 649
everybody 648
often 648
led 647
whether 646
answer 645
under 644
species 642
global 638
nature 638
le 636
music 636
M@@ 635
works 635
remember 633
video 632
ability 631
group 631
level 629
taking 629
United 624
words 622
30 620
order 620
per 617
cancer 616
land 616
myself 614
ar@@ 612
built 612
kinds 612
was@@ 612
language 607
someone 607
control 605
somebody 603
itself 602
amazing 601
turn 601
until 598
k 597
happening 592
night 590
heart 589
run 589
art 588
completely 588
ones 585
woman 585
Then 584
mother 584
ks 583
must 583
large 582
though 582
red 580
decided 578
gets 578
word 578
States 577
G@@ 575
Oh 574
k@@ 569
D@@ 568
exactly 568
figure 568
guys 568
job 567
Ok@@ 566
since 565
particular 561
house 559
ourselves 559
stories 559
huge 558
name 558
America 557
100 556
K@@ 556
minutes 556
turns 556
company 555
model 555
front 552
learned 550
Internet 549
o@@ 549
government 548
hear 548
stop 548
air 547
won 544
animals 543
rather 543
along 542
education 542
research 542
war 542
h@@ 541
public 541
game 540
N@@ 539
ar 538
TED 536
state 535
b@@ 533
disease 532
hours 532
lots 532
environment 531
could@@ 530
low 530
knew 529
ness 528
themselves 525
oil 524
became 523
view 522
sound 521
wonderful 521
difference 520
American 519
E@@ 518
share 518
third 518
R@@ 517
early 517
free 516
least 516
sometimes 515
study 515
natural 513
worked 513
students 512
happy 511
g@@ 510
society 509
century 508
created 508
taken 506
outside 504
scale 504
against 503
area 503
H@@ 502
moving 501
news 501
terms 501
h 500
past 500
seven 500
king 499
15 498
de@@ 498
friends 498
gave 498
based 494
questions 494
L@@ 491
everyone 489
China 488
ans 488
Or 486
en@@ 486
close 485
beginning 484
t@@ 483
th 483
cell 481
entire 481
takes 480
market 479
systems 479
ocean 478
black 476
instead 476
others 476
thousands 476
ations 474
ist 474
certain 473
learning 473
middle 473
cost 472
machine 471
culture 470
ent 469
population 469
seeing 469
ter 467
ine 466
finally 465
full 465
Ye@@ 463
needs 463
perhaps 462
size 462
eight 461
leave 460
fish 459
ty 459
deal 456
whatever 454
difficult 452
eyes 452
parts 452
amount 450
York 449
cannot 446
image 446
turned 444
easy 443
ence 443
Do 442
grow 442
walk 442
ator 441
during 441
force 441
p 441
gone 440
changed 436
feet 436
buy 435
l 435
p@@ 435
Is 434
given 431
interested 431
b 428
began 427
known 427
surface 427
over@@ 426
ice 424
test 422
als 421
est 421
tion 421
yourself 420
longer 419
tried 418
needed 417
spend 417
week 417
sh@@ 413
quickly 412
hands 411
clear 409
ment 408
common 406
DNA 405
rest 404
simply 403
father 400
realized 400
behind 399
se 399
step 399
y@@ 399
economic 398
les 398
Right 397
born 397
Some 396
powerful 396
ground 395
write 395
People 394
cities 394
green 394
al@@ 393
eat 393
sitting 393
W@@ 392
et 392
incredible 392
film 391
miles 391
program 391
Just 390
shows 390
complex 389
co@@ 388
behavior 387
ia 386
w 386
At 385
ates 385
opportunity 383
son 383
weeks 383
bottom 382
feeling 382
fun 381
brought 380
forward 380
humans 380
phone 380
short 380
starting 380
structure 380
books 379
ings 379
poor 379
changes 378
field 378
lost 378
average 377
cut 377
der 377
local 377
spent 377
ti@@ 377
Yes 376
er@@ 376
growing 376
animal 375
either 375
media 375
companies 374
stage 374
friend 373
economy 372
ic 372
non 372
die 371
team 371
w@@ 371
40 370
ant 370
death 370
es@@ 370
felt 369
wrote 369
Not 368
f@@ 367
paper 367
developed 365
speak 365
de 364
reality 364
blue 363
U.S. 362
ch@@ 362
giving 362
ism 362
0s 360
technologies 360
theory 360
12 359
World 359
literally 359
parents 359
value 359
watch 359
growth 358
nice 358
tic 358
pay 357
center 356
English 355
political 354
scientists 354
el@@ 352
girl 352
O@@ 351
To 351
morning 351
r@@ 351
areas 349
met 349
white 349
would@@ 349
patient 347
running 347
climate 346
evolution 345
hav@@ 345
knowledge 345
playing 345
table 345
fly 344
knows 344
act 343
im@@ 343
individual 343
ors 343
sea 343
g 342
images 341
material 341
stand 341
CA 340
attention 339
shape 339
understanding 339
Can 338
challenge 338
fast 338
be@@ 337
discovered 337
l@@ 337
absolutely 336
blood 336
deep 336
gives 336
seems 336
st@@ 335
tools 335
map 334
On 333
talked 333
relationship 332
telling 332
audience 331
begin 331
dark 331
developing 331
di@@ 331
focus 330
thank 330
type 330
S 329
changing 329
movement 328
computers 327
box 326
cool 326
personal 326
ri@@ 326
situation 324
baby 323
physical 323
product 323
result 323
showed 323
incredibly 322
key 322
as@@ 321
girls 321
J@@ 319
anyone 319
guess 319
hold 319
lo@@ 319
realize 319
rules 319
em@@ 318
B 317
generation 317
Europe 316
involved 316
le@@ 316
action 315
produce 315
ters 315
color 314
hour 314
hundreds 314
allow 313
alone 313
becomes 313
Our 312
industry 312
creating 311
device 311
seem 311
fall 310
ling 310
am@@ 309
lived 309
major 309
numbers 309
putting 308
South 307
available 307
experiment 307
n@@ 307
present 307
millions 306
rate 306
recently 306
support 306
ants 305
ists 305
ance 304
designed 304
ding 304
ically 304
quality 304
compassion 303
anybody 302
happiness 302
dead 301
reasons 301
meet 300
patients 300
pattern 300
save 300
kid 299
solve 299
an@@ 298
pictures 298
tiny 298
x 298
C 297
ac@@ 297
inter@@ 297
bigger 296
died 296
li@@ 296
pre@@ 296
towards 296
tr@@ 296
minute 295
solution 295
worth 295
access 294
op@@ 294
perfect 294
ship 294
tions 294
um 293
especially 292
normal 292
ad 291
groups 291
ies 291
nobody 291
writing 291
ary 290
class 290
modern 290
sp@@ 290
teach 289
1 288
effect 288
explain 288
risk 288
Chinese 287
chance 287
drive 287
hundred 287
lab 287
obviously 287
on@@ 287
source 287
Maybe 286
certainly 286
nine 286
robot 286
25 285
cars 285
digital 285
object 285
Look 284
ets 284
fear 284
issue 284
schools 284
starts 284
ended 283
Of 282
beyond 282
carbon 281
plants 281
ready 281
asking 280
board 280
impact 280
la 280
res@@ 280
resources 280
special 280
D 279
c@@ 279
development 279
speed 278
wind 278
yes 278
Al@@ 277
dy 277
month 277
similar 277
term 277
choice 276
mass 276
under@@ 276
walking 276
wall 276
wants 276
network 275
showing 275
2 274
Google 274
connected 274
200 273
African 272
law 272
measure 271
office 271
period 271
soon 271
11 270
eye 270
ol@@ 270
onto 270
ch 269
hit 269
it@@ 269
moved 269
potential 269
scientific 269
send 269
ab@@ 268
materials 268
mo@@ 268
ad@@ 267
basic 267
First 266
In@@ 266
exciting 266
follow 266
ized 266
ro@@ 266
skin 266
truth 266
ties 265
uses 265
village 265
I@@ 264
lose 264
movie 264
positive 264
solar 264
song 264
su@@ 264
mine 263
or@@ 263
road 263
By 262
evidence 262
ked 262
several 262
sit 262
a@@ 261
activity 261
approach 261
further 261
nuclear 261
projects 261
Where 260
develop 260
games 260
issues 260
message 260
thousand 260
voice 260
examples 259
named 259
street 259
totally 259
particularly 258
se@@ 258
ators 257
c 257
sun 257
v@@ 257
wish 257
at@@ 256
bunch 256
extraordinary 256
con@@ 255
door 255
extremely 255
fire 255
interest 255
ons 255
ps 255
sex 255
software 255
break 254
ess 254
everywhere 254
likely 254
screen 253
Don 252
East 252
ful 252
late 252
objects 252
security 252
vision 252
ard 251
code 251
forms 251
oh 251
sorts 251
HIV 250
camera 250
innovation 250
online 250
pick 250
ses 250
teacher 250
points 249
version 249
zero 249
listen 248
out@@ 248
sounds 248
standing 248
Most 247
West 247
bed 247
serious 247
add 246
ality 246
moral 246
stay 246
allowed 245
fully 245
goal 245
medical 245
notice 245
student 245
tree 245
Mo@@ 244
Who 244
biggest 244
cause 244
wife 244
Chris 243
Which 243
fine 243
reach 243
success 243
trees 243
els 242
higher 242
site 242
spread 242
strong 242
biology 241
el 241
eventually 241
favorite 241
i@@ 241
rich 241
60 240
complicated 240
concept 240
general 240
faster 239
foot 239
grew 239
ics 239
lead 239
ms 239
plan 239
pro@@ 239
Every 238
gas 238
lines 238
per@@ 238
genes 237
list 237
pieces 237
teachers 237
to@@ 237
u@@ 237
journey 236
te 236
Even 235
communities 235
price 235
supposed 235
touch 235
wait 235
18 234
ded 234
expect 234
leaders 234
page 234
sent 234
80 233
content 233
position 233
somehow 233
stars 233
suddenly 233
visual 233
watching 233
above 232
bacteria 232
buildings 232
essentially 232
main 232
please 232
somewhere 232
tive 232
continue 231
national 231
among 230
crazy 230
medicine 230
mis@@ 230
ex@@ 229
m@@ 229
models 229
perspective 229
products 229
seconds 229
shown 229
9 228
ho@@ 228
killed 228
series 228
smart 228
ye@@ 228
Are 227
meant 227
okay 227
tool 227
cr@@ 226
hot 226
impossible 226
larger 226
lower 226
po@@ 226
response 226
ry 226
safe 226
virus 226
beings 225
hospital 225
sell 225
After 224
brains 224
individuals 224
os 224
st 224
conditions 223
excited 223
fundamental 223
ical 223
largest 223
military 223
results 223
tells 223
ative 222
bl@@ 222
boy 222
reading 222
smaller 222
architecture 221
role 221
decision 220
TV 219
cases 219
plant 219
poverty 219
taught 219
written 219
beauty 218
ge 218
ish 218
successful 218
usually 218
bo@@ 217
worse 217
z@@ 217
/ 216
creative 216
democracy 216
store 216
V@@ 215
alive 215
famous 215
forth 215
shot 215
North 214
crisis 214
dly 214
kill 214
listening 214
ments 214
te@@ 214
machines 213
pull 213
subject 213
training 213
3 212
allows 212
bodies 212
except 212
pain 212
rise 212
service 212
slide 212
up@@ 212
arm 211
engineering 211
kept 211
physics 211
super@@ 211
Americans 210
bu@@ 210
cl@@ 210
context 210
et@@ 210
genetic 210
patterns 210
recognize 210
truly 210
Another 209
earlier 209
fantastic 209
for@@ 209
indeed 209
meaning 209
older 209
- 208
500 208
decisions 208
direction 208
peace 208
revolution 208
temperature 208
th@@ 208
trust 208
waste 208
dollar 207
drugs 207
organization 207
upon 207
E 206
R 206
U@@ 206
actual 206
college 206
com@@ 206
drug 206
exist 206
healthy 206
math 206
violence 206
Those 205
active 205
bs 205
dream 205
tend 205
types 205
wonder 205
7 204
choose 204
finding 204
legs 204
pe@@ 204
skills 204
so@@ 204
traditional 204
acy 203
connect 203
ages 202
anywhere 202
critical 202
greater 202
he@@ 202
income 202
si@@ 202
sky 202
walked 202
anyway 201
ely 201
himself 201
region 201
therefore 201
tics 201
tor 201
ag@@ 200
draw 200
following 200
ke 200
press 200
studies 200
sub@@ 200
Two 199
dog 199
electricity 199
increase 199
invented 199
om@@ 199
range 199
town 199
6@@ 198
8 198
Like 198
dangerous 198
doctor 198
familiar 198
mon@@ 198
pass 198
slow 198
solutions 198
television 198
anymore 197
ently 197
hole 197
jobs 197
understood 197
aid 196
expensive 196
ic@@ 196
record 196
treatment 196
wer@@ 196
connection 195
dance 195
including 195
robots 195
tes 195
z 195
ze 195
Mars 194
aging 194
ches 194
clearly 194
current 194
do@@ 194
evolved 194
ingly 194
j@@ 194
no@@ 194
production 194
treat 194
levels 193
organisms 193
plastic 193
strange 193
u 193
Ho@@ 192
War 192
conflict 192
etc 192
flying 192
instance 192
ning 192
teaching 192
website 192
floor 191
immediately 191
train 191
ble 190
conference 190
fl@@ 190
hi@@ 190
ins 190
man@@ 190
near 190
weight 190
7@@ 189
bi@@ 189
character 189
driving 189
summer 189
travel 189
Z@@ 188
decade 188
ey 188
flow 188
phones 188
policy 188
square 188
throughout 188
tors 188
City 187
becoming 187
creativity 187
specific 187
stick 187
ves 187
costs 186
earth 186
final 186
provide 186
various 186
With 185
function 185
gr@@ 185
ines 185
ls 185
ran 185
surgery 185
6 184
90 184
University 184
X 184
rights 184
track 184
Y@@ 183
ahead 183
conversation 183
international 183
cold 182
des 182
designers 182
forces 182
glass 182
ities 182
meeting 182
obvious 182
oxygen 182
photograph 182
survive 182
terrible 182
Your 181
although 181
fit 181
heat 181
il@@ 181
lights 181
produced 181
protect 181
remarkable 181
values 181
discover 180
ends 180
focused 180
pressure 180
urban 180
useful 180
Imagine 179
London 179
T 179
ats 179
chemical 179
choices 179
cur@@ 179
drop 179
private 179
str@@ 179
Western 178
effective 178
fied 178
win 178
16 177
National 177
Web 177
complexity 177
cover 177
directly 177
magic 177
practice 177
sat 177
ain 176
bought 176
clean 176
complete 176
progress 176
related 176
rule 176
sustainable 176
task 176
ur@@ 176
10,000 175
atmosphere 175
extra 175
freedom 175
fuel 175
mental 175
minds 175
nation 175
paid 175
played 175
politics 175
possibly 175
300 174
AIDS 174
Re@@ 174
aware 174
carry 174
families 174
feed 174
original 174
performance 174
religion 174
whose 174
Afghanistan 173
Indian 173
babies 173
ders 173
enormous 173
environmental 173
forest 173
quick 173
speaking 173
trade 173
Hey 172
Sh@@ 172
below 172
causes 172
consider 172
cultural 172
humanity 172
mostly 172
path 172
capacity 171
sleep 171
waiting 171
Middle 170
bio@@ 170
boys 170
eating 170
fight 170
states 170
ton 170
trial 170
willing 170
biological 169
decide 169
intelligence 169
ler 169
ma 169
markets 169
networks 169
purpose 169
sign 169
14 168
birth 168
financial 168
greatest 168
molecules 168
notion 168
push 168
straight 168
birds 167
ens 167
hu@@ 167
supply 167
the@@ 167
twice 167
4 166
5 166
Dr. 166
Man 166
ents 166
event 166
Bo@@ 165
challenges 165
charge 165
go@@ 165
governments 165
20@@ 164
California 164
John 164
apart 164
ball 164
bird 164
ce 164
degrees 164
emotional 164
genome 164
ian 164
sive 164
stem 164
tremendous 164
8@@ 163
Ch@@ 163
P 163
Think 163
artist 163
balance 163
hand@@ 163
particles 163
raise 163
significant 163
sing 163
trouble 163
ying 163
Con@@ 162
closer 162
experiments 162
ize 162
me@@ 162
programs 162
race 162
unique 162
24 161
ately 161
easily 161
flu 161
forget 161
gotten 161
mobile 161
worry 161
198@@ 160
Today 160
bringing 160
diseases 160
graph 160
ously 160
possibility 160
capital 159
doctors 159
ec@@ 159
loved 159
massive 159
none 159
police 159
workers 159
communication 158
funny 158
inspired 158
institutions 158
scientist 158
ten 158
web 158
19@@ 157
K 157
M 157
basis 157
check 157
corner 157
daughter 157
passion 157
planets 157
popular 157
shared 157
zed 157
From 156
bridge 156
farmers 156
hair 156
meters 156
mi@@ 156
mission 156
mom 156
responsibility 156
search 156
tw@@ 156
worst 156
G 155
Life 155
Un@@ 155
creatures 155
cu@@ 155
ker 155
services 155
slightly 155
standard 155
star@@ 155
text 155
tu@@ 155
ver@@ 155
Mar@@ 154
achieve 154
answers 154
differences 154
diversity 154
dying 154
effects 154
gene 154
hearing 154
memory 154
neurons 154
rock 154
sal@@ 154
sold 154
David 153
Iraq 153
artists 153
gu@@ 153
infrastructure 153
ir@@ 153
mountain 153
seemed 153
sharing 153
1,000 152
ars 152
attack 152
communicate 152
creates 152
elements 152
fairly 152
par@@ 152
ten@@ 152
total 152
ure 152
work@@ 152
70 151
Again 151
ancient 151
career 151
cor@@ 151
definition 151
necessarily 151
passed 151
199@@ 150
Great 150
address 150
boat 150
bread 150
explore 150
male 150
shift 150
vi@@ 150
da 149
ner 149
net 149
religious 149
197@@ 148
Many 148
ads 148
colleagues 148
dec@@ 148
decades 148
devices 148
dr@@ 148
efficient 148
feels 148
heads 148
ite 148
noticed 148
sphere 148
star 148
trained 148
ul@@ 148
window 148
Instead 147
Japan 147
car@@ 147
highly 147
missing 147
stopped 147
structures 147
tly 147
Asia 146
coffee 146
fix 146
published 146
reduce 146
Le@@ 145
air@@ 145
effort 145
finished 145
helped 145
imagination 145
sick 145
$ 144
Mr. 144
bits 144
bone 144
dad 144
dimensional 144
grade 144
ina 144
ology 144
post 144
print 144
societies 144
tissue 144
400 143
Ar@@ 143
Richard 143
base 143
brand 143
central 143
cycle 143
end@@ 143
figured 143
gi@@ 143
helping 143
id 143
laws 143
sequence 143
sorry 143
streets 143
tail 143
throw 143
visit 143
war@@ 143
Actually 142
His 142
differently 142
ency 142
il 142
industrial 142
interact 142
ru@@ 142
spending 142
typical 142
yellow 142
French 141
broken 141
competition 141
degree 141
down@@ 141
du@@ 141
enter 141
female 141
knowing 141
ni@@ 141
recent 141
row 141
secret 141
studying 141
13 140
De@@ 140
Mon@@ 140
ast 140
caught 140
cross 140
eless 140
molecule 140
necessary 140
Good 139
O 139
afraid 139
bees 139
billions 139
br@@ 139
her@@ 139
kes 139
logy 139
mothers 139
plane 139
quote 139
return 139
Big 138
Car@@ 138
Second 138
Very 138
ber 138
distance 138
era 138
negative 138
party 138
radio 138
respect 138
slowly 138
turning 138
wing 138
An@@ 137
Po@@ 137
Thanks 137
acting 137
civilization 137
flight 137
suffering 137
18@@ 136
5,000 136
back@@ 136
beat 136
benefits 136
commercial 136
ering 136
fashion 136
galaxies 136
held 136
holding 136
jump 136
opened 136
rain 136
CO2 135
apply 135
ational 135
background 135
describe 135
edge 135
forever 135
intelligent 135
ites 135
moments 135
noise 135
ore 135
ping 135
Everybody 134
L 134
brings 134
ement 134
engineers 134
ing@@ 134
landscape 134
loss 134
mer@@ 134
organizations 134
steps 134
sudden 134
benefit 133
calls 133
catch 133
nearly 133
oo@@ 133
opportunities 133
ring 133
sion 133
tically 133
um@@ 133
versus 133
warming 133
Any@@ 132
Audi@@ 132
Sun 132
ably 132
aw@@ 132
cheap 132
co 132
colors 132
leading 132
letter 132
statistics 132
stuck 132
17 131
ang@@ 131
circle 131
entirely 131
events 131
filled 131
fold 131
identity 131
languages 131
meat 131
moon 131
pages 131
responsible 131
rid 131
Take 130
Th@@ 130
agree 130
block 130
core 130
discovery 130
ed@@ 130
helps 130
ited 130
mouth 130
organic 130
painting 130
phenomenon 130
talks 130
wisdom 130
Sometimes 129
concerned 129
desire 129
double 129
ered 129
evolutionary 129
finger 129
fy 129
lucky 129
museum 129
relationships 129
ster 129
virtual 129
2,000 128
An 128
Washington 128
brother 128
card 128
damage 128
dimensions 128
engine 128
ep 128
importantly 128
lets 128
mouse 128
prison 128
shoes 128
wood 128
Go 127
See 127
ak@@ 127
alized 127
bar@@ 127
blind 127
count 127
creation 127
des@@ 127
enjoy 127
everyday 127
galaxy 127
neighborhood 127
opposite 127
separate 127
sister 127
sum 127
treated 127
vast 127
weapons 127
British 126
Einstein 126
Once 126
adults 126
breast 126
bur@@ 126
citizens 126
easier 126
engage 126
equivalent 126
ery 126
failed 126
failure 126
join 126
leads 126
ne@@ 126
oceans 126
pl@@ 126
saving 126
soil 126
stream 126
ultimately 126
walls 126
2@@ 125
Have 125
ack 125
article 125
compared 125
electric 125
head@@ 125
ise 125
lies 125
micro@@ 125
perfectly 125
report 125
signal 125
wear 125
Did 124
advantage 124
capable 124
ching 124
designing 124
driven 124
fighting 124
has@@ 124
influence 124
spot 124
unfortunately 124
wearing 124
Al 123
MIT 123
More 123
airplane 123
begins 123
brilliant 123
childhood 123
cre@@ 123
crime 123
engineer 123
ge@@ 123
improve 123
mathematics 123
mile 123
note 123
operating 123
stone 123
ver 123
viruses 123
whom 123
Everything 122
Par@@ 122
San 122
consciousness 122
drawing 122
experiences 122
faces 122
factory 122
grown 122
ill 122
justice 122
moves 122
offer 122
park 122
photo 122
principle 122
random 122
rel@@ 122
ter@@ 122
weird 122
Ro@@ 121
affect 121
believed 121
ber@@ 121
closed 121
dynamic 121
emotions 121
f 121
fields 121
ist@@ 121
keeping 121
leaving 121
magazine 121
motion 121
planning 121
spaces 121
tens 121
thinks 121
ti 121
ture 121
wild 121
Be@@ 120
European 120
Su@@ 120
acts 120
afford 120
chemistry 120
coal 120
distribution 120
exists 120
fascinating 120
har@@ 120
hopefully 120
insects 120
profound 120
seat 120
shoul@@ 120
theater 120
yesterday 120
H 119
belief 119
can@@ 119
cortex 119
due 119
ils 119
muscle 119
pounds 119
producing 119
qu@@ 119
raised 119
Co@@ 118
Each 118
Wo@@ 118
chemicals 118
desert 118
dies 118
ears 118
ending 118
foreign 118
hell 118
ky 118
lat@@ 118
members 118
metal 118
normally 118
otherwise 118
principles 118
soldiers 118
spirit 118
survival 118
transform 118
vote 118
zing 118
.@@ 117
ands 117
arms 117
av@@ 117
bar 117
civil 117
condition 117
contact 117
despite 117
giant 117
joy 117
match 117
predict 117
protein 117
rural 117
signals 117
tional 117
we@@ 117
45 116
He@@ 116
Three 116
Would 116
account 116
ak 116
argue 116
ci@@ 116
dge 116
ess@@ 116
fourth 116
grandmother 116
invited 116
link 116
managed 116
movies 116
organized 116
rain@@ 116
studied 116
sw@@ 116
trip 116
worried 116
Fin@@ 115
Over 115
adult 115
argument 115
continent 115
covered 115
fat 115
highest 115
holes 115
hy@@ 115
investment 115
izing 115
labor 115
lack 115
lesson 115
ma@@ 115
names 115
prevent 115
represent 115
roll 115
tough 115
vehicle 115
wide 115
Come 114
Pro@@ 114
appear 114
artificial 114
bank 114
bility 114
described 114
dinosaurs 114
electrical 114
hate 114
inner 114
leader 114
mortality 114
ns 114
Com@@ 113
Japanese 113
fying 113
harder 113
island 113
location 113
matters 113
picked 113
pleasure 113
pre 113
professional 113
ste@@ 113
ths 113
wealth 113
100,000 112
Mexico 112
arrived 112
businesses 112
by@@ 112
constantly 112
deliver 112
demand 112
dinner 112
followed 112
had@@ 112
independent 112
invisible 112
kilometers 112
legal 112
limited 112
malaria 112
married 112
mentioned 112
multiple 112
players 112
river 112
seriously 112
solved 112
speech 112
sugar 112
tech 112
threat 112
wave 112
bear 111
breath 111
email 111
ent@@ 111
feelings 111
fortunately 111
generations 111
husband 111
letters 111
losing 111
majority 111
nor@@ 111
property 111
roughly 111
scene 111
shop 111
testing 111
tomorrow 111
wever 111
150 110
ane 110
arts 110
campaign 110
collective 110
currently 110
deeply 110
human@@ 110
id@@ 110
metaphor 110
om 110
respond 110
teeth 110
universal 110
20th 109
F 109
Please 109
Times 109
addition 109
agriculture 109
battery 109
clock 109
coast 109
consequences 109
copy 109
date 109
empty 109
ev@@ 109
formed 109
ie 109
ley 109
lunch 109
ordinary 109
paying 109
possibilities 109
proud 109
resource 109
shapes 109
toward 109
tri@@ 109
tries 109
tumor 109
unless 109
vers 109
Nigeria 108
anti 108
bright 108
che@@ 108
classroom 108
coral 108
dealing 108
equipment 108
extreme 108
fe@@ 108
folks 108
layer 108
leaves 108
lie 108
mar@@ 108
min@@ 108
neuro@@ 108
player 108
restaurant 108
sharks 108
station 108
surprising 108
weather 108
ys 108
3,000 107
Britain 107
England 107
alize 107
ances 107
associated 107
avoid 107
compare 107
cutting 107
debate 107
den@@ 107
designer 107
dreams 107
drink 107
fill 107
ished 107
round 107
George 106
caused 106
equ@@ 106
forced 106
honest 106
hydrogen 106
medium 106
pen@@ 106
represents 106
sand 106
stood 106
strategy 106
suggest 106
surprise 106
trans@@ 106
university 106
196@@ 105
99 105
Anderson 105
Bill 105
Gu@@ 105
Harvard 105
NASA 105
atory 105
characters 105
ched 105
collect 105
consumption 105
defined 105
frame 105
invest 105
launched 105
leg 105
nervous 105
north 105
remote 105
reward 105
selling 105
target 105
tor@@ 105
warm 105
600 104
Do@@ 104
Their 104
Women 104
absolute 104
ap 104
bottle 104
chair 104
details 104
dry 104
finish 104
ig@@ 104
increasing 104
mistakes 104
pi@@ 104
president 104
processes 104
sentence 104
south 104
spring 104
stupid 104
ther 104
traffic 104
waves 104
35 103
Kenya 103
alism 103
aries 103
bling 103
chain 103
construction 103
curious 103
direct 103
dots 103
emerging 103
fell 103
fishing 103
gram 103
introduced 103
nations 103
photos 103
sides 103
sn@@ 103
spectrum 103
steel 103
super 103
ta 103
technical 103
wise 103
3D 102
Charles 102
according 102
affected 102
alternative 102
cultures 102
detail 102
disaster 102
essential 102
exercise 102
experts 102
expression 102
fresh 102
gravity 102
grid 102
ink 102
mer 102
mor@@ 102
opening 102
organism 102
photographs 102
pol@@ 102
spoke 102
wine 102
wire 102
Institute 101
President 101
analysis 101
awful 101
cloud 101
connections 101
definitely 101
dom 101
economics 101
flat 101
importance 101
killing 101
land@@ 101
molecular 101
ped 101
promise 101
puts 101
radiation 101
relevant 101
saved 101
sector 101
silk 101
sites 101
string 101
theme 101
tons 101
Paul 100
accept 100
akes 100
ana 100
bri@@ 100
budget 100
carefully 100
emissions 100
equal 100
existence 100
heavy 100
liked 100
mark 100
mas@@ 100
rates 100
safety 100
valuable 100
Iran 99
Pacific 99
buying 99
controlled 99
crowd 99
daily 99
define 99
display 99
effectively 99
facing 99
faith 99
flies 99
gen@@ 99
generate 99
ger 99
interface 99
newspaper 99
organs 99
ph@@ 99
primary 99
rapidly 99
tim@@ 99
4@@ 98
Darwin 98
appropriate 98
calling 98
cameras 98
cards 98
clinical 98
computing 98
curve 98
factor 98
houses 98
infected 98
intellectual 98
interaction 98
ization 98
med 98
practical 98
prove 98
regular 98
serve 98
setting 98
sts 98
sun@@ 98
tered 98
variety 98
wake 98
21st 97
Center 97
and@@ 97
atoms 97
cas@@ 97
considered 97
gener@@ 97
introduce 97
ner@@ 97
ride 97
satellite 97
sem@@ 97
thoughts 97
underneath 97
U.N. 96
YouTube 96
ail 96
bul@@ 96
cognitive 96
destruction 96
diet 96
evil 96
feedback 96
fellow 96
ff@@ 96
fi@@ 96
generally 96
horse 96
invention 96
marketing 96
mul@@ 96
personally 96
requires 96
shaped 96
sources 96
swim 96
videos 96
ward 96
wh@@ 96
Di@@ 95
Does 95
Facebook 95
Per@@ 95
U.K. 95
af@@ 95
broke 95
conscious 95
der@@ 95
environments 95
farm 95
ff 95
graduate 95
gs 95
hero 95
hidden 95
instrument 95
lady 95
leadership 95
load 95
manage 95
partner 95
processing 95
protection 95
rooms 95
sensitive 95
sm@@ 95
specifically 95
status 95
suppose 95
transformation 95
violent 95
winter 95
Pakistan 94
Wikipedia 94
ale 94
bas@@ 94
bus 94
employees 94
ences 94
experienced 94
gap 94
gold 94
grand@@ 94
liber@@ 94
lifetime 94
ot 94
platform 94
reaction 94
relatively 94
sad 94
sets 94
shark 94
struggle 94
switch 94
vaccine 94
Ex@@ 93
Last 93
Michael 93
Street 93
all@@ 93
bomb 93
carrying 93
clip 93
comfortable 93
components 93
consumer 93
creature 93
credit 93
driver 93
exchange 93
hits 93
ick 93
interests 93
lay 93
master 93
mistake 93
motor 93
movements 93
organ 93
ory 93
protected 93
proteins 93
rare 93
sli@@ 93
sunlight 93
swimming 93
trick 93
us@@ 93
user 93
worlds 93
worldwide 93
Islam 92
Muslim 92
actor 92
added 92
apping 92
boo@@ 92
combination 92
convince 92
cooking 92
cow 92
emotion 92
identify 92
increasingly 92
lu@@ 92
microbes 92
ought 92
prepared 92
presentation 92
radi@@ 92
relate 92
singing 92
smell 92
visible 92
wondering 92
Francisco 91
Twitter 91
accident 91
aged 91
ai 91
boring 91
chicken 91
convinced 91
efficiency 91
epidemic 91
express 91
ft 91
gre@@ 91
joke 91
laptop 91
mu@@ 91
pack 91
pulled 91
reverse 91
ris@@ 91
sters 91
style 91
surprised 91
therapy 91
users 91
ved 91
watched 91
75 90
Br@@ 90
ass@@ 90
ay@@ 90
climb 90
encourage 90
expected 90
fail 90
fair 90
falling 90
fingers 90
foundation 90
liquid 90
marriage 90
mention 90
ned 90
neighbors 90
peak 90
perception 90
previous 90
pun@@ 90
risks 90
sending 90
situations 90
ws 90
Me@@ 89
actions 89
actors 89
advanced 89
ai@@ 89
amp 89
click 89
explained 89
fossil 89
goods 89
grain 89
homes 89
ine@@ 89
istic 89
lock 89
mirror 89
naturally 89
nu@@ 89
ob@@ 89
occurred 89
odd 89
off@@ 89
opinion 89
penguins 89
plus 89
pop 89
post@@ 89
profit 89
received 89
sho@@ 89
smile 89
speci@@ 89
stable 89
studio 89
tic@@ 89
tively 89
typically 89
voices 89
Hu@@ 88
II 88
Mc@@ 88
architect 88
aspect 88
camp 88
centers 88
del@@ 88
entertainment 88
entrepreneurs 88
error 88
fewer 88
gentlem@@ 88
gh@@ 88
honor 88
jo@@ 88
keeps 88
kitchen 88
management 88
maps 88
operation 88
ou@@ 88
paint 88
pay@@ 88
placed 88
presence 88
ray 88
regul@@ 88
release 88
researchers 88
sample 88
selection 88
techniques 88
technological 88
title 88
unit 88
whenever 88
GDP 87
Germany 87
aking 87
applied 87
capture 87
dem@@ 87
dogs 87
dropped 87
enti@@ 87
flowers 87
gl@@ 87
ills 87
input 87
mathematical 87
method 87
nor 87
quantum 87
quiet 87
skill 87
split 87
staff 87
strength 87
suit 87
tests 87
tro@@ 87
un 87
unusual 87
upper 87
Brazil 86
Go@@ 86
King 86
School 86
ach 86
admit 86
ancestors 86
burn 86
burning 86
engaged 86
ese 86
explanation 86
mountains 86
percentage 86
polio 86
relative 86
roof 86
runs 86
solid 86
solving 86
tradition 86
trials 86
ultimate 86
2000 85
Bank 85
Five 85
James 85
Mal@@ 85
ade 85
attempt 85
blocks 85
boxes 85
clo@@ 85
comfort 85
correct 85
depends 85
factors 85
falls 85
figures 85
films 85
framework 85
gain 85
ged 85
mate 85
productive 85
require 85
shoot 85
tape 85
traveling 85
ular 85
wars 85
x@@ 85
Chicago 84
September 84
afternoon 84
ant@@ 84
bor@@ 84
char@@ 84
collapse 84
confidence 84
discussion 84
ear@@ 84
element 84
exact 84
existing 84
feeding 84
flu@@ 84
fo@@ 84
fre@@ 84
garden 84
gift 84
gri@@ 84
gun 84
hoping 84
la@@ 84
plays 84
politicians 84
psychology 84
quarter 84
radical 84
reached 84
roads 84
tical 84
transition 84
v 84
,000 83
Ad@@ 83
Also 83
Basically 83
Bush 83
Could 83
Nobody 83
awareness 83
chem@@ 83
continued 83
decline 83
deeper 83
ecosystem 83
eggs 83
ero@@ 83
handle 83
lessons 83
library 83
logical 83
lying 83
nose 83
pping 83
reference 83
senses 83
signs 83
surgeon 83
touched 83
trillion 83
vulnerable 83
abstract 82
activities 82
bre@@ 82
breathe 82
evolve 82
fun@@ 82
ger@@ 82
length 82
logic 82
measured 82
non@@ 82
pair 82
proof 82
replace 82
sees 82
shoulder 82
sis 82
taste 82
tea 82
About 81
Australia 81
Canada 81
Is@@ 81
Se@@ 81
Steve 81
Yet 81
anti@@ 81
axis 81
cents 81
claim 81
dancing 81
democratic 81
flo@@ 81
gang 81
graphics 81
milk 81
participate 81
pointed 81
pollen 81
pollution 81
por@@ 81
properties 81
sc@@ 81
ser@@ 81
unknown 81
volume 81
1,@@ 80
2008 80
Ah 80
Gulf 80
Her 80
Inter@@ 80
Valley 80
ah@@ 80
alist 80
amounts 80
atic 80
band 80
behaviors 80
circumstances 80
combine 80
dramatic 80
equation 80
inf@@ 80
linked 80
messages 80
monkeys 80
notes 80
papers 80
paradigm 80
poem 80
poetry 80
regions 80
religions 80
resolution 80
shame 80
sur@@ 80
wi@@ 80
France 79
Israel 79
Jo@@ 79
Li@@ 79
Project 79
Union 79
ace 79
attacks 79
au@@ 79
conclusion 79
depression 79
director 79
features 79
former 79
fundamentally 79
grand 79
horrible 79
hur@@ 79
instruments 79
kin@@ 79
makers 79
passionate 79
philosophy 79
professor 79
pure 79
rely 79
remains 79
sophisticated 79
soul 79
swe@@ 79
sweet 79
tion@@ 79
tube 79
tur@@ 79
unlike 79
ve@@ 79
vessels 79
writer 79
zoom 79
20,000 78
Africans 78
Arab 78
Boston 78
Since 78
Woman 78
alization 78
appreciate 78
ble@@ 78
blow 78
challenging 78
church 78
closely 78
concepts 78
deaths 78
dense 78
ert 78
finance 78
however 78
ide@@ 78
include 78
increased 78
institution 78
literature 78
partners 78
pin@@ 78
recorded 78
section 78
shall 78
ue 78
wheel 78
wherever 78
21 77
Apple 77
Day 77
For@@ 77
Something 77
Thomas 77
Tr@@ 77
accurate 77
ali@@ 77
angle 77
ase 77
bike 77
ces 77
electronic 77
evening 77
flew 77
goals 77
gray 77
hip 77
ind 77
manufacturing 77
member 77
monkey 77
pr@@ 77
puzzle 77
remain 77
sexual 77
tele@@ 77
tho@@ 77
villages 77
ving 77
whales 77
wn 77
En@@ 76
Ne@@ 76
agreed 76
arly 76
ater 76
ays 76
bag 76
battle 76
blog 76
bones 76
combined 76
commitment 76
cri@@ 76
density 76
doubt 76
drives 76
fed 76
gh 76
iPhone 76
lands 76
laugh 76
launch 76
liver 76
locked 76
miss 76
nest 76
outcome 76
presented 76
prices 76
r 76
records 76
remind 76
somewhat 76
songs 76
symmetry 76
zone 76
AB 75
Bible 75
DH 75
applications 75
architects 75
automatically 75
breaking 75
busy 75
cal@@ 75
component 75
conf@@ 75
connecting 75
eral 75
exploration 75
facts 75
forests 75
fund 75
generated 75
gers 75
gg@@ 75
hurt 75
infinite 75
invent 75
novel 75
options 75
parking 75
plate 75
prize 75
ren@@ 75
seed 75
tag 75
trend 75
vehicles 75
west 75
19 74
BF 74
German 74
Perhaps 74
Science 74
V 74
advice 74
anger 74
atives 74
birthday 74
breathing 74
carried 74
constant 74
contr@@ 74
cru@@ 74
determine 74
directions 74
ello 74
frank@@ 74
hospitals 74
hotel 74
ick@@ 74
identical 74
innovative 74
largely 74
limits 74
meaningful 74
musical 74
occur 74
orbit 74
ours 74
patho@@ 74
performing 74
physically 74
pile 74
plans 74
potentially 74
pregnant 74
required 74
soci@@ 74
soft 74
spiritual 74
statement 74
stronger 74
thanks 74
walks 74
wired 74
&amp; 73
95 73
Bang 73
Muslims 73
Narr@@ 73
No@@ 73
Paris 73
Really 73
State 73
Sweden 73
aci@@ 73
aff@@ 73
alli@@ 73
ams 73
ass 73
authority 73
balloon 73
behavioral 73
causing 73
celebrate 73
comp@@ 73
conventional 73
em 73
enemy 73
extent 73
faced 73
fake 73
false 73
fin@@ 73
increases 73
maker 73
ming 73
multi@@ 73
nets 73
operate 73
pal@@ 73
passing 73
perform 73
replic@@ 73
rising 73
sculpture 73
sensors 73
spider 73
stress 73
tal 73
ther@@ 73
tie 73
translate 73
wireless 73
younger 73
10@@ 72
19th 72
50,000 72
Any 72
Christmas 72
Los 72
Number 72
Remember 72
Russia 72
White 72
Y 72
ani@@ 72
appears 72
bee 72
brief 72
clothes 72
depend 72
distributed 72
divided 72
dozen 72
dynamics 72
exhibition 72
fore@@ 72
ha 72
heroes 72
ily 72
imp@@ 72
insight 72
inspiration 72
joined 72
oc@@ 72
pat@@ 72
person@@ 72
piano 72
pur@@ 72
raw 72
released 72
scan 72
season 72
ships 72
spreading 72
sum@@ 72
technique 72
thin 72
tonight 72
topic 72
victims 72
water@@ 72
wed 72
whale 72
wondered 72
wr@@ 72
.com 71
65 71
Dan 71
Never 71
Robert 71
ails 71
army 71
az@@ 71
bubble 71
classic 71
collaboration 71
corn 71
crash 71
dd@@ 71
detect 71
dic@@ 71
divide 71
economists 71
election 71
emergency 71
funding 71
intense 71
lovely 71
marine 71
option 71
particle 71
poorest 71
remove 71
stands 71
subjects 71
telephone 71
tested 71
till 71
tra 71
transportation 71
2004 70
2005 70
Col@@ 70
Mor@@ 70
N 70
Qu@@ 70
algorithms 70
ari@@ 70
assume 70
beach 70
collected 70
desk 70
economies 70
eli@@ 70
ell 70
eu@@ 70
fai@@ 70
graphy 70
hor@@ 70
incentives 70
intuitive 70
log@@ 70
loop 70
measuring 70
onal 70
painful 70
parent 70
severe 70
simplicity 70
sky@@ 70
smallpox 70
treating 70
wanting 70
5@@ 69
Art 69
Foundation 69
Four 69
Microsoft 69
Or@@ 69
Video 69
While 69
ancy 69
cat 69
chart 69
comm@@ 69
communications 69
def@@ 69
dignity 69
disappear 69
embrace 69
expert 69
explo@@ 69
feature 69
golf 69
hide 69
hol@@ 69
laboratory 69
lift 69
lighting 69
lung 69
mechanism 69
mid@@ 69
mix 69
organize 69
overall 69
probability 69
scary 69
seeds 69
smoke 69
standards 69
tracking 69
uck 69
underwater 69
vation 69
weak 69
16@@ 68
2007 68
22 68
Before 68
Eastern 68
Haiti 68
Her@@ 68
Islamic 68
Latin 68
Lo@@ 68
Ma@@ 68
May 68
Nothing 68
Other 68
TED@@ 68
bars 68
cel@@ 68
consumers 68
counter@@ 68
cure 68
department 68
designs 68
dioxide 68
enc@@ 68
floating 68
functions 68
funded 68
graphic 68
grass 68
ids 68
immune 68
ion 68
iron 68
laser 68
links 68
opposed 68
ops 68
output 68
pig 68
pon@@ 68
powered 68
pt 68
rational 68
repair 68
root 68
samples 68
seats 68
spoken 68
ush 68
zz@@ 68
32 67
Bi@@ 67
Everyone 67
Har@@ 67
Hollywood 67
June 67
Only 67
SW 67
advertising 67
allowing 67
ash 67
bun@@ 67
careful 67
chest 67
chip 67
collection 67
controlling 67
cook 67
corruption 67
depending 67
disappeared 67
drinking 67
emb@@ 67
embedded 67
enable 67
equally 67
ey@@ 67
fet@@ 67
fr@@ 67
frequency 67
furniture 67
healthcare 67
hun@@ 67
implications 67
inch 67
ladies 67
loud 67
mat@@ 67
mess 67
mystery 67
obsessed 67
oy@@ 67
paintings 67
parallel 67
pocket 67
properly 67
prototype 67
recording 67
removed 67
savings 67
scar@@ 67
scared 67
shor@@ 67
silence 67
speakers 67
surfaces 67
toy 67
transformed 67
uc@@ 67
veness 67
windows 67
27 66
Au@@ 66
Congress 66
Get 66
Island 66
Mu@@ 66
Red 66
Stu@@ 66
animation 66
apped 66
bly 66
bow 66
concrete 66
dish 66
doors 66
educated 66
educational 66
empathy 66
estimate 66
existed 66
expand 66
exposed 66
glasses 66
grows 66
inc@@ 66
inspiring 66
interview 66
judg@@ 66
latest 66
ne 66
nowhere 66
offered 66
ologists 66
pit@@ 66
plenty 66
productivity 66
pushing 66
rocket 66
script 66
surrounded 66
sy 66
tac@@ 66
truck 66
ut 66
vo@@ 66
Obama 65
RB 65
We@@ 65
accessible 65
adapt 65
aircraft 65
apple 65
architectural 65
artistic 65
bing 65
button 65
cent 65
centuries 65
chose 65
danger 65
dramatically 65
exploring 65
fifth 65
functional 65
gender 65
globe 65
grab 65
hunger 65
iting 65
iz@@ 65
layers 65
loc@@ 65
meetings 65
micro 65
od 65
oes 65
ong 65
phase 65
poly@@ 65
powers 65
printing 65
recognition 65
recognized 65
slides 65
snow 65
tain 65
tall 65
tin@@ 65
toxic 65
zation 65
26 64
Egypt 64
Ghana 64
Korea 64
MRI 64
Oxford 64
To@@ 64
Will 64
afterwards 64
appeared 64
application 64
ash@@ 64
ath 64
bel@@ 64
brothers 64
chocolate 64
clu@@ 64
diabetes 64
dimension 64
facial 64
friendly 64
fuels 64
holds 64
housing 64
interactive 64
internal 64
jail 64
ka 64
lap 64
maintain 64
ol 64
oldest 64
op 64
origami 64
overcome 64
pas@@ 64
peer 64
provides 64
pyramid 64
qualities 64
que 64
rescue 64
romantic 64
session 64
sheep 64
shock 64
sight 64
stayed 64
suggests 64
Bur@@ 63
El@@ 63
Give 63
Ju@@ 63
Museum 63
Nobel 63
Pe@@ 63
Prize 63
Rwanda 63
Stanford 63
U.@@ 63
Uganda 63
X@@ 63
app@@ 63
aspects 63
bon@@ 63
breaks 63
channel 63
collabor@@ 63
contrast 63
cry 63
destroyed 63
don@@ 63
drawn 63
entered 63
est@@ 63
fixed 63
frozen 63
hall 63
ideal 63
ign 63
illegal 63
indic@@ 63
ingredients 63
legacy 63
limb 63
narrative 63
neighbor 63
neither 63
pen 63
photo@@ 63
polar 63
pped 63
psychological 63
raising 63
reaching 63
ref@@ 63
rocks 63
scales 63
sed 63
shirt 63
signed 63
sl@@ 63
squ@@ 63
stores 63
struck 63
survey 63
virtually 63
wards 63
Nature 62
Next 62
Time 62
Wor@@ 62
acted 62
ake 62
backwards 62
beer 62
behave 62
bet 62
blind@@ 62
bomb@@ 62
borders 62
constructed 62
contain 62
contains 62
corporate 62
darkness 62
dinosaur 62
dum@@ 62
ear 62
elev@@ 62
extinct 62
fan 62
fiber 62
forming 62
height 62
laid 62
lens 62
lic@@ 62
linear 62
medi@@ 62
minis@@ 62
missed 62
picking 62
port 62
ports 62
precise 62
precisely 62
provided 62
providing 62
pump 62
recovery 62
reflect 62
repeat 62
represented 62
resistance 62
sa 62
skull 62
sor@@ 62
spots 62
sustainability 62
symbol 62
symptoms 62
synthetic 62
tasks 62
tragedy 62
unexpected 62
vertical 62
volunteers 62
whist@@ 62
Long 61
Pole 61
ades 61
advis@@ 61
apartment 61
ards 61
bicycle 61
briefly 61
chosen 61
clever 61
clients 61
col@@ 61
conclude 61
consequence 61
consume 61
copyright 61
dirty 61
diverse 61
ect 61
facility 61
fication 61
gam@@ 61
ght 61
granted 61
greenhouse 61
hang 61
heaven 61
key@@ 61
lin@@ 61
magnetic 61
mil@@ 61
mur@@ 61
muscles 61
obesity 61
pulling 61
sales 61
sav@@ 61
sou@@ 61
surely 61
thrown 61
tour 61
trends 61
viral 61
whereas 61
Atlantic 60
Girl 60
Hi 60
January 60
Park 60
Pl@@ 60
aches 60
angry 60
aside 60
athe@@ 60
aver@@ 60
characteristics 60
clinic 60
contemporary 60
crash@@ 60
dedicated 60
destroy 60
distant 60
diving 60
dress 60
dust 60
eling 60
ells 60
engaging 60
fle@@ 60
football 60
gar@@ 60
glamorous 60
governance 60
herself 60
ight 60
initial 60
interacting 60
kil@@ 60
lam@@ 60
landed 60
lers 60
lim@@ 60
ny 60
origin 60
populations 60
predictable 60
quanti@@ 60
read@@ 60
rec@@ 60
robotic 60
separated 60
succeed 60
teams 60
tired 60
tone 60
tt@@ 60
wer 60
wo@@ 60
worker 60
195@@ 59
2009 59
50@@ 59
Am@@ 59
Angeles 59
Bas@@ 59
Be 59
Bu@@ 59
General 59
Green 59
Health 59
House 59
Italy 59
Sea 59
Six 59
Somebody 59
Tell 59
ab 59
abilities 59
ach@@ 59
achieved 59
ager 59
agricultural 59
ati@@ 59
attached 59
aws 59
cable 59
calculate 59
circuit 59
classes 59
collecting 59
courage 59
crops 59
cul@@ 59
cute 59
demonstrate 59
dependent 59
drill 59
drove 59
escape 59
extract 59
fabulous 59
fac@@ 59
farmer 59
fears 59
film@@ 59
footprint 59
grandfather 59
high@@ 59
ici@@ 59
ill@@ 59
imagined 59
inspire 59
integrated 59
likes 59
monitor 59
pandemic 59
personality 59
plot 59
ply 59
pound 59
prefer 59
proce@@ 59
produces 59
ridiculous 59
sett@@ 59
spin 59
stations 59
stock 59
tas@@ 59
thick 59
tuna 59
units 59
250 58
700 58
Ethiopia 58
Make 58
Manhattan 58
Me 58
Nor@@ 58
Pol@@ 58
Rome 58
Space 58
ains 58
bags 58
bat@@ 58
bath@@ 58
bucks 58
cher 58
colleague 58
conflicts 58
continues 58
crossing 58
crying 58
diagram 58
dive 58
earthquake 58
east 58
esses 58
ethical 58
globalization 58
harm 58
hire 58
hitting 58
host 58
lif@@ 58
meal 58
medic@@ 58
microscope 58
mixed 58
opens 58
oper@@ 58
orange 58
owned 58
pers 58
physicist 58
positions 58
privilege 58
rac@@ 58
reef 58
sensory 58
shell 58
shut 58
ss 58
terrorism 58
tied 58
2001 57
23 57
30,000 57
Bronx 57
Gore 57
Gr@@ 57
International 57
Mas@@ 57
Mom 57
Northern 57
Sch@@ 57
Sor@@ 57
Ten 57
U 57
Voice 57
ading 57
alities 57
bal@@ 57
categories 57
colony 57
concern 57
curiosity 57
dev@@ 57
dot 57
dro@@ 57
elsewhere 57
ements 57
favor 57
fil@@ 57
grap@@ 57
ham@@ 57
industries 57
involves 57
ises 57
ive 57
judge 57
lethal 57
located 57
minister 57
morality 57
neat 57
northern 57
phantom 57
photography 57
phrase 57
pigs 57
pool 57
predictions 57
prim@@ 57
robust 57
shrimp 57
smooth 57
stairs 57
sti@@ 57
sticks 57
unbelievable 57
uni@@ 57
usual 57
vacuum 57
vely 57
800 56
Blue 56
Child 56
Dis@@ 56
Moore 56
October 56
Revolution 56
Secon@@ 56
Sen@@ 56
Tom 56
Wall 56
antly 56
apparently 56
awesome 56
boundaries 56
contribute 56
cook@@ 56
cour@@ 56
cup 56
depth 56
emerge 56
filter 56
fits 56
fli@@ 56
flower 56
fluid 56
focusing 56
hanging 56
headed 56
hearts 56
hungry 56
inches 56
includes 56
leverage 56
license 56
lows 56
mechanical 56
meter 56
nurses 56
observation 56
optimistic 56
organizing 56
permanent 56
pilot 56
pu@@ 56
rice 56
sauce 56
slavery 56
sleeping 56
static 56
ta@@ 56
tering 56
theories 56
traveled 56
wor@@ 56
1.@@ 55
17@@ 55
2006 55
3.@@ 55
Howard 55
Nations 55
agenda 55
ain@@ 55
arity 55
aw 55
balls 55
boom 55
brown 55
bum@@ 55
cave 55
chi@@ 55
cho@@ 55
circles 55
conservation 55
customers 55
cycles 55
din@@ 55
dri@@ 55
edges 55
eds 55
encounter 55
enty 55
explosion 55
fabric 55
fascinated 55
genius 55
gy@@ 55
habitat 55
hal@@ 55
ide 55
instructions 55
insurance 55
intuition 55
ire 55
ishing 55
iv@@ 55
mainly 55
methane 55
mice 55
pa@@ 55
pace 55
perceive 55
ple@@ 55
pp@@ 55
prints 55
realm 55
reduction 55
roots 55
seas 55
sting 55
strategies 55
tears 55
telescope 55
thri@@ 55
tip 55
ugly 55
upset 55
variation 55
verse 55
vulnerability 55
wal@@ 55
writers 55
Ag@@ 54
Bar@@ 54
Human 54
Inde@@ 54
Man@@ 54
Ocean 54
Should 54
Taliban 54
Texas 54
ained 54
asteroid 54
att@@ 54
bro@@ 54
capita 54
cheaper 54
chimpanzees 54
conversations 54
crack 54
depressed 54
document 54
dy@@ 54
eng@@ 54
engagement 54
explaining 54
extr@@ 54
fiction 54
forgotten 54
founded 54
ging 54
golden 54
interactions 54
ir 54
killer 54
limit 54
lit@@ 54
mal@@ 54
males 54
mosquito 54
nes@@ 54
neural 54
neuron 54
official 54
orial 54
pes 54
plug 54
predicted 54
prior@@ 54
pushed 54
rent 54
respec@@ 54
sharp 54
shopping 54
ski@@ 54
sons 54
speaker 54
spectacular 54
stages 54
suicide 54
symbols 54
tax 54
tely 54
tent 54
tin 54
translation 54
transmission 54
tre@@ 54
tribe 54
tribes 54
ust 54
ute 54
ven 54
vital 54
whatsoever 54
winning 54
yours 54
0@@ 53
2003 53
Congo 53
Florida 53
Law 53
Martin 53
Mil@@ 53
Saturn 53
Soviet 53
Tw@@ 53
Vi@@ 53
academic 53
ame 53
barely 53
blogs 53
captured 53
cartoon 53
cat@@ 53
ce@@ 53
chaos 53
charges 53
climbing 53
compassionate 53
computation 53
consciously 53
day@@ 53
dominant 53
dung 53
emerged 53
engineered 53
enter@@ 53
entropy 53
fathers 53
fer@@ 53
genocide 53
glad 53
gue 53
hardly 53
hardware 53
harvest 53
ignore 53
illness 53
illusion 53
improvement 53
informed 53
ital 53
lecture 53
lic 53
lifestyle 53
met@@ 53
methods 53
mon 53
policies 53
pressing 53
rays 53
reports 53
representation 53
restor@@ 53
sacred 53
sandwich 53
served 53
shake 53
sheet 53
simulation 53
sol@@ 53
storm 53
suffer 53
tank 53
tension 53
thirds 53
traditions 53
underground 53
views 53
whe@@ 53
28 52
4,000 52
40@@ 52
Cambridge 52
Department 52
Homo 52
Im@@ 52
Jesus 52
Ph@@ 52
Pr@@ 52
Research 52
Same 52
Te@@ 52
adding 52
affordable 52
after@@ 52
aining 52
ament 52
announced 52
athle@@ 52
beliefs 52
biodiversity 52
biologists 52
bizarre 52
border 52
chief 52
clouds 52
contract 52
controls 52
cooperation 52
counter 52
covering 52
dar@@ 52
delivered 52
dent 52
deser@@ 52
determined 52
discoveries 52
efforts 52
elected 52
elled 52
eri@@ 52
exponential 52
extended 52
flag 52
flip 52
god 52
gut 52
imagery 52
innovations 52
iter@@ 52
journalist 52
jumped 52
mail 52
mechanics 52
nerve 52
ok 52
originally 52
ox@@ 52
permission 52
physician 52
pri@@ 52
prime 52
primitive 52
programming 52
rats 52
receive 52
revenue 52
serving 52
sil@@ 52
southern 52
stand@@ 52
stimul@@ 52
stun@@ 52
tap 52
uncertainty 52
weak@@ 52
wind@@ 52
worthy 52
120 51
1990s 51
2010 51
Antarctica 51
Arctic 51
Central 51
Des@@ 51
Jewish 51
MS 51
Minister 51
Ru@@ 51
Third 51
Turkey 51
Whether 51
accepted 51
ack@@ 51
advance 51
airplanes 51
alien 51
app 51
avi@@ 51
bedro@@ 51
bombs 51
capability 51
cast 51
committed 51
cou@@ 51
covers 51
daughters 51
discuss 51
dness 51
domestic 51
duc@@ 51
eaten 51
ell@@ 51
expanding 51
expectancy 51
expectations 51
figuring 51
finds 51
fires 51
genetically 51
genetics 51
gens 51
gged 51
historical 51
ians 51
illi@@ 51
immediate 51
ised 51
iving 51
letting 51
lined 51
ney 51
nurse 51
outcomes 51
owner 51
oxytocin 51
pan@@ 51
paralyzed 51
pper 51
promote 51
pupp@@ 51
regret 51
restaurants 51
sai@@ 51
secure 51
seek 51
side@@ 51
sits 51
stops 51
successfully 51
terror 51
toys 51
tracks 51
tric 51
uncomfortable 51
underlying 51
ures 51
vagina 51
visited 51
weapon 51
wings 51
Children 50
Dutch 50
Luc@@ 50
Peace 50
Stage 50
amongst 50
assembly 50
ave 50
backs 50
bears 50
begun 50
closing 50
conver@@ 50
craf@@ 50
defense 50
description 50
dig@@ 50
earn 50
electronics 50
ental 50
eting 50
experimental 50
extrem@@ 50
foods 50
fortunate 50
garbage 50
gather 50
gathering 50
gentleman 50
gotta 50
happier 50
humor 50
ind@@ 50
insect 50
invite 50
lea@@ 50
magical 50
mammals 50
memes 50
musicians 50
my@@ 50
narrow 50
needle 50
outer 50
ownership 50
parties 50
partly 50
photographed 50
play@@ 50
primarily 50
relations 50
replicate 50
score 50
sea@@ 50
shine 50
shops 50
simul@@ 50
sisters 50
spi@@ 50
spo@@ 50
spr@@ 50
suc@@ 50
suck 50
supported 50
surprisingly 50
tap@@ 50
tendency 50
tiles 50
transparent 50
trucks 50
ums 50
vegetables 50
ville 50
0.@@ 49
29 49
6,000 49
Ac@@ 49
February 49
J 49
My@@ 49
None 49
Obviously 49
Whereas 49
agent 49
airport 49
aring 49
arm@@ 49
attract 49
ban@@ 49
bit@@ 49
blame 49
buried 49
category 49
chairs 49
chapter 49
cles 49
collaborative 49
command 49
confident 49
consistent 49
constitu@@ 49
det@@ 49
entering 49
enthusias@@ 49
errors 49
fit@@ 49
generating 49
geometry 49
gging 49
globally 49
grandchildren 49
ham 49
hill 49
impacts 49
ish@@ 49
itation 49
lawyer 49
luck 49
ly@@ 49
mal 49
mem@@ 49
memories 49
naked 49
new@@ 49
nuts 49
ome 49
operations 49
pitch 49
regime 49
reli@@ 49
reliable 49
ries 49
run@@ 49
sciences 49
senior 49
shadow 49
shifting 49
shooting 49
silent 49
subtle 49
summar@@ 49
suspect 49
targets 49
tends 49
threw 49
throwing 49
toilet 49
tom@@ 49
transparency 49
troops 49
tsunami 49
tumors 49
unlikely 49
val@@ 49
via 49
viewer 49
washing 49
worms 49
1960 48
40,000 48
Cor@@ 48
Feynman 48
Mark 48
Monterey 48
St@@ 48
Was 48
accidents 48
adapted 48
affects 48
altitude 48
astonishing 48
ath@@ 48
banks 48
bee@@ 48
berg 48
blown 48
broad 48
cash 48
charity 48
client 48
colored 48
compl@@ 48
court 48
cro@@ 48
curves 48
cy@@ 48
danc@@ 48
demographic 48
difficulty 48
dig 48
elephant 48
elling 48
eth@@ 48
fisher@@ 48
flexible 48
fro@@ 48
glamour 48
gonna 48
icon 48
ili@@ 48
iness 48
infl@@ 48
investig@@ 48
kers 48
mag@@ 48
masses 48
mode 48
ners 48
neuroscience 48
ologist 48
ond 48
painted 48
pe 48
photographer 48
portion 48
pum@@ 48
rarely 48
reduced 48
reefs 48
responses 48
rings 48
rolling 48
sely 48
sible 48
spec@@ 48
stat@@ 48
stroke 48
tips 48
transfer 48
transplant 48
uncle 48
ut@@ 48
wandering 48
winds 48
Cal@@ 47
Christian 47
Coke 47
Delhi 47
Frank 47
Friday 47
Islands 47
Pen@@ 47
Put 47
Russian 47
Shanghai 47
Sir 47
Spanish 47
Vietnam 47
accur@@ 47
acid 47
agency 47
ais@@ 47
ambigu@@ 47
analyze 47
arrive 47
attitude 47
audio 47
ben@@ 47
beneath 47
besides 47
boards 47
bottles 47
brush 47
bulb 47
ceiling 47
chromosome 47
clay 47
clothing 47
club 47
detec@@ 47
dictionary 47
dings 47
discovering 47
domain 47
dough 47
ecosystems 47
eg@@ 47
egg 47
eline 47
empowered 47
expansion 47
explains 47
foot@@ 47
fragile 47
gaps 47
guide 47
hom@@ 47
honey 47
hop@@ 47
interest@@ 47
ki 47
labs 47
lake 47
lawyers 47
low@@ 47
mad 47
mol@@ 47
motivation 47
myth 47
offices 47
pole 47
precious 47
printed 47
printer 47
puzzles 47
realizing 47
recipe 47
recover 47
resistant 47
sad@@ 47
salt 47
scores 47
searching 47
sentences 47
simultaneously 47
smallest 47
spar@@ 47
subway 47
suggesting 47
tant 47
tar@@ 47
threshold 47
ticket 47
treatments 47
tter 47
tures 47
vis@@ 47
welcome 47
14@@ 46
85 46
Bel@@ 46
Dar@@ 46
Jack 46
Koran 46
May@@ 46
PM 46
Pal@@ 46
Saharan 46
Sal@@ 46
Santa 46
Sar@@ 46
Ti@@ 46
Within 46
Zero 46
administration 46
adopted 46
alists 46
ann@@ 46
arily 46
atomic 46
ax@@ 46
bored 46
cats 46
cheese 46
conserv@@ 46
consider@@ 46
cosmic 46
coun@@ 46
crucial 46
dear 46
detailed 46
disap@@ 46
dozens 46
drawings 46
enabled 46
ening 46
essed 46
extinction 46
failing 46
flows 46
formation 46
formula 46
fortune 46
fraction 46
geograph@@ 46
gradually 46
guns 46
hall@@ 46
historic 46
hydr@@ 46
ision 46
kills 46
lement 46
lin 46
mechanisms 46
men@@ 46
ment@@ 46
merely 46
mic 46
mines 46
odds 46
ony 46
ori@@ 46
oul@@ 46
pain@@ 46
pink 46
pleasant 46
pointing 46
pollin@@ 46
prefer@@ 46
proper 46
rapid 46
react 46
realistic 46
ree 46
refer 46
refriger@@ 46
relation 46
review 46
richer 46
san@@ 46
scre@@ 46
sculp@@ 46
seas@@ 46
shelter 46
silly 46
sixth 46
sk@@ 46
soldier 46
storytelling 46
struggling 46
syndrome 46
terribly 46
thir@@ 46
translated 46
transport 46
trash 46
tural 46
universities 46
woods 46
12@@ 45
194@@ 45
Bal@@ 45
Bay 45
Bor@@ 45
CEO 45
Except 45
Italian 45
Je@@ 45
Jim 45
Ph.D. 45
Pi@@ 45
Queen 45
Ray 45
River 45
Tony 45
Tur@@ 45
Without 45
abuse 45
adventure 45
aled 45
answered 45
aps 45
articles 45
assumptions 45
belong 45
branch 45
bubbles 45
burden 45
ck 45
clean@@ 45
commit@@ 45
continuous 45
craft 45
curriculum 45
database 45
demonstration 45
devil 45
direc@@ 45
disorder 45
download 45
drops 45
du 45
ene 45
eness 45
entrepreneur 45
extend 45
external 45
gesture 45
grad@@ 45
gro@@ 45
habit 45
hum@@ 45
imaging 45
inevitable 45
ink@@ 45
innocent 45
int@@ 45
integration 45
interpretation 45
ires 45
islands 45
jellyfish 45
ju@@ 45
liv@@ 45
logo 45
mean@@ 45
millenni@@ 45
mm 45
na 45
nat@@ 45
neg@@ 45
nerves 45
od@@ 45
opera 45
pet 45
poster 45
queen 45
ra 45
rat 45
rebuild 45
refer@@ 45
reported 45
route 45
rush 45
seeking 45
sequences 45
sing@@ 45
span 45
sports 45
stability 45
steal 45
sted 45
stones 45
strike 45
talent 45
tat@@ 45
temp@@ 45
tend@@ 45
tubes 45
van@@ 45
ven@@ 45
warning 45
witness 45
30@@ 44
AK 44
Act 44
Adam 44
Amazon 44
April 44
Bob 44
College 44
Force 44
Greek 44
Sel@@ 44
Things 44
Up 44
accounts 44
adi@@ 44
aint 44
ang 44
antibiotics 44
arch@@ 44
attend@@ 44
author 44
ball@@ 44
bend 44
bin 44
bound 44
canopy 44
capabilities 44
cellular 44
channels 44
che 44
chips 44
choosing 44
coat 44
comment 44
comparison 44
confused 44
cotton 44
cricket 44
custom@@ 44
den 44
deserve 44
detection 44
diagnosed 44
domin@@ 44
dressed 44
ecology 44
established 44
estimated 44
eter 44
exception 44
execu@@ 44
expedition 44
fastest 44
federal 44
fir@@ 44
flowing 44
form@@ 44
fu@@ 44
garage 44
hired 44
humanitarian 44
hunting 44
ices 44
identified 44
ign@@ 44
initially 44
kid@@ 44
kindness 44
lac@@ 44
lit 44
loaded 44
mathematicians 44
mature 44
miserable 44
motor@@ 44
nd 44
night@@ 44
occurs 44
ound 44
pack@@ 44
passes 44
planes 44
planetary 44
poet 44
pretend 44
prevention 44
rap@@ 44
reform 44
restore 44
righ@@ 44
rol@@ 44
scanning 44
scenario 44
shelf 44
signature 44
sin@@ 44
smarter 44
sses 44
storage 44
syn@@ 44
tal@@ 44
tar 44
teenagers 44
trajectory 44
tru@@ 44
ues 44
ur 44
urg@@ 44
urge 44
vari@@ 44
vessel 44
wash 44
widely 44
wider 44
200,000 43
2002 43
20s 43
Anybody 43
Back 43
Bre@@ 43
Design 43
Ford 43
Fr@@ 43
Hong 43
Johnson 43
Ki@@ 43
Lab 43
Peter 43
She@@ 43
Sp@@ 43
Ste@@ 43
Stop 43
System 43
TEDTalk 43
Who@@ 43
academ@@ 43
aching 43
agreement 43
amp@@ 43
au 43
aun@@ 43
autonom@@ 43
ax 43
ayed 43
book@@ 43
bug 43
ca 43
cart 43
catching 43
chances 43
civilizations 43
collapsed 43
communic@@ 43
connects 43
continents 43
convert 43
dilemma 43
discipline 43
ecological 43
elections 43
electro@@ 43
elementary 43
elite 43
ened 43
equations 43
ession 43
experiment@@ 43
expertise 43
farming 43
firm 43
fla@@ 43
flour@@ 43
fri@@ 43
fronti@@ 43
fruit 43
fusion 43
generous 43
healthier 43
homework 43
hypothesis 43
improving 43
infection 43
influenced 43
initiative 43
injury 43
jihad 43
ke@@ 43
mam@@ 43
marry 43
meg@@ 43
mining 43
nutrients 43
obstacles 43
openness 43
physicists 43
pie 43
pres@@ 43
proportion 43
ra@@ 43
ran@@ 43
reminded 43
replaced 43
resilience 43
rhythm 43
sand@@ 43
scope 43
sensation 43
silver 43
smoking 43
spher@@ 43
sport 43
squar@@ 43
staying 43
suffered 43
suggested 43
thro@@ 43
til@@ 43
toes 43
unhappy 43
weigh@@ 43
wires 43
with@@ 43
yo@@ 43
youth 43
33 42
AT@@ 42
Air 42
Air@@ 42
Arabic 42
Cambodi@@ 42
Council 42
Cro@@ 42
December 42
Du@@ 42
Fe@@ 42
Fu@@ 42
Ger@@ 42
Si@@ 42
So@@ 42
The@@ 42
Ven@@ 42
Wait 42
Whatever 42
affecting 42
algorithm 42
alty 42
approaching 42
array 42
assumption 42
autonomous 42
bil@@ 42
branches 42
camps 42
cancers 42
carri@@ 42
casu@@ 42
chromosomes 42
competi@@ 42
cool@@ 42
correctly 42
deaf 42
deals 42
degrad@@ 42
dominated 42
drivers 42
dumb 42
ef 42
enables 42
ep@@ 42
essence 42
ethnic 42
facilities 42
failures 42
floo@@ 42
forgot 42
gods 42
handed 42
hoo@@ 42
hyper@@ 42
ica 42
illustr@@ 42
impression 42
incentive 42
interior 42
isolated 42
iss@@ 42
kick 42
laptops 42
leg@@ 42
li 42
liff 42
listened 42
lo 42
machinery 42
mapping 42
marks 42
mesh 42
minimum 42
mysterious 42
newspapers 42
ongoing 42
package 42
partnership 42
peaceful 42
performed 42
pies 42
pling 42
plu@@ 42
prediction 42
prepare 42
preserve 42
ption 42
purposes 42
remembered 42
reminds 42
sec@@ 42
separ@@ 42
shots 42
spinning 42
stretch 42
suspended 42
tations 42
teen@@ 42
tra@@ 42
trace 42
tune 42
ulate 42
van 42
watts 42
wealthy 42
wheat 42
15@@ 41
1960s 41
55 41
Abraham 41
BC 41
Ben 41
Black 41
Can@@ 41
Greenland 41
Love 41
Probably 41
Talk 41
analogy 41
ank 41
antenn@@ 41
appearance 41
approaches 41
arian 41
assignment 41
attractive 41
audiences 41
beating 41
beautifully 41
bia 41
bio 41
boats 41
burned 41
caring 41
closest 41
clue 41
colonies 41
compelling 41
compet@@ 41
concert 41
conservative 41
construct 41
cont@@ 41
convenient 41
cosmo@@ 41
cratic 41
criminal 41
cuts 41
cylinder 41
damn 41
dated 41
defining 41
delivery 41
dialogue 41
digit 41
distr@@ 41
drew 41
drum 41
educate 41
ego 41
electron 41
ena 41
ere 41
experiencing 41
fancy 41
flash@@ 41
folds 41
freely 41
funds 41
good@@ 41
hard@@ 41
highway 41
household 41
ignored 41
insul@@ 41
invested 41
judgment 41
kin 41
laughing 41
law@@ 41
liberal 41
ligh@@ 41
limitations 41
loan 41
log 41
lowest 41
lungs 41
manual 41
marketplace 41
mel@@ 41
microbial 41
miracle 41
motiv@@ 41
negoti@@ 41
nesses 41
nic@@ 41
occasionally 41
orchestra 41
participation 41
passive 41
penguin 41
peoples 41
phenomena 41
plain 41
plastics 41
potent 41
prisoners 41
priv@@ 41
probe 41
profoundly 41
proph@@ 41
protecting 41
purchas@@ 41
rab@@ 41
reasonable 41
relief 41
remained 41
remaining 41
retina 41
retro@@ 41
returned 41
rubber 41
satis@@ 41
sau@@ 41
ser 41
sheets 41
shoe 41
significantly 41
skeletal 41
stly 41
strings 41
substance 41
suits 41
sustain 41
tation 41
ton@@ 41
tour@@ 41
tragic 41
traits 41
unable 41
vaccines 41
volunteer 41
wrap 41
zones 41
1990 40
Am 40
Bri@@ 40
Chile 40
Cre@@ 40
Fif@@ 40
Gates 40
Grand 40
Henry 40
Ladies 40
Liber@@ 40
Moon 40
NGOs 40
Nin@@ 40
Redwood 40
Southern 40
Sunday 40
Virginia 40
Watch 40
Way 40
acceptable 40
additional 40
analy@@ 40
arr@@ 40
arri@@ 40
aus@@ 40
authentic 40
ba@@ 40
bak@@ 40
bias@@ 40
bles 40
blowing 40
builds 40
cake 40
calories 40
campus 40
cap 40
capitalism 40
column 40
commerci@@ 40
commit 40
communicating 40
compete 40
concentration 40
contempl@@ 40
counting 40
customer 40
cyber@@ 40
dam@@ 40
dating 40
debt 40
dependence 40
describes 40
despair 40
diameter 40
distances 40
distinct 40
earliest 40
ek 40
emp@@ 40
ety 40
ex 40
excellent 40
gases 40
gathered 40
headlines 40
heart@@ 40
hop 40
horizon 40
illing 40
inging 40
instant 40
intensity 40
interviewed 40
jet 40
lar@@ 40
leaf 40
locally 40
locations 40
loves 40
luc@@ 40
magnitude 40
meals 40
migr@@ 40
motivated 40
narratives 40
neo@@ 40
ord 40
patent 40
perceived 40
pho@@ 40
pills 40
polic@@ 40
prevent@@ 40
procedure 40
profits 40
proto@@ 40
pursuit 40
quest 40
qui@@ 40
ration@@ 40
reproduce 40
sensor 40
sers 40
son@@ 40
soup 40
spe@@ 40
stored 40
surgeries 40
synchron@@ 40
tail@@ 40
tel@@ 40
tives 40
twe@@ 40
ty@@ 40
upside 40
ushing 40
venture 40
voting 40
wore 40
47 39
Age 39
Alzheim@@ 39
Anyone 39
Aristotle 39
Bab@@ 39
Both 39
Hall 39
IM@@ 39
Indians 39
Indus 39
Its 39
La 39
Lincoln 39
Ser@@ 39
Shakespeare 39
Sil@@ 39
Smith 39
Someone 39
Tanzania 39
Titan 39
abundance 39
accoun@@ 39
ace@@ 39
anced 39
art@@ 39
assemble 39
batteries 39
believing 39
bill 39
bra 39
calculations 39
cam@@ 39
carpet 39
cartoons 39
challenged 39
clic@@ 39
colon@@ 39
comedy 39
credible 39
damaged 39
decrease 39
demands 39
denti@@ 39
dering 39
destiny 39
determines 39
donor 39
downtown 39
elec@@ 39
enjoyed 39
extension 39
extraordinarily 39
favorites 39
females 39
finger@@ 39
foundations 39
frightening 39
frustrated 39
genomes 39
grasp 39
guarantee 39
hardest 39
hat 39
hear@@ 39
helicopter 39
helium 39
hierarchy 39
included 39
infections 39
item 39
izes 39
juice 39
kne@@ 39
landscapes 39
lean 39
lessly 39
lion 39
manipulate 39
matic 39
memor@@ 39
ore@@ 39
ounce 39
overwhelmed 39
panels 39
pause 39
pil@@ 39
posi@@ 39
preparing 39
professionals 39
proposed 39
proven 39
real@@ 39
recep@@ 39
recycling 39
reducing 39
regard 39
reveal 39
rus 39
scanner 39
sel@@ 39
selfish 39
shocked 39
simil@@ 39
sions 39
sized 39
spill 39
spreads 39
staring 39
stepped 39
stri@@ 39
strip 39
supplies 39
synthesis 39
tle 39
tower 39
trains 39
tricks 39
trigger 39
tro 39
ubiquitous 39
unprecedented 39
val 39
valley 39
vibr@@ 39
visualization 39
waters 39
1950s 38
48 38
60,000 38
Alexander 38
Bangladesh 38
Ber@@ 38
Cap@@ 38
Carol@@ 38
Clinton 38
Fi@@ 38
Ireland 38
JA 38
Kong 38
MA 38
March 38
McDonal@@ 38
Mean@@ 38
Mother 38
Rec@@ 38
Scott 38
Spain 38
Star 38
Z 38
achievement 38
actively 38
aded 38
ado 38
aesthetic 38
alistic 38
alizing 38
annual 38
anxiety 38
armed 38
asks 38
ather 38
ause 38
authors 38
autism 38
bacterial 38
barrel 38
beaten 38
biomass 38
blue@@ 38
boom@@ 38
boss 38
boun@@ 38
breakfast 38
bridges 38
burst 38
cand@@ 38
cap@@ 38
cellphone 38
classical 38
coli 38
collec@@ 38
comic 38
continu@@ 38
continuing 38
contributed 38
courses 38
crop 38
cryst@@ 38
dece@@ 38
decor@@ 38
differenti@@ 38
documents 38
emergence 38
enemies 38
eted 38
evol@@ 38
exp@@ 38
expressions 38
farms 38
fer 38
flash 38
fol@@ 38
folded 38
gif@@ 38
glue 38
grateful 38
historically 38
ile 38
illumin@@ 38
intr@@ 38
iti@@ 38
keepers 38
kins 38
luxury 38
magnificent 38
mainstream 38
measurements 38
meme 38
mill 38
mobility 38
motors 38
nan@@ 38
nano@@ 38
nearest 38
neutral 38
occurring 38
offering 38
peri@@ 38
phenomenal 38
pipe 38
poison 38
port@@ 38
posted 38
propose 38
proposition 38
prostate 38
random@@ 38
ratio 38
readers 38
recession 38
rein@@ 38
relax@@ 38
reserves 38
rough@@ 38
rowing 38
sake 38
scal@@ 38
search@@ 38
seemingly 38
selected 38
sen@@ 38
sensing 38
sh 38
significance 38
someday 38
spl@@ 38
stadi@@ 38
stays 38
structural 38
succeeded 38
supermarket 38
swal@@ 38
thy 38
ung 38
ups 38
versions 38
viol@@ 38
visions 38
wildlife 38
350 37
72 37
AM 37
Although 37
BG 37
Being 37
Bell 37
Berlin 37
Copenhagen 37
Cyrus 37
Econom@@ 37
Gene 37
Geographic 37
Icel@@ 37
July 37
Larry 37
Little 37
Mandela 37
Norden 37
Open 37
Security 37
Silicon 37
Square 37
Steven 37
Suddenly 37
Tim 37
Wal@@ 37
ables 37
absence 37
adoption 37
agencies 37
aim 37
aj@@ 37
amed 37
ange 37
angiogenesis 37
anticip@@ 37
approved 37
arter@@ 37
atively 37
automobile 37
ba 37
badly 37
banking 37
beg@@ 37
bet@@ 37
biologist 37
breakthrough 37
campaig@@ 37
cartoon@@ 37
citizen 37
clubs 37
comics 37
commodity 37
competitive 37
completed 37
concentrated 37
concerns 37
connectivity 37
corals 37
cord 37
crew 37
crows 37
diarrhe@@ 37
district 37
diver@@ 37
dolphins 37
drag@@ 37
duck 37
endangered 37
engines 37
ensure 37
estimates 37
evapor@@ 37
explored 37
exposure 37
faul@@ 37
fence 37
figh@@ 37
firing 37
folding 37
forbi@@ 37
glo@@ 37
gras 37
halfway 37
inevitably 37
insights 37
installation 37
instantly 37
institutional 37
internet 37
interpret 37
investing 37
irs 37
jazz 37
ken 37
landing 37
las@@ 37
leap 37
lev@@ 37
livestock 37
loads 37
lottery 37
loving 37
measures 37
mind@@ 37
mindset 37
namely 37
neighborhoods 37
nitrogen 37
novel@@ 37
origins 37
pairs 37
palm 37
panic 37
participants 37
picks 37
pione@@ 37
plates 37
plo@@ 37
pockets 37
portrait 37
pose 37
pray 37
pursue 37
recur@@ 37
refugee 37
restric@@ 37
ridge 37
rough 37
rub@@ 37
sale 37
scaling 37
scenes 37
school@@ 37
sexy 37
ski 37
sle@@ 37
slums 37
straightforward 37
streams 37
strongly 37
surgeons 37
switched 37
tab@@ 37
tackle 37
tags 37
tan 37
technically 37
telescopes 37
tongue 37
transforming 37
vice 37
victim 37
voted 37
welfare 37
wound 37
yard 37
2.@@ 36
Almost 36
Arab@@ 36
August 36
Brian 36
Coast 36
Den@@ 36
El 36
Everest 36
Gandhi 36
Ge@@ 36
Global 36
Iranian 36
L.A. 36
Lord 36
TEDTalks 36
Technology 36
Trade 36
Wi@@ 36
acc@@ 36
accomplished 36
aggressive 36
ala 36
applying 36
arguments 36
ata 36
ation@@ 36
atom 36
azz@@ 36
backy@@ 36
bang 36
barrier 36
bers 36
bert 36
binary 36
blog@@ 36
bru@@ 36
camel 36
carries 36
cheat 36
chil@@ 36
collectively 36
competing 36
concentrate 36
copies 36
coverage 36
cus 36
deployed 36
dered 36
detector 36
disas@@ 36
encouraging 36
estate 36
evolving 36
eyed 36
foie 36
fought 36
fur 36
gallery 36
gear 36
gli@@ 36
guilty 36
healing 36
honestly 36
hood 36
hook 36
horses 36
hypo@@ 36
icks 36
improved 36
initi@@ 36
integrate 36
interpre@@ 36
interventions 36
interviews 36
iron@@ 36
lifesp@@ 36
lists 36
loo@@ 36
magici@@ 36
maintenance 36
managers 36
mand@@ 36
mes 36
minus 36
mit@@ 36
mutation 36
objec@@ 36
objective 36
ounc@@ 36
persis@@ 36
plan@@ 36
pos@@ 36
pot 36
practices 36
prisoner 36
prosperity 36
protec@@ 36
quit 36
raped 36
reactions 36
recommend 36
regardless 36
ren 36
replac@@ 36
rewards 36
ritual 36
rituals 36
rope 36
rotate 36
safer 36
scratch 36
sections 36
smiling 36
sof@@ 36
ss@@ 36
stereo@@ 36
storytel@@ 36
summit 36
supporting 36
surrounding 36
survived 36
symmetries 36
tagged 36
tain@@ 36
temperatures 36
terrific 36
texture 36
threats 36
tolerance 36
trading 36
universes 36
ush@@ 36
utterly 36
vary 36
virtu@@ 36
web@@ 36
wedding 36
wel@@ 36
western 36
wit@@ 36
woke 36
worrying 36
00,000 35
17th 35
2020 35
Cho@@ 35
Doc@@ 35
Egyptian 35
Gen@@ 35
Half 35
Juli@@ 35
Keep 35
Mary 35
Mi@@ 35
Newton 35
Nigerian 35
PC 35
Pop@@ 35
Pre@@ 35
Professor 35
SETI 35
Seattle 35
Swe@@ 35
Swiss 35
Through 35
Until 35
Zealand 35
accelerating 35
activated 35
advances 35
ailed 35
alle@@ 35
aluminum 35
anesthes@@ 35
ano 35
apples 35
aren@@ 35
astic 35
bias 35
bite 35
bled 35
brands 35
broader 35
calcul@@ 35
caps 35
cataly@@ 35
charged 35
claims 35
clear@@ 35
cocaine 35
computational 35
confront 35
contributing 35
cooling 35
cows 35
cream 35
deck 35
distrac@@ 35
division 35
dolphin 35
dopamine 35
dragon@@ 35
economist 35
electrons 35
enjoying 35
fa@@ 35
fibers 35
file 35
fire@@ 35
follows 35
frequently 35
fresh@@ 35
heading 35
helpful 35
hes@@ 35
honored 35
horri@@ 35
hostile 35
iles 35
illa 35
imagin@@ 35
impressive 35
incidence 35
independence 35
infant 35
ino@@ 35
inv@@ 35
investors 35
journalists 35
lamp 35
lav@@ 35
lec@@ 35
lor 35
lowing 35
mai@@ 35
mall 35
mentor 35
migration 35
mimic 35
musician 35
mycelium 35
navigate 35
nearby 35
need@@ 35
nowadays 35
offers 35
ow@@ 35
packed 35
pad 35
pan 35
pet@@ 35
philanthropy 35
pit 35
plankton 35
playful 35
pour 35
predat@@ 35
predators 35
prey 35
prise 35
psycho@@ 35
publish 35
pulls 35
radically 35
reck@@ 35
reson@@ 35
rock@@ 35
second@@ 35
sectors 35
selec@@ 35
selves 35
sizes 35
skeleton 35
sni@@ 35
strands 35
sulfide 35
tables 35
tes@@ 35
themes 35
therapies 35
thus 35
tile 35
tis 35
top@@ 35
tough@@ 35
trust@@ 35
ulation 35
urban@@ 35
useless 35
variations 35
vegetable 35
weigh 35
wooden 35
yourselves 35
36 34
37 34
Afghan 34
Asian 34
Benjamin 34
Brown 34
Cam@@ 34
Char@@ 34
Church 34
County 34
Court 34
GPS 34
Hawaii 34
Joshua 34
Library 34
Medic@@ 34
Mike 34
Nelson 34
New@@ 34
Q@@ 34
St. 34
W 34
Wright 34
adap@@ 34
adjust 34
administr@@ 34
ae 34
airs 34
alcohol 34
amazingly 34
ape 34
arguing 34
authorities 34
bac@@ 34
bic 34
blank 34
bold 34
boundary 34
calm 34
candidate 34
classrooms 34
cleaning 34
composition 34
con 34
condoms 34
confir@@ 34
constraints 34
cooperative 34
copied 34
corners 34
crap 34
crimin@@ 34
cups 34
dawn 34
delicious 34
disagree 34
disorders 34
dispos@@ 34
doubled 34
drag 34
dropping 34
eled 34
endeav@@ 34
eth 34
excitement 34
exploit 34
factories 34
fallen 34
fear@@ 34
formul@@ 34
frog 34
geo@@ 34
graphs 34
green@@ 34
hang@@ 34
harmful 34
haz@@ 34
histori@@ 34
ich 34
icious 34
icking 34
ignor@@ 34
illustrate 34
infer@@ 34
insane 34
items 34
kidney 34
king@@ 34
lab@@ 34
laugh@@ 34
less@@ 34
loses 34
mates 34
maximum 34
melt 34
melting 34
metabolism 34
monitoring 34
mutations 34
nation@@ 34
neck 34
neutr@@ 34
occasion 34
of@@ 34
orders 34
parachute 34
paraly@@ 34
pharmaceutical 34
previously 34
privileged 34
psychologists 34
publishing 34
pul@@ 34
pulse 34
reaches 34
rem@@ 34
repeated 34
researcher 34
retirement 34
rolled 34
sacrifice 34
safely 34
satellites 34
scans 34
seal 34
sends 34
shifts 34
shy 34
simplest 34
sir 34
spray 34
stack 34
steam 34
stor@@ 34
strategic 34
suff@@ 34
tax@@ 34
teaches 34
technici@@ 34
teen 34
terrain 34
territory 34
tful 34
thers 34
touching 34
trad@@ 34
transmit@@ 34
tunnel 34
umb@@ 34
veget@@ 34
wage 34
yield 34
1,500 33
1999 33
Bir@@ 33
Catholic 33
Christians 33
Democr@@ 33
Don@@ 33
Gal@@ 33
Hun@@ 33
Indones@@ 33
Kevin 33
Kosovo 33
Ku@@ 33
LED 33
Lego 33
Mumbai 33
Ni@@ 33
Res@@ 33
Ric@@ 33
Robo@@ 33
Stephen 33
Ter@@ 33
Tokyo 33
Wil@@ 33
Yemen 33
a.m. 33
agers 33
alarm 33
algae 33
alo@@ 33
ama 33
anatomy 33
ancestor 33
anim@@ 33
arrested 33
assu@@ 33
attacked 33
attracted 33
author@@ 33
bes 33
bills 33
breeding 33
broad@@ 33
bush 33
but@@ 33
butter@@ 33
cardiac 33
codes 33
commun@@ 33
comparing 33
conducted 33
consumed 33
contribution 33
controversial 33
convey 33
corresponds 33
cus@@ 33
demonstr@@ 33
destroying 33
dged 33
dose 33
econom@@ 33
edi@@ 33
elimin@@ 33
eliminate 33
enth 33
entry 33
ester 33
ever@@ 33
fare 33
flavor 33
flexi@@ 33
gen 33
graph@@ 33
heavily 33
homeless 33
hopes 33
hormone 33
iPod 33
ingredient 33
intensive 33
inventor 33
involve 33
joy@@ 33
junk 33
knife 33
label 33
lifted 33
literacy 33
logist 33
loy@@ 33
lum@@ 33
lun@@ 33
mac@@ 33
manager 33
master@@ 33
mathematician 33
matri@@ 33
mayor 33
missions 33
mushroom 33
nam@@ 33
nec@@ 33
obese 33
opinions 33
optical 33
paradox 33
particip@@ 33
polar@@ 33
pollu@@ 33
pressed 33
pride 33
profile 33
programmed 33
prop@@ 33
psych@@ 33
py 33
quarters 33
rape 33
recru@@ 33
reflected 33
reflection 33
represent@@ 33
rul@@ 33
scro@@ 33
seals 33
secrets 33
shed 33
simpler 33
simulate 33
slower 33
spell 33
stac@@ 33
staircase 33
striking 33
sty 33
swit@@ 33
tan@@ 33
tee 33
tel 33
temporary 33
theoretical 33
thor@@ 33
thr@@ 33
thwest 33
towns 33
transmitted 33
vent 33
visually 33
volcan@@ 33
wat@@ 33
whi@@ 33
whis@@ 33
wil@@ 33
wishes 33
worm 33
1998 32
Ab@@ 32
Atlant@@ 32
Cape 32
Cy@@ 32
Dad 32
Galapagos 32
Hol@@ 32
Hon@@ 32
Joe 32
Kids 32
Lake 32
Mama 32
Milo 32
Neanderthals 32
Olympics 32
Phoenix 32
Play 32
Pri@@ 32
Pu@@ 32
Qaeda 32
Seven 32
Singap@@ 32
Still 32
acquire 32
acquired 32
activists 32
agents 32
aliens 32
aling 32
ambi@@ 32
angles 32
antic 32
arti@@ 32
ato@@ 32
authenti@@ 32
bacterium 32
band@@ 32
baseball 32
blo@@ 32
broc@@ 32
burg 32
calend@@ 32
camp@@ 32
caves 32
centi@@ 32
certain@@ 32
chamber 32
cher@@ 32
civic 32
continuously 32
contrary 32
converted 32
corporations 32
correc@@ 32
counted 32
crimes 32
currency 32
decent 32
deepest 32
demonstrated 32
desktop 32
dest 32
diagnosis 32
diplom@@ 32
disappear@@ 32
dom@@ 32
drif@@ 32
edit@@ 32
eighth 32
elaborate 32
elegant 32
empowering 32
ender 32
equals 32
eve 32
examin@@ 32
expanded 32
expecting 32
expressed 32
farther 32
fever 32
fic@@ 32
fores@@ 32
girlfriend 32
gorgeous 32
grades 32
grams 32
gross 32
grounds 32
habits 32
harmony 32
headquarters 32
heigh@@ 32
hopeful 32
illed 32
incident 32
ino 32
introduction 32
iring 32
itch@@ 32
janit@@ 32
joint 32
lanes 32
lik@@ 32
logists 32
marg@@ 32
market@@ 32
matched 32
melo@@ 32
mixing 32
multiply 32
mushrooms 32
nights 32
officer 32
ok@@ 32
ols 32
oriented 32
parks 32
paste 32
pays 32
pel@@ 32
pencil 32
physi@@ 32
physicians 32
pill 32
planned 32
platforms 32
pleas@@ 32
premise 32
profession 32
que@@ 32
randomly 32
realization 32
reas@@ 32
residents 32
revealed 32
rou@@ 32
roun@@ 32
scaled 32
schizophren@@ 32
segment 32
separation 32
sequencing 32
shining 32
shipping 32
shoulders 32
sink 32
slav@@ 32
soccer 32
socially 32
sooner 32
spare 32
spiral 32
ster@@ 32
sto@@ 32
stolen 32
stomach 32
strangers 32
stro@@ 32
surgical 32
symmetrical 32
technolog@@ 32
temple 32
temporal 32
terrifying 32
thi@@ 32
threatened 32
thrilled 32
thumb 32
tivity 32
torture 32
transcend@@ 32
transformative 32
translator 32
transmit 32
triangle 32
trou@@ 32
tuned 32
ultraviolet 32
unfortunate 32
view@@ 32
virtue 32
wai@@ 32
wells 32
win@@ 32
wrapped 32
yer 32
zer@@ 32
13@@ 31
1950 31
2,@@ 31
25,000 31
Academy 31
Ann@@ 31
Argent@@ 31
BJ 31
Brooklyn 31
CD@@ 31
Cri@@ 31
FDA 31
Gi@@ 31
Gro@@ 31
Hum@@ 31
Jones 31
Jupiter 31
Ke@@ 31
Laden 31
Lau@@ 31
Mad@@ 31
Media 31
Milky 31
Min@@ 31
Naz@@ 31
Netherlands 31
PR 31
Palestinian 31
Sylvia 31
USA 31
WK 31
Wh@@ 31
Whenever 31
abundant 31
ac 31
aces 31
addiction 31
amazed 31
arry 31
bank@@ 31
beetle 31
behalf 31
bell 31
belongs 31
bes@@ 31
blew 31
break@@ 31
breath@@ 31
brilli@@ 31
calculus 31
cares 31
circuits 31
climbed 31
coin 31
collap@@ 31
collision 31
compli@@ 31
congestion 31
consent 31
conveni@@ 31
cooper@@ 31
cracks 31
crude 31
cs 31
dding 31
denial 31
depriv@@ 31
destination 31
dirt 31
disgu@@ 31
dish@@ 31
disrup@@ 31
dives 31
documented 31
doub@@ 31
elu@@ 31
eman 31
employ@@ 31
encouraged 31
excuse 31
exponenti@@ 31
far@@ 31
fel@@ 31
formal 31
frontal 31
fulness 31
functioning 31
gasoline 31
ges 31
gestures 31
gor@@ 31
graduated 31
horizontal 31
horror 31
households 31
ial 31
iconic 31
ier 31
iest 31
iled 31
imit@@ 31
incident@@ 31
inding 31
insec@@ 31
installed 31
institu@@ 31
intended 31
investments 31
itting 31
ives 31
ki@@ 31
kicked 31
legislation 31
let@@ 31
lex@@ 31
lions 31
lobe 31
longevity 31
marrow 31
mentally 31
mess@@ 31
metals 31
millimeter 31
mobil@@ 31
mod@@ 31
modern@@ 31
mood 31
mud 31
native 31
observations 31
observe 31
observed 31
ome@@ 31
ous@@ 31
peculiar 31
ped@@ 31
periods 31
perpetu@@ 31
personalized 31
petro@@ 31
pin 31
poison@@ 31
politically 31
powder 31
praying 31
predic@@ 31
prevalence 31
pricing 31
projection 31
proposal 31
public@@ 31
recognizing 31
reproduction 31
reputation 31
requi@@ 31
reser@@ 31
responding 31
rivers 31
roofs 31
rotat@@ 31
scr@@ 31
scrip@@ 31
shore 31
sometime 31
spacecraft 31
spaghetti 31
speaks 31
specialized 31
spir@@ 31
systematically 31
tear 31
tight 31
tissues 31
trac@@ 31
treat@@ 31
trivial 31
tz 31
ultrasound 31
verbal 31
vert 31
viewing 31
vis 31
warmer 31
wet 31
wheelchair 31
witnessed 31
yeast 31
.C. 30
12,000 30
130 30
97 30
Alex 30
Buddha 30
Buil@@ 30
CA@@ 30
CT 30
Che@@ 30
Cold 30
Country 30
Craig 30
Daniel 30
Dec@@ 30
Disney 30
During 30
E.@@ 30
Em@@ 30
Es@@ 30
Fur@@ 30
I.@@ 30
IBM 30
Kennedy 30
Lewis 30
Mac@@ 30
Montana 30
Pan@@ 30
Pau@@ 30
Public 30
Red@@ 30
Simil@@ 30
Sur@@ 30
Teszler 30
Tor@@ 30
Tuesday 30
Turns 30
Vo@@ 30
Vol@@ 30
Watson 30
Whit@@ 30
adolescence 30
ailing 30
airline 30
aks 30
anthropolog@@ 30
appreciation 30
approached 30
approximately 30
asth@@ 30
astronomy 30
atic@@ 30
authoritarian 30
avoid@@ 30
awe 30
beam 30
beef 30
believes 30
belly 30
biologically 30
boy@@ 30
brain@@ 30
brave 30
buck@@ 30
budgets 30
cables 30
cardboard 30
cattle 30
cell@@ 30
cheating 30
chemotherapy 30
clinics 30
compar@@ 30
conduct 30
consul@@ 30
deciding 30
defend 30
dents 30
depic@@ 30
di 30
diplomacy 30
discre@@ 30
divor@@ 30
drunk 30
duty 30
eBay 30
electrodes 30
emails 30
enn@@ 30
enormously 30
enters 30
famine 30
fatal 30
feeds 30
fore 30
forec@@ 30
frequencies 30
frustration 30
ga 30
gained 30
glimpse 30
grabbed 30
gradu@@ 30
grant 30
graz@@ 30
grocery 30
harbor 30
hat@@ 30
hau@@ 30
hi 30
hydro@@ 30
imagining 30
implant 30
implic@@ 30
inform@@ 30
inher@@ 30
install 30
intact 30
intervention 30
intimacy 30
irony 30
ium 30
jewelry 30
journal 30
keys 30
kidn@@ 30
knock 30
lad@@ 30
laun@@ 30
lements 30
libraries 30
linking 30
local@@ 30
long@@ 30
loose 30
markers 30
medication 30
meditation 30
nap@@ 30
nodes 30
nutrition 30
octopus 30
offs 30
ong@@ 30
onto@@ 30
ough 30
outbreak 30
ov@@ 30
overwhelming 30
ph 30
poems 30
pregn@@ 30
pro 30
progression 30
protocell 30
psychologist 30
punishment 30
purple 30
recall 30
remo@@ 30
rescued 30
rhyth@@ 30
scheme 30
scrap@@ 30
scream 30
secular 30
sessions 30
sia 30
silicon 30
sne@@ 30
stopping 30
strand 30
stranger 30
textbook 30
thermal 30
titles 30
topics 30
tops 30
trail@@ 30
tu 30
tum@@ 30
uniform 30
upward 30
variable 30
verb 30
vision@@ 30
visu@@ 30
vitamin 30
warri@@ 30
worth@@ 30
yn 30
42 29
AR@@ 29
AS@@ 29
Absolu@@ 29
Albert 29
Arthur 29
Ben@@ 29
Buddhist 29
CD 29
Canyon 29
Charlie 29
Chris@@ 29
Eric 29
Fri@@ 29
Govern@@ 29
Ham@@ 29
Heart 29
Himalay@@ 29
Israeli 29
Johnny 29
Lu@@ 29
Men 29
Natasha 29
Norway 29
Organization 29
PC@@ 29
Part 29
Pittsburgh 29
Pres@@ 29
Pretty 29
Satur@@ 29
Saudi 29
Society 29
Star@@ 29
Trans@@ 29
Ver@@ 29
Young 29
abandoned 29
absorb 29
acknowledge 29
adul@@ 29
advoc@@ 29
ague 29
ail@@ 29
aked 29
analog 29
anniversary 29
anonymous 29
applies 29
ara 29
associate 29
baseline 29
basking 29
bath 29
blogging 29
bowl 29
calculating 29
characteristic 29
chase 29
checks 29
clusters 29
coher@@ 29
columns 29
comments 29
commodi@@ 29
compound 29
conce@@ 29
conductor 29
connectome 29
contained 29
coo@@ 29
cope 29
correlation 29
cousins 29
creator 29
crossed 29
delivering 29
derived 29
dial 29
digging 29
disabled 29
distingu@@ 29
donors 29
eas@@ 29
eld 29
emo@@ 29
emphasize 29
erup@@ 29
ests 29
eternal 29
exhau@@ 29
fantasy 29
fish@@ 29
foo@@ 29
ga@@ 29
gal@@ 29
gate 29
grandparents 29
guil@@ 29
hallucinations 29
heating 29
holy 29
home@@ 29
hormones 29
iceberg 29
identi@@ 29
implemented 29
integrity 29
intention 29
investigate 29
ions 29
jar 29
kiss 29
labeled 29
lear@@ 29
legitimate 29
leopard 29
lobby 29
mammo@@ 29
managing 29
mapped 29
medit@@ 29
messy 29
monsoon 29
noisy 29
occup@@ 29
oph@@ 29
orchestr@@ 29
ories 29
panel 29
passage 29
penetr@@ 29
pic@@ 29
pilo@@ 29
poles 29
politician 29
posed 29
pouring 29
presenting 29
pression 29
prior 29
profitable 29
programmers 29
projected 29
promoting 29
prosthetic 29
proved 29
receiving 29
rep@@ 29
richest 29
rows 29
sang 29
satisfaction 29
sever@@ 29
shelves 29
shorter 29
sketch 29
smells 29
smo@@ 29
spatial 29
spiders 29
submit 29
suitcase 29
tale 29
terrified 29
thesis 29
tomato 29
toss 29
trait 29
upright 29
va 29
vaccin@@ 29
vas@@ 29
vel@@ 29
veri@@ 29
vibrating 29
virg@@ 29
wa 29
warm@@ 29
weekend 29
wel 29
whol@@ 29
winner 29
yards 29
youngest 29
15,000 28
18th 28
190@@ 28
34 28
8,000 28
98 28
Amy 28
Bro@@ 28
Cancer 28
Elec@@ 28
Far@@ 28
Fer@@ 28
Green@@ 28
Hans 28
History 28
Hor@@ 28
Jeff 28
Jews 28
Jill 28
Light 28
Mel@@ 28
Natural 28
November 28
Olympic 28
Ori@@ 28
Rick 28
Ros@@ 28
Rover 28
Siber@@ 28
Sierra 28
Spe@@ 28
Sputnik 28
Str@@ 28
Switzer@@ 28
There@@ 28
Tre@@ 28
Tri@@ 28
Tro@@ 28
Try 28
William 28
accelerate 28
accumul@@ 28
ached 28
acres 28
adaptation 28
addic@@ 28
addressing 28
advanc@@ 28
align@@ 28
alties 28
analyzed 28
anci@@ 28
ani 28
arriv@@ 28
asle@@ 28
assumed 28
astronomers 28
attach 28
auc@@ 28
barriers 28
belong@@ 28
bi 28
bombsight 28
borrow 28
bother 28
brick 28
checking 28
chickens 28
cho 28
chop 28
circular 28
cle@@ 28
cluster 28
coll@@ 28
conceptual 28
conclu@@ 28
confer@@ 28
control@@ 28
cop@@ 28
copying 28
couch 28
counts 28
craw@@ 28
critically 28
crum@@ 28
dark@@ 28
democrati@@ 28
deni@@ 28
discussions 28
disk 28
doses 28
dresses 28
eck 28
eding 28
educ@@ 28
electromagnetic 28
elephants 28
elevator 28
empire 28
enco@@ 28
ene@@ 28
entrance 28
equilibrium 28
eradication 28
erg@@ 28
ern@@ 28
escal@@ 28
ethanol 28
exploded 28
facilit@@ 28
filling 28
fis@@ 28
float 28
format 28
foun@@ 28
freezing 28
ful@@ 28
fungi 28
gains 28
gal 28
generosity 28
gies 28
goat 28
grass@@ 28
gur@@ 28
han 28
hap@@ 28
hemisphere 28
humility 28
hybrid 28
immense 28
implement 28
inclu@@ 28
interfer@@ 28
interven@@ 28
jam 28
jaw 28
kit 28
lect 28
lectures 28
lever@@ 28
main@@ 28
mating 28
mechan@@ 28
momentum 28
mos@@ 28
nasty 28
negotiate 28
networking 28
nicely 28
nonprofit 28
nucle@@ 28
nut 28
nutri@@ 28
omb@@ 28
omics 28
operates 28
ordered 28
oric 28
parasite 28
parenting 28
parli@@ 28
peers 28
pick@@ 28
pill@@ 28
pleased 28
practicing 28
processor 28
producers 28
professors 28
promised 28
protest 28
rail@@ 28
regional 28
regularly 28
regulation 28
renewable 28
reserve 28
revenues 28
risky 28
robotics 28
rose 28
sail@@ 28
scream@@ 28
sensitivity 28
shocking 28
skin@@ 28
slope 28
squir@@ 28
sticking 28
strikes 28
surround 28
surviving 28
symbolic 28
tangible 28
taxes 28
teenage 28
textbooks 28
thereby 28
thick@@ 28
tick@@ 28
tification 28
tism 28
tool@@ 28
tooth 28
trips 28
tron@@ 28
uck@@ 28
unseen 28
utili@@ 28
vec@@ 28
visiting 28
websites 28
whoever 28
wning 28
1980 27
43 27
96 27
Berkeley 27
Bosnia 27
Brad 27
CO 27
Canadian 27
Civil 27
Coca 27
Cola 27
Cr@@ 27
Fal@@ 27
Fre@@ 27
Golden 27
Harry 27
Having 27
IM 27
Jay 27
Joseph 27
Leban@@ 27
Mac 27
Mach@@ 27
Mount 27
News 27
Pennsylvani@@ 27
Pic@@ 27
Pur@@ 27
Sam@@ 27
Stewart 27
Super@@ 27
Telescope 27
Ty@@ 27
Under@@ 27
Venezuel@@ 27
Water 27
accumulate 27
achieving 27
adopt 27
aggreg@@ 27
aliz@@ 27
alphabet 27
ambition 27
anes@@ 27
animate 27
anticipate 27
appeal 27
artifacts 27
ashed 27
assistance 27
attacking 27
bandwidth 27
basket 27
batt@@ 27
brand@@ 27
brow@@ 27
buff@@ 27
catastrophic 27
cathedr@@ 27
centr@@ 27
chains 27
chal@@ 27
cin@@ 27
circulation 27
climbers 27
clips 27
command@@ 27
common@@ 27
compounds 27
compromise 27
compute 27
conqu@@ 27
coordination 27
copper 27
dare 27
debris 27
del 27
deple@@ 27
depos@@ 27
desperate 27
dg@@ 27
dian 27
disappearing 27
distinction 27
distinguish 27
distor@@ 27
dol@@ 27
dre@@ 27
ease 27
entrepreneurial 27
epi@@ 27
establish@@ 27
exagger@@ 27
exam 27
filters 27
foam 27
footage 27
forcing 27
forgive 27
founding 27
frogs 27
fuse 27
gardens 27
gas@@ 27
generic 27
gig@@ 27
gravitational 27
guards 27
guit@@ 27
hairs 27
happiest 27
helmet 27
helpless 27
hometown 27
hot@@ 27
igh@@ 27
illusions 27
impressed 27
impulse 27
indicates 27
ined 27
infectious 27
injuries 27
irrational 27
ishes 27
jumps 27
laughed 27
lay@@ 27
les@@ 27
lied 27
light@@ 27
mask 27
mere 27
minority 27
mixture 27
naive 27
nom@@ 27
noneth@@ 27
nurture 27
observing 27
ography 27
origin@@ 27
outs 27
pass@@ 27
patch 27
philosopher 27
plas@@ 27
portraits 27
predicting 27
processed 27
prof@@ 27
propagand@@ 27
prostitu@@ 27
purchase 27
quick@@ 27
rail 27
reasoning 27
recor@@ 27
refuse 27
rejected 27
reporting 27
request 27
resolve 27
sch@@ 27
scor@@ 27
screens 27
sedi@@ 27
select 27
serves 27
seventh 27
sexually 27
shifted 27
shortly 27
spike 27
squid 27
stock@@ 27
substantial 27
succ@@ 27
supportive 27
tanks 27
terrorist 27
therap@@ 27
timing 27
transform@@ 27
transit 27
tress 27
trop@@ 27
trusted 27
truths 27
turb@@ 27
understands 27
util@@ 27
veil 27
visualize 27
weighs 27
wiped 27
wom@@ 27
year@@ 27
yl@@ 27
1.5 26
11@@ 26
150,000 26
24@@ 26
Alaska 26
Alice 26
Army 26
Ash@@ 26
At@@ 26
Bat@@ 26
Beij@@ 26
Bon@@ 26
Boo@@ 26
Brothers 26
Business 26
Camp 26
Caribbe@@ 26
Cur@@ 26
DVD 26
Dalai 26
Dean 26
Ed@@ 26
Empire 26
Interest@@ 26
Islam@@ 26
Jane 26
Jerusalem 26
Ko@@ 26
Korean 26
Lama 26
Leonardo 26
Namibia 26
Notice 26
Out 26
Prince 26
Rather 26
Republican 26
Sarah 26
Social 26
Spring 26
Sud@@ 26
Suppose 26
T.@@ 26
Tasmanian 26
Tru@@ 26
UN@@ 26
Virgin 26
absur@@ 26
accountability 26
achiev@@ 26
acre 26
act@@ 26
aero@@ 26
af 26
ait 26
altru@@ 26
anch@@ 26
apartments 26
asset 26
athers 26
attempts 26
attitudes 26
attributes 26
ature 26
aving 26
axes 26
balcon@@ 26
banned 26
basement 26
beh@@ 26
bel 26
beli@@ 26
blin@@ 26
bol@@ 26
bon 26
brigh@@ 26
bumps 26
canvas 26
capac@@ 26
capit@@ 26
care@@ 26
cared 26
carrot 26
catastrophe 26
caus@@ 26
ced 26
celebration 26
cer@@ 26
cere@@ 26
ceremony 26
chan@@ 26
charter 26
chasing 26
chimpanzee 26
cholera 26
chunk 26
cle 26
composed 26
condom 26
considering 26
consuming 26
convicted 26
country@@ 26
cube 26
dealt 26
decreas@@ 26
defec@@ 26
describing 26
desperately 26
detected 26
devoted 26
diagnostic 26
diamon@@ 26
dreaming 26
dys@@ 26
easiest 26
editor 26
ee 26
ema 26
embarrassed 26
embarrassing 26
emotionally 26
encies 26
ential 26
eradic@@ 26
eradicate 26
establish 26
etary 26
ethic 26
examine 26
ez 26
famously 26
feminist 26
fies 26
fired 26
firem@@ 26
flights 26
frightened 26
gay 26
generates 26
genuine 26
glob@@ 26
glu@@ 26
govern@@ 26
grains 26
grassroots 26
gun@@ 26
hated 26
headline 26
hiding 26
hob@@ 26
hoped 26
hunt 26
hys@@ 26
illiter@@ 26
indigenous 26
iner@@ 26
inherently 26
injec@@ 26
interrup@@ 26
intric@@ 26
intriguing 26
invasive 26
involving 26
itarian 26
jack@@ 26
ket@@ 26
licen@@ 26
lonely 26
magazines 26
maneu@@ 26
manipul@@ 26
mar 26
margin@@ 26
metric 26
microscopic 26
midst 26
mim@@ 26
mirrors 26
modeling 26
modest 26
modi@@ 26
mus@@ 26
museums 26
mustar@@ 26
nar@@ 26
nes 26
neverth@@ 26
notions 26
nurturing 26
occupy 26
optimism 26
ora 26
ou 26
owners 26
pants 26
pathways 26
peace@@ 26
planting 26
practically 26
prece@@ 26
preparation 26
pressures 26
preventing 26
prospec@@ 26
prototypes 26
rai@@ 26
rains 26
ras@@ 26
rece@@ 26
recognizes 26
recycled 26
regenerate 26
relativ@@ 26
remarkably 26
render 26
repe@@ 26
res 26
resolved 26
rever@@ 26
revol@@ 26
riding 26
ro 26
routine 26
screening 26
secre@@ 26
sells 26
settled 26
sey 26
shi@@ 26
shield 26
shu@@ 26
speeds 26
stake 26
statistical 26
stealing 26
stere@@ 26
stic 26
sty@@ 26
supp@@ 26
suppli@@ 26
tally 26
tedness 26
texts 26
thinkers 26
tory 26
traces 26
transported 26
travels 26
twins 26
type@@ 26
typing 26
ub@@ 26
unconscious 26
unemploy@@ 26
united 26
valu@@ 26
viable 26
vocabulary 26
wasted 26
watt 26
wers 26
world@@ 26
00 25
52 25
Alpha 25
Andrew 25
Ask 25
B. 25
Bangal@@ 25
Bhu@@ 25
Carl 25
Cas@@ 25
Columbia 25
Compassion 25
Consider 25
Copernic@@ 25
Data 25
Dead 25
Did@@ 25
Elizabeth 25
Extrem@@ 25
FG 25
Frank@@ 25
High 25
Iraq@@ 25
Jefferson 25
Kansas 25
Kar@@ 25
Ken 25
Kibera 25
Lee 25
MT 25
Native 25
Nav@@ 25
OECD 25
Philip 25
RNA 25
Republic 25
Ri@@ 25
Rio 25
Rom@@ 25
Sev@@ 25
Sin@@ 25
Spi@@ 25
Step 25
Sty@@ 25
Sun@@ 25
Thail@@ 25
Toronto 25
Tu@@ 25
US 25
US@@ 25
Val@@ 25
Wolfram 25
accompanied 25
ache 25
actu@@ 25
age@@ 25
agon@@ 25
agr@@ 25
amateur 25
amino 25
ank@@ 25
apes 25
apologi@@ 25
aquatic 25
ardi@@ 25
arians 25
ashamed 25
assets 25
assuming 25
asteroids 25
award 25
balanced 25
bare 25
bat 25
bench 25
beneficial 25
bloo@@ 25
bluefin 25
boar@@ 25
bonds 25
bounce 25
broadcast 25
buil@@ 25
bury 25
bust 25
buttons 25
caf@@ 25
calcium 25
calculation 25
cane 25
captain 25
chef 25
chimps 25
chronic 25
chur@@ 25
clar@@ 25
classi@@ 25
cliff@@ 25
color@@ 25
compatible 25
confined 25
confronted 25
contex@@ 25
cosmos 25
crab 25
cruel 25
deadly 25
dedic@@ 25
default 25
destructive 25
devastating 25
dictat@@ 25
diction@@ 25
dil@@ 25
disciplin@@ 25
discussing 25
dispar@@ 25
disturbing 25
dit 25
dome 25
earned 25
eats 25
elo@@ 25
encountered 25
encyclopedia 25
entities 25
enz@@ 25
epilep@@ 25
erectus 25
eus 25
exhibit 25
exotic 25
fate 25
ficit 25
finite 25
flood 25
follow@@ 25
fragment@@ 25
fruits 25
function@@ 25
fur@@ 25
galleries 25
gallon 25
genic 25
gentle 25
glacier 25
glaciers 25
grace 25
grati@@ 25
greatly 25
hackers 25
happily 25
highlight 25
hip@@ 25
honey@@ 25
icked 25
immuni@@ 25
implant@@ 25
impro@@ 25
index 25
indicate 25
inexpensive 25
instruction 25
insulin 25
interfaces 25
intern@@ 25
intimate 25
introver@@ 25
issu@@ 25
ister 25
je@@ 25
kilometer 25
kindergarten 25
kno@@ 25
lasting 25
lau@@ 25
lem@@ 25
len@@ 25
lighter 25
longest 25
manufacture 25
membrane 25
mi 25
mic@@ 25
microphone 25
mutil@@ 25
mysteries 25
mythology 25
nel 25
node 25
onic 25
orphan@@ 25
other@@ 25
outing 25
pac@@ 25
packaging 25
pedestri@@ 25
philosoph@@ 25
philosophical 25
planted 25
pollutants 25
prefrontal 25
prescri@@ 25
presents 25
promo@@ 25
pros@@ 25
pursuing 25
reb@@ 25
recei@@ 25
recovered 25
reforms 25
rehear@@ 25
repeatedly 25
replacing 25
representing 25
reques@@ 25
respected 25
responded 25
rethink 25
revel@@ 25
revolu@@ 25
rewar@@ 25
ry@@ 25
scap@@ 25
sheer 25
show@@ 25
singers 25
skilled 25
slic@@ 25
slum 25
smu@@ 25
solem@@ 25
solo 25
spon@@ 25
spontaneously 25
spou@@ 25
stamp 25
statements 25
steady 25
stimulation 25
strains 25
stressed 25
suggestion 25
sul@@ 25
tem@@ 25
templ@@ 25
theast 25
thetic 25
thin@@ 25
tooth@@ 25
touches 25
tray 25
tric@@ 25
tricky 25
tter@@ 25
twist 25
une 25
utter 25
ware@@ 25
wives 25
yiel@@ 25
zo@@ 25
.org 24
0 24
00@@ 24
31 24
4.@@ 24
AIMS 24
Agnes 24
Ah@@ 24
Amsterdam 24
Ap@@ 24
Beach 24
CEOs 24
Darwinian 24
Development 24
Especially 24
Going 24
Gre@@ 24
Industrial 24
Jobs 24
Leone 24
Louis 24
Luther 24
MO 24
Mag@@ 24
Mark@@ 24
Massachusetts 24
Mat@@ 24
Mer@@ 24
Mexican 24
NG@@ 24
Norman 24
PA 24
Parkin@@ 24
Por@@ 24
RISD 24
Rand@@ 24
Rock@@ 24
Ross 24
Sher@@ 24
Show 24
Stone 24
Syri@@ 24
Tibet 24
Toge@@ 24
UV 24
Uni@@ 24
Wilson 24
Win@@ 24
Windows 24
Zimbabwe 24
acceler@@ 24
accomplish 24
acoustic 24
activist 24
addressed 24
adverti@@ 24
ag 24
agu@@ 24
aim@@ 24
aller 24
alternatives 24
appropri@@ 24
are@@ 24
argued 24
arise 24
assembled 24
atro@@ 24
atten@@ 24
attraction 24
awake 24
awkward 24
bab@@ 24
ban 24
bioluminescence 24
black@@ 24
bloody 24
bo 24
borne 24
broadcas@@ 24
buses 24
cab@@ 24
candidates 24
celebrity 24
certified 24
check@@ 24
chim@@ 24
chin 24
chron@@ 24
circuitry 24
circul@@ 24
cli@@ 24
clim@@ 24
cockro@@ 24
collaborate 24
colli@@ 24
colorful 24
comfor@@ 24
conception 24
configuration 24
conscience 24
conspir@@ 24
constructing 24
contradiction 24
convention 24
convincing 24
corporation 24
cousin 24
criteria 24
culturally 24
dancers 24
declared 24
defen@@ 24
defini@@ 24
degraded 24
delight 24
demo 24
demo@@ 24
deserves 24
dges 24
diam@@ 24
dic 24
disciplines 24
disconnected 24
discrimin@@ 24
distribute 24
doc@@ 24
documentary 24
dreamed 24
dul@@ 24
embodied 24
emerges 24
empower 24
envelope 24
ette 24
exce@@ 24
exceptions 24
expectation 24
expense 24
explanations 24
expose 24
fidd@@ 24
filmed 24
finishing 24
fixing 24
flam@@ 24
freak 24
gos 24
governmental 24
graduates 24
guard 24
handful 24
honest@@ 24
hooked 24
humble 24
illustration 24
incre@@ 24
influences 24
infrared 24
inger 24
inherent 24
injured 24
innovate 24
insi@@ 24
inspec@@ 24
instinc@@ 24
intangible 24
intentions 24
intest@@ 24
invent@@ 24
invitation 24
ior 24
isolation 24
itary 24
jec@@ 24
journalis@@ 24
juggling 24
justify 24
juvenile 24
lasts 24
learns 24
len 24
life@@ 24
likelihood 24
ling@@ 24
mammography 24
manipulation 24
mas 24
matches 24
meaning@@ 24
measur@@ 24
migraine 24
mild 24
misery 24
moder@@ 24
motivate 24
mutual 24
net@@ 24
nomin@@ 24
obe@@ 24
ocean@@ 24
odor 24
ologi@@ 24
ological 24
optim@@ 24
oral 24
orgasm 24
ota 24
oun@@ 24
p.@@ 24
parameters 24
partnerships 24
pathway 24
pedi@@ 24
perspectives 24
persuade 24
photographers 24
piles 24
pixels 24
plum@@ 24
potat@@ 24
potato 24
preser@@ 24
promising 24
pron@@ 24
ram@@ 24
reader 24
regim@@ 24
relates 24
rendered 24
resul@@ 24
returns 24
revers@@ 24
riots 24
rises 24
rockets 24
roles 24
rought 24
rowed 24
sadd@@ 24
scanned 24
secondary 24
see@@ 24
sequenced 24
shar@@ 24
short@@ 24
sie 24
sively 24
skeptical 24
slaugh@@ 24
slave 24
slowing 24
spinal 24
spontaneous 24
stic@@ 24
stunt 24
summarize 24
sup@@ 24
sweat 24
symphon@@ 24
systematic 24
talented 24
tels 24
teri@@ 24
terror@@ 24
think@@ 24
thre@@ 24
threatening 24
ticul@@ 24
toler@@ 24
transistor 24
trapped 24
trau@@ 24
tremendously 24
trick@@ 24
understand@@ 24
uniquely 24
unity 24
univers@@ 24
unk 24
veter@@ 24
viewed 24
volcanic 24
waited 24
washed 24
wid@@ 24
wonderfully 24
yp@@ 24
.7 23
180 23
1930@@ 23
2.0 23
25@@ 23
300,000 23
38 23
7,000 23
900 23
Alabama 23
Around 23
C. 23
Danny 23
Dylan 23
High@@ 23
Hill 23
Hy@@ 23
ID 23
Indi@@ 23
King@@ 23
Kiribati 23
Kyoto 23
Linux 23
Lis@@ 23
Looking 23
Map@@ 23
Mid@@ 23
More@@ 23
Mountain 23
On@@ 23
PE@@ 23
PH 23
Reagan 23
SMS 23
Sahara 23
Scotland 23
Secretary 23
Shar@@ 23
Simon 23
Start 23
Tal@@ 23
Theater 23
Up@@ 23
Van 23
Yu@@ 23
Zipcar 23
activ@@ 23
acu@@ 23
adaptive 23
ado@@ 23
advantages 23
aggregate 23
alge@@ 23
ambitious 23
ane@@ 23
anna 23
anno@@ 23
answering 23
anxi@@ 23
ashing 23
assessment 23
assure 23
atu@@ 23
avatar 23
avel 23
behav@@ 23
biotechnology 23
blessed 23
bond 23
bow@@ 23
breakdown 23
browser 23
bud@@ 23
bullet 23
business@@ 23
butt 23
capitalis@@ 23
categor@@ 23
celebrated 23
censor@@ 23
cerebral 23
chaotic 23
checked 23
chers 23
choir 23
circ@@ 23
conceive 23
conditioning 23
consensus 23
constructive 23
container 23
continually 23
controvers@@ 23
corrid@@ 23
countless 23
cyber 23
dates 23
deal@@ 23
defe@@ 23
delay 23
deliber@@ 23
delighted 23
deploy 23
deploy@@ 23
developers 23
diagnose 23
divine 23
ducation 23
duce 23
dures 23
edit 23
effici@@ 23
embar@@ 23
empath@@ 23
enabling 23
enh@@ 23
enjoy@@ 23
entertain@@ 23
environmentally 23
epiph@@ 23
epo@@ 23
ethics 23
exclu@@ 23
eye@@ 23
fal@@ 23
fishermen 23
fix@@ 23
fles@@ 23
flown 23
foss@@ 23
founder 23
frames 23
fulfilling 23
ghts 23
gible 23
gigantic 23
gras@@ 23
hamburger 23
hatred 23
heal 23
hero@@ 23
hugely 23
hung 23
iPad 23
ication 23
indirec@@ 23
infinitely 23
inform 23
informal 23
instruc@@ 23
isi@@ 23
jam@@ 23
jun@@ 23
knees 23
ko@@ 23
lapse 23
laundry 23
lean@@ 23
legi@@ 23
lightning 23
limestone 23
lining 23
listen@@ 23
logging 23
mail@@ 23
materi@@ 23
maxim@@ 23
mediate 23
minerals 23
nanomet@@ 23
nanotechnology 23
news@@ 23
ni 23
nings 23
nucleus 23
observ@@ 23
obsole@@ 23
occupied 23
open@@ 23
operated 23
operational 23
orph@@ 23
ors@@ 23
ot@@ 23
our@@ 23
owe 23
owns 23
parked 23
paths 23
perceptions 23
perfec@@ 23
phon@@ 23
phy@@ 23
pigeon 23
pipeline 23
pir@@ 23
portable 23
poses 23
prayer 23
preserved 23
presses 23
prev@@ 23
promises 23
puzz@@ 23
qualified 23
quent 23
quietly 23
racing 23
radar 23
rap 23
rat@@ 23
rav@@ 23
reasonably 23
receptor 23
reduces 23
refined 23
refugees 23
refused 23
rehabilitation 23
releases 23
remembering 23
remin@@ 23
representative 23
resili@@ 23
resist 23
rot@@ 23
scientifically 23
sculptures 23
sen 23
shaking 23
slowed 23
soap 23
stare 23
stocks 23
stret@@ 23
stunts 23
subsi@@ 23
surfing 23
surplus 23
surveillance 23
surveys 23
talents 23
targeted 23
tastes 23
tex@@ 23
theor@@ 23
thou@@ 23
topo@@ 23
transi@@ 23
ule 23
ultra 23
uter@@ 23
vacation 23
vel 23
vents 23
vill@@ 23
vivid 23
wee@@ 23
winners 23
worship 23
wrec@@ 23
xi@@ 23
ya 23
3,@@ 22
64 22
76 22
AC@@ 22
According 22
Apollo 22
As@@ 22
Austri@@ 22
Bl@@ 22
Bulgar@@ 22
Cel@@ 22
Cham@@ 22
Chi@@ 22
Command@@ 22
Cul@@ 22
DARPA 22
Dallas 22
Deep 22
Defense 22
Dick 22
Edinbur@@ 22
Eventu@@ 22
Flickr 22
Fortunat@@ 22
Galileo 22
Gall@@ 22
Gar@@ 22
Good@@ 22
Greeks 22
Humans 22
Jazeera 22
Jerry 22
Jersey 22
Julia 22
Katr@@ 22
Kelly 22
Ky@@ 22
Lagos 22
Lar@@ 22
League 22
Loo@@ 22
Medical 22
Mozart 22
Nike 22
Nu@@ 22
Pas@@ 22
Roman 22
Russians 22
SARS 22
Sk@@ 22
Solar 22
Sony 22
Sum@@ 22
Thir@@ 22
Using 22
War@@ 22
absor@@ 22
accelerated 22
acknowle@@ 22
acute 22
adds 22
adjust@@ 22
adop@@ 22
advocate 22
ady 22
aise 22
ales 22
altered 22
amplif@@ 22
anc@@ 22
anytime 22
appreciated 22
arose 22
arrang@@ 22
arrange 22
arrows 22
association 22
ast@@ 22
astoun@@ 22
avian 22
balloons 22
beetles 22
beside 22
blows 22
boot 22
breas@@ 22
cage 22
calculated 22
candle 22
celebr@@ 22
census 22
certific@@ 22
chie@@ 22
cit@@ 22
civil@@ 22
coas@@ 22
coastal 22
com 22
commonly 22
compil@@ 22
concer@@ 22
congr@@ 22
contain@@ 22
continuum 22
contradic@@ 22
counsel@@ 22
courage@@ 22
crank 22
critic@@ 22
critici@@ 22
crow@@ 22
crushed 22
cursor 22
custom 22
decides 22
deli@@ 22
desc@@ 22
devo@@ 22
differential 22
disconnect 22
distorted 22
distribu@@ 22
dle 22
dodo 22
dou@@ 22
draws 22
duration 22
dynam@@ 22
eastern 22
ecolog@@ 22
ee@@ 22
eing 22
elders 22
eleg@@ 22
employment 22
enced 22
enders 22
enhance 22
entrepreneur@@ 22
env@@ 22
erotic 22
ester@@ 22
evalu@@ 22
explic@@ 22
export 22
exquisite 22
fame 22
fertilizer 22
fin 22
financi@@ 22
findings 22
flag@@ 22
flav@@ 22
free@@ 22
fs 22
fuzzy 22
gallons 22
gaze 22
gecko 22
geographic 22
glory 22
goats 22
god@@ 22
govern 22
gram@@ 22
guidance 22
heritage 22
heroic 22
hind 22
hint 22
hotter 22
humili@@ 22
hunters 22
hyperbo@@ 22
imaginable 22
immer@@ 22
immigr@@ 22
immor@@ 22
impaired 22
imperative 22
improvements 22
improvise 22
individu@@ 22
infect 22
injection 22
instances 22
instinct 22
insurg@@ 22
int 22
interrupted 22
intersection 22
investigation 22
itating 22
itely 22
joining 22
jumping 22
jungle 22
laying 22
leap@@ 22
lifting 22
listed 22
literal 22
lou@@ 22
louder 22
lowed 22
magne@@ 22
malnutrition 22
march 22
marked 22
marker 22
matching 22
metaphors 22
mite 22
mouths 22
nau@@ 22
nick@@ 22
note@@ 22
noticing 22
obstacle 22
olive 22
optimal 22
pale@@ 22
paper@@ 22
periph@@ 22
placebo 22
pray@@ 22
present@@ 22
presidential 22
presum@@ 22
principal 22
pristine 22
problematic 22
prolifer@@ 22
provi@@ 22
question@@ 22
rang@@ 22
recipi@@ 22
reflective 22
reject 22
remix 22
responsibil@@ 22
revolutionary 22
rob@@ 22
roof@@ 22
ruins 22
rupe@@ 22
scholar@@ 22
scrat@@ 22
screw 22
scru@@ 22
set@@ 22
shado@@ 22
sketches 22
skip 22
slice 22
slight 22
slu@@ 22
statue 22
stein 22
stil@@ 22
strengths 22
stretched 22
stu@@ 22
successes 22
surroun@@ 22
survivors 22
suspec@@ 22
sustained 22
sustaining 22
swing 22
tably 22
tains 22
tak@@ 22
tence 22
tennis 22
tern@@ 22
thes@@ 22
tom 22
towers 22
toxins 22
triangles 22
tribal 22
triple 22
uring 22
varieties 22
venue 22
vet@@ 22
vian 22
well@@ 22
wheel@@ 22
wiring 22
1.2 21
125 21
140 21
193@@ 21
1970 21
44 21
450 21
57 21
AV 21
Alan 21
Allen 21
Arizon@@ 21
Australi@@ 21
Ay@@ 21
Best 21
Bio@@ 21
Brazilian 21
Caltech 21
Carnegie 21
Cassini 21
Clear@@ 21
Coo@@ 21
Cu@@ 21
Del@@ 21
Evolution 21
Food 21
Francis 21
Georgi@@ 21
Happy 21
Has 21
Hel@@ 21
Higgs 21
Hind@@ 21
Hold 21
Hopefully 21
Hosp@@ 21
I. 21
Ice 21
Ivan 21
Joel 21
Lady 21
Large 21
Lawrence 21
Marine 21
Mau@@ 21
Met@@ 21
Office 21
Pat@@ 21
Prime 21
Py@@ 21
Radio 21
Ren@@ 21
Royal 21
Simple 21
Skype 21
Such 21
T. 21
Tam@@ 21
Tower 21
Village 21
Welcome 21
abandon 21
accounting 21
activate 21
aesthe@@ 21
ali 21
analyzing 21
ans@@ 21
anthropo@@ 21
appro@@ 21
ard@@ 21
ari 21
arous@@ 21
arrest 21
aspir@@ 21
assistant 21
atrazine 21
attachment 21
attribute 21
auditory 21
aura 21
avail@@ 21
backed 21
banan@@ 21
barrels 21
bble 21
bind 21
blade 21
block@@ 21
blocked 21
blood@@ 21
bureaucr@@ 21
calibr@@ 21
cardi@@ 21
carp@@ 21
centered 21
centimeter 21
chun@@ 21
citizen@@ 21
civilian 21
clou@@ 21
coined 21
col 21
combat 21
commissioned 21
comparable 21
compressed 21
conclusions 21
conducting 21
constrained 21
contamin@@ 21
convergence 21
cracked 21
dded 21
decentr@@ 21
defeat 21
differ 21
directed 21
discussed 21
disper@@ 21
dividing 21
documenting 21
door@@ 21
doubling 21
drift 21
dump 21
employ 21
endless 21
entures 21
enzyme 21
episode 21
equipped 21
erly 21
escent 21
exerc@@ 21
fertility 21
fitting 21
folk 21
ford 21
foster 21
fractal 21
friendship 21
frustrating 21
fus@@ 21
gage 21
gars 21
gate@@ 21
gee@@ 21
geese 21
genom@@ 21
globalized 21
gran@@ 21
grave 21
grim 21
habitats 21
hair@@ 21
harness 21
harvesting 21
heated 21
heav@@ 21
het@@ 21
hospit@@ 21
hut 21
icons 21
igh 21
implement@@ 21
indi@@ 21
indication 21
individually 21
innovators 21
insic 21
insist@@ 21
integr@@ 21
integrating 21
intention@@ 21
intentional 21
introducing 21
inventing 21
inviting 21
izz@@ 21
ja 21
jac@@ 21
jan 21
journe@@ 21
jum@@ 21
kilo@@ 21
kn@@ 21
laboratories 21
launching 21
lis@@ 21
lithium 21
lon@@ 21
m. 21
magn@@ 21
maintaining 21
manufacturer 21
marvelous 21
mass@@ 21
meado@@ 21
menu 21
mers 21
milli@@ 21
minded 21
mono@@ 21
mons 21
mort@@ 21
mosquito@@ 21
moun@@ 21
mut@@ 21
navig@@ 21
nectar 21
negotiating 21
numerous 21
nur@@ 21
obtained 21
orientation 21
participating 21
patience 21
permanently 21
pessim@@ 21
phony 21
pizz@@ 21
pond 21
ppy 21
prec@@ 21
precip@@ 21
pric@@ 21
prisons 21
projections 21
prototyping 21
psy@@ 21
psychiatr@@ 21
pulses 21
q@@ 21
quali@@ 21
questioning 21
rage 21
recycle 21
redefine 21
ree@@ 21
reflects 21
reg@@ 21
regrets 21
regulate 21
rejec@@ 21
relatives 21
relevance 21
renew@@ 21
replicating 21
reporter 21
requ@@ 21
researching 21
retin@@ 21
retire 21
rides 21
road@@ 21
routinely 21
rup@@ 21
sac@@ 21
scaffolding 21
scarce 21
schedu@@ 21
sell@@ 21
shirts 21
skir@@ 21
slept 21
sman 21
sole 21
som@@ 21
squat@@ 21
squeeze 21
staggering 21
stated 21
sterile 21
sticky 21
stig@@ 21
stimulate 21
ston@@ 21
subsequ@@ 21
sufficient 21
sulfur 21
supports 21
suspicious 21
swap 21
swee@@ 21
synthesize 21
termin@@ 21
test@@ 21
thank@@ 21
thic 21
thread 21
tible 21
tickets 21
toi@@ 21
tourist 21
traff@@ 21
transistors 21
tropical 21
troubled 21
tunas 21
uplo@@ 21
veloc@@ 21
vend@@ 21
vering 21
vic@@ 21
vil 21
visi@@ 21
voc@@ 21
voluntary 21
volunte@@ 21
voyage 21
waste@@ 21
week@@ 21
who@@ 21
wing@@ 21
wonders 21
wrink@@ 21
xy 21
ze@@ 21
zes 21
250,000 20
46 20
80,000 20
83 20
A.@@ 20
Abu 20
Anything 20
Armstrong 20
BMW 20
Better 20
CAPTCHA 20
CNN 20
Commun@@ 20
Confer@@ 20
Costa 20
Cs 20
Detroit 20
Direc@@ 20
Ear@@ 20
Encelad@@ 20
Energy 20
Europ@@ 20
Excuse 20
Fort 20
Ful@@ 20
Grand@@ 20
Help 20
IQ 20
IT 20
Journal 20
Lakota 20
Lam@@ 20
Lim@@ 20
Lots 20
Mak@@ 20
Music 20
Nairobi 20
Neanderthal 20
Net@@ 20
Ol@@ 20
Oper@@ 20
Pati@@ 20
Portug@@ 20
Princeton 20
RI@@ 20
RO@@ 20
S. 20
Scottish 20
Sim@@ 20
Somali@@ 20
Supreme 20
Swedish 20
Too 20
Unlike 20
Vegas 20
Wr@@ 20
Yel@@ 20
Yves 20
Zo@@ 20
acceleration 20
accent 20
accepting 20
accidentally 20
admire 20
ago@@ 20
appliances 20
arefoot 20
ashes 20
astronomical 20
attered 20
automobiles 20
bamboo 20
bang@@ 20
banjo 20
barg@@ 20
bed@@ 20
benef@@ 20
bicy@@ 20
billboard 20
biome@@ 20
blank@@ 20
blas@@ 20
buys 20
cally 20
cement 20
centric 20
chap@@ 20
chess 20
child@@ 20
cigarette 20
cocktail 20
cogni@@ 20
combin@@ 20
combining 20
commentary 20
communal 20
compose 20
composer 20
comprom@@ 20
compu@@ 20
conceived 20
consists 20
contents 20
convul@@ 20
cooked 20
coordinate 20
couples 20
crowded 20
cues 20
cultivate 20
curr@@ 20
declining 20
defines 20
denomin@@ 20
depths 20
developmental 20
developments 20
develops 20
digiti@@ 20
dimin@@ 20
disruptive 20
dit@@ 20
dood@@ 20
draf@@ 20
earning 20
educating 20
eer 20
elderly 20
eless@@ 20
enhanc@@ 20
escence 20
essi@@ 20
este@@ 20
ettes 20
exu@@ 20
fabric@@ 20
facul@@ 20
fatty 20
feasi@@ 20
feminine 20
fluctuations 20
fluor@@ 20
fragments 20
gather@@ 20
gel 20
gn@@ 20
graffiti 20
gratitude 20
gru@@ 20
gul@@ 20
hacking 20
hears 20
heck 20
heli@@ 20
holiday 20
hurric@@ 20
hypothes@@ 20
imaginary 20
imposed 20
independently 20
industrialized 20
infin@@ 20
ini@@ 20
injustice 20
inputs 20
interviewing 20
intrinsically 20
invade 20
inventions 20
involvement 20
ising 20
jeans 20
knoc@@ 20
lenses 20
lized 20
lob@@ 20
lure 20
mantis 20
metabolic 20
methodo@@ 20
minimal 20
moms 20
multinational 20
negotiation 20
noble 20
notation 20
nt 20
num@@ 20
observer 20
obsession 20
oiled 20
ona 20
oney 20
orb@@ 20
orbital 20
outdoor 20
outw@@ 20
ozone 20
packing 20
passions 20
pear@@ 20
periodic 20
persist@@ 20
pervas@@ 20
pesticides 20
phe@@ 20
poorer 20
popul@@ 20
power@@ 20
prescription 20
presid@@ 20
prin@@ 20
projec@@ 20
propos@@ 20
raf@@ 20
ranging 20
realis@@ 20
recipes 20
register 20
rel 20
reliev@@ 20
remar@@ 20
rement 20
repertoire 20
repeti@@ 20
respiratory 20
retired 20
reviewed 20
rey 20
rh@@ 20
rier 20
romance 20
rum@@ 20
salmon 20
sanitary 20
schem@@ 20
seiz@@ 20
sel 20
senti@@ 20
shrink 20
shrinking 20
sign@@ 20
slip 20
slo@@ 20
slogan 20
smi@@ 20
snap@@ 20
snow@@ 20
some@@ 20
sourcing 20
spite 20
spot@@ 20
stain@@ 20
start@@ 20
strictly 20
struggled 20
submitted 20
subur@@ 20
symbo@@ 20
taboo 20
tened 20
thand 20
tightly 20
tipping 20
tit@@ 20
tox@@ 20
transcend 20
treas@@ 20
trium@@ 20
turbul@@ 20
tus 20
tutor@@ 20
usage 20
usion 20
valve 20
victory 20
visit@@ 20
vit@@ 20
vol@@ 20
votes 20
ware 20
wasting 20
watches 20
wet@@ 20
willingness 20
wis@@ 20
wrest@@ 20
yel@@ 20
zoom@@ 20
,@@ 19
1.3 19
160 19
185@@ 19
1984 19
400,000 19
49 19
500,000 19
56 19
58 19
86 19
93 19
94 19
AL@@ 19
Acumen 19
Barack 19
Between 19
Bond 19
Cl@@ 19
Comp@@ 19
Computer 19
Cop@@ 19
D. 19
DE@@ 19
Digital 19
Dor@@ 19
Dr@@ 19
ES@@ 19
Early 19
Emily 19
Emma 19
Evan 19
Explor@@ 19
Fis@@ 19
Fol@@ 19
Fried@@ 19
Gener@@ 19
Ground 19
Hawking 19
Hi@@ 19
Hur@@ 19
Hyper@@ 19
Kepler 19
Loc@@ 19
Maj@@ 19
Margaret 19
Mathematic@@ 19
Matt 19
Mediterrane@@ 19
Mus@@ 19
Nep@@ 19
Nick 19
Op@@ 19
Panbanisha 19
Pepsi 19
Port 19
PowerPoint 19
Qatar 19
RG 19
Recor@@ 19
Rit@@ 19
Roc@@ 19
Romo 19
Sad@@ 19
Scientists 19
Seri@@ 19
Sing@@ 19
Small 19
Soldi@@ 19
Spec@@ 19
Sri 19
Stirling 19
Stories 19
Susan 19
TE@@ 19
Tami@@ 19
Teach@@ 19
Tennessee 19
Tomor@@ 19
U. 19
Vel@@ 19
Warren 19
Williams 19
Witness 19
Woo@@ 19
absorbed 19
abu@@ 19
acceptance 19
access@@ 19
accidental 19
accused 19
acous@@ 19
addicted 19
adv@@ 19
aerial 19
agno@@ 19
album 19
alongside 19
amaz@@ 19
announc@@ 19
antibiotic 19
anz@@ 19
apo@@ 19
apparat@@ 19
appearing 19
arithme@@ 19
arrow 19
asp@@ 19
assigned 19
autistic 19
bassy 19
bear@@ 19
beginnings 19
biop@@ 19
birth@@ 19
bladder 19
bli@@ 19
blur@@ 19
bons 19
bonus 19
bor 19
broadly 19
carbonate 19
carcino@@ 19
centrifu@@ 19
chore@@ 19
chy 19
class@@ 19
comb@@ 19
compani@@ 19
complaining 19
contest 19
conve@@ 19
creators 19
criticized 19
cy 19
databas@@ 19
dden 19
deforest@@ 19
deleg@@ 19
delu@@ 19
destin@@ 19
determination 19
developer 19
diffusion 19
dining 19
distinctive 19
doodling 19
dot@@ 19
dragged 19
drin@@ 19
dune 19
dwar@@ 19
editing 19
effecti@@ 19
eful 19
ele@@ 19
embracing 19
embry@@ 19
emission 19
emphasis 19
empir@@ 19
empires 19
enclo@@ 19
enlightened 19
essive 19
evaluate 19
excer@@ 19
excess 19
experimenting 19
extending 19
extends 19
extensive 19
extro@@ 19
fair@@ 19
fashioned 19
fav@@ 19
fif@@ 19
firmly 19
freeze 19
fulfill 19
garden@@ 19
gene@@ 19
geri@@ 19
ggle 19
gian 19
gin 19
glorious 19
goo@@ 19
grip 19
guarante@@ 19
gy 19
handling 19
harm@@ 19
homini@@ 19
horrific 19
humming@@ 19
icole 19
idio@@ 19
ik@@ 19
im 19
implication 19
improvis@@ 19
improvisation 19
incarcer@@ 19
incorpor@@ 19
ingu@@ 19
ini 19
insu@@ 19
intellectu@@ 19
irrigation 19
jury 19
kilograms 19
kings 19
labor@@ 19
leis@@ 19
lice 19
limit@@ 19
mani@@ 19
manifest 19
manifestation 19
mann 19
march@@ 19
massively 19
melted 19
mentors 19
millisecon@@ 19
mini 19
modified 19
moment@@ 19
mounted 19
mun@@ 19
newly 19
obo 19
occupation 19
officials 19
offshore 19
onom@@ 19
optimize 19
ored 19
organiz@@ 19
ort 19
outrage@@ 19
panc@@ 19
parall@@ 19
partial 19
passeng@@ 19
pav@@ 19
payload 19
peaks 19
peel 19
penetrate 19
pirate 19
ple 19
pools 19
poor@@ 19
posters 19
practic@@ 19
prevents 19
prioriti@@ 19
prote@@ 19
pup@@ 19
purely 19
raises 19
rati@@ 19
rebel@@ 19
redun@@ 19
referred 19
rements 19
rendering 19
resonance 19
rich@@ 19
rigi@@ 19
room@@ 19
sandwi@@ 19
scripts 19
seatbel@@ 19
sensi@@ 19
sensible 19
serious@@ 19
server 19
shal@@ 19
shipped 19
sibl@@ 19
skies 19
sounded 19
specim@@ 19
sponsor 19
stabilize 19
steak 19
stepping 19
stero@@ 19
stum@@ 19
stumbled 19
subscri@@ 19
sympath@@ 19
sync 19
syring@@ 19
table@@ 19
tad@@ 19
tagging 19
tary 19
tatto@@ 19
temper@@ 19
temptation 19
tenth 19
textile 19
than@@ 19
throws 19
thrust 19
tortured 19
total@@ 19
unequal 19
unfair 19
unintended 19
union 19
valid 19
violin 19
volumes 19
wander 19
warms 19
where@@ 19
wipe 19
woo@@ 19
worn 19
wounded 19
writes 19
wrong@@ 19
1,100 18
186@@ 18
5.@@ 18
50th 18
59 18
Amanda 18
Americ@@ 18
Aw@@ 18
Bay@@ 18
Beethoven 18
Bertie 18
Bol@@ 18
Bow@@ 18
Bruno 18
Building 18
Buy 18
CIA 18
Cha@@ 18
Chan@@ 18
Christ@@ 18
Cir@@ 18
Cities 18
Colli@@ 18
Color@@ 18
Compar@@ 18
Cuba 18
D.C. 18
DL 18
Danish 18
Despite 18
Down 18
Dre@@ 18
Easter 18
Either 18
FOXO 18
Galois 18
Gold 18
Gordon 18
Grou@@ 18
Hadron 18
Hou@@ 18
Hudson 18
Hundre@@ 18
Hyun 18
Intel 18
Jac@@ 18
Keith 18
Khan 18
M.@@ 18
Miss 18
Mou@@ 18
Mountains 18
Mul@@ 18
Mur@@ 18
Nathan 18
O.@@ 18
Of@@ 18
Old 18
Pakistani 18
Philadelph@@ 18
Point 18
Poli@@ 18
Quite 18
Republicans 18
Rights 18
Road 18
Roger 18
Rose 18
SA@@ 18
Saint 18
Sat@@ 18
Save 18
Sho@@ 18
Shoo@@ 18
Shor@@ 18
Six@@ 18
Sky@@ 18
Somehow 18
Sook 18
Soon 18
Speci@@ 18
Sym@@ 18
Tar@@ 18
Trust 18
Tunisi@@ 18
Turkish 18
Type 18
Ur@@ 18
Use 18
VC 18
Vietnamese 18
WHO 18
Whole 18
Wide 18
Won@@ 18
Working 18
World@@ 18
YR 18
aa@@ 18
abalone 18
abyte 18
abytes 18
acqu@@ 18
ada 18
agrees 18
aire 18
aka 18
alter 18
ances@@ 18
animated 18
apartheid 18
apparent 18
appealing 18
appl@@ 18
apprenti@@ 18
arbitrary 18
articul@@ 18
articulate 18
ased 18
aspirations 18
attering 18
attribu@@ 18
audi@@ 18
auditorium 18
augmented 18
bal 18
berry 18
bioluminescent 18
boiling 18
brainstor@@ 18
breakthrough@@ 18
brew 18
bricks 18
ca@@ 18
cabinet 18
cal 18
cardiovascular 18
cau@@ 18
cello 18
cen@@ 18
cent@@ 18
ceram@@ 18
cham@@ 18
characterized 18
chas@@ 18
chat 18
chat@@ 18
circum@@ 18
ck@@ 18
clari@@ 18
clas@@ 18
cleaned 18
clever@@ 18
commission 18
comple@@ 18
comprehen@@ 18
conceiv@@ 18
cone 18
constitution 18
contacts 18
contaminated 18
coordin@@ 18
correspond 18
corrupt 18
council 18
coup@@ 18
crawling 18
creation@@ 18
crystal 18
cumulative 18
dead@@ 18
deciph@@ 18
delet@@ 18
delicate 18
demanding 18
deriv@@ 18
descriptions 18
digitize 18
dissemin@@ 18
divergence 18
dog@@ 18
donated 18
donations 18
drama 18
dunes 18
eau 18
echo@@ 18
edited 18
eman@@ 18
embryonic 18
employe@@ 18
entitled 18
enzymes 18
epidemi@@ 18
esti@@ 18
etic 18
evo@@ 18
excit@@ 18
exclusive 18
executive 18
explorers 18
eyebro@@ 18
fat@@ 18
fe 18
fier@@ 18
fills 18
flic@@ 18
focuses 18
fool 18
fool@@ 18
four@@ 18
framed 18
franch@@ 18
fuc@@ 18
ghost 18
ght@@ 18
gover@@ 18
grabs 18
guided 18
imm@@ 18
immensely 18
immersed 18
inadequate 18
incremental 18
indoor 18
ingenu@@ 18
inhab@@ 18
inhi@@ 18
inst@@ 18
instincts 18
intend 18
internation@@ 18
invaded 18
inver@@ 18
isted 18
itable 18
kh@@ 18
kilogram 18
lah 18
lan 18
laz@@ 18
liberals 18
literary 18
locate 18
manages 18
manufactur@@ 18
marin@@ 18
mark@@ 18
masters 18
meets 18
mentality 18
million@@ 18
morally 18
morph@@ 18
motions 18
mov@@ 18
natur@@ 18
ograph@@ 18
olog@@ 18
orbiting 18
orn 18
passion@@ 18
phalo@@ 18
pic 18
pivo@@ 18
placement 18
placing 18
plotted 18
point@@ 18
pops 18
populated 18
primates 18
primordial 18
producer 18
profession@@ 18
profil@@ 18
puber@@ 18
pushes 18
races 18
railroad 18
recomm@@ 18
reconcili@@ 18
reconstruct 18
red@@ 18
registered 18
releasing 18
repli@@ 18
retail 18
retain 18
returning 18
revolution@@ 18
ric@@ 18
rom@@ 18
rooted 18
rot 18
rs 18
scaff@@ 18
scuba 18
seam@@ 18
sent@@ 18
settle 18
shallow 18
shepher@@ 18
signing 18
simpl@@ 18
simulated 18
sin 18
sit@@ 18
slices 18
smart@@ 18
smartest 18
snap 18
solves 18
spiritu@@ 18
stabil@@ 18
statistically 18
steer 18
steering 18
strang@@ 18
structu@@ 18
submarine 18
subsidi@@ 18
substitute 18
sucked 18
sunny 18
supermassive 18
synapses 18
synesthes@@ 18
synthes@@ 18
testimon@@ 18
testoster@@ 18
thumb@@ 18
tide 18
tionary 18
titled 18
toll 18
tos 18
traditionally 18
translating 18
traw@@ 18
trical 18
ts@@ 18
turt@@ 18
typo@@ 18
uch 18
undergraduate 18
unhealthy 18
unlock 18
update 18
urgent 18
utop@@ 18
valid@@ 18
valves 18
variables 18
vement 18
vir@@ 18
vocal 18
widespread 18
wished 18
zip 18
110 17
1900 17
2,500 17
53 17
7,@@ 17
8.@@ 17
AM@@ 17
AS 17
Agency 17
Andy 17
Archie 17
Arts 17
Association 17
Av@@ 17
BP 17
Babyl@@ 17
Beat@@ 17
Benki 17
Bern@@ 17
Bono 17
Book 17
Boy@@ 17
Bruce 17
CO@@ 17
Certain@@ 17
Chap@@ 17
Climate 17
D.@@ 17
Dave 17
Develop@@ 17
Europe@@ 17
Exact@@ 17
Fant@@ 17
Forget 17
Fox 17
Fro@@ 17
Glas@@ 17
Got 17
Hin@@ 17
Hitler 17
Holy 17
Hus@@ 17
IDEO 17
IR@@ 17
Ide@@ 17
Jamie 17
Justice 17
LEDs 17
Las 17
Learning 17
Les@@ 17
Less 17
Live 17
Mahmoud 17
Map 17
Max 17
Mermai@@ 17
Miller 17
Mola 17
Mrs. 17
Murray 17
Pap@@ 17
Person@@ 17
Photo@@ 17
Plan@@ 17
Power 17
Rachel 17
Real 17
Rel@@ 17
Rob 17
Roosevelt 17
Roots 17
Rouge 17
SA 17
Sergio 17
Service 17
Side 17
Sobu@@ 17
South@@ 17
TEDster 17
Ted 17
Titan@@ 17
Turn 17
UCLA 17
Ultim@@ 17
Usu@@ 17
Venter 17
Virtual 17
Yemen@@ 17
Yester@@ 17
Yorker 17
abnormal 17
abstraction 17
accommod@@ 17
affec@@ 17
agre@@ 17
alg@@ 17
antiangiogenic 17
arc@@ 17
archae@@ 17
archive 17
arin 17
assembl@@ 17
assign 17
astronom@@ 17
asym@@ 17
atrici@@ 17
attempted 17
attempting 17
automatic 17
awak@@ 17
bad@@ 17
battle@@ 17
belo@@ 17
bent 17
bile 17
bleeding 17
blend 17
bless 17
bless@@ 17
bothered 17
bree@@ 17
bronze 17
bulk 17
bureau@@ 17
bush@@ 17
cad@@ 17
carve 17
carved 17
character@@ 17
claimed 17
cloned 17
coach 17
coff@@ 17
commu@@ 17
compens@@ 17
complex@@ 17
comprehensive 17
connec@@ 17
consis@@ 17
consist@@ 17
consistently 17
consult@@ 17
contribu@@ 17
corresponding 17
corrup@@ 17
cortical 17
crack@@ 17
cross@@ 17
cubic 17
dam 17
daun@@ 17
ddled 17
deb@@ 17
deliberately 17
dent@@ 17
depended 17
desir@@ 17
determin@@ 17
divin@@ 17
dor@@ 17
drank 17
dread@@ 17
drople@@ 17
ebr@@ 17
eded 17
eigh@@ 17
enny 17
ented 17
escaped 17
essions 17
evolution@@ 17
exceptional 17
expedi@@ 17
expend@@ 17
explicit@@ 17
exploitation 17
explor@@ 17
export@@ 17
extracted 17
femin@@ 17
flat@@ 17
friction 17
gangs 17
genesis 17
gent 17
geometric 17
gie 17
gol@@ 17
gues 17
guess@@ 17
guidel@@ 17
hab@@ 17
hacker 17
haired 17
hallucin@@ 17
han@@ 17
harsh 17
hid 17
his@@ 17
homosexu@@ 17
hump@@ 17
hus@@ 17
iculture 17
idi@@ 17
implants 17
impul@@ 17
incorporate 17
incubat@@ 17
inject 17
inn@@ 17
innov@@ 17
inocul@@ 17
inspir@@ 17
installations 17
intellect 17
irrever@@ 17
jeal@@ 17
junction 17
juni@@ 17
juven@@ 17
kill@@ 17
larva@@ 17
lash 17
lection 17
legally 17
legged 17
lement@@ 17
linguistic 17
lip 17
lousy 17
maggo@@ 17
maintain@@ 17
mant@@ 17
manufactu@@ 17
marijuana 17
measurement 17
med@@ 17
messing 17
microwave 17
mighty 17
minim@@ 17
minimize 17
missile 17
mix@@ 17
mom@@ 17
muff@@ 17
navigation 17
nour@@ 17
numer@@ 17
ode 17
offic@@ 17
omed 17
opposition 17
ounds 17
parad@@ 17
param@@ 17
passengers 17
peanu@@ 17
pending 17
perceptual 17
personnel 17
pigment@@ 17
piss@@ 17
popped 17
posture 17
pper@@ 17
preferred 17
premi@@ 17
priz@@ 17
programmer 17
projecting 17
prone 17
publication 17
quo 17
racial 17
rank 17
reciproc@@ 17
refin@@ 17
retrospec@@ 17
revealing 17
reveals 17
reverber@@ 17
rex 17
rigor@@ 17
ringing 17
ron@@ 17
ruled 17
sanc@@ 17
sapiens 17
satisfy 17
scare 17
scholars 17
secu@@ 17
selective 17
serendi@@ 17
seroton@@ 17
servant 17
shak@@ 17
sham@@ 17
shoo@@ 17
si 17
similari@@ 17
spaces@@ 17
specific@@ 17
speeches 17
sper@@ 17
sperm 17
spong@@ 17
spores 17
sque@@ 17
stag@@ 17
statistic 17
statistici@@ 17
stimulus 17
strict 17
strips 17
subjective 17
submersible 17
suburban 17
suburbs 17
succe@@ 17
suggestions 17
sums 17
susceptible 17
taxi 17
tebr@@ 17
tech@@ 17
there@@ 17
though@@ 17
tless 17
tofu 17
tracked 17
transduc@@ 17
translates 17
traumati@@ 17
treati@@ 17
trics 17
trip@@ 17
trogen 17
trol@@ 17
tun@@ 17
tured 17
twenti@@ 17
typed 17
ucky 17
ump 17
unfolding 17
unified 17
uploaded 17
varied 17
vastly 17
vers@@ 17
vet 17
warn 17
wavelength 17
wax 17
weir@@ 17
whip 17
young@@ 17
187@@ 16
89 16
Aimee 16
App@@ 16
Aqu@@ 16
Aurora 16
Bac@@ 16
Ban@@ 16
Beck 16
Believe 16
Biosphere 16
Black@@ 16
By@@ 16
Cat@@ 16
Clar@@ 16
Coun@@ 16
DI@@ 16
DJ 16
Democratic 16
Dol@@ 16
Dubai 16
Ecuad@@ 16
Ed 16
Engine@@ 16
Environ@@ 16
Excell@@ 16
Ey@@ 16
Girls 16
Given 16
God@@ 16
Grace 16
Gree@@ 16
HA 16
Ha@@ 16
Haw@@ 16
Hiroshim@@ 16
Holocau@@ 16
Hop@@ 16
Hubble 16
Hungarian 16
Information 16
Innov@@ 16
Jackson 16
Jan@@ 16
Jason 16
Jean 16
Jimmy 16
Jord@@ 16
Julian 16
K. 16
Kal@@ 16
Kur@@ 16
Labor@@ 16
Labs 16
Langley 16
Language 16
Ma 16
Magazine 16
Mahatma 16
Marshall 16
Mary@@ 16
Mem@@ 16
Millennium 16
Mississippi 16
Molas 16
Neither 16
Nolly@@ 16
Non@@ 16
Oliver 16
Oreg@@ 16
Others 16
Pentag@@ 16
Raise 16
Ram@@ 16
Reed 16
Reser@@ 16
Saddam 16
Saf@@ 16
San@@ 16
Sex 16
Shi@@ 16
Slow 16
Stockhol@@ 16
Sudhir 16
Sup@@ 16
Surve@@ 16
Sw@@ 16
TB@@ 16
TN@@ 16
Tim@@ 16
Treating 16
Tric@@ 16
Tumor 16
Vag@@ 16
Verme@@ 16
Von 16
Walmart 16
Walter 16
Wat@@ 16
Wednes@@ 16
abe@@ 16
abor@@ 16
add@@ 16
adjacent 16
adolescents 16
advertis@@ 16
aho@@ 16
aine 16
allo@@ 16
ambulance 16
amen@@ 16
anarch@@ 16
announcing 16
apocalyp@@ 16
appe@@ 16
ared 16
arrangement 16
arro@@ 16
assist@@ 16
astrolab@@ 16
atin 16
atmospheric 16
aug@@ 16
aur@@ 16
autom@@ 16
autop@@ 16
aze 16
ballet 16
bending 16
billion@@ 16
binds 16
biomimic@@ 16
blocking 16
box@@ 16
bread@@ 16
bull@@ 16
capsule 16
capturing 16
castle 16
charis@@ 16
chee@@ 16
cigar@@ 16
cling 16
clinically 16
cochlear 16
compul@@ 16
conceptu@@ 16
conden@@ 16
confirm 16
constr@@ 16
contagi@@ 16
crab@@ 16
crowd@@ 16
cruci@@ 16
ctu@@ 16
cutt@@ 16
dane 16
dat@@ 16
deny 16
diagr@@ 16
diges@@ 16
disproportion@@ 16
dist@@ 16
disturbed 16
divid@@ 16
domestic@@ 16
een 16
ela 16
eller 16
elop@@ 16
embarrass@@ 16
emergent 16
empower@@ 16
ems 16
ench 16
energi@@ 16
entr@@ 16
envision 16
erase 16
ere@@ 16
ett 16
eval 16
excav@@ 16
exhi@@ 16
expan@@ 16
expres@@ 16
expressing 16
ext 16
exten@@ 16
fax 16
feed@@ 16
financ@@ 16
fluctu@@ 16
furn@@ 16
gadgets 16
gaining 16
gamma 16
gel@@ 16
gence 16
genuinely 16
get@@ 16
giraff@@ 16
gradi@@ 16
ground@@ 16
grounded 16
harmon@@ 16
harves@@ 16
hedr@@ 16
holistic 16
house@@ 16
husb@@ 16
iPods 16
ideals 16
ideological 16
imitation 16
import 16
impose 16
induced 16
indul@@ 16
inorganic 16
insist 16
inten@@ 16
interfere 16
intergalactic 16
intrigu@@ 16
ison 16
itu@@ 16
keen 16
knob 16
knocked 16
kr@@ 16
lasted 16
leas@@ 16
lex 16
lifeli@@ 16
limitation 16
liter@@ 16
logies 16
los 16
lump 16
manu@@ 16
marri@@ 16
maternal 16
mathematic@@ 16
mation 16
memorize 16
metaphorical 16
metastas@@ 16
microprocess@@ 16
mock@@ 16
modeled 16
monthly 16
motivates 16
nac@@ 16
nant 16
ninth 16
nitric 16
nov@@ 16
nuc@@ 16
nutritional 16
obli@@ 16
obligation 16
obscure 16
oci@@ 16
offensive 16
ois 16
omat@@ 16
ose 16
outr@@ 16
paro@@ 16
partially 16
pathetic 16
pec@@ 16
perpetr@@ 16
persu@@ 16
peti@@ 16
photograph@@ 16
phrases 16
pian@@ 16
plau@@ 16
pneumon@@ 16
poss@@ 16
poured 16
predicts 16
progr@@ 16
prohi@@ 16
prosecu@@ 16
proving 16
provo@@ 16
pse 16
realizes 16
regarded 16
regenerative 16
reluc@@ 16
remix@@ 16
rented 16
resid@@ 16
responds 16
responsive 16
ret@@ 16
retail@@ 16
rhet@@ 16
rie 16
right@@ 16
rit 16
roc@@ 16
roo@@ 16
ryp@@ 16
sab@@ 16
scram@@ 16
scri@@ 16
secretly 16
shaping 16
shares 16
she@@ 16
shel@@ 16
shortage 16
shre@@ 16
shutt@@ 16
sick@@ 16
sies 16
sig@@ 16
slee@@ 16
spark 16
spaw@@ 16
spends 16
spin@@ 16
sport@@ 16
stap@@ 16
stole 16
strangely 16
stripped 16
strive 16
strongest 16
substanti@@ 16
suit@@ 16
surprises 16
swam 16
sweat@@ 16
sy@@ 16
symbio@@ 16
synap@@ 16
tapes@@ 16
tasted 16
team@@ 16
tempor@@ 16
till@@ 16
toas@@ 16
tobac@@ 16
torn@@ 16
tribute 16
triggers 16
tual 16
tuberculo@@ 16
tum 16
umbrel@@ 16
unle@@ 16
uns 16
upris@@ 16
uri@@ 16
virul@@ 16
visceral 16
visualizing 16
viv@@ 16
volati@@ 16
volts 16
wav@@ 16
wn@@ 16
woun@@ 16
yn@@ 16
zoo 16
2.5 15
70,000 15
90@@ 15
ABC 15
AD@@ 15
Agr@@ 15
Among 15
Anim@@ 15
Ass@@ 15
Babies 15
Balk@@ 15
Barbara 15
Bun@@ 15
C.@@ 15
Ca@@ 15
Chicken 15
Chief 15
Club 15
Cochrane 15
Coh@@ 15
Compu@@ 15
Conn@@ 15
Connecticut 15
Conservation 15
Coop@@ 15
Cru@@ 15
Cuban 15
DDT 15
Dem@@ 15
Det@@ 15
Diam@@ 15
Different 15
Dimitri 15
Doha 15
Doug 15
Dur@@ 15
E. 15
Eco@@ 15
Eden 15
Enlighten@@ 15
Environmental 15
Equ@@ 15
FBI 15
Fahrenhe@@ 15
Farm@@ 15
Financial 15
Four@@ 15
Garden 15
Genome 15
Gl@@ 15
Gol@@ 15
Graham 15
Grey 15
Guine@@ 15
H5N1 15
Han@@ 15
Hom@@ 15
Hondur@@ 15
Independent 15
Initi@@ 15
Kamen 15
Kenyan 15
Ker@@ 15
Khmer 15
Kle@@ 15
LA 15
Laptop 15
Law@@ 15
Le 15
Levi@@ 15
Lin@@ 15
Luke 15
Magic 15
Mand@@ 15
Mell@@ 15
Michig@@ 15
Milli@@ 15
Ministry 15
Modern 15
Mos@@ 15
Moving 15
Muhammad 15
Neumann 15
Nevada 15
Norwe@@ 15
OPE@@ 15
Oprah 15
Organ@@ 15
Palest@@ 15
Palestini@@ 15
Persi@@ 15
Philipp@@ 15
Phys@@ 15
Q 15
Rab@@ 15
Rag@@ 15
Rift 15
Rob@@ 15
Russell 15
SE@@ 15
Sam 15
Sioux 15
Sol@@ 15
Som@@ 15
Sound 15
Starbucks 15
Stat@@ 15
Studio 15
Super 15
Superman 15
Tah@@ 15
Taiwan 15
Tarahumara 15
Tas@@ 15
Though 15
Toyota 15
USDA 15
Under 15
Ushahidi 15
Victorian 15
Warner 15
Wired 15
Yale 15
aby@@ 15
accumulation 15
ader 15
adolescent 15
alarm@@ 15
ald 15
alpha 15
approxim@@ 15
archet@@ 15
arium 15
arrangements 15
astonish@@ 15
astro@@ 15
athan 15
atur@@ 15
aud@@ 15
ault 15
auto 15
auto@@ 15
autobio@@ 15
automated 15
awarded 15
bag@@ 15
ballot 15
banana 15
basketball 15
blic@@ 15
blob@@ 15
blu@@ 15
bounc@@ 15
branch@@ 15
cafeteri@@ 15
cam 15
captures 15
catalog 15
ceas@@ 15
celebrating 15
cess@@ 15
cha@@ 15
cloc@@ 15
cobra 15
cock@@ 15
commerce 15
complic@@ 15
complications 15
composite 15
condition@@ 15
conduc@@ 15
configur@@ 15
conflic@@ 15
contributions 15
courty@@ 15
creep@@ 15
crosses 15
cycl@@ 15
dad@@ 15
dangers 15
deepen@@ 15
depend@@ 15
deterior@@ 15
devi@@ 15
dging 15
dictator@@ 15
diplomatic 15
disc 15
displayed 15
divers 15
divisions 15
dominate 15
dra 15
dru@@ 15
dun@@ 15
duplic@@ 15
dwell@@ 15
eager 15
edy 15
electr@@ 15
embraced 15
emit@@ 15
emphas@@ 15
enched 15
energe@@ 15
environment@@ 15
erial 15
excessive 15
excruci@@ 15
exec@@ 15
exhilar@@ 15
existential 15
explosions 15
extinctions 15
fabrication 15
fade 15
fall@@ 15
fans 15
ferti@@ 15
fi 15
fic 15
fications 15
flow@@ 15
focal 15
foli@@ 15
forgi@@ 15
frac@@ 15
fram@@ 15
freez@@ 15
gad@@ 15
geni@@ 15
gger 15
ghari@@ 15
gour@@ 15
grow@@ 15
hac@@ 15
haun@@ 15
hel@@ 15
hem@@ 15
hemo@@ 15
hen@@ 15
histor@@ 15
humid@@ 15
ich@@ 15
ille 15
immun@@ 15
impress 15
imprison@@ 15
inability 15
inal 15
infec@@ 15
inflic@@ 15
ingeni@@ 15
injected 15
inqu@@ 15
invasion 15
iser 15
isol@@ 15
ith 15
ith@@ 15
ito@@ 15
iture 15
jer@@ 15
juggl@@ 15
justi@@ 15
kar@@ 15
kiss@@ 15
kit@@ 15
lamp@@ 15
laure@@ 15
lef@@ 15
lever 15
lig@@ 15
line@@ 15
lowered 15
lymph 15
mak@@ 15
malign@@ 15
mangro@@ 15
medieval 15
messed 15
migrate 15
mir@@ 15
mission@@ 15
mitted 15
modes 15
modul@@ 15
monarch@@ 15
mutually 15
mysti@@ 15
narr@@ 15
neighbor@@ 15
neurological 15
nie 15
normal@@ 15
nou@@ 15
nursing 15
obs@@ 15
ographic 15
ologues 15
olu@@ 15
onset 15
ont 15
orangut@@ 15
ordin@@ 15
org@@ 15
ounding 15
outsi@@ 15
paint@@ 15
perce@@ 15
pest 15
phen@@ 15
philanthro@@ 15
physiological 15
pigmentation 15
pine 15
popping 15
pore 15
practition@@ 15
precau@@ 15
pren@@ 15
pretend@@ 15
progressive 15
propri@@ 15
proves 15
province 15
psychia@@ 15
publ@@ 15
publish@@ 15
py@@ 15
quantitative 15
quarks 15
quel 15
quez 15
ramp@@ 15
refers 15
reflec@@ 15
reflecting 15
reinventing 15
reproductive 15
rer 15
resemble 15
respective 15
retri@@ 15
reven@@ 15
ron 15
rotation 15
ruin 15
rushed 15
saturated 15
scheduled 15
sco@@ 15
seri@@ 15
sha 15
sic 15
sigh@@ 15
sis@@ 15
six@@ 15
slow@@ 15
sno@@ 15
soli@@ 15
specialists 15
specul@@ 15
sponsored 15
stas@@ 15
strato@@ 15
stress@@ 15
stuff@@ 15
stupi@@ 15
supernova 15
surge 15
surrounds 15
tag@@ 15
tectonic 15
terrestrial 15
territ@@ 15
tha 15
thal@@ 15
theore@@ 15
throw@@ 15
tilt 15
tize 15
tolerate 15
tow@@ 15
transferred 15
transplant@@ 15
tropolitan 15
trun@@ 15
tucked 15
tyran@@ 15
uniform@@ 15
unrelated 15
unt 15
uranium 15
ury 15
vagin@@ 15
var@@ 15
vent@@ 15
venti@@ 15
ventil@@ 15
verge 15
veterans 15
vibration 15
violate 15
weaving 15
weekly 15
whisper@@ 15
width 15
wob@@ 15
wondrous 15
yed 15
yogur@@ 15
# 14
+ 14
.5 14
1918 14
21@@ 14
35,000 14
62 14
73 14
78 14
8,@@ 14
84 14
Alfred 14
Ali 14
Angel@@ 14
Antarc@@ 14
Are@@ 14
Arkans@@ 14
Bagh@@ 14
Barbie 14
Beauti@@ 14
Board 14
Bring 14
Brit@@ 14
CB@@ 14
CL 14
Cameron 14
Chr@@ 14
Congr@@ 14
Corporation 14
Darwin@@ 14
Diana 14
Duke 14
E8 14
EEG 14
End 14
Ever 14
Exxon 14
Fas@@ 14
Femin@@ 14
Fiel@@ 14
Forest 14
GPHIN 14
Gary 14
Gaz@@ 14
Gehry 14
Getting 14
Grav@@ 14
Guardi@@ 14
Hai@@ 14
Han 14
Heal@@ 14
His@@ 14
Home 14
Homer 14
Hungar@@ 14
IP 14
Inu@@ 14
Inv@@ 14
Isaac 14
Jennifer 14
Jonas 14
Judais@@ 14
Kanzi 14
Kir@@ 14
Kno@@ 14
Len 14
Liby@@ 14
Lor@@ 14
Lou@@ 14
Maitreya 14
Malt@@ 14
Miami 14
Minnes@@ 14
Mission 14
Mongoli@@ 14
NO@@ 14
Neil 14
Netra 14
Nicholas 14
Orches@@ 14
Ot@@ 14
Other@@ 14
Out@@ 14
Over@@ 14
Ox@@ 14
P. 14
PIPA 14
Phil@@ 14
Photoshop 14
Plat@@ 14
Play@@ 14
Prom@@ 14
Rand 14
Rice 14
Rid@@ 14
Riverside 14
Ronald 14
Roy 14
Run@@ 14
SE 14
SOPA 14
Sa@@ 14
Sand@@ 14
Sau@@ 14
Scientific 14
Sene@@ 14
Sort 14
Southeast 14
Stanley 14
Sus@@ 14
Tech@@ 14
Thous@@ 14
Urugu@@ 14
Vic@@ 14
Vir@@ 14
Walker 14
Wol@@ 14
Wonder@@ 14
abo@@ 14
accomplish@@ 14
achi@@ 14
acrony@@ 14
activation 14
addi@@ 14
adren@@ 14
affection 14
aggr@@ 14
algorithmic 14
altern@@ 14
ambassad@@ 14
ampli@@ 14
anatomical 14
angel@@ 14
animations 14
annoy@@ 14
anomal@@ 14
anonym@@ 14
antidepress@@ 14
any@@ 14
applau@@ 14
appoint@@ 14
appreci@@ 14
aqu@@ 14
arc 14
arch 14
aris@@ 14
aspiration 14
astronau@@ 14
ativ@@ 14
atre 14
attend 14
attrac@@ 14
aul@@ 14
axe 14
bari@@ 14
beav@@ 14
bec@@ 14
bin@@ 14
bird@@ 14
bis@@ 14
blogo@@ 14
blow@@ 14
bottlen@@ 14
brute 14
buri@@ 14
chair@@ 14
champagne 14
champion@@ 14
chand@@ 14
charging 14
chees@@ 14
chewing 14
chop@@ 14
cip@@ 14
climat@@ 14
coins 14
collections 14
comment@@ 14
compos@@ 14
compris@@ 14
concentr@@ 14
concentrations 14
conceptions 14
confusion 14
contributes 14
converting 14
cops 14
copy@@ 14
cosme@@ 14
cott@@ 14
crad@@ 14
credi@@ 14
cris@@ 14
crises 14
crochet 14
crocodi@@ 14
cymati@@ 14
cyn@@ 14
desper@@ 14
diagnostic@@ 14
dispute 14
donate 14
dos 14
dragging 14
dressing 14
drip 14
dug 14
eb@@ 14
edic 14
ei@@ 14
elle 14
ener@@ 14
erat@@ 14
err@@ 14
evangel@@ 14
exhibi@@ 14
fantas@@ 14
fashion@@ 14
fing@@ 14
fins 14
flatten@@ 14
forcement 14
fortu@@ 14
forum 14
fragr@@ 14
freedom@@ 14
fueled 14
fundament@@ 14
furi@@ 14
gan@@ 14
gang@@ 14
genetic@@ 14
genomic 14
geological 14
glori@@ 14
grat@@ 14
grav@@ 14
grim@@ 14
guid@@ 14
habit@@ 14
helicop@@ 14
hio 14
hostil@@ 14
hul@@ 14
hydrocar@@ 14
icul@@ 14
ident 14
identification 14
ides 14
idiot 14
ignorant 14
import@@ 14
incur@@ 14
industri@@ 14
inquir@@ 14
inser@@ 14
insert 14
interrog@@ 14
ints 14
intuitions 14
isions 14
itude 14
journ@@ 14
kni@@ 14
latitude 14
limin@@ 14
loaf 14
lobes 14
lumin@@ 14
mach@@ 14
makeu@@ 14
manipulating 14
marries 14
marshmal@@ 14
merging 14
mimics 14
miracles 14
miracul@@ 14
mois@@ 14
mountain@@ 14
muni@@ 14
mystical 14
needing 14
neur@@ 14
offici@@ 14
omin@@ 14
onesel@@ 14
opar@@ 14
opoly 14
oppos@@ 14
organizational 14
osity 14
paras@@ 14
pavili@@ 14
perm@@ 14
persuas@@ 14
phases 14
pig@@ 14
pioneering 14
plac@@ 14
plastic@@ 14
plenti@@ 14
plumb@@ 14
plur@@ 14
ply@@ 14
poe@@ 14
poke 14
policem@@ 14
porno@@ 14
position@@ 14
pots 14
predatory 14
preserving 14
presti@@ 14
prince 14
prom@@ 14
proof@@ 14
proscenium 14
protects 14
protons 14
proxim@@ 14
quadr@@ 14
quar@@ 14
ques 14
recommend@@ 14
reconci@@ 14
reconstruction 14
recreate 14
reinvent 14
remedi@@ 14
removes 14
removing 14
reporters 14
ri 14
ripped 14
row@@ 14
scand@@ 14
scenari@@ 14
seduc@@ 14
seminal 14
sensu@@ 14
seques@@ 14
sharehol@@ 14
shop@@ 14
simplify 14
skep@@ 14
sock@@ 14
sound@@ 14
sovereign@@ 14
speeding 14
spraw@@ 14
squee@@ 14
ssi@@ 14
stamp@@ 14
ston 14
streaming 14
styles 14
suffici@@ 14
suppose@@ 14
sushi 14
sweet@@ 14
swir@@ 14
systemic 14
tack@@ 14
tage 14
tam@@ 14
term@@ 14
thered 14
thou 14
threaten 14
thu@@ 14
tier 14
timi@@ 14
ting@@ 14
trag@@ 14
tran@@ 14
tread@@ 14
tri 14
triggered 14
truc@@ 14
tting 14
turn@@ 14
ua 14
uclear 14
unaware 14
unbelievably 14
unic@@ 14
va@@ 14
vague 14
valent 14
vascular 14
veiled 14
vivid@@ 14
voic@@ 14
vor@@ 14
wag@@ 14
wash@@ 14
what@@ 14
wood@@ 14
zi@@ 14
zon@@ 14
1.4 13
1800@@ 13
1900@@ 13
39 13
4,@@ 13
74 13
82 13
99.@@ 13
Accent@@ 13
Anonymous 13
Architecture 13
Astr@@ 13
Aus@@ 13
B.@@ 13
Ba@@ 13
Bec@@ 13
Billy 13
Bin 13
Blair 13
Bloo@@ 13
Bollywood 13
Botsw@@ 13
Brigades 13
Brilli@@ 13
Browne 13
Brun@@ 13
Buff@@ 13
Camp@@ 13
Campaig@@ 13
Cer@@ 13
Cheet@@ 13
Compan@@ 13
Curi@@ 13
Design@@ 13
Dod@@ 13
Eas@@ 13
Eigh@@ 13
Emer@@ 13
Essenti@@ 13
Ethiop@@ 13
Eur@@ 13
Everywhere 13
Face 13
Fam@@ 13
Film 13
Foo@@ 13
Galax@@ 13
Gillian 13
Greg 13
Hamp@@ 13
Harlem 13
Hay@@ 13
Helvetic@@ 13
Hem@@ 13
Herbie 13
Hillis 13
Human@@ 13
IN@@ 13
Igbo 13
Israel@@ 13
Istan@@ 13
J. 13
Jamai@@ 13
Jesse 13
Joh@@ 13
Kerry 13
Kis@@ 13
Land@@ 13
Lanka 13
Lev@@ 13
Local 13
MB@@ 13
MT@@ 13
Madagas@@ 13
Mann 13
Maria 13
Marti@@ 13
McC@@ 13
Mister 13
NI@@ 13
Netflix 13
Odyss@@ 13
Orle@@ 13
Oscar 13
PD@@ 13
Pack@@ 13
Pet@@ 13
Pier@@ 13
Pin@@ 13
Pit@@ 13
Ple@@ 13
Psycho@@ 13
Que@@ 13
Rem@@ 13
Rockefeller 13
Rocket@@ 13
Rol@@ 13
Ron 13
SO@@ 13
Sac@@ 13
Sally 13
Samuel 13
Sao 13
Schwarzschild 13
Scrip@@ 13
Sever@@ 13
Shu@@ 13
Snow 13
Some@@ 13
Stal@@ 13
Stand@@ 13
Stuxnet 13
Tech 13
Thula 13
Top 13
Tradi@@ 13
Transition 13
Treat@@ 13
Twe@@ 13
UC@@ 13
WI@@ 13
Walk 13
Western@@ 13
a.@@ 13
abol@@ 13
admit@@ 13
afflu@@ 13
aissance 13
alu@@ 13
amor@@ 13
andro@@ 13
aph@@ 13
appy 13
aque 13
argu@@ 13
arrog@@ 13
aser 13
asphal@@ 13
assign@@ 13
aster@@ 13
aversion 13
baby@@ 13
balanc@@ 13
biomateri@@ 13
bloom@@ 13
cav@@ 13
cel 13
cer 13
cha 13
clamation 13
clin@@ 13
colleg@@ 13
colonial 13
comedi@@ 13
concerts 13
confuse 13
congreg@@ 13
contemp@@ 13
contin@@ 13
conviction 13
corro@@ 13
cost@@ 13
crat@@ 13
craz@@ 13
cubes 13
cubic@@ 13
cultiv@@ 13
curv@@ 13
democr@@ 13
descend 13
desi@@ 13
dialo@@ 13
diffuse 13
dim@@ 13
dissi@@ 13
distinc@@ 13
distur@@ 13
draw@@ 13
drown@@ 13
durable 13
edic@@ 13
electromag@@ 13
elli 13
embl@@ 13
emin@@ 13
encoun@@ 13
erie 13
eries 13
esc@@ 13
estimation 13
euros 13
even@@ 13
excell@@ 13
exclusi@@ 13
excuses 13
expen@@ 13
extern@@ 13
eyes@@ 13
faith@@ 13
fec@@ 13
fici@@ 13
flar@@ 13
friend@@ 13
fring@@ 13
fulfill@@ 13
geek 13
ges@@ 13
ggling 13
ghet@@ 13
gi 13
gle 13
glucose 13
gly@@ 13
ha@@ 13
heal@@ 13
hil@@ 13
hill@@ 13
hockey 13
hybri@@ 13
hydrothermal 13
hypno@@ 13
icon@@ 13
incenti@@ 13
incidents 13
induc@@ 13
iner 13
influ@@ 13
influenz@@ 13
interconnec@@ 13
intim@@ 13
intoler@@ 13
intui@@ 13
invo@@ 13
ira 13
jewel@@ 13
jig@@ 13
join@@ 13
judi@@ 13
kee@@ 13
kilos 13
kios@@ 13
ko 13
leaf@@ 13
leav@@ 13
leng@@ 13
litig@@ 13
logarith@@ 13
manifestations 13
marathon 13
membranes 13
midd@@ 13
mini@@ 13
miniature 13
mit 13
mond 13
monum@@ 13
mother@@ 13
must@@ 13
neglec@@ 13
ness@@ 13
notori@@ 13
now@@ 13
opho@@ 13
organ@@ 13
ounded 13
padd@@ 13
patrio@@ 13
pedia 13
pend@@ 13
performances 13
pharmaceutic@@ 13
pix@@ 13
plaque 13
pop@@ 13
portions 13
process@@ 13
programm@@ 13
promotion 13
promp@@ 13
propag@@ 13
propulsion 13
provoc@@ 13
pus 13
queue 13
rectangle 13
regain 13
rememb@@ 13
rene@@ 13
repos@@ 13
reptiles 13
reuse 13
rhy@@ 13
ridicule 13
sage 13
screen@@ 13
sein 13
serv@@ 13
sexu@@ 13
ship@@ 13
sinc@@ 13
sion@@ 13
sket@@ 13
smooth@@ 13
societ@@ 13
solidi@@ 13
sourc@@ 13
spac@@ 13
spring@@ 13
stee@@ 13
stit@@ 13
storing 13
stream@@ 13
streng@@ 13
strength@@ 13
substr@@ 13
suppress 13
surviv@@ 13
symp@@ 13
ted@@ 13
testic@@ 13
thorough@@ 13
tian 13
toss@@ 13
transc@@ 13
transformations 13
trous 13
underestimate 13
unto 13
uph@@ 13
vap@@ 13
ventilation 13
vention 13
vibrant 13
vious 13
waking 13
ward@@ 13
way@@ 13
wido@@ 13
wilder@@ 13
will@@ 13
wiz@@ 13
worthin@@ 13
é 13
) 12
170 12
54 12
68 12
750 12
Adri@@ 12
Alexand@@ 12
Ann 12
Anth@@ 12
Architec@@ 12
Avi@@ 12
Bilbao 12
Bonnet 12
Buddhis@@ 12
CE@@ 12
Carter 12
Cau@@ 12
Charlo@@ 12
Cher@@ 12
Clark 12
Clin@@ 12
Corn@@ 12
DVD@@ 12
Davis 12
Daw@@ 12
Dev@@ 12
Dic@@ 12
Diplomat 12
Dir@@ 12
Donnell 12
Douglas 12
EC@@ 12
Eames 12
Eduardo 12
Emmanuel 12
FA@@ 12
Fel@@ 12
Fil@@ 12
Fortune 12
Fred 12
Freud 12
Fun@@ 12
Gapmin@@ 12
Georgetown 12
Gius@@ 12
Glenn 12
Goldman 12
Gram@@ 12
Guatem@@ 12
Harr@@ 12
Hawai@@ 12
Hill@@ 12
ID@@ 12
Infin@@ 12
Iv@@ 12
Jab@@ 12
Juan 12
Kh@@ 12
Lab@@ 12
Lat@@ 12
Luci@@ 12
ME@@ 12
Macintosh 12
Mah@@ 12
Manch@@ 12
Mao 12
Men@@ 12
Mes@@ 12
Michel@@ 12
Micro@@ 12
Mik@@ 12
Ms. 12
Natalie 12
Negroponte 12
Newton@@ 12
Norm@@ 12
Now@@ 12
Ottoman 12
PT@@ 12
Palm 12
Pascal 12
Picasso 12
Potter 12
Q. 12
Ra@@ 12
Radi@@ 12
Raj@@ 12
Rou@@ 12
Sir@@ 12
Sou@@ 12
Spr@@ 12
Sul@@ 12
Swahil@@ 12
Tun@@ 12
V. 12
Vas@@ 12
Victoria 12
Wiscons@@ 12
Zambi@@ 12
abri@@ 12
activis@@ 12
adage 12
adore 12
affir@@ 12
afford@@ 12
agan 12
agement 12
aik@@ 12
aires 12
alib@@ 12
alliance 12
allu@@ 12
anecdo@@ 12
anny 12
anth@@ 12
anthro@@ 12
antidote 12
api 12
arg@@ 12
atan 12
automo@@ 12
ave@@ 12
avier 12
barr@@ 12
bases 12
brav@@ 12
breast@@ 12
brutal@@ 12
carro@@ 12
cartil@@ 12
chann@@ 12
cheap@@ 12
chol@@ 12
chu@@ 12
compart@@ 12
compost 12
condu@@ 12
confron@@ 12
consequ@@ 12
contes@@ 12
conting@@ 12
courts 12
credit@@ 12
dang@@ 12
depart@@ 12
destro@@ 12
difficul@@ 12
digit@@ 12
disson@@ 12
dream@@ 12
dyslex@@ 12
eball 12
effic@@ 12
embodi@@ 12
embr@@ 12
encode 12
encourag@@ 12
endo@@ 12
enlighten@@ 12
eps 12
erec@@ 12
esp@@ 12
eter@@ 12
eur@@ 12
evid@@ 12
exam@@ 12
exhaus@@ 12
exo@@ 12
experim@@ 12
explorer 12
extrapol@@ 12
extraterres@@ 12
fascination 12
favor@@ 12
favorable 12
fractal@@ 12
frau@@ 12
galvan@@ 12
gling 12
gon@@ 12
gravit@@ 12
hh@@ 12
hippo@@ 12
holi@@ 12
honor@@ 12
hou 12
hygi@@ 12
idential 12
iff@@ 12
iling 12
immersion 12
initiatives 12
instrum@@ 12
intersec@@ 12
intro@@ 12
invisi@@ 12
isons 12
ita 12
ix 12
jets 12
jur@@ 12
juxtap@@ 12
ken@@ 12
khe@@ 12
labyrin@@ 12
lar 12
legis@@ 12
leton 12
leu@@ 12
lifesty@@ 12
liz@@ 12
lor@@ 12
loud@@ 12
manifes@@ 12
marin 12
mati@@ 12
metabo@@ 12
milit@@ 12
mitig@@ 12
mm@@ 12
modules 12
moon@@ 12
morpho@@ 12
multipli@@ 12
murder@@ 12
myri@@ 12
oas@@ 12
oblig@@ 12
onco@@ 12
optimi@@ 12
orthop@@ 12
pai@@ 12
palette 12
parasites 12
passi@@ 12
pean@@ 12
pel 12
pense 12
perc@@ 12
perform@@ 12
pes@@ 12
photons 12
photor@@ 12
pins 12
pis@@ 12
plasma 12
plat@@ 12
pluri@@ 12
pot@@ 12
pple 12
press@@ 12
probabil@@ 12
protocol@@ 12
puff@@ 12
pyram@@ 12
ques@@ 12
rection 12
reduc@@ 12
refu@@ 12
rend@@ 12
rent@@ 12
repl@@ 12
ret 12
rick@@ 12
ried 12
rig@@ 12
rott@@ 12
sama 12
scar 12
scoo@@ 12
scop@@ 12
sens@@ 12
sensations 12
shin@@ 12
solu@@ 12
sovere@@ 12
stal@@ 12
stin@@ 12
stom@@ 12
stop@@ 12
substitu@@ 12
sures 12
surve@@ 12
survi@@ 12
swim@@ 12
synago@@ 12
synthesiz@@ 12
take@@ 12
tang@@ 12
techno@@ 12
tenti@@ 12
terminal 12
theastern 12
then@@ 12
tore 12
tours 12
trage@@ 12
tunnels 12
turing 12
tz@@ 12
unes 12
ustr@@ 12
vac@@ 12
verts 12
violation 12
vo 12
von 12
waveleng@@ 12
white@@ 12
wig@@ 12
zoo@@ 12
á@@ 12
360 11
41 11
650 11
AC 11
Action 11
Aff@@ 11
Alber@@ 11
Ari@@ 11
Auschwit@@ 11
Ax@@ 11
BM@@ 11
Bak@@ 11
Blu@@ 11
Bomb@@ 11
Bou@@ 11
Broad@@ 11
Budap@@ 11
Bureau 11
CER@@ 11
Casey 11
Cent@@ 11
Chang@@ 11
Christopher 11
Chuck 11
Clevel@@ 11
Colom@@ 11
Cree@@ 11
Deniso@@ 11
Dominic@@ 11
Dop@@ 11
Dou@@ 11
Dra@@ 11
Egypti@@ 11
Evel@@ 11
Exper@@ 11
Ez@@ 11
FedE@@ 11
Fij@@ 11
Franklin 11
Gam@@ 11
Gil@@ 11
Gold@@ 11
Gor@@ 11
Gowan@@ 11
Guil@@ 11
Hal@@ 11
Has@@ 11
Hopkins 11
Huck 11
IP@@ 11
Illin@@ 11
Imag@@ 11
Intel@@ 11
J.@@ 11
JPL 11
Jacques 11
Jaz@@ 11
Jon 11
Karl 11
Kent@@ 11
Kinsey 11
Kiva 11
LOLcats 11
Lead@@ 11
Lindber@@ 11
M. 11
MA@@ 11
MBA 11
MP3 11
McLu@@ 11
Mey@@ 11
Mir@@ 11
Mis@@ 11
Miss@@ 11
Mom@@ 11
Najmu@@ 11
Nash@@ 11
Nig@@ 11
OM@@ 11
Oak@@ 11
Parks 11
Pat 11
Pav@@ 11
Princip@@ 11
Proc@@ 11
Proto@@ 11
Pun@@ 11
Ralph 11
Reli@@ 11
Respon@@ 11
Rezero 11
Robicsek 11
Rum@@ 11
Rus@@ 11
Sachs 11
Sergey 11
Serra 11
Shel@@ 11
Simpson 11
Splashy 11
Syn@@ 11
TEDGlobal 11
TT@@ 11
Tai@@ 11
Tay@@ 11
Temp@@ 11
Terri@@ 11
Thanks@@ 11
Treas@@ 11
Ul@@ 11
Utop@@ 11
Viking 11
Vis@@ 11
Wag@@ 11
Woody 11
WorldWide 11
Wy@@ 11
Ze@@ 11
abil@@ 11
abstr@@ 11
acquisition 11
admi@@ 11
adu@@ 11
affor@@ 11
alis@@ 11
amas@@ 11
amateurs 11
amphibi@@ 11
analogies 11
anatom@@ 11
ante 11
antic@@ 11
apper 11
applic@@ 11
aquarium 11
artifici@@ 11
asc@@ 11
aspire 11
atric@@ 11
avo@@ 11
bai@@ 11
bie 11
bill@@ 11
biom@@ 11
bot@@ 11
bris 11
bub@@ 11
buy@@ 11
canni@@ 11
cans 11
capill@@ 11
caric@@ 11
cellulose 11
champion 11
cid@@ 11
circumst@@ 11
claim@@ 11
coalition 11
cock 11
coco@@ 11
coloni@@ 11
combustion 11
commander 11
compression 11
conc@@ 11
confrontation 11
conserve 11
construc@@ 11
constructions 11
consu@@ 11
consum@@ 11
consumer@@ 11
conventions 11
coordinat@@ 11
cram@@ 11
cran@@ 11
crit@@ 11
curi@@ 11
dant 11
debat@@ 11
decep@@ 11
defin@@ 11
derni@@ 11
devas@@ 11
dia 11
dilem@@ 11
dilu@@ 11
dimension@@ 11
dire 11
dispu@@ 11
diversi@@ 11
divi@@ 11
doctrine 11
dop@@ 11
dor 11
dur@@ 11
earth@@ 11
encom@@ 11
ergy 11
etern@@ 11
expos@@ 11
exquis@@ 11
extraction 11
factu@@ 11
fasc@@ 11
featu@@ 11
ferment@@ 11
fertile 11
fertiliz@@ 11
fiable 11
fron@@ 11
further@@ 11
fusi@@ 11
futu@@ 11
futures 11
gering 11
grab@@ 11
greg@@ 11
grou@@ 11
group@@ 11
guides 11
haw@@ 11
health@@ 11
hierarch@@ 11
him@@ 11
hit@@ 11
ho 11
homicide 11
hon@@ 11
humor@@ 11
impatient 11
impos@@ 11
impressions 11
improbable 11
inaugur@@ 11
inclin@@ 11
inflam@@ 11
infr@@ 11
inger@@ 11
inhal@@ 11
inhib@@ 11
instantan@@ 11
instrument@@ 11
intellig@@ 11
intimi@@ 11
invas@@ 11
iso@@ 11
ition 11
itz@@ 11
jarg@@ 11
ji@@ 11
know@@ 11
laps 11
lenti@@ 11
ler@@ 11
lest 11
lick@@ 11
ligator 11
lingu@@ 11
logis@@ 11
marines 11
mes@@ 11
monit@@ 11
multicul@@ 11
mum@@ 11
myth@@ 11
narciss@@ 11
nav@@ 11
nin@@ 11
not@@ 11
obsessi@@ 11
occasi@@ 11
occasions 11
ois@@ 11
oll 11
opath@@ 11
org 11
ots 11
outre@@ 11
overwhelm@@ 11
pacemak@@ 11
parabo@@ 11
paradig@@ 11
paradox@@ 11
parano@@ 11
paraph@@ 11
part@@ 11
payer 11
pension 11
perf@@ 11
permit 11
pestici@@ 11
petite 11
pharmac@@ 11
phere 11
pictu@@ 11
pier@@ 11
pirates 11
poach@@ 11
positives 11
pou@@ 11
powering 11
preach@@ 11
prises 11
probable 11
propor@@ 11
prosper@@ 11
prou@@ 11
pursu@@ 11
q 11
quer 11
radioactive 11
recycl@@ 11
religi@@ 11
reserv@@ 11
resurrec@@ 11
riv@@ 11
royal 11
rying 11
sa@@ 11
saf@@ 11
sam@@ 11
samp@@ 11
sar@@ 11
schol@@ 11
scul@@ 11
selfish@@ 11
seniors 11
situ@@ 11
skelet@@ 11
soc@@ 11
sophistic@@ 11
sors 11
spectr@@ 11
spic@@ 11
steal@@ 11
stigmati@@ 11
strai@@ 11
straw@@ 11
stre@@ 11
studios 11
subjec@@ 11
submersibles 11
suite 11
suspici@@ 11
sym@@ 11
tactile 11
tali@@ 11
thousand@@ 11
thy@@ 11
tire 11
tock 11
touch@@ 11
transaction 11
transf@@ 11
transl@@ 11
tres@@ 11
trillions 11
troph@@ 11
truth@@ 11
tte 11
twit@@ 11
ument 11
umes 11
ushed 11
venues 11
ves@@ 11
volu@@ 11
vul@@ 11
wear@@ 11
za 11
200@@ 10
26@@ 10
29@@ 10
91 10
= 10
AN@@ 10
Ach@@ 10
Adam@@ 10
Admin 10
Alban@@ 10
Amazon@@ 10
Atten@@ 10
Babylon@@ 10
Bah@@ 10
Bam@@ 10
Betty 10
Beverly 10
Boltz@@ 10
Bonobo@@ 10
Bosni@@ 10
Boyle 10
Brah@@ 10
Bud@@ 10
Calcul@@ 10
Cargill 10
Carri@@ 10
Chand@@ 10
Chef 10
Christian@@ 10
Clay 10
Clo@@ 10
Clon@@ 10
Contr@@ 10
Creative 10
DMCA 10
DR@@ 10
Dak@@ 10
Derartu 10
Distric@@ 10
Earth@@ 10
Edison 10
Edward 10
Eleanor 10
Embr@@ 10
Er@@ 10
Euro@@ 10
Festival 10
Fo@@ 10
Franc@@ 10
Freu@@ 10
Ghrai@@ 10
Grow@@ 10
Hein@@ 10
Hul@@ 10
Hyderab@@ 10
Impossible 10
Inst@@ 10
Irani@@ 10
Jam@@ 10
Jer@@ 10
Jus@@ 10
Kaluza 10
Kit@@ 10
Kofi 10
LH@@ 10
Let@@ 10
Ligh@@ 10
Linus 10
Ly@@ 10
Lynn 10
Mach 10
Malaw@@ 10
Mardu@@ 10
Marx 10
Math@@ 10
Matthew 10
Matthieu 10
Milan 10
Mitch@@ 10
Mont@@ 10
Mozambi@@ 10
NBC 10
NF@@ 10
Nancy 10
Neuro@@ 10
Ny@@ 10
Off@@ 10
Open@@ 10
Page 10
Pearl 10
Philippe 10
Projec@@ 10
Pul@@ 10
Resear@@ 10
Robin 10
SI 10
ST 10
Sav@@ 10
Scal@@ 10
Scho@@ 10
Serv@@ 10
Shir@@ 10
Son@@ 10
Spo@@ 10
Sys 10
Tasmani@@ 10
Thank@@ 10
Tibet@@ 10
Tiger 10
Tit@@ 10
Tol@@ 10
Tul@@ 10
Tulu 10
UNI@@ 10
UV@@ 10
Viagr@@ 10
Water@@ 10
West@@ 10
Wildlife 10
Yam@@ 10
Yor@@ 10
York@@ 10
abdom@@ 10
acidification 10
adequ@@ 10
adequate 10
ador@@ 10
advant@@ 10
alter@@ 10
aly@@ 10
amas 10
amie 10
analog@@ 10
anecdote 10
angu@@ 10
annihil@@ 10
ano@@ 10
anor@@ 10
ario 10
aro@@ 10
arsen@@ 10
assassin@@ 10
assess@@ 10
ati 10
atically 10
atrice 10
aut@@ 10
aven@@ 10
badge 10
banal 10
barbar@@ 10
bonobos 10
botan@@ 10
bou@@ 10
brea@@ 10
briquettes 10
brush@@ 10
bum 10
bus@@ 10
buz@@ 10
cape 10
catalo@@ 10
catastrophes 10
cath@@ 10
cens@@ 10
ception 10
champi@@ 10
chant 10
chants 10
chari@@ 10
chefs 10
ches@@ 10
choo@@ 10
condi@@ 10
const@@ 10
constru@@ 10
coup 10
cub@@ 10
culmin@@ 10
dale 10
daw@@ 10
decei@@ 10
declar@@ 10
demand@@ 10
depu@@ 10
dess@@ 10
deter@@ 10
devise 10
diagno@@ 10
dialec@@ 10
ding@@ 10
diri@@ 10
discrimination 10
dispers@@ 10
distric@@ 10
diz@@ 10
documentation 10
domination 10
eck@@ 10
ectom@@ 10
ego@@ 10
eh 10
elihood 10
endor@@ 10
epidem@@ 10
equi@@ 10
erer 10
esis 10
espo@@ 10
euph@@ 10
exac@@ 10
exemp@@ 10
ez@@ 10
farm@@ 10
fates 10
festival 10
flor@@ 10
formal@@ 10
formations 10
fus 10
gau@@ 10
hr@@ 10
hundre@@ 10
hydropho@@ 10
iPh@@ 10
ima 10
inadver@@ 10
influenc@@ 10
infrastructures 10
innoc@@ 10
insis@@ 10
install@@ 10
institution@@ 10
intelli@@ 10
intensi@@ 10
ion@@ 10
irrit@@ 10
ite@@ 10
ived 10
jol@@ 10
jure 10
knowledge@@ 10
lag@@ 10
lamin@@ 10
legitim@@ 10
libr@@ 10
lip@@ 10
littleBits 10
macro@@ 10
mafi@@ 10
magni@@ 10
maj@@ 10
mans 10
marath@@ 10
matu@@ 10
ming@@ 10
missiles 10
mo 10
modification 10
motivations 10
mouth@@ 10
muc@@ 10
mutat@@ 10
nee@@ 10
nightmar@@ 10
nyl@@ 10
odd@@ 10
odor@@ 10
oko 10
oli@@ 10
onn@@ 10
oo 10
ord@@ 10
ould 10
parti@@ 10
patri@@ 10
pens@@ 10
pire 10
pois@@ 10
potassium 10
preci@@ 10
princ@@ 10
pris@@ 10
proportions 10
ptions 10
pur 10
quadrup@@ 10
rad@@ 10
rase 10
recover@@ 10
regar@@ 10
regards 10
reper@@ 10
rest@@ 10
restriction 10
resur@@ 10
reti@@ 10
rival@@ 10
robe 10
roy@@ 10
sacrifices 10
sanctu@@ 10
sentiments 10
sex@@ 10
siz@@ 10
skeptic@@ 10
sligh@@ 10
soun@@ 10
spectat@@ 10
spray@@ 10
squeez@@ 10
stomatopo@@ 10
strand@@ 10
strat@@ 10
substances 10
suppl@@ 10
surf 10
surf@@ 10
sus 10
suspects 10
suspension 10
tai@@ 10
taxonom@@ 10
temples 10
terly 10
theat@@ 10
thing@@ 10
tici@@ 10
translat@@ 10
transplantation 10
trav@@ 10
travel@@ 10
trem@@ 10
triang@@ 10
vain 10
veil@@ 10
vie 10
vig@@ 10
winter@@ 10
yg@@ 10
yl 10
you@@ 10
( 9
23@@ 9
Allan 9
Alvin 9
Andre@@ 9
Ang@@ 9
Arav@@ 9
Arnold 9
Atom@@ 9
Avel@@ 9
Az@@ 9
Balti@@ 9
Barr@@ 9
Bez@@ 9
Big@@ 9
Bobby 9
Britann@@ 9
Bry@@ 9
Buckminster 9
Budr@@ 9
Bul@@ 9
Cant@@ 9
Capgras 9
Car 9
Census 9
Chag@@ 9
Citiz@@ 9
Commer@@ 9
Cou@@ 9
Cour@@ 9
DO@@ 9
Dais@@ 9
Dam@@ 9
Deng 9
Dewe@@ 9
Diver@@ 9
Drac@@ 9
Dravi@@ 9
Dro@@ 9
Dun@@ 9
Duoling@@ 9
Dy@@ 9
EE@@ 9
Eag@@ 9
Encyclo@@ 9
Ernest 9
Eu@@ 9
FO@@ 9
Feel 9
Fem@@ 9
Fuller 9
Gamble 9
Hans@@ 9
Hav@@ 9
Hewlet@@ 9
Him@@ 9
I.M. 9
Indus@@ 9
Intellig@@ 9
Ir@@ 9
Iron 9
Jav@@ 9
Ji@@ 9
Journ@@ 9
Jurassic 9
Kaab@@ 9
Kah@@ 9
Kim@@ 9
Kin@@ 9
Kleiber 9
Kol@@ 9
Kor@@ 9
Kurzweil 9
LEG@@ 9
Lak@@ 9
Layma 9
Leg@@ 9
Lind@@ 9
Liver@@ 9
Lyndon 9
MO@@ 9
Madison 9
Malcolm 9
Masters 9
Med@@ 9
Metropolitan 9
Mexic@@ 9
NAN@@ 9
Naomi 9
Nik@@ 9
Oc@@ 9
Oklahom@@ 9
Pand@@ 9
Part@@ 9
Paula 9
Plu@@ 9
Plus 9
Poly@@ 9
Portu@@ 9
Power@@ 9
Prak@@ 9
Protec@@ 9
Proz@@ 9
Psy@@ 9
Question 9
R. 9
Ral@@ 9
Rich@@ 9
Rod@@ 9
Ross@@ 9
Rut@@ 9
Rwand@@ 9
Salman 9
Sanghami@@ 9
Sebas@@ 9
Secre@@ 9
Sophi@@ 9
Sub@@ 9
Tak@@ 9
Tel 9
Tes@@ 9
Tom@@ 9
Torosau@@ 9
Trin@@ 9
Twit@@ 9
Tyrannosau@@ 9
Van@@ 9
Vish@@ 9
Voy@@ 9
Vul@@ 9
W. 9
Whirl@@ 9
Willie 9
Wur@@ 9
You@@ 9
absorption 9
accor@@ 9
account@@ 9
acoustici@@ 9
advent@@ 9
ais 9
alan@@ 9
allow@@ 9
aments 9
ami@@ 9
amput@@ 9
analyses 9
anie 9
antique 9
apath@@ 9
arom@@ 9
ask@@ 9
asser@@ 9
assurance 9
astrop@@ 9
asy@@ 9
atl@@ 9
atmospher@@ 9
atori@@ 9
attack@@ 9
aut 9
barbec@@ 9
bassad@@ 9
batro@@ 9
batter@@ 9
befor@@ 9
believ@@ 9
bell@@ 9
bir@@ 9
bod@@ 9
bodi@@ 9
bott@@ 9
broch@@ 9
canal 9
canc@@ 9
cano@@ 9
cassette 9
chlor@@ 9
chloro@@ 9
chocol@@ 9
cite 9
clam@@ 9
classification 9
coccus 9
coerci@@ 9
collag@@ 9
compo@@ 9
concoc@@ 9
connectom@@ 9
consol@@ 9
consorti@@ 9
controversi@@ 9
conven@@ 9
coron@@ 9
cowboy 9
crac@@ 9
cussions 9
cylin@@ 9
dai@@ 9
dal@@ 9
della 9
deral 9
descendants 9
desp@@ 9
dies@@ 9
dis 9
dissent 9
distil@@ 9
doctrines 9
dorm@@ 9
doubles 9
drop@@ 9
drough@@ 9
drun@@ 9
duction 9
earthqu@@ 9
eco@@ 9
eff@@ 9
elli@@ 9
emer@@ 9
emis@@ 9
endem@@ 9
ens@@ 9
entit@@ 9
erre 9
estim@@ 9
exter@@ 9
fain@@ 9
fatigue 9
fid@@ 9
fier 9
floc@@ 9
fluid@@ 9
fond 9
forage 9
foreign@@ 9
fort 9
fossil@@ 9
fractu@@ 9
ft. 9
geant 9
gent@@ 9
geome@@ 9
girl@@ 9
gymnosophis@@ 9
habitu@@ 9
hectares 9
hemispher@@ 9
hic@@ 9
ice@@ 9
ico@@ 9
ile@@ 9
illusion@@ 9
immuno@@ 9
ins@@ 9
insan@@ 9
intercep@@ 9
interi@@ 9
inversion 9
invest@@ 9
invit@@ 9
ip@@ 9
irl@@ 9
isotop@@ 9
itari@@ 9
iter 9
jet@@ 9
kis@@ 9
km 9
known@@ 9
lanc@@ 9
lassi@@ 9
legisl@@ 9
liance 9
ligence 9
loop@@ 9
lton 9
luci@@ 9
manus@@ 9
marsh@@ 9
mascul@@ 9
may@@ 9
mets 9
microscop@@ 9
min 9
mitochondri@@ 9
monitor@@ 9
mont 9
moo@@ 9
mou@@ 9
multiplic@@ 9
mytho@@ 9
narco@@ 9
necess@@ 9
nest@@ 9
nit@@ 9
nover 9
obligations 9
ocy@@ 9
often@@ 9
ole 9
ombe 9
omet@@ 9
onel 9
orang@@ 9
orient@@ 9
osi@@ 9
ousy 9
ovari@@ 9
oxygen@@ 9
pandem@@ 9
parade 9
paragrap@@ 9
pattern@@ 9
pendi@@ 9
phil@@ 9
pige@@ 9
plex@@ 9
pointer 9
polit@@ 9
polym@@ 9
pores 9
porter 9
postul@@ 9
preme 9
prepar@@ 9
progress@@ 9
proportion@@ 9
provinces 9
psycholog@@ 9
psychopath@@ 9
pub 9
putation 9
quor@@ 9
renaissance 9
resource@@ 9
rhino@@ 9
riches 9
ridicul@@ 9
rir 9
rit@@ 9
rotor 9
rug@@ 9
sain@@ 9
san 9
sati@@ 9
scanners 9
sec 9
sentiment 9
sevent@@ 9
simpli@@ 9
simplif@@ 9
spectacle 9
spectroscop@@ 9
story@@ 9
strateg@@ 9
submer@@ 9
supersti@@ 9
tecton@@ 9
telev@@ 9
tensions 9
testant 9
testi@@ 9
thermo@@ 9
thermodynam@@ 9
thropo@@ 9
thunder@@ 9
tice 9
titudes 9
tok@@ 9
trach@@ 9
trainer 9
transport@@ 9
trig@@ 9
trim@@ 9
typ@@ 9
ucli@@ 9
ump@@ 9
vide@@ 9
vin 9
wan@@ 9
watch@@ 9
wea@@ 9
word@@ 9
wrap@@ 9
xon 9
ype 9
ö@@ 9
105 8
1500 8
22@@ 8
240 8
380 8
46@@ 8
5,@@ 8
9,@@ 8
Administr@@ 8
Afgh@@ 8
Andr@@ 8
Andro@@ 8
Anne 8
Ansari 8
Appar@@ 8
Appro@@ 8
Augu@@ 8
Autom@@ 8
BM 8
Ball@@ 8
Barcel@@ 8
Bau@@ 8
Biafr@@ 8
Birming@@ 8
Blackber@@ 8
Blo@@ 8
Boeing 8
Cab@@ 8
Celsi@@ 8
Chin@@ 8
Chur@@ 8
Ci@@ 8
Cin@@ 8
Coach 8
Comb@@ 8
Confuci@@ 8
Conserv@@ 8
Correc@@ 8
Croati@@ 8
DM@@ 8
De 8
Denn@@ 8
Dennis 8
Dhar@@ 8
Domin@@ 8
Durg@@ 8
Eff@@ 8
Eisen@@ 8
Engel@@ 8
Enter@@ 8
Eri@@ 8
Et@@ 8
Fai@@ 8
Fir@@ 8
Flor@@ 8
G. 8
Gag@@ 8
Gandhi@@ 8
Goldiloc@@ 8
Guin@@ 8
IC@@ 8
Il 8
Institu@@ 8
It@@ 8
Ital@@ 8
Jack@@ 8
Johan@@ 8
Jonathan 8
Joy@@ 8
Jun@@ 8
KIP@@ 8
Kap@@ 8
Karaj@@ 8
Karen 8
Kel@@ 8
Kermit 8
Kne@@ 8
Krish@@ 8
LI@@ 8
La@@ 8
Lei@@ 8
Lun@@ 8
Marc 8
Mari@@ 8
Maril@@ 8
Martha 8
Mee@@ 8
Meet@@ 8
Merce@@ 8
Mich@@ 8
Moder@@ 8
Moham@@ 8
Moo@@ 8
Multi@@ 8
Nat@@ 8
Nigeri@@ 8
Noam 8
OE@@ 8
Ob@@ 8
Okinaw@@ 8
Ork@@ 8
Pari@@ 8
Particip@@ 8
Pix@@ 8
Port@@ 8
Queens@@ 8
Rebecca 8
Ret@@ 8
Reu@@ 8
Richar@@ 8
Robin@@ 8
Safe@@ 8
Scandin@@ 8
Sciences 8
Shred@@ 8
Sis@@ 8
Sm@@ 8
Son 8
Spider@@ 8
Squ@@ 8
Stati@@ 8
Steven@@ 8
Stre@@ 8
TEDx@@ 8
TEMP@@ 8
TO@@ 8
TV@@ 8
Tat@@ 8
Techno@@ 8
Termin@@ 8
That@@ 8
Tou@@ 8
Toy@@ 8
Turk@@ 8
Univers@@ 8
Veriz@@ 8
Vibrio 8
Way@@ 8
Xiaoping 8
Yo@@ 8
Yoch@@ 8
accep@@ 8
adem@@ 8
admir@@ 8
admiration 8
aines 8
ami 8
amo@@ 8
amus@@ 8
anes 8
anges 8
aphor 8
arbitr@@ 8
archives 8
arit@@ 8
associ@@ 8
associations 8
ate@@ 8
ather@@ 8
ato 8
atom@@ 8
atri@@ 8
audaci@@ 8
austr@@ 8
awk@@ 8
begin@@ 8
big@@ 8
biomat@@ 8
blam@@ 8
bosses 8
burq@@ 8
c. 8
cabin@@ 8
calam@@ 8
capr@@ 8
carni@@ 8
cartes 8
catar@@ 8
cation 8
cep@@ 8
ceremon@@ 8
chae@@ 8
change@@ 8
changer 8
chor@@ 8
cible 8
clair 8
clon@@ 8
complain@@ 8
consoli@@ 8
constellations 8
convictions 8
correspond@@ 8
costume 8
cot@@ 8
covery 8
crayons 8
creativ@@ 8
cros@@ 8
cryp@@ 8
death@@ 8
deci@@ 8
decisi@@ 8
diction 8
diff@@ 8
dith 8
doctor@@ 8
e. 8
ech 8
element@@ 8
ellip@@ 8
emak@@ 8
emar@@ 8
employer 8
ence@@ 8
encour@@ 8
endur@@ 8
enf@@ 8
envelop@@ 8
equival@@ 8
eras 8
etho@@ 8
eurs 8
factor@@ 8
fan@@ 8
flation 8
fly@@ 8
forest@@ 8
frag@@ 8
fragment 8
fran@@ 8
fru@@ 8
futur@@ 8
gade 8
gag@@ 8
gey@@ 8
ghten@@ 8
great@@ 8
gren@@ 8
hack@@ 8
hambur@@ 8
hectare 8
here@@ 8
homo@@ 8
ille@@ 8
iller 8
iment 8
inhabit@@ 8
intend@@ 8
interstell@@ 8
intimid@@ 8
intrig@@ 8
inventi@@ 8
iti 8
j 8
kep@@ 8
kl@@ 8
lier 8
linguis@@ 8
liquid@@ 8
lis 8
lition 8
lock@@ 8
major@@ 8
mang@@ 8
megawat@@ 8
mention@@ 8
metaphor@@ 8
microflu@@ 8
miser@@ 8
monstr@@ 8
mour@@ 8
multipl@@ 8
nag@@ 8
natures 8
neutrin@@ 8
niches 8
nis@@ 8
nitr@@ 8
nostal@@ 8
numb@@ 8
occu@@ 8
occurr@@ 8
och@@ 8
oit 8
ophon@@ 8
oping 8
oscop@@ 8
osexu@@ 8
pH 8
paci@@ 8
pand@@ 8
partisan 8
paus@@ 8
peac@@ 8
percus@@ 8
perio@@ 8
pharm@@ 8
pipel@@ 8
pist@@ 8
placent@@ 8
podi@@ 8
pom@@ 8
pose@@ 8
possession 8
prag@@ 8
prairie 8
printer@@ 8
probio@@ 8
progressi@@ 8
puri@@ 8
purpos@@ 8
rag@@ 8
ramen@@ 8
rang 8
rar@@ 8
recharge 8
redu@@ 8
reform@@ 8
regre@@ 8
rejo@@ 8
rescu@@ 8
ridicu@@ 8
rin@@ 8
ring@@ 8
rons 8
rudiment@@ 8
sag@@ 8
seed@@ 8
seg@@ 8
sequ@@ 8
shoc@@ 8
shock@@ 8
shr@@ 8
shrin@@ 8
sim@@ 8
singul@@ 8
spectro@@ 8
spor@@ 8
spread@@ 8
stair@@ 8
street@@ 8
stru@@ 8
struc@@ 8
strugg@@ 8
sugar@@ 8
suici@@ 8
suppression 8
swag@@ 8
swi@@ 8
tent@@ 8
tionnaire 8
tol@@ 8
toxic@@ 8
track@@ 8
train@@ 8
trajector@@ 8
transactions 8
troubles 8
ula 8
uli@@ 8
underst@@ 8
unexpec@@ 8
urb@@ 8
vant@@ 8
vern@@ 8
versity 8
vil@@ 8
wand@@ 8
yan 8
ym@@ 8
175 7
27@@ 7
60@@ 7
99@@ 7
Aar@@ 7
Af@@ 7
Alex@@ 7
Arch@@ 7
Aristo@@ 7
Ast@@ 7
Atl@@ 7
Beijerinc@@ 7
Benn@@ 7
Berk@@ 7
Bob@@ 7
Bot@@ 7
Brad@@ 7
Buen@@ 7
Burger 7
Cambri@@ 7
Capit@@ 7
Ce@@ 7
Ches@@ 7
Chev@@ 7
Chop@@ 7
Cis@@ 7
Concer@@ 7
Couste@@ 7
DAR@@ 7
Dai 7
Day@@ 7
Dig@@ 7
Dynam@@ 7
Educ@@ 7
Ell@@ 7
Entre@@ 7
Erik 7
FE@@ 7
Fluc@@ 7
Foot@@ 7
G.@@ 7
Googl@@ 7
H1N@@ 7
HA@@ 7
Hab@@ 7
Harri@@ 7
Hei@@ 7
Hil@@ 7
Hippocr@@ 7
Hist@@ 7
Hob@@ 7
Idr@@ 7
Imagin@@ 7
Jans@@ 7
Jas@@ 7
Jos@@ 7
Kath@@ 7
Kati@@ 7
Kazakh@@ 7
Kev@@ 7
Kid@@ 7
Kore@@ 7
Kris@@ 7
Kryp@@ 7
Laden@@ 7
Lay@@ 7
Leh@@ 7
Lifesav@@ 7
Lyn@@ 7
MR@@ 7
MS@@ 7
Mahabhar@@ 7
Mam@@ 7
McMur@@ 7
Medi@@ 7
Moi 7
Molly 7
Myhr@@ 7
Nic@@ 7
Nichol@@ 7
Niel@@ 7
Nintend@@ 7
Novo@@ 7
O. 7
Octavi@@ 7
Olden@@ 7
Olym@@ 7
PL@@ 7
Pachy@@ 7
Pakistan@@ 7
Parad@@ 7
Pass@@ 7
Patriot 7
Pay@@ 7
Peters@@ 7
Ph.@@ 7
Pra@@ 7
Prus@@ 7
RD@@ 7
RW 7
Rad@@ 7
Rap@@ 7
Ray@@ 7
Rhode 7
SR@@ 7
Sag@@ 7
Sai@@ 7
Sant@@ 7
Sargas@@ 7
Sculpe@@ 7
Sec@@ 7
Send@@ 7
Shim@@ 7
Slo@@ 7
Sovi@@ 7
Stor@@ 7
Street@@ 7
Stuart 7
Syd@@ 7
Ten@@ 7
Ther@@ 7
Tour@@ 7
Trac@@ 7
Valent@@ 7
Vent@@ 7
Vie@@ 7
Wall@@ 7
Web@@ 7
Wiki@@ 7
Wis@@ 7
Worldchang@@ 7
Yanke@@ 7
Yellow@@ 7
Youn@@ 7
Zul@@ 7
abas@@ 7
accord 7
acro@@ 7
acul@@ 7
ade@@ 7
ahi@@ 7
aired 7
alou@@ 7
amat@@ 7
amer 7
amph@@ 7
ancestr@@ 7
anch 7
ander@@ 7
annu@@ 7
ao@@ 7
aor@@ 7
aper@@ 7
appar@@ 7
appli@@ 7
archiv@@ 7
asi@@ 7
assis 7
aston@@ 7
atis@@ 7
audition 7
augmentation 7
avat@@ 7
avo 7
azza 7
bas 7
beac@@ 7
bic@@ 7
bifur@@ 7
biscuits 7
bivor@@ 7
blad@@ 7
bombar@@ 7
bras 7
brit@@ 7
bug@@ 7
camer@@ 7
cany@@ 7
capsu@@ 7
certi@@ 7
cet@@ 7
chir@@ 7
cir@@ 7
civiliz@@ 7
clip@@ 7
clitor@@ 7
coc@@ 7
coincid@@ 7
collisions 7
compan@@ 7
compassion@@ 7
computer@@ 7
confis@@ 7
conform@@ 7
content@@ 7
copi@@ 7
costumes 7
counc@@ 7
coyo@@ 7
cras@@ 7
crick@@ 7
crip@@ 7
crocod@@ 7
cry@@ 7
cules 7
cuse 7
delic@@ 7
demon@@ 7
depres@@ 7
dermat@@ 7
diap@@ 7
diaspor@@ 7
diner 7
dispose 7
dits 7
document@@ 7
dras@@ 7
dress@@ 7
ecdo@@ 7
ecraf@@ 7
embarr@@ 7
ember 7
emplo@@ 7
enchant@@ 7
enjo@@ 7
ernand@@ 7
escap@@ 7
espr@@ 7
essenti@@ 7
estion 7
etown 7
eur 7
euri@@ 7
exc@@ 7
exer@@ 7
explan@@ 7
ext@@ 7
fam@@ 7
figur@@ 7
filament 7
fischer@@ 7
found@@ 7
foyer 7
fracture 7
frame@@ 7
frustr@@ 7
galac@@ 7
gav@@ 7
gences 7
geons 7
gest@@ 7
gho@@ 7
giga@@ 7
gir@@ 7
glaci@@ 7
glim@@ 7
gratuit@@ 7
grown@@ 7
guar@@ 7
guer@@ 7
gyp@@ 7
horizon@@ 7
hors@@ 7
hou@@ 7
hyperson@@ 7
ibuprof@@ 7
idi 7
imper@@ 7
incar@@ 7
ince 7
infiltr@@ 7
inhibit@@ 7
insp@@ 7
insur@@ 7
interag@@ 7
intru@@ 7
invari@@ 7
irration@@ 7
itali@@ 7
jab@@ 7
je 7
jo 7
judici@@ 7
kang@@ 7
laparoscop@@ 7
lesbi@@ 7
lexi@@ 7
lexic@@ 7
lins 7
lov@@ 7
lus@@ 7
lux@@ 7
malari@@ 7
mammal@@ 7
masse 7
medab@@ 7
memb@@ 7
metap@@ 7
municipal 7
nai@@ 7
nas@@ 7
nigh@@ 7
nu 7
number@@ 7
obl@@ 7
oly@@ 7
onch@@ 7
ond@@ 7
ood 7
orch@@ 7
orni@@ 7
orthodo@@ 7
oscill@@ 7
ote 7
owit@@ 7
oxy@@ 7
par 7
parachu@@ 7
paragraph@@ 7
partment 7
partner@@ 7
pau@@ 7
penc@@ 7
perver@@ 7
phenomen@@ 7
philanthrop@@ 7
pli@@ 7
plot@@ 7
poin@@ 7
poli@@ 7
popular@@ 7
pread 7
princip@@ 7
prob@@ 7
pseu@@ 7
pulsion 7
pus@@ 7
qualit@@ 7
quarti@@ 7
quel@@ 7
queu@@ 7
quid 7
rabb@@ 7
rak@@ 7
recogniz@@ 7
rels 7
remor@@ 7
respon@@ 7
revi@@ 7
robo@@ 7
roman@@ 7
romanti@@ 7
ror 7
routes 7
saint 7
sari 7
scol@@ 7
shap@@ 7
slum@@ 7
solidar@@ 7
solitude 7
structur@@ 7
stylis@@ 7
sulfuri@@ 7
superfici@@ 7
supervis@@ 7
sustain@@ 7
syl@@ 7
syllab@@ 7
symme@@ 7
synon@@ 7
tau@@ 7
teach@@ 7
temberer@@ 7
terr@@ 7
thermi@@ 7
threat@@ 7
thres@@ 7
through@@ 7
til 7
titu@@ 7
too@@ 7
trang@@ 7
ules 7
umin@@ 7
upp@@ 7
vaccination 7
vascul@@ 7
ventr@@ 7
vesti@@ 7
video@@ 7
vod@@ 7
voy@@ 7
walk@@ 7
wealth@@ 7
wich 7
wild@@ 7
windo@@ 7
wirel@@ 7
wks@@ 7
writ@@ 7
yach@@ 7
ó@@ 7
.com. 6
1000 6
A. 6
Afri@@ 6
Bag@@ 6
Bos@@ 6
Broo@@ 6
Budd@@ 6
Cen@@ 6
Challeng@@ 6
Connec@@ 6
Crai@@ 6
Dal@@ 6
EL@@ 6
Eis@@ 6
Extr@@ 6
F. 6
Fab@@ 6
Fl@@ 6
Gat@@ 6
Giacomet@@ 6
Glob@@ 6
Goo@@ 6
Goog@@ 6
Gorg@@ 6
Greg@@ 6
Gri@@ 6
Gul@@ 6
HI@@ 6
Harv@@ 6
Il@@ 6
Jeff@@ 6
Jet@@ 6
Jur@@ 6
Koso@@ 6
L.@@ 6
LE@@ 6
Leonard 6
Liv@@ 6
MI@@ 6
MP@@ 6
Mai@@ 6
Mandel@@ 6
Marie 6
Max@@ 6
Mec@@ 6
Moun@@ 6
NAS@@ 6
NB@@ 6
Natur@@ 6
Ow@@ 6
Phili@@ 6
Pow@@ 6
Princ@@ 6
Pyth@@ 6
Ran@@ 6
Rest@@ 6
Rev@@ 6
Rober@@ 6
Sci@@ 6
Scot@@ 6
Shak@@ 6
Smith@@ 6
Tanzani@@ 6
Ton@@ 6
U.S@@ 6
Whe@@ 6
Wit@@ 6
Yuc@@ 6
acier 6
adapt@@ 6
ades@@ 6
adorable 6
aggressi@@ 6
ahah@@ 6
album@@ 6
amen 6
andon 6
angio@@ 6
anne@@ 6
anni@@ 6
aphor@@ 6
api@@ 6
apl@@ 6
arbor@@ 6
aroun@@ 6
artisan@@ 6
assimil@@ 6
atr@@ 6
atta@@ 6
atti@@ 6
augment@@ 6
avant 6
ballo@@ 6
bask@@ 6
beat@@ 6
benefici@@ 6
biologi@@ 6
blat@@ 6
bler 6
bonobo 6
bridg@@ 6
bulldoz@@ 6
caram@@ 6
carbon@@ 6
cas 6
cascade 6
caval@@ 6
cave@@ 6
cellu@@ 6
cet 6
chant@@ 6
chariot 6
chute 6
ci 6
cident@@ 6
coch@@ 6
cocktail@@ 6
cog@@ 6
coloss@@ 6
conduit 6
confin@@ 6
consi@@ 6
contextu@@ 6
contours 6
convers@@ 6
copier 6
cow@@ 6
crav@@ 6
croch@@ 6
cuisine 6
cut@@ 6
dan@@ 6
danger@@ 6
deaf@@ 6
dee@@ 6
demograph@@ 6
dir@@ 6
disagre@@ 6
dispens@@ 6
disser@@ 6
dj@@ 6
dus@@ 6
effor@@ 6
elas 6
electric@@ 6
embe@@ 6
emberer@@ 6
eme 6
emph@@ 6
enab@@ 6
encyclopedi@@ 6
enni@@ 6
esh@@ 6
eventu@@ 6
excite 6
expec@@ 6
expir@@ 6
fab@@ 6
fabul@@ 6
fas@@ 6
fau@@ 6
feel@@ 6
fellow@@ 6
fem@@ 6
fiel@@ 6
fig@@ 6
filaments 6
fon@@ 6
forwar@@ 6
fratern@@ 6
fres@@ 6
fric@@ 6
fum@@ 6
funn@@ 6
gall@@ 6
garde 6
gaz@@ 6
genous 6
glamor@@ 6
glom@@ 6
graci@@ 6
groun@@ 6
handicap 6
helpl@@ 6
herit@@ 6
hexag@@ 6
holocau@@ 6
iceber@@ 6
identifi@@ 6
ider 6
illie 6
illus@@ 6
imag@@ 6
immedi@@ 6
incen@@ 6
incess@@ 6
inde@@ 6
indu@@ 6
inevit@@ 6
inno@@ 6
introdu@@ 6
intu@@ 6
ja@@ 6
jaun@@ 6
jung@@ 6
just@@ 6
kilo 6
ks@@ 6
labori@@ 6
lame 6
lap@@ 6
latitu@@ 6
lear 6
lem 6
lep@@ 6
lich@@ 6
ludi@@ 6
lyn@@ 6
machin@@ 6
marvel@@ 6
match@@ 6
maths 6
mis 6
mistak@@ 6
modifi@@ 6
modifications 6
monoli@@ 6
mosquit@@ 6
motive 6
municipal@@ 6
na@@ 6
nessed 6
nugg@@ 6
obscur@@ 6
obser@@ 6
offer@@ 6
omni@@ 6
orie 6
overwhel@@ 6
pap@@ 6
parole 6
passages 6
passer@@ 6
path@@ 6
pathologi@@ 6
pati@@ 6
pend 6
percent@@ 6
pher@@ 6
phili@@ 6
photovol@@ 6
pics 6
piti@@ 6
plant@@ 6
plantation 6
pover@@ 6
prehen@@ 6
prit 6
probation 6
proces@@ 6
productiv@@ 6
promis@@ 6
propositions 6
pulmon@@ 6
push@@ 6
put@@ 6
q. 6
quin@@ 6
rais@@ 6
rant 6
ray@@ 6
rect@@ 6
registr@@ 6
repres@@ 6
resor@@ 6
retar@@ 6
rhinovirus 6
rim@@ 6
ritu@@ 6
sabo@@ 6
sac 6
sas@@ 6
satur@@ 6
sauc@@ 6
scen@@ 6
sci@@ 6
sements 6
sert 6
shell@@ 6
simultane@@ 6
sleep@@ 6
snob@@ 6
sop@@ 6
specially 6
spectacul@@ 6
sph@@ 6
sponsor@@ 6
sten@@ 6
struction 6
subli@@ 6
subt@@ 6
success@@ 6
successi@@ 6
tamp@@ 6
targ@@ 6
tari@@ 6
tec@@ 6
tenant 6
them@@ 6
thum@@ 6
tigh@@ 6
tis@@ 6
tish 6
titude 6
tori@@ 6
transcri@@ 6
transfer@@ 6
trap@@ 6
trons 6
tty 6
tuce 6
umbled 6
und@@ 6
vapor@@ 6
vase 6
venge@@ 6
ventive 6
vin@@ 6
vitam@@ 6
vocat@@ 6
vocation 6
volant@@ 6
volum@@ 6
vos 6
vou@@ 6
vous@@ 6
wall@@ 6
wan 6
wedd@@ 6
wish@@ 6
www@@ 6
ymous 6
í@@ 6
* 5
--- 5
Abrah@@ 5
Apol@@ 5
Asi@@ 5
Aur@@ 5
Aust@@ 5
Bang@@ 5
Banglades@@ 5
Beli@@ 5
Ble@@ 5
Bour@@ 5
Brazili@@ 5
Bron@@ 5
Brow@@ 5
Bru@@ 5
CAPTCH@@ 5
CI@@ 5
Chall@@ 5
Chil@@ 5
Chron@@ 5
Cli@@ 5
Clu@@ 5
Coc@@ 5
Coch@@ 5
DA 5
Dan@@ 5
Der@@ 5
Dut@@ 5
ET 5
FAR@@ 5
Fran@@ 5
Gand@@ 5
Gard@@ 5
Geor@@ 5
Get@@ 5
Gh@@ 5
Ghan@@ 5
Gon@@ 5
Google@@ 5
Kan@@ 5
L. 5
Lank@@ 5
Long@@ 5
N. 5
Namibi@@ 5
Nob@@ 5
OL@@ 5
Objec@@ 5
Oce@@ 5
Pou@@ 5
Qat@@ 5
Remar@@ 5
Roo@@ 5
Seu@@ 5
Sid@@ 5
Syst@@ 5
Tig@@ 5
VI@@ 5
Walk@@ 5
abat@@ 5
abrup@@ 5
accessi@@ 5
accr@@ 5
acti@@ 5
action@@ 5
adm@@ 5
adr@@ 5
aes@@ 5
affirm@@ 5
affirmation 5
agit@@ 5
agnostic@@ 5
alcoho@@ 5
aler 5
aller@@ 5
amphi@@ 5
anc 5
antiqu@@ 5
appear@@ 5
aqui@@ 5
arteri@@ 5
aspor@@ 5
assis@@ 5
astron@@ 5
ated@@ 5
atte@@ 5
atter@@ 5
aux 5
aval@@ 5
barrage 5
bau@@ 5
bellu@@ 5
ben 5
biomim@@ 5
bob@@ 5
bombardi@@ 5
bottom@@ 5
bound@@ 5
bour@@ 5
bracel@@ 5
brev@@ 5
brie@@ 5
brill@@ 5
bs. 5
bullet@@ 5
cac@@ 5
cadav@@ 5
call@@ 5
capitul@@ 5
caro@@ 5
centen@@ 5
cerv@@ 5
chick@@ 5
chos@@ 5
chrom@@ 5
cing@@ 5
cloth@@ 5
coffe@@ 5
coli@@ 5
comman@@ 5
commission@@ 5
concre@@ 5
conjec@@ 5
cons 5
consultation 5
contempor@@ 5
conten@@ 5
contras@@ 5
corps 5
correspon@@ 5
cover@@ 5
cybercrimin@@ 5
dans 5
ded@@ 5
deliver@@ 5
depress@@ 5
design@@ 5
dez 5
dge@@ 5
discer@@ 5
disposition 5
donna 5
dram@@ 5
dre 5
eat@@ 5
elabor@@ 5
enci@@ 5
enorm@@ 5
ente 5
entions 5
esav@@ 5
etr@@ 5
evolu@@ 5
excep@@ 5
experi@@ 5
falsi@@ 5
famili@@ 5
familiar@@ 5
fashi@@ 5
festiv@@ 5
fiber@@ 5
fice 5
filtr@@ 5
flux 5
fond@@ 5
formidable 5
frai@@ 5
fy@@ 5
gawat@@ 5
golf@@ 5
graphies 5
gross@@ 5
habitants 5
handic@@ 5
hec@@ 5
hhhh@@ 5
histo@@ 5
hosti@@ 5
hous@@ 5
iP@@ 5
icol@@ 5
illis 5
ilo@@ 5
immin@@ 5
imperfec@@ 5
ingness 5
interval@@ 5
interviewer 5
inverse 5
invol@@ 5
io@@ 5
irrig@@ 5
istr@@ 5
istry 5
jar@@ 5
kitch@@ 5
lan@@ 5
langu@@ 5
leak@@ 5
liqui@@ 5
lotter@@ 5
matur@@ 5
meas@@ 5
mergence 5
messi@@ 5
migrations 5
mill@@ 5
modes@@ 5
moni@@ 5
muscul@@ 5
mush@@ 5
obtain@@ 5
oct@@ 5
ocul@@ 5
oe@@ 5
offen@@ 5
olo@@ 5
ondri@@ 5
opi@@ 5
optimis@@ 5
ortho@@ 5
ouvre 5
parag@@ 5
perfection@@ 5
phal@@ 5
phas@@ 5
philosophi@@ 5
pice 5
pie@@ 5
pler 5
plic@@ 5
poign@@ 5
pont 5
poun@@ 5
premier 5
provisions 5
publications 5
punish@@ 5
quad@@ 5
quarant@@ 5
quasi 5
r. 5
rab 5
radical@@ 5
radios 5
rapport 5
recti@@ 5
rehabil@@ 5
resist@@ 5
resour@@ 5
responsi@@ 5
ress 5
reten@@ 5
reus@@ 5
ridi@@ 5
rog@@ 5
roll@@ 5
rone 5
rr@@ 5
sacrific@@ 5
safe@@ 5
sang@@ 5
scho@@ 5
sexes 5
silic@@ 5
sity 5
skill@@ 5
skul@@ 5
smar@@ 5
sod@@ 5
sol 5
spati@@ 5
spee@@ 5
spiration 5
splend@@ 5
station@@ 5
steri@@ 5
suppor@@ 5
sus@@ 5
sust@@ 5
symptom@@ 5
tas 5
tell@@ 5
thane 5
thon 5
toni@@ 5
tou@@ 5
town@@ 5
traffick@@ 5
transpar@@ 5
trom@@ 5
tropol@@ 5
tten@@ 5
ubi@@ 5
vacu@@ 5
verti@@ 5
vid@@ 5
viscer@@ 5
vocal@@ 5
voila 5
voir 5
voirs 5
volun@@ 5
vous 5
weap@@ 5
ya@@ 5
zig@@ 5
--@@ 4
000@@ 4
100@@ 4
400@@ 4
47@@ 4
6,@@ 4
AB@@ 4
AID@@ 4
Ale@@ 4
Amon@@ 4
Ander@@ 4
Bil@@ 4
Bits 4
Bra@@ 4
Brother@@ 4
Bus@@ 4
Bush@@ 4
CN@@ 4
Canadi@@ 4
Champ@@ 4
Colum@@ 4
Columbi@@ 4
DN@@ 4
Demo@@ 4
Diff@@ 4
Diplom@@ 4
Eng@@ 4
Ev@@ 4
Ever@@ 4
FOX@@ 4
Gir@@ 4
H. 4
Hear@@ 4
Hoo@@ 4
Ig@@ 4
Jim@@ 4
Ka@@ 4
Kathry@@ 4
Kaz@@ 4
Keny@@ 4
Lad@@ 4
Lang@@ 4
Mathem@@ 4
Mobi@@ 4
Na@@ 4
Nan@@ 4
Non 4
ON@@ 4
R.@@ 4
Rac@@ 4
Rach@@ 4
Scienti@@ 4
Soleil 4
Steph@@ 4
Sto@@ 4
Swit@@ 4
Thom@@ 4
Thre@@ 4
Tod@@ 4
Tour 4
Tran@@ 4
Wes@@ 4
Windo@@ 4
Worl@@ 4
X. 4
aban@@ 4
abandon@@ 4
abl@@ 4
accus@@ 4
adver@@ 4
agas@@ 4
aler@@ 4
alph@@ 4
ambul@@ 4
amin@@ 4
ampu@@ 4
andis 4
angiogenic 4
antum 4
apar@@ 4
apol@@ 4
apon@@ 4
apor@@ 4
architec@@ 4
arres@@ 4
assem@@ 4
atement 4
attendant 4
attr@@ 4
awes@@ 4
bacteri@@ 4
bale@@ 4
behavior@@ 4
buc@@ 4
candi@@ 4
cant@@ 4
captiv@@ 4
carav@@ 4
carto@@ 4
cascades 4
celer@@ 4
cellul@@ 4
cend@@ 4
chang@@ 4
chauv@@ 4
childhoo@@ 4
clai@@ 4
coali@@ 4
colle@@ 4
collectiv@@ 4
colum@@ 4
commis@@ 4
communi@@ 4
compoun@@ 4
concurr@@ 4
confec@@ 4
confi@@ 4
conn@@ 4
constell@@ 4
corpor@@ 4
cos@@ 4
crayon 4
criteri@@ 4
critique 4
defaul@@ 4
descri@@ 4
destruc@@ 4
discover@@ 4
diseas@@ 4
div@@ 4
dors@@ 4
dues 4
dumb@@ 4
effec@@ 4
electron@@ 4
ench@@ 4
encore 4
enne 4
enrich@@ 4
ensemble 4
entag@@ 4
enti 4
enture 4
estro@@ 4
esty@@ 4
expand@@ 4
fail@@ 4
fill@@ 4
fou@@ 4
gasp@@ 4
genre 4
glass@@ 4
grandeur 4
grandi@@ 4
gris 4
guise 4
heim@@ 4
help@@ 4
hind@@ 4
horiz@@ 4
hormon@@ 4
hosp@@ 4
hour@@ 4
impatients 4
incapable 4
incl@@ 4
intangi@@ 4
ique 4
istine 4
itures 4
jelly@@ 4
ka@@ 4
kingdom@@ 4
ladi@@ 4
larg@@ 4
lation 4
lease 4
lette 4
lits 4
locu@@ 4
lot@@ 4
magnific@@ 4
marches 4
massacre 4
matern@@ 4
mathem@@ 4
matr@@ 4
memori@@ 4
merci@@ 4
metabol@@ 4
migh@@ 4
milieu 4
militar@@ 4
minor@@ 4
mobiles 4
modu@@ 4
multination@@ 4
mur 4
mycel@@ 4
mysteri@@ 4
nage 4
netic 4
nic 4
nig@@ 4
nom 4
obo@@ 4
occur@@ 4
oeil 4
oir 4
olym@@ 4
oppres@@ 4
orbit@@ 4
osau@@ 4
osop@@ 4
ough@@ 4
ound@@ 4
ources 4
own@@ 4
pardon 4
parent@@ 4
park@@ 4
parl@@ 4
partition 4
pas 4
peculi@@ 4
percep@@ 4
perfor@@ 4
perplex@@ 4
physic@@ 4
piec@@ 4
plain@@ 4
pneu@@ 4
pock@@ 4
pour@@ 4
preg@@ 4
profit@@ 4
propos 4
pt@@ 4
quake 4
qui 4
raci@@ 4
rade 4
raisin 4
rami@@ 4
regis@@ 4
reproduc@@ 4
resear@@ 4
resem@@ 4
resolu@@ 4
resp@@ 4
respect@@ 4
rester 4
rev@@ 4
rio@@ 4
rive 4
ruin@@ 4
rus@@ 4
salin@@ 4
sans 4
say@@ 4
scaffol@@ 4
secur@@ 4
seem@@ 4
sensor@@ 4
serp@@ 4
seven@@ 4
signifi@@ 4
silhou@@ 4
small@@ 4
sor 4
speak@@ 4
sporul@@ 4
standar@@ 4
stell@@ 4
stitu@@ 4
strum@@ 4
subst@@ 4
surg@@ 4
symbol@@ 4
syner@@ 4
synes@@ 4
system@@ 4
tant@@ 4
tard 4
tern 4
teur 4
tex 4
thop@@ 4
time@@ 4
tiqu@@ 4
toc@@ 4
tomb@@ 4
tort 4
trai@@ 4
tribu@@ 4
trivi@@ 4
trompe 4
truff@@ 4
tsunam@@ 4
tuc@@ 4
tuition 4
ug@@ 4
ultr@@ 4
ultras@@ 4
uti@@ 4
vag@@ 4
vide 4
vivi@@ 4
vom@@ 4
í 4
% 3
.A. 3
.org. 3
000 3
1600 3
28@@ 3
85@@ 3
87@@ 3
AV@@ 3
Academ@@ 3
Alask@@ 3
Ali@@ 3
Amaz@@ 3
Amer@@ 3
Benjam@@ 3
Bever@@ 3
Bh@@ 3
Californi@@ 3
Cany@@ 3
Caroline 3
Catho@@ 3
Centre 3
Colombi@@ 3
Comm@@ 3
Contin@@ 3
DV@@ 3
Dame 3
Dimi@@ 3
Donal@@ 3
Eam@@ 3
Effec@@ 3
Eh 3
English@@ 3
Ess@@ 3
Et 3
Faire 3
Furb@@ 3
GP@@ 3
Had@@ 3
Hippo@@ 3
Hub@@ 3
II@@ 3
Island@@ 3
John@@ 3
Jon@@ 3
Jose@@ 3
Justic@@ 3
Langu@@ 3
Laur@@ 3
Les 3
Lib@@ 3
Lif@@ 3
Lon@@ 3
Lum@@ 3
Mahab@@ 3
Micha@@ 3
Naj@@ 3
Natu@@ 3
Nov@@ 3
Observ@@ 3
Olympi@@ 3
Pacific@@ 3
Pep@@ 3
Pon@@ 3
Prin@@ 3
River@@ 3
Ron@@ 3
Roy@@ 3
SS@@ 3
Sain@@ 3
Schwarz@@ 3
Soci@@ 3
Sop@@ 3
Soy@@ 3
Stan@@ 3
Sy@@ 3
Tel@@ 3
Tex@@ 3
Tribun@@ 3
Ugand@@ 3
Wed@@ 3
Whi@@ 3
Wikipedi@@ 3
William@@ 3
XI@@ 3
^ 3
absolu@@ 3
absorber 3
acari@@ 3
accomp@@ 3
accompl@@ 3
adventu@@ 3
affin@@ 3
agend@@ 3
agi@@ 3
agricul@@ 3
ailles 3
aje@@ 3
alcohol@@ 3
amuse 3
angl@@ 3
angr@@ 3
aordin@@ 3
apr@@ 3
aptitude 3
ardo 3
asse 3
asse@@ 3
assi@@ 3
assur@@ 3
atures 3
audit@@ 3
b. 3
bap@@ 3
bay@@ 3
baz@@ 3
bey@@ 3
billi@@ 3
bloc@@ 3
blou@@ 3
brac@@ 3
brok@@ 3
bron@@ 3
cache 3
cade 3
calci@@ 3
cali@@ 3
canop@@ 3
cardio@@ 3
carton 3
caver@@ 3
ceil@@ 3
cension 3
champ 3
chao@@ 3
chauffeur 3
choos@@ 3
chromosom@@ 3
cine 3
circu@@ 3
citi@@ 3
clic 3
coeur 3
combat@@ 3
compati@@ 3
constituent 3
convic@@ 3
correspondent 3
crev@@ 3
crème 3
cule 3
culp@@ 3
cultur@@ 3
curs@@ 3
cyborg@@ 3
decide@@ 3
degre@@ 3
deplo@@ 3
descen@@ 3
desser@@ 3
deu@@ 3
doctr@@ 3
domes@@ 3
dons 3
dossiers 3
drap@@ 3
drogue 3
dysle@@ 3
déc@@ 3
edi 3
effac@@ 3
egg@@ 3
ellul@@ 3
ement@@ 3
endang@@ 3
endant 3
ende@@ 3
endu@@ 3
entour@@ 3
entrop@@ 3
erarch@@ 3
erci@@ 3
erra 3
escro@@ 3
esse 3
etc. 3
etc@@ 3
eu 3
evit@@ 3
excessi@@ 3
exempl@@ 3
exic@@ 3
existenti@@ 3
expect@@ 3
expo@@ 3
expon@@ 3
fascin@@ 3
fatt@@ 3
faux 3
figu@@ 3
franc@@ 3
frastruc@@ 3
fu 3
geck@@ 3
genu@@ 3
gorge 3
got@@ 3
goti@@ 3
graves 3
grin@@ 3
gym@@ 3
handi@@ 3
happen@@ 3
happin@@ 3
heur@@ 3
hood@@ 3
how@@ 3
husband@@ 3
hym@@ 3
imin@@ 3
impati@@ 3
indign@@ 3
infantile 3
inflexi@@ 3
info@@ 3
infrastruc@@ 3
ingue 3
inscri@@ 3
interdepend@@ 3
intervie@@ 3
isse 3
issus 3
iste 3
joie 3
jour 3
kat@@ 3
kg 3
lak@@ 3
lament@@ 3
lave 3
leep@@ 3
lent 3
liens 3
litt@@ 3
lucr@@ 3
maladies 3
maquette 3
mau@@ 3
menac@@ 3
meth@@ 3
miner@@ 3
mone@@ 3
money@@ 3
mont@@ 3
motifs 3
murs 3
mutu@@ 3
narration 3
nerv@@ 3
neu@@ 3
nous 3
nus 3
oil@@ 3
ologue 3
oni@@ 3
opa@@ 3
opard 3
orgas@@ 3
orm@@ 3
osc@@ 3
oufl@@ 3
pag@@ 3
pant@@ 3
papill@@ 3
pari@@ 3
patron 3
pertur@@ 3
petites 3
phant@@ 3
pion@@ 3
place@@ 3
ples 3
politici@@ 3
portrai@@ 3
pow@@ 3
pragmati@@ 3
pran@@ 3
produc@@ 3
prolong@@ 3
propagation 3
propo@@ 3
prototyp@@ 3
provin@@ 3
prud@@ 3
prun@@ 3
publi@@ 3
publics 3
quantit@@ 3
quoi@@ 3
radio@@ 3
ral@@ 3
reach@@ 3
recycler 3
refus@@ 3
regener@@ 3
relev@@ 3
reliant 3
respiration 3
rir@@ 3
robu@@ 3
s. 3
sain 3
sat@@ 3
schiz@@ 3
scienti@@ 3
scur@@ 3
semble 3
servic@@ 3
sessi@@ 3
seu@@ 3
share@@ 3
shir@@ 3
shrim@@ 3
signi@@ 3
slog@@ 3
soul@@ 3
sour@@ 3
staf@@ 3
stati@@ 3
stoc@@ 3
straight@@ 3
stuc@@ 3
surfac@@ 3
swimm@@ 3
tane@@ 3
tangi@@ 3
tants 3
tato 3
terri@@ 3
tester 3
tinc@@ 3
tiv@@ 3
tl@@ 3
toxi@@ 3
tradi@@ 3
tranquil@@ 3
transformer 3
transports 3
traverse 3
trib@@ 3
tribunal 3
tron 3
tubul@@ 3
uel 3
ule@@ 3
urgence 3
vat@@ 3
ventilat@@ 3
ventu@@ 3
victori@@ 3
vise 3
vite 3
vivre 3
vocabul@@ 3
voire 3
vu@@ 3
vulner@@ 3
weal@@ 3
whit@@ 3
wif@@ 3
wonder@@ 3
xim@@ 3
yons 3
ã@@ 3
.... 2
36@@ 2
80@@ 2
AA@@ 2
Accor@@ 2
Alle@@ 2
Angl@@ 2
Arc@@ 2
Auc@@ 2
Aug@@ 2
Beau@@ 2
Braz@@ 2
Brook@@ 2
Buck@@ 2
CH@@ 2
CM@@ 2
Ca 2
Chez 2
Cit@@ 2
Continu@@ 2
Corpor@@ 2
Cost@@ 2
Counc@@ 2
Dans 2
Differ@@ 2
Dix 2
Einste@@ 2
Eliz@@ 2
Esp@@ 2
Every@@ 2
FD@@ 2
Face@@ 2
Fren@@ 2
GB@@ 2
Geh@@ 2
Georg@@ 2
Giac@@ 2
Gran@@ 2
Grande 2
Hen@@ 2
Hirosh@@ 2
How@@ 2
Intern@@ 2
Internation@@ 2
Jes@@ 2
Jour@@ 2
Kell@@ 2
Ken@@ 2
Kurzwe@@ 2
Lac@@ 2
Lag@@ 2
Lew@@ 2
Lig@@ 2
Lune 2
Manif@@ 2
Matthe@@ 2
Mili@@ 2
Mol@@ 2
Montag@@ 2
Montan@@ 2
Moz@@ 2
Nation@@ 2
Neu@@ 2
Notre 2
Nouv@@ 2
Obvi@@ 2
Pai@@ 2
Papa 2
Patri@@ 2
Perfec@@ 2
RIS@@ 2
Read@@ 2
Rho@@ 2
S.@@ 2
Sadd@@ 2
Savi@@ 2
Schwar@@ 2
Shakespe@@ 2
Stir@@ 2
Studi@@ 2
Syl@@ 2
Telescop@@ 2
Tum@@ 2
Univer@@ 2
Vin@@ 2
Wash@@ 2
Yan@@ 2
Youtube 2
Zer@@ 2
Zim@@ 2
Zimbab@@ 2
abou@@ 2
abun@@ 2
acidi@@ 2
acquisi@@ 2
adopter 2
afterno@@ 2
aises 2
aisse 2
algorith@@ 2
alier 2
allel 2
amic@@ 2
amplific@@ 2
anche 2
angi@@ 2
annivers@@ 2
antes 2
appr@@ 2
argument@@ 2
artic@@ 2
ascend@@ 2
aspec@@ 2
aspi@@ 2
assemblage 2
assembler 2
astu@@ 2
ater@@ 2
attach@@ 2
attends 2
attire 2
auditori@@ 2
auti@@ 2
auv@@ 2
aux@@ 2
avid@@ 2
azo@@ 2
banish@@ 2
banqu@@ 2
basses 2
bav@@ 2
beau@@ 2
beauti@@ 2
better@@ 2
bibli@@ 2
biolog@@ 2
bles@@ 2
bouill@@ 2
bouqu@@ 2
bourge@@ 2
bout 2
brio 2
brother@@ 2
bu 2
build@@ 2
bulletin 2
bureaucrati@@ 2
cach@@ 2
cadre 2
calyp@@ 2
carcin@@ 2
cascad@@ 2
casque 2
challeng@@ 2
characteris@@ 2
charm@@ 2
chez 2
chs 2
cipl@@ 2
clair@@ 2
cliché 2
client@@ 2
commen@@ 2
commune 2
concierge 2
concili@@ 2
confid@@ 2
confl@@ 2
confu@@ 2
consci@@ 2
conti@@ 2
conv@@ 2
convinc@@ 2
coqu@@ 2
corde 2
coupe 2
cours 2
ction 2
cubat@@ 2
cul 2
dament@@ 2
dep@@ 2
develop@@ 2
dial@@ 2
diffuser 2
digesti@@ 2
diment@@ 2
diox@@ 2
disposi@@ 2
dissoci@@ 2
dite 2
dix 2
dé@@ 2
eci@@ 2
effectu@@ 2
eley 2
elles 2
elop 2
emerg@@ 2
en. 2
endi@@ 2
enem@@ 2
enten@@ 2
enthu@@ 2
entu@@ 2
enu@@ 2
erron@@ 2
ers@@ 2
esprit 2
euse 2
exis@@ 2
existent 2
exploiter 2
expul@@ 2
extend@@ 2
father@@ 2
fen@@ 2
feu@@ 2
fiers 2
finale 2
font 2
fortun@@ 2
fuzz@@ 2
g. 2
gard@@ 2
gely 2
gend@@ 2
genoci@@ 2
glam@@ 2
gramme 2
grocer@@ 2
guarant@@ 2
half@@ 2
handicap@@ 2
hicul@@ 2
hier 2
homici@@ 2
icop@@ 2
identifier 2
ient 2
illes 2
immobil@@ 2
impression@@ 2
inappropri@@ 2
incompati@@ 2
infi@@ 2
inqui@@ 2
introduc@@ 2
inves@@ 2
itin@@ 2
ival@@ 2
ivre 2
job@@ 2
joint@@ 2
jou@@ 2
jour@@ 2
jug@@ 2
knif@@ 2
lang@@ 2
lett@@ 2
lettes 2
licit@@ 2
lieu@@ 2
lim 2
liqu@@ 2
list@@ 2
lu 2
lui 2
lymph@@ 2
mage 2
magnifi@@ 2
mains 2
manag@@ 2
map@@ 2
mari@@ 2
mars 2
massac@@ 2
massi@@ 2
math@@ 2
membran@@ 2
mili@@ 2
mirr@@ 2
mises 2
model@@ 2
moi 2
montage 2
monument@@ 2
mortal@@ 2
mots 2
multiplier 2
municip@@ 2
music@@ 2
nak@@ 2
natu@@ 2
near@@ 2
niez 2
noctur@@ 2
nons 2
norm@@ 2
notic@@ 2
obsc@@ 2
obsol@@ 2
oeuvre 2
opini@@ 2
opportun@@ 2
ordinat@@ 2
oue 2
oui 2
parach@@ 2
paramet@@ 2
particul@@ 2
passer 2
patt@@ 2
pendant 2
pensions 2
pertin@@ 2
piqu@@ 2
pires 2
pisto@@ 2
plai@@ 2
planet@@ 2
plaques 2
plor@@ 2
poche 2
polysty@@ 2
portant 2
possibil@@ 2
potenti@@ 2
prairies 2
precedent@@ 2
primi@@ 2
privileg@@ 2
proc@@ 2
prosp@@ 2
provenance 2
pru@@ 2
puni@@ 2
quas@@ 2
quette 2
quit@@ 2
quotidi@@ 2
realiz@@ 2
regi@@ 2
remon@@ 2
resol@@ 2
reu@@ 2
rez 2
rien 2
sable 2
sach@@ 2
sacri@@ 2
sacs 2
sages 2
salon 2
sation 2
scan@@ 2
self@@ 2
sembl@@ 2
semes@@ 2
sens 2
sep@@ 2
sequenc@@ 2
sero@@ 2
sole@@ 2
sols 2
souvenir 2
splendi@@ 2
spontane@@ 2
stan@@ 2
stopper 2
strategi@@ 2
sugges@@ 2
sulfi@@ 2
summ@@ 2
supernov@@ 2
supporter 2
suppos@@ 2
surer 2
syndr@@ 2
t. 2
tat 2
techni@@ 2
tentative 2
tienne 2
tiers 2
tig@@ 2
titan@@ 2
together@@ 2
tonn@@ 2
tout 2
tracer 2
tranqu@@ 2
tre 2
trich@@ 2
troupes 2
trum 2
tto@@ 2
tui@@ 2
tunn@@ 2
typi@@ 2
ugl@@ 2
unconsci@@ 2
valence 2
verb@@ 2
vici@@ 2
vie@@ 2
vier 2
vies 2
vocab@@ 2
voyages 2
wak@@ 2
ww@@ 2
yester@@ 2
your@@ 2
£ 2
É@@ 2
è@@ 2
ñ@@ 2
,000@@ 1
,00@@ 1
-based 1
-like 1
.. 1
.000 1
0,@@ 1
201@@ 1
3000 1
4000 1
45@@ 1
65@@ 1
75@@ 1
Actu@@ 1
Ain@@ 1
Alors 1
Ano@@ 1
Apple@@ 1
Arm@@ 1
Ave@@ 1
Barbar@@ 1
Bet@@ 1
Bibli@@ 1
Bonn@@ 1
Cali@@ 1
Christi@@ 1
Clim@@ 1
Clint@@ 1
DD@@ 1
Darfur@@ 1
Dat@@ 1
Des 1
Deser@@ 1
Desp@@ 1
Dé@@ 1
Elizab@@ 1
Elle 1
Encore 1
Engl@@ 1
Europe. 1
Fau@@ 1
Fed@@ 1
Festiv@@ 1
Fey@@ 1
Financi@@ 1
Found@@ 1
Francis@@ 1
Franç@@ 1
Geograph@@ 1
Haï@@ 1
Hig@@ 1
Hip@@ 1
Hit@@ 1
Hospit@@ 1
Hud@@ 1
Jap@@ 1
Jau@@ 1
Je 1
Jeffer@@ 1
Job@@ 1
Joseph@@ 1
Jud@@ 1
Kiv@@ 1
LOL@@ 1
Lap@@ 1
Libr@@ 1
Life@@ 1
Lit@@ 1
Lé@@ 1
Macinto@@ 1
Magaz@@ 1
Manifest@@ 1
March@@ 1
Margar@@ 1
Mass@@ 1
Microsof@@ 1
Millenni@@ 1
Minis@@ 1
Mon 1
Monde 1
Mondiale 1
Moy@@ 1
Muti@@ 1
Nev@@ 1
Ni 1
No. 1
Num@@ 1
ONG 1
Orient 1
Ottom@@ 1
Ou@@ 1
PI@@ 1
Pear@@ 1
Penn@@ 1
Petit 1
Pho@@ 1
Phoen@@ 1
Phon@@ 1
Picas@@ 1
Pink@@ 1
Pitts@@ 1
Pittsbur@@ 1
Pour@@ 1
Premier 1
Presid@@ 1
Quand 1
Que 1
RH@@ 1
RN@@ 1
Regar@@ 1
SM@@ 1
Sach@@ 1
Sahar@@ 1
Sans 1
Simp@@ 1
Smi@@ 1
Span@@ 1
Sputni@@ 1
St 1
Stewar@@ 1
Stil@@ 1
Sudd@@ 1
Sudh@@ 1
Sur 1
Than@@ 1
Transi@@ 1
Tu 1
Tyran@@ 1
U.K@@ 1
US. 1
Une 1
Universit@@ 1
Ush@@ 1
Ushahi@@ 1
Util@@ 1
Valle@@ 1
Veg@@ 1
Vide@@ 1
Viet@@ 1
Vill@@ 1
Virg@@ 1
Voila 1
Voilà 1
Vou@@ 1
With@@ 1
XX@@ 1
Xia@@ 1
Y. 1
YouTu@@ 1
Zeal@@ 1
Zip@@ 1
\ 1
a. 1
abr@@ 1
abs@@ 1
absorb@@ 1
absorbent 1
aca@@ 1
achet@@ 1
achy@@ 1
adel@@ 1
adic@@ 1
adjac@@ 1
adol@@ 1
adolesc@@ 1
afr@@ 1
agne 1
aides 1
aig@@ 1
alphab@@ 1
alumin@@ 1
alumini@@ 1
amis 1
amou@@ 1
amoun@@ 1
amour 1
amplifi@@ 1
ampou@@ 1
ampoule 1
analo@@ 1
anglais 1
anom@@ 1
ansons 1
answ@@ 1
antido@@ 1
appell@@ 1
appor@@ 1
apport@@ 1
approach@@ 1
aptitudes 1
aquari@@ 1
arab@@ 1
araig@@ 1
architectur@@ 1
assent 1
asser 1
ast. 1
astero@@ 1
ateur@@ 1
ator@@ 1
atrices 1
augur@@ 1
aume 1
aussi@@ 1
autor@@ 1
avis 1
ayant 1
ayer 1
bagu@@ 1
balancer 1
bam@@ 1
bati@@ 1
bene@@ 1
bercu@@ 1
besti@@ 1
bien 1
bien@@ 1
biolumin@@ 1
biscu@@ 1
biz@@ 1
bizar@@ 1
blan@@ 1
blanche 1
bloc 1
body@@ 1
bois 1
bom@@ 1
bomb. 1
bonheur 1
bonne 1
bord 1
boutique 1
brah@@ 1
bran@@ 1
bre 1
brin 1
bris@@ 1
brou@@ 1
budg@@ 1
bulle@@ 1
bureau 1
buts 1
cades 1
café 1
camar@@ 1
canap@@ 1
carte 1
casset@@ 1
catastrop@@ 1
catastroph@@ 1
catastrophi@@ 1
catho@@ 1
centre 1
cerem@@ 1
certitude 1
chagr@@ 1
champ@@ 1
charger 1
chau@@ 1
chec@@ 1
childr@@ 1
ché 1
cis@@ 1
ciss@@ 1
civ@@ 1
clavi@@ 1
close@@ 1
coiff@@ 1
cole 1
colo@@ 1
combustible 1
commenc@@ 1
commencement 1
communit@@ 1
companied 1
complexes 1
compon@@ 1
comport@@ 1
compt@@ 1
concurrence 1
condom@@ 1
conduits 1
connais 1
cons@@ 1
consen@@ 1
consent@@ 1
contest@@ 1
controver@@ 1
corp@@ 1
couch@@ 1
couches 1
coupable 1
coupes 1
coups 1
courag@@ 1
courri@@ 1
cray@@ 1
cri 1
critiques 1
cultu@@ 1
cumul@@ 1
d. 1
da@@ 1
dad. 1
daf@@ 1
dat 1
datab@@ 1
dau@@ 1
deau 1
deg@@ 1
delici@@ 1
derri@@ 1
descend@@ 1
desk@@ 1
destroy@@ 1
devastat@@ 1
diagon@@ 1
differ@@ 1
difficile 1
diffus@@ 1
digi@@ 1
dise 1
dish. 1
dissement 1
dissements 1
donn@@ 1
dossier 1
doubl@@ 1
dur 1
dus 1
débrouill@@ 1
econ@@ 1
ed. 1
effectiv@@ 1
eleng@@ 1
elet@@ 1
empi@@ 1
empor@@ 1
encer 1
enfant 1
engag@@ 1
engend@@ 1
engr@@ 1
eni@@ 1
ennes 1
ennu@@ 1
entre 1
entre@@ 1
envis@@ 1
er. 1
es-- 1
espace 1
esqu@@ 1
essay@@ 1
estin 1
eux 1
ever. 1
every@@ 1
exal@@ 1
examiner 1
exi@@ 1
exploit@@ 1
expositions 1
exposé 1
extinc@@ 1
extraordinaire 1
facile 1
fait 1
fant@@ 1
fati@@ 1
fatigu@@ 1
fices 1
firm@@ 1
flou@@ 1
fluorescent@@ 1
forc@@ 1
forts 1
frapp@@ 1
fred 1
friger@@ 1
gap@@ 1
gare 1
genres 1
gestion 1
ggl@@ 1
globale 1
gorg@@ 1
gou@@ 1
grant@@ 1
habil@@ 1
halluc@@ 1
happiness@@ 1
hari@@ 1
hock@@ 1
homin@@ 1
hors 1
hotel@@ 1
hungr@@ 1
ia@@ 1
icro@@ 1
iers 1
if@@ 1
ifs 1
immu@@ 1
imprim@@ 1
improv@@ 1
indices 1
infanti@@ 1
infecti@@ 1
ings. 1
inie 1
inner@@ 1
instants 1
inste@@ 1
inte@@ 1
interview@@ 1
into@@ 1
intuiti@@ 1
irons 1
isode 1
isra@@ 1
isse@@ 1
issons 1
it. 1
itr@@ 1
jail@@ 1
jan@@ 1
jaz@@ 1
joli 1
jours 1
k. 1
knowle@@ 1
lai@@ 1
lance 1
lande 1
landscap@@ 1
largement 1
lawy@@ 1
lead@@ 1
lege 1
lib@@ 1
locale 1
logi@@ 1
logici@@ 1
lons 1
mails 1
mais 1
manne@@ 1
manuel 1
marche 1
marqu@@ 1
mass-@@ 1
mathemati@@ 1
mato@@ 1
matter@@ 1
maz@@ 1
mechanis@@ 1
menace 1
metho@@ 1
microbi@@ 1
mig@@ 1
minster 1
minuscule 1
minuti@@ 1
mirac@@ 1
mise 1
miss@@ 1
mondiale 1
morale 1
motif 1
moto 1
mousse 1
multiples 1
multitude 1
métier 1
net. 1
neurosciences 1
newsp@@ 1
nex@@ 1
nitri@@ 1
no. 1
noy@@ 1
obvi@@ 1
occasion@@ 1
octop@@ 1
off. 1
ofi 1
oling@@ 1
omen@@ 1
onde 1
ondes 1
onne 1
or. 1
orig@@ 1
orith@@ 1
otherap@@ 1
ourn@@ 1
ouv@@ 1
p. 1
papa 1
paradi@@ 1
parents. 1
parfait 1
parle 1
passé 1
pedes@@ 1
penser 1
penses 1
peop@@ 1
permanence 1
perspec@@ 1
pertinent 1
perturb@@ 1
petit 1
petu@@ 1
phab@@ 1
phar@@ 1
phras@@ 1
physique 1
pilep@@ 1
ping@@ 1
placer 1
plat 1
plateau 1
plon@@ 1
plus@@ 1
politi@@ 1
poll@@ 1
posons 1
potable 1
ppe 1
ppi 1
ppi@@ 1
prend 1
present. 1
primiti@@ 1
primordi@@ 1
problem@@ 1
procu@@ 1
procure 1
program@@ 1
proper@@ 1
propul@@ 1
prov@@ 1
proven@@ 1
provis@@ 1
pu 1
pub@@ 1
puc@@ 1
qua@@ 1
qual@@ 1
qualifi@@ 1
quant 1
quelque 1
quet@@ 1
quettes 1
quin 1
quip@@ 1
radiations 1
raison 1
rand@@ 1
rapid@@ 1
rappel 1
ras 1
reason@@ 1
regroup@@ 1
relation@@ 1
rend 1
reprises 1
respi@@ 1
respir@@ 1
ress@@ 1
retard 1
retur@@ 1
reuses 1
rivi@@ 1
ront 1
ros@@ 1
roue 1
rue 1
rupture 1
résumé 1
sabbati@@ 1
salu@@ 1
sant 1
sap@@ 1
sapi@@ 1
sche@@ 1
scin@@ 1
scot@@ 1
seat@@ 1
sed. 1
seni@@ 1
sera 1
sermon@@ 1
servi@@ 1
simp@@ 1
simplifi@@ 1
smil@@ 1
smoo@@ 1
sociation 1
softw@@ 1
soi@@ 1
soir 1
soldi@@ 1
souci@@ 1
soupe 1
sous 1
spacecraf@@ 1
special@@ 1
speed@@ 1
squel@@ 1
sse 1
staff@@ 1
ste 1
studi@@ 1
suites 1
sunam@@ 1
surge@@ 1
suscep@@ 1
sush@@ 1
syst@@ 1
sées 1
taire 1
tambour@@ 1
taper 1
tarc@@ 1
tassi@@ 1
teau 1
techn@@ 1
technologi@@ 1
tee@@ 1
telescop@@ 1
terres@@ 1
terrifi@@ 1
tez 1
thal 1
that@@ 1
thedr@@ 1
throu@@ 1
tien 1
tif 1
tine 1
tiques 1
tir 1
tit 1
toile 1
toires 1
tome 1
tortu@@ 1
tous 1
tranches 1
travail 1
traver@@ 1
tres 1
trices 1
trilli@@ 1
try@@ 1
ts. 1
ttes 1
ttom@@ 1
tude 1
tue 1
tuni@@ 1
ultim@@ 1
umul@@ 1
uncertain@@ 1
unfortunat@@ 1
unprecedent@@ 1
upri@@ 1
usages 1
use@@ 1
usu@@ 1
vagu@@ 1
valor@@ 1
vani@@ 1
vasion 1
vend 1
vente 1
ventions 1
victi@@ 1
victim@@ 1
vielle 1
vienne 1
ving@@ 1
vio@@ 1
vitr@@ 1
vois 1
volant 1
vole 1
volution 1
voter 1
want@@ 1
ween 1
whel@@ 1
wisdom@@ 1
yant 1
yi@@ 1
zu@@ 1
Ça 1
à 1
â 1
â@@ 1
ä@@ 1
ç@@ 1
ça 1
ée 1
él@@ 1
éli@@ 1
étoile 1
ête 1
être 1
ë@@ 1
ü@@ 1
ā@@ 1
Ă@@ 1
ć 1
ē 1
Ť 1
˚ 1
你@@ 1
葱 1
送@@ 1
madeupword0000 0
madeupword0001 0
madeupword0002 0
madeupword0003 0
madeupword0004 0
madeupword0005 0
