the 118322
de 110671
a 87150
to 72587
of 68424
and 59376
la 58189
et 53887
que 50638
le 48104
les 45689
à 45364
that 44727
in 44093
I 39435
is 37777
des 36645
un 34743
en 32825
you 31991
-- 30443
And 29452
vous 29244
nous 28788
une 28598
qui 27683
we 26486
ce 25168
dans 25047
Et 23616
pour 23577
on 22503
est 22284
it 22284
this 22241
pas 21986
je 20531
was 17300
du 16821
for 16166
have 15886
ne 15727
are 15617
plus 14947
with 13973
il 13967
sur 13274
c'est 13061
they 12555
can 12233
about 12146
what 11980
y 11748
be 11580
at 11325
as 11317
sont 11303
avec 11011
So 10634
se 10401
au 10226
all 10159
not 10039
me 9727
ces 9692
Je 9565
an 9353
do 9283
comme 9171
cette 9017
? 9013
par 8974
my 8823
from 8724
it's 8712
si 8592
Il 8577
one 8440
: 8437
so 8354
like 8320
but 8128
fait 7943
just 7881
or 7798
ont 7788
♫ 7774
C'est 7718
avons 7638
faire 7516
mais 7502
people 7486
if 7446
tout 7445
very 7430
ou 7360
Nous 7346
our 7346
Mais 7341
these 7301
But 7295
going 7101
The 7043
ils 6937
très 6732
j'ai 6643
by 6558
ça 6522
out 6293
when 6196
d'@@ 6140
which 6103
because 6082
had 6063
We 5971
there 5787
get 5750
your 5674
more 5655
up 5647
would 5627
really 5620
think 5540
how 5509
"@@ 5459
see 5455
were 5444
their 5370
This 5348
he 5315
gens 5308
I'm 5235
It's 5193
qu'il 5188
who 5097
être 5012
quand 4920
l'@@ 4919
has 4881
chose 4815
into 4808
some 4794
then 4757
même 4744
don't 4714
leur 4684
aux 4631
Vous 4627
actually 4611
that's 4600
où 4551
suis 4538
them 4532
notre 4526
La 4382
peut 4372
It 4361
était 4330
bien 4324
where 4320
été 4318
will 4281
parce 4276
You 4274
vraiment 4271
tous 4227
know 4185
want 4183
mon 4160
cela 4111
us 4059
donc 4037
monde 4027
could 4005
Ce 3996
make 3959
go 3957
been 3915
elle 3896
quelque 3814
deux 3769
Les 3751
other 3745
son 3708
it. 3675
things 3664
d'un 3641
Le 3631
beaucoup 3572
aussi 3565
little 3503
Ils 3487
got 3486
n'est 3459
something 3451
way 3447
d'une 3438
On 3363
than 3349
re@@ 3326
pouvez 3319
choses 3308
votre 3304
we're 3279
nos 3249
voir 3237
They 3202
first 3181
dit 3170
those 3170
look 3153
- 3149
e. 3148
e, 3130
peu 3122
two 3100
kind 3067
no 3058
En 3047
qu'ils 3041
years 3038
So, 3012
avait 2995
ma 2988
time 2968
J'ai 2956
also 2945
now 2934
. 2923
, 2878
Donc 2858
his 2831
over 2817
only 2810
er 2796
comment 2793
here 2788
said, 2787
take 2780
you're 2749
most 2725
much 2706
es, 2691
need 2687
lot 2678
sommes 2663
back 2659
s, 2635
In 2631
know, 2611
dont 2599
s. 2584
thing 2573
." 2554
even 2548
Si 2528
es. 2526
there's 2521
qu'on 2496
world 2496
er. 2488
dire 2476
in@@ 2475
pense 2472
she 2470
avoir 2422
able 2421
sa 2418
it, 2416
vais 2410
many 2401
avez 2396
er, 2389
leurs 2386
; 2383
es 2363
did 2352
ent 2350
toutes 2337
new 2334
point 2330
ant 2316
they're 2307
A 2295
different 2289
put 2289
é 2284
through 2279
around 2276
every 2269
juste 2267
come 2257
right 2251
vie 2234
What 2223
fois 2222
va 2189
same 2188
If 2182
Now 2179
is, 2179
-@@ 2177
ing 2176
mes 2173
Alors 2155
veux 2154
autre 2136
good 2132
being 2130
façon 2128
sans 2103
alors 2096
use 2095
10 2088
" 2072
temps 2064
encore 2045
fait, 2036
Now, 2034
work 2033
called 2025
ed 2005
ses 1997
doing 1993
ait 1988
any 1979
l’@@ 1973
besoin 1972
« 1970
là 1969
important 1960
ons 1957
quelques 1947
Voici 1937
ans 1937
part 1923
c'était 1920
that, 1919
her 1914
question 1911
eu 1895
pendant 1892
I've 1888
pouvons 1883
personnes 1880
down 1875
dé@@ 1875
?" 1863
entre 1857
made 1854
tell 1845
That's 1840
elles 1839
ici 1825
chaque 1821
its 1814
three 1808
dit, 1799
jamais 1786
seulement 1786
He 1784
S@@ 1782
un@@ 1780
ée 1777
Elle 1745
peuvent 1730
a, 1690
Donc, 1687
que, 1685
find 1683
say 1683
toujours 1679
moins 1668
és 1660
vers 1658
you. 1658
went 1655
we've 1649
s 1647
why 1646
didn't 1644
last 1643
long 1641
lui 1640
talk 1640
toute 1640
trois 1633
cet 1625
human 1619
maintenant 1612
There 1610
partie 1610
life 1604
» 1596
soit 1591
give 1582
should 1576
parler 1573
20 1572
tant 1572
place 1571
after 1570
can't 1566
première 1565
sort 1555
étaient 1547
peut-être 1540
m'a 1539
s@@ 1533
percent 1530
ans, 1518
started 1517
commencé 1507
that. 1505
moment 1498
great 1496
own 1495
change 1490
quoi 1488
après 1487
! 1485
n'y 1484
enfants 1482
car 1476
d'autres 1466
might 1461
show 1460
never 1454
big 1453
ing, 1453
this. 1452
e 1450
millions 1445
me, 1439
say, 1438
êtes 1429
... 1417
Well, 1416
million 1414
start 1414
came 1410
personne 1409
ça. 1408
another 1405
ation 1403
moi 1397
d’@@ 1381
manière 1379
pays 1379
ing. 1376
bien, 1375
Thank 1372
al 1372
s'@@ 1365
each 1359
puis 1358
Une 1356
s'est 1356
Cela 1350
système 1350
idea 1347
savez, 1346
grand 1345
Un 1342
non 1342
few 1334
é. 1333
aient 1328
assez 1328
on. 1328
Because 1325
next 1323
That 1321
bit 1320
a. 1310
Parce 1308
années 1307
ent. 1307
still 1306
used 1304
does 1301
p@@ 1301
looking 1300
depuis 1299
sorte 1284
prendre 1282
e@@ 1281
L'@@ 1279
Quand 1272
petit 1272
train 1270
problème 1269
grande 1267
ai 1266
whole 1265
voyez 1264
pourquoi 1262
ation, 1259
P@@ 1255
between 1255
pourrait 1255
ation. 1248
them. 1245
ées 1244
ez 1242
l'on 1240
vos 1236
vu 1229
When 1228
off 1226
qu'elle 1225
é, 1225
B@@ 1224
d'entre 1222
doesn't 1220
en@@ 1218
i@@ 1218
Dans 1217
dollars 1216
Ça 1212
M@@ 1208
world. 1206
try 1202
T@@ 1195
o@@ 1193
te 1193
t@@ 1188
devons 1187
A@@ 1185
New 1183
t, 1181
font 1180
thought 1177
simple 1175
y, 1175
peux 1172
avant 1171
b@@ 1170
ent, 1169
on, 1169
this, 1163
al@@ 1160
age 1157
trying 1152
y. 1152
C@@ 1150
ti@@ 1149
t 1145
trouver 1144
wanted 1144
ça, 1143
's 1142
dis@@ 1141
t. 1141
é@@ 1140
d@@ 1138
ers 1136
g@@ 1136
ans. 1132
always 1128
call 1127
there. 1123
time, 1123
n'a 1121
d'être 1120
r@@ 1120
better 1118
ch@@ 1118
pas. 1117
genre 1115
k@@ 1113
fact, 1111
monde. 1111
day 1109
found 1109
créer 1107
said 1107
ts 1107
faut 1105
time. 1105
design 1096
what's 1092
chez 1090
understand 1090
D@@ 1089
before 1089
may 1087
mettre 1087
autres 1085
F@@ 1082
50 1078
six 1078
course, 1077
rien 1076
bon 1073
30 1072
quelqu'un 1069
premier 1068
end 1063
There's 1062
took 1060
voici 1059
bonne 1055
real 1053
G@@ 1052
ever 1050
tu 1046
laquelle 1044
here, 1042
environ 1041
working 1038
," 1036
Pour 1036
ré@@ 1035
here. 1031
plupart 1030
using 1029
believe 1027
me. 1027
feel 1026
four 1024
donner 1023
100 1022
ate 1022
getting 1022
i 1021
o 1018
plutôt 1018
simplement 1018
ar@@ 1009
is@@ 1004
done 1003
How 1002
year 998
montrer 997
sais 997
sous 996
ais 995
I'll 994
you, 993
C'était 992
Maintenant, 991
comprendre 991
type 991
quite 990
live 985
These 982
let 982
y@@ 981
comes 979
jusqu'à 976
E@@ 973
000 969
travail 969
di@@ 967
n@@ 967
create 966
love 964
dire, 963
us. 963
er@@ 960
crois 958
h@@ 957
aller 954
al, 953
c’est 953
maybe 953
al. 952
m'@@ 952
probably 951
petite 950
travers 949
I'd 948
too 947
ed. 946
pouvoir 944
[@@ 941
science 939
N@@ 938
Tout 934
déjà 934
j'étais 929
avaient 923
pris 921
n'@@ 919
passe 919
am 918
serait 914
him 913
l@@ 911
technologie 911
c@@ 909
second 909
H@@ 906
ed, 906
less 906
making 906
them, 905
doit 904
ensuite 904
One 903
ceux 903
sûr, 903
world, 901
idée 900
trop 899
problem 896
story 896
vont 896
is. 895
face 894
talking 893
in, 892
become 891
jour 889
pretty 883
five 881
We're 879
im@@ 878
quel 877
lo@@ 874
without 874
means 871
veut 870
brain 869
ici, 869
par@@ 869
social 869
you've 869
f@@ 868
it@@ 867
possible 866
coming 863
savoir 863
co@@ 862
15 859
K@@ 858
R@@ 858
certain 858
près 857
help 856
on@@ 856
sera 853
us, 853
le, 852
now, 851
qu'@@ 850
My 849
ant, 849
v@@ 849
technology 848
Alors, 845
ceci 845
water 843
forme 842
well 842
femmes 840
passé 840
moi, 838
ant. 836
allons 833
am@@ 833
best 832
small 832
there, 832
an, 831
trouve 829
in. 828
nombre 825
ag@@ 823
e? 823
li@@ 821
number 821
L@@ 820
ainsi 817
nouvelle 815
s'agit 814
system 814
qu'un 811
information 810
données 809
eux 807
cause 805
certains 804
years, 804
le. 802
person 800
autour 798
cerveau 798
nature 798
such 798
ement 796
propre 795
mo@@ 794
monde, 794
everything 789
lieu 788
penser 786
po@@ 786
having 785
across 784
es@@ 784
problèmes 784
exemple, 781
ri@@ 781
Merci. 780
là, 780
Comment 779
as@@ 779
or@@ 779
saw 779
d, 778
faire. 778
utiliser 777
public 775
seule 774
makes 773
man 771
nouveau 770
thinking 769
kids 767
told 767
way, 767
goes 762
vie. 762
building 761
mis 761
passer 761
". 759
image 759
contre 756
és. 756
ations 755
ated 754
con@@ 753
ée. 753
lorsque 752
Cette 751
quatre 751
together 750
build 749
old 749
power 749
fin 748
They're 747
niveau 747
ers, 746
raison 746
eur 745
light 745
away 744
ants 741
Au 737
children 736
an@@ 735
interesting 735
Ces 733
force 733
changer 730
el@@ 730
j'avais 730
mean, 730
like, 729
do. 728
s? 726
ting 726
'@@ 724
women 724
play 722
people, 721
cours 720
st@@ 720
ask 719
data 719
cancer 717
She 716
ago, 714
sens 713
half 709
probablement 709
allez 708
de@@ 708
devez 707
seen 707
tes 707
sense 706
histoire 704
questions 704
All 703
ted 703
De 701
ons. 700
happened 699
move 699
pu 699
tellement 698
a@@ 697
population 697
tr@@ 697
he's 696
cas 695
gros 695
life. 695
projet 695
Elles 694
ici. 693
For 691
couple 691
almost 690
compte 690
donne 688
ac@@ 687
mieux 687
pas, 687
within 686
e-@@ 685
living 685
single 685
trouvé 685
way. 684
looks 682
le@@ 681
qu'une 681
again, 680
vient 680
que. 679
inter@@ 678
j'@@ 678
faisons 677
ter 677
d'avoir 676
d. 676
fact 676
let's 676
at@@ 675
partir 675
est-ce 673
left 673
looked 673
As 672
enough 672
presque 671
savons 671
things. 671
ab@@ 670
côté 670
ons, 670
people. 670
ai@@ 669
both 669
asked 668
faites 668
set 668
an. 667
n'ont 667
reste 667
milliards 666
times 666
w@@ 666
ée, 666
Merci 665
energy 664
n'importe 663
bring 661
si@@ 661
years. 661
40 660
billion 659
basically 657
ad@@ 656
food 656
3 653
keep 653
regardez 653
ine 652
m@@ 652
aujourd'hui 651
today 651
là. 650
Pourquoi 649
Des 648
main 647
ro@@ 647
global 645
pouvait 645
Eh 643
anything 643
femme 642
quelle 642
heard 641
learn 641
construire 640
up, 640
whether 640
ating 639
high 639
u@@ 639
] 638
culture 637
cinq 634
également 634
Voilà 633
up. 633
exemple 631
ale 630
parle 630
per 630
plusieurs 630
temps, 629
Ceci 628
United 628
large 628
rendre 628
qu'elles 626
course 625
hard 625
n'ai 625
side 625
travailler 625
tu@@ 623
seul 622
J@@ 620
em@@ 620
minutes 620
now. 618
pro@@ 618
et, 617
l'a 617
much. 617
per@@ 617
cellules 615
donné 615
l'idée 615
savez 615
différentes 613
inside 613
te. 613
groupe 612
2 611
commencer 611
és, 611
money 610
space 610
think, 610
l'ai 609
once 608
reason 607
nouvelles 606
one. 604
under 604
stuff 603
surface 603
taking 603
et@@ 602
moyen 602
bad 601
l'histoire 601
kinds 600
en, 599
n'était 599
piece 599
complètement 598
example, 598
far 597
choses. 596
mean 596
no@@ 596
images 595
l'autre 595
school 595
voulez 595
commence 594
film 594
temps. 594
e." 593
young 593
V@@ 591
age, 591
eurs 591
sure 591
TED 590
corps 590
fois, 590
technologies 590
fi@@ 589
O@@ 588
already 588
appelé 588
beaucoup. 588
ers. 588
regarder 588
ts, 588
ts. 588
se@@ 587
tion, 587
until 587
souvent 586
sur@@ 585
thing. 585
signifie 584
cent 582
com@@ 582
ex@@ 582
happens 582
out. 582
"I 581
machine 581
met 581
bo@@ 580
out, 580
petits 580
photo 580
l'un 578
Que 577
produit 577
well, 577
OK, 576
lequel 576
op@@ 576
W@@ 575
Comme 574
ement, 574
figure 574
mois 574
top 574
pré@@ 572
be@@ 571
while 571
bi@@ 569
gets 569
vi@@ 569
vue 569
imagine 568
led 568
chance 566
must 566
avions 565
il@@ 565
voilà 565
tion. 564
voulais 564
12 563
cela, 563
lumière 562
read 562
see, 562
", 561
day, 561
country 560
Maintenant 559
ap@@ 559
capable 559
certaines 559
sh@@ 559
ver@@ 559
age. 557
care 557
changement 557
car@@ 556
homme 556
so@@ 556
structure 556
often 553
s." 553
gr@@ 552
order 552
dernières 551
vie, 551
chose. 550
to@@ 550
difficile 549
open 549
te, 549
wasn't 549
ways 549
z@@ 549
capacité 548
completely 548
decided 548
essayer 548
exactly 548
l'in@@ 548
parents 548
voit 548
vrai 548
body 547
idées 547
propos 546
ni 545
nothing 545
I@@ 543
able. 543
aire 543
someone 543
turns 543
work. 543
ou@@ 542
base 541
endroit 541
lots 541
isn't 540
turn 540
fais 539
mal 539
ques 539
qu'en 538
computer 537
devenir 537
here's 537
200 536
appris 536
exactement 536
tion 536
since 535
dois 534
ie 534
all, 533
su@@ 533
cela. 532
voyons 532
York 531
business 531
est, 531
faire, 531
gu@@ 531
5 530
décidé 530
mon@@ 529
th@@ 529
Est-ce 527
ous 527
says, 527
entendu 526
hope 526
Mon 525
aucun 525
picture 525
processus 525
you'll 524
ante 523
demandé 523
front 523
life, 523
somebody 523
ations, 522
form 522
modèle 522
réponse 522
l'eau 521
montre 520
one, 520
points 520
rather 520
moi. 519
qu@@ 519
société 519
25 518
Why 518
ity 518
couldn't 516
future 515
situation 515
and, 514
s'il 514
tions 514
ations. 513
built 513
d 513
res@@ 513
run 513
voulons 513
grâce 512
arrive 511
aurait 511
en. 511
mesure 511
semble 511
ent@@ 510
learned 510
room 509
huge 508
maintenant, 508
became 507
Bon, 506
ville 506
ly 505
bou@@ 504
fait. 504
m 503
jours 501
right? 501
"The 500
celle 500
health 500
jeu 500
réellement 500
beautiful 499
eux. 498
nous, 498
everybody 497
sûr 497
Then 496
hear 496
knew 495
home 494
ar 493
answer 491
do, 491
hommes 491
ment 491
mère 491
petites 491
remember 491
so, 491
4 490
ability 490
fin@@ 490
gave 490
ideas 490
k, 490
aucune 489
ité 489
over@@ 489
créé 488
then, 488
om@@ 487
for@@ 486
grandes 486
group 486
ement. 485
line 485
sait 484
ds 483
i, 483
particular 483
test 482
bien. 481
es? 481
60 480
appelle 480
cor@@ 480
dernière 480
entire 480
experience 480
moment, 480
Internet 479
k. 479
découvert 478
ic@@ 478
l'air 478
problems 478
1 477
against 477
grands 476
ligne 476
meilleur 476
natural 476
taken 476
celui 475
ir@@ 475
k 475
Al@@ 474
Well 474
devient 474
example 474
non-@@ 474
recherche 474
écrit 473
process 472
types 472
guy 471
re, 471
haut 470
sujet 470
takes 470
early 469
milliers 469
places 469
share 469
well. 469
We've 468
vision 468
expérience 467
video 466
500 465
amazing 465
n'avons 464
regarde 464
C’est 463
countries 463
cu@@ 463
el. 463
solution 463
today. 463
devrait 462
men 462
American 461
cou@@ 460
enfant 460
ol@@ 460
things, 460
version 460
3@@ 459
te@@ 459
cr@@ 458
created 458
else 458
fut 458
matter 458
nom 458
sp@@ 458
centre 457
cl@@ 457
do@@ 457
selon 457
livre 456
santé 456
Here's 455
animal 455
stop 455
ées. 455
Or 454
aires 454
apprendre 454
child 454
disent 454
go@@ 454
jouer 454
least 454
man@@ 454
permet 454
voudrais 454
cells 453
project 453
ci@@ 452
ale. 451
l'une 451
thousands 451
Let's 450
puisse 450
sometimes 450
In@@ 448
Par 448
happen 448
ones 448
ressemble 448
ance 447
sortes 447
super@@ 447
d'é@@ 446
marché 446
word 446
heures 445
ter, 445
along 444
différents 444
pi@@ 444
we'll 444
2@@ 443
important. 443
réalité 443
days 442
ensemble 442
devant 441
during 441
months 441
worked 441
l 440
plein 440
red 440
années, 439
afin 438
bu@@ 438
eux, 438
re. 438
heart 437
l'é@@ 437
se. 437
vivre 437
n'en 436
site 436
study 436
turned 436
Here 435
book 435
cannot 435
source 435
today, 435
OK. 434
Pas 434
ant@@ 434
e: 434
j@@ 434
o, 434
third 434
veulent 434
it? 433
ni@@ 433
able, 432
aujourd'hui, 432
combien 432
control 432
nous. 432
right. 432
very, 432
case 431
début 431
moving 431
seeing 431
terms 431
amount 430
day. 430
mi@@ 430
vous, 430
meilleure 429
name 429
family 428
Ou 427
guys 427
air 426
devenu 426
ens 426
leave 426
sal@@ 426
se, 426
wonderful 426
dû 425
prix 425
mar@@ 423
6 422
lives 422
all@@ 421
doivent 420
mal@@ 420
plan 420
ter@@ 420
ago 419
ence 419
patients 419
pensé 419
virus 419
was, 419
us@@ 418
% 417
art 417
cré@@ 417
j’ai 417
planète 417
venir 417
jour, 416
s: 416
saying 416
Bien 415
tard, 415
CA: 414
el 414
guerre 414
self-@@ 414
thought, 414
given 413
sou@@ 413
el, 412
species 412
though 412
18 411
dis 411
based 410
happening 410
prend 409
seven 409
ul@@ 409
year, 409
br@@ 408
chacun 408
té 408
"Well, 407
buy 407
systèmes 407
80 406
Africa 406
aujourd'hui. 406
close 406
spend 406
"Je 405
Ainsi, 405
Mo@@ 404
instead 404
know. 404
land 404
ser@@ 404
dollars. 403
partout 403
plus. 403
ence. 402
plus, 402
taille 402
ées, 402
du@@ 401
développement 401
Earth 400
attention 400
can@@ 400
era 400
gi@@ 400
king 400
possible. 400
rapport 400
woman 400
parlé 399
aire. 398
communauté 398
tried 398
actually, 397
ants. 397
demande 397
existe 397
ité. 397
jeunes 397
maison 397
message 397
4@@ 396
allé 396
animaux 396
eur. 396
interested 396
ks 396
père 396
mor@@ 395
question. 395
cas, 394
u 394
vidéo 394
vous. 394
He's 393
black 393
der 393
eur, 393
pe@@ 393
up@@ 393
ine. 392
!" 391
began 391
continue 391
perhaps 391
economic 390
local 390
produits 390
av@@ 389
chose, 389
full 389
government 389
pensez 389
again. 388
dernier 388
endroits 388
model 388
out@@ 388
place. 388
qu’il 388
deuxième 387
humains 387
ill@@ 387
At 386
Is 386
city 386
everyone 386
histoires 386
history 386
level 386
needs 386
ques. 386
thing, 386
ur@@ 386
ère 386
Some 385
au@@ 385
c 385
cour@@ 385
me@@ 385
mot 385
sound 385
bio@@ 384
certaine 384
community 384
impact 384
tri@@ 384
utilisé 384
head 383
And, 382
Et, 382
aire, 382
bas 382
work, 382
pouvais 381
right, 381
ton 381
research 380
Z@@ 379
ite 379
music 379
patient 379
position 379
qui, 379
robot 379
year. 379
@@ 378
ago. 378
ante. 378
eight 378
milieu 378
sub@@ 378
ter. 377
8 376
are, 376
compassion 376
compris 376
ité, 376
needed 376
t-@@ 376
are. 375
brought 375
famille 375
gens, 375
moitié 375
rest 375
sitting 375
stories 375
learning 374
outside 374
simply 374
state 374
tête 374
People 373
aider 373
ale, 373
gouvernement 373
jeune 373
marche 373
mind 373
musique 373
Google 372
ages 372
ally 372
important, 372
parfois 372
starting 372
universe 372
étions 372
Just 371
bl@@ 371
pourrions 371
problème. 371
terre 371
ants, 370
7@@ 369
Chris 369
World 369
obtenir 369
pre@@ 369
production 369
s'appelle 369
spent 369
U@@ 368
deal 368
hours 368
laisser 368
nouveaux 368
re 368
autant 367
coup 367
etc. 367
ho@@ 367
pensons 367
voir, 367
voiture 367
énorme 367
again 366
ateur 366
bout 366
concept 366
ne@@ 366
voyez, 366
grow 365
ine, 365
planet 365
students 365
11 364
J'étais 364
or, 364
parts 364
they've 364
Do 363
ate, 363
end@@ 363
middle 363
all. 362
ence, 362
mother 362
nourriture 362
o. 362
propres 362
ait, 361
ates 361
realized 361
write 361
l'intérieur 360
moment. 360
works 360
de, 359
programme 359
who's 359
yeux 359
U.S. 358
difficult 358
hi@@ 358
known 358
ques, 358
"S@@ 357
6@@ 357
pl@@ 357
shows 357
elle. 356
pourriez 356
soient 356
walk 356
You're 355
aux, 355
ally, 353
hand 353
language 353
oil 353
viennent 353
won't 353
Puis 352
Qu'est-ce 352
myself 352
photos 352
s'en 352
cell 351
centaines 351
hu@@ 351
– 351
Not 350
essayé 350
table 350
p 349
relation 349
says 349
troisième 349
Y@@ 348
ait. 348
choix 348
code 348
construit 348
encore, 348
job 348
peur 348
pourraient 348
problem. 348
qu'est-ce 348
story. 348
down. 346
really, 346
s; 346
sent 346
vo@@ 346
beginning 345
différence 345
ing@@ 345
pen@@ 345
together, 345
Oh, 344
giving 344
qu'à 344
size 344
termes 344
è@@ 344
arrivé 343
cas@@ 343
mis@@ 343
mêmes 343
ourselves 343
whatever 343
els 342
gives 342
later, 342
of, 342
.@@ 341
felt 341
yet 341
Par@@ 340
company 340
conditions 340
service 340
wrong 340
7 339
droit 339
game 339
news 339
parmi 339
pays. 339
trans@@ 339
view 339
90 338
salle 337
taux 337
utilisant 337
étant 337
mer 336
together. 336
ales 335
area 335
choses, 335
difference 335
m'ont 335
nombreuses 335
raconter 335
tel 335
ten@@ 335
Ch@@ 334
antes 334
ds, 334
ents 334
gar@@ 334
n'avez 334
partager 334
produire 334
wouldn't 334
1@@ 333
To 333
humain 333
ins 333
min@@ 333
scientifiques 333
sortir 333
village 333
wrote 333
300 332
ance. 332
ante, 332
aux. 332
ic 332
longer 332
ment@@ 332
political 332
quantité 332
rendu 332
"Oh, 331
ang@@ 331
donc, 331
question, 331
true 331
zone 331
demander 330
happy 330
mots 330
seems 330
th 330
that? 330
absolutely 329
ance, 329
behind 329
fille 329
thank 329
5@@ 328
Dieu 328
année 328
derrière 328
feeling 328
growing 328
informations 328
ity, 328
loin 328
nombreux 328
cost 327
developed 327
importante 327
intéressant 327
pay 327
seront 327
talked 327
ate. 326
common 326
fai@@ 326
non, 326
premiers 326
rer 326
tas 326
tout. 326
animals 325
changed 325
cut 325
elle, 325
faisait 325
i. 325
um@@ 325
at, 324
dr@@ 324
miles 324
ren@@ 324
vois 324
down, 323
night 323
politique 323
Tu 322
about. 322
gone 322
house 322
system. 322
don@@ 321
free 321
h 321
gens. 320
ity. 320
lost 320
pensent 320
she's 320
tor@@ 320
étudiants 320
Re@@ 319
bas@@ 319
ets 319
faisant 319
théorie 319
watch 319
aura 318
dit: 318
incredible 318
incredibly 318
running 318
step 318
telling 318
voulait 318
developing 317
prise 317
South 316
char@@ 316
de. 316
h, 316
mouvement 316
s-@@ 316
to, 316
ber@@ 315
go. 315
green 315
past 315
poser 315
showed 315
ue 315
under@@ 315
d'autre 314
ise 314
matière 314
montré 314
pas@@ 314
Let 313
Mar@@ 313
begin 313
complex 313
contrôle 313
l'espace 313
rend 313
simple. 313
tendance 313
tes. 313
Oui, 312
easy 312
extrêmement 312
facile 312
fer@@ 312
ies 312
page 312
ve 312
9@@ 311
God 311
allow 311
mé@@ 311
tes, 311
aires, 310
amis 310
eu@@ 310
travaille 310
travaillé 310
words 310
eat 309
ens, 309
powerful 309
robots 309
sept 309
tions, 309
zones 309
8@@ 308
India 308
allait 308
devrions 308
ed@@ 308
ice 308
porte 308
tent 308
Terre 307
ge 307
hold 307
notion 307
playing 307
ru@@ 307
croissance 306
ec@@ 306
he@@ 306
les, 306
ness 306
putting 306
war 306
Après 305
bonnes 305
cher 305
hundreds 305
les. 305
pays, 305
realize 305
x 305
National 304
haven't 304
ines 304
met@@ 304
personal 304
rapidement 304
résoudre 304
es." 303
fish 303
l'ont 303
ma@@ 303
por@@ 303
support 303
travail. 303
as, 302
changé 302
cre@@ 302
ju@@ 302
l'avons 302
major 302
seem 302
ted. 302
ères 302
Con@@ 301
arriver 301
autres. 301
carte 301
pouvaient 301
ty 301
utilise 301
années. 300
bons 300
fois. 300
j'en 300
low 300
sau@@ 300
Our 299
becomes 299
d'in@@ 299
eurs, 299
friends 299
national 299
nu@@ 299
os 299
stand 299
sécurité 299
creating 298
physical 298
venu 298
"What 297
"You 297
about, 297
action 297
formes 297
itself 297
key 297
l'énergie 297
man, 297
saying, 297
jeux 296
lire 296
maladies 296
other. 296
À 296
assis 295
développer 295
off@@ 295
lu@@ 294
maladie 294
mer@@ 294
pense, 294
valeur 294
ve@@ 294
What's 293
climate 293
faite 293
raisons 293
savent 293
understanding 293
average 292
bar@@ 292
mort 292
parties 292
rez 292
water. 292
absolument 291
back. 291
gars 291
knows 291
literally 291
rel@@ 291
towards 291
unique 291
Ma 290
enfants. 290
fl@@ 290
g 290
y? 290
be. 289
impossible 289
rou@@ 289
tour 289
world's 289
No 288
back, 288
be, 288
machines 288
opportunity 288
construction 287
crée 287
oui, 287
t? 287
white 287
ables 286
changes 286
comportement 286
ig@@ 286
poor 286
réalisé 286
save 286
and@@ 285
discovered 285
market 285
mauvaise 285
tic 285
ère, 285
fu@@ 284
micro@@ 284
ocean 284
place, 284
produce 284
14 283
aren't 283
dessus 283
domaine 283
individual 283
n 283
str@@ 283
Ar@@ 282
Avec 282
ak@@ 282
anyone 282
continu@@ 282
focus 282
forces 282
futur 282
ordinateur 282
um 282
uns 282
«@@ 282
erait 281
sol@@ 281
x@@ 281
16 280
Qui 280
blood 280
born 280
cal@@ 280
change. 280
media 280
moral 280
n'avait 280
ass@@ 279
case, 279
comp@@ 279
minutes, 279
normal 279
s'ils 279
seconde 279
to. 279
». 279
18@@ 278
Car@@ 278
ative 278
cerveau. 278
designed 278
ir 278
résultat 278
tons 278
States 277
ble, 277
col@@ 277
especially 277
finalement 277
ge@@ 277
ie. 277
livres 277
prenez 277
représente 277
solutions 277
tive 277
tout, 277
aussi. 276
bon@@ 276
espèce 276
trucs 276
vivent 276
ét@@ 276
Non, 275
at. 275
ds. 275
els, 275
ez, 275
her@@ 275
qu'est 275
ta 275
themselves 275
DNA 274
lesquelles 274
point, 274
teach 274
ted, 274
worth 274
équipe 274
ais, 273
blue 273
digital 273
direction 273
either 273
eurs. 273
maintenant. 273
mètres 273
particulièrement 273
this? 273
villes 273
voie 273
Can 272
John 272
Su@@ 272
relationship 272
systems 272
totalement 272
400 271
appelée 271
ens. 271
jour. 271
particulier 271
system, 271
technology, 271
Le@@ 270
companies 270
ements 270
fond 270
ner 270
nice 270
re-@@ 270
speak 270
starts 270
team 270
you'd 270
70 269
act 269
effet 269
ess@@ 269
fonctionne 269
lived 269
meet 269
ph@@ 269
projets 269
réseau 269
ally. 268
fly 268
form@@ 268
ous, 268
showing 268
série 268
utilis@@ 268
En@@ 267
Of 267
aires. 267
certainly 267
changing 267
dollars, 267
meilleurs 267
modèles 267
onto 267
scientists 267
voyage 267
Certains 266
charge 266
enfants, 266
later 266
short 266
stuff. 266
vite 266
Ca 265
China 265
Notre 265
Okay, 265
aw@@ 265
chercher 265
ents. 265
euse 265
explain 265
har@@ 265
pou@@ 265
période 265
solve 265
ay@@ 264
deviennent 264
education 264
els. 264
finally 264
j'aimerais 264
l'univers 264
résultats 264
son, 264
Ro@@ 263
a-@@ 263
acheter 263
aussi, 263
expliquer 263
feet 263
l'argent 263
ner@@ 263
qualité 263
telle 263
By 262
Maybe 262
access 262
als 262
bâtiment 262
conférence 262
die 262
elles. 262
filles 262
final 262
incroyablement 262
ites 262
longtemps 262
nature. 262
tions. 262
Peut-être 261
dou@@ 261
ended 261
es: 261
espèces 261
ling 261
mas@@ 261
planète. 261
send 261
uses 261
ven@@ 261
ér@@ 261
J'@@ 260
ad 260
challenge 260
et. 260
groupes 260
incroyable 260
is: 260
jours, 260
society 260
son@@ 260
before. 259
id@@ 259
ie, 259
l'année 259
modern 259
nobody 259
services 259
ste@@ 259
terme 259
vitesse 259
An@@ 258
Mon@@ 258
Même 258
Plus 258
deep 258
l'esprit 258
peine 258
C 257
beyond 257
contact 257
dark 257
des@@ 257
disait 257
lement 257
value 257
vraiment, 257
Europe 256
cool 256
d'abord 256
ici@@ 256
ors 256
ris@@ 256
several 256
space. 256
water, 256
Sh@@ 255
bunch 255
capables 255
durant 255
découvrir 255
involved 255
named 255
sentiment 255
Chine 254
TED, 254
espace 254
hundred 254
ique 254
morceau 254
neuro@@ 254
voix 254
état 254
19@@ 253
20@@ 253
autres, 253
basic 253
brain. 253
disease 253
ents, 253
friend 253
histoire. 253
jou@@ 253
ressources 253
rester 253
totally 253
vent 253
ais. 252
ary 252
b 252
cur@@ 252
effectivement 252
father 252
guess 252
have, 252
mauvais 252
pain 252
revenir 252
wants 252
ère. 252
èrent 252
Com@@ 251
ali@@ 251
che 251
commencent 251
contr@@ 251
extremely 251
imaginer 251
ist 251
log@@ 251
no, 251
or. 251
outils 251
sit 251
voir. 251
ard 250
cap@@ 250
celles 250
der@@ 250
iser 250
n’est 250
physique 250
program 250
réfléchir 250
scientific 250
super 250
tour@@ 250
truc 250
Africa. 249
d'en 249
fe@@ 249
lors 249
24 248
David 248
anybody 248
cro@@ 248
eyes 248
future. 248
moments 248
phone 248
pièce 248
s’@@ 248
utilisons 248
Most 247
article 247
fini 247
police 247
sorts 247
t." 247
travail, 247
No, 246
areas 246
ble. 246
bor@@ 246
devait 246
ings 246
men@@ 246
science, 246
weeks 246
"A@@ 245
Chaque 245
bottom 245
che@@ 245
dollar 245
medical 245
moved 245
particularly 245
,@@ 244
Beaucoup 244
Chinese 244
a-t-il 244
ach@@ 244
ban@@ 244
develop 244
l'impression 244
objets 244
him. 243
jours. 243
utilisent 243
vieux 243
we'd 243
x. 243
Po@@ 242
environment 242
gauche 242
ks, 242
ler 242
possibilité 242
scale 242
um. 242
But, 241
biggest 241
death 241
dès 241
e; 241
fo@@ 241
huit 241
lin@@ 241
ne, 241
pensais 241
similar 241
écrire 241
Afrique 240
San 240
ain@@ 240
mission 240
post@@ 240
quickly 240
special 240
technology. 240
tend 240
aide 239
asking 239
d'aller 239
gl@@ 239
langage 239
leaders 239
née 239
règles 239
uniquement 239
walking 239
war@@ 239
yourself 239
Every 238
TED. 238
center 238
cho@@ 238
cri@@ 238
ding 238
favorite 238
hit 238
jo@@ 238
lat@@ 238
n'avais 238
away. 237
field 237
good. 237
lose 237
others 237
travaillent 237
allowed 236
crise 236
enc@@ 236
environnement 236
humans 236
ly. 236
mat@@ 236
measure 236
nature, 236
quality 236
reçu 236
rôle 236
theory 236
fil@@ 235
ment. 235
positive 235
sea 235
' 234
America 234
De@@ 234
Even 234
Pendant 234
atteindre 234
d’un 234
grand@@ 234
him, 234
nuclear 234
puissance 234
supposed 234
tard 234
thousand 234
val@@ 234
work@@ 234
ateurs 233
clear 233
ked 233
l'évolution 233
likely 233
pick 233
rencontré 233
savais 233
structures 233
très, 233
words, 233
Big 232
Mais, 232
d'utiliser 232
former 232
hand@@ 232
mu@@ 232
pay@@ 232
s' 232
suivre 232
ables. 231
ches 231
continuer 231
drive 231
fall 231
go, 231
l'école 231
m. 231
ordinateurs 231
perdu 231
sav@@ 231
standing 231
tique 231
uni@@ 231
add 230
as. 230
bur@@ 230
communication 230
ing? 230
institutions 230
ly, 230
premières 230
traitement 230
té, 230
13 229
enti@@ 229
entreprises 229
fil 229
imagin@@ 229
ions 229
né 229
people's 229
tiny 229
Dr. 228
Which 228
among 228
conception 228
d'eau 228
dy 228
er? 228
knowledge 228
ment, 228
pourrais 228
stay 228
vraie 228
writing 228
États-Unis 228
Tous 227
belle 227
growth 227
off. 227
planet. 227
semaine 227
tools 227
éléments 227
10@@ 226
African 226
Richard 226
available 226
hand, 226
map 226
solar 226
téléphone 226
x, 226
Bo@@ 225
English 225
anti-@@ 225
conversation 225
haute 225
material 225
minute 225
permettre 225
tion@@ 225
um, 225
Africa, 224
bigger 224
country, 224
développé 224
ell@@ 224
evolution 224
grew 224
heureux 224
iss@@ 224
nine 224
product 224
th, 224
z 224
Co@@ 223
directement 223
essayons 223
gé@@ 223
like. 223
more. 223
traiter 223
"M@@ 222
Ne 222
ales, 222
ez. 222
f 222
hands 222
tells 222
the@@ 222
tic@@ 222
9 221
changements 221
follow 221
génération 221
problème, 221
reach 221
risque 221
vies 221
17 220
After 220
ales. 220
ch 220
chemin 220
largest 220
m, 220
percent. 220
rate 220
s'avère 220
sai@@ 220
sor@@ 220
ais@@ 219
bras 219
ch, 219
idea. 219
longue 219
ne. 219
perfect 219
pon@@ 219
surtout 219
A, 218
active 218
carbon 218
différent 218
est-il 218
fac@@ 218
fun 218
liste 218
minutes. 218
paper 218
point. 218
risk 218
sens, 218
sous-@@ 218
tre 218
études 218
150 217
No@@ 217
behavior 217
certainement 217
fils 217
happen. 217
ical 217
mass 217
étude 217
CA 216
Qu@@ 216
Regardez 216
app@@ 216
ay, 216
mois, 216
pu@@ 216
science. 216
terrible 216
visual 216
watching 216
design, 215
entier 215
f. 215
fast 215
fonctionn@@ 215
n'est-ce 215
n’@@ 215
relations 215
s'y 215
sein 215
shape 215
shown 215
causes 214
croire 214
fr@@ 214
hor@@ 214
l'aide 214
ous. 214
prennent 214
qu’ils 214
series 214
ves 214
D 213
Internet. 213
ats 213
bat@@ 213
books 213
high-@@ 213
nes 213
present 213
prochaine 213
spread 213
y-@@ 213
yet, 213
ème 213
classe 212
pictures 212
result 212
sec@@ 212
suite. 212
anc@@ 211
audience 211
cities 211
explo@@ 211
extraordinary 211
fallait 211
girl 211
l'Afrique 211
onn@@ 211
personnes. 211
school, 211
school. 211
stage 211
sé@@ 211
ters 211
tez 211
transformer 211
u, 211
violence 211
— 211
Imaginez 210
Right? 210
allows 210
conscience 210
did. 210
ev@@ 210
evidence 210
fundamental 210
né@@ 210
part, 210
perspective 210
pull 210
star@@ 210
they'll 210
Br@@ 209
ah@@ 209
ari@@ 209
ayant 209
ente 209
forward 209
gen@@ 209
girls 209
isme 209
kept 209
numbers 209
o-@@ 209
potential 209
siècle 209
soon 209
we@@ 209
CO2 208
Ensuite 208
North 208
d'A@@ 208
lead 208
littéralement 208
lives. 208
meant 208
rai@@ 208
réussi 208
tal@@ 208
ure 208
viens 208
voitures 208
vol@@ 208
êtres 208
cancer. 207
d'énergie 207
droite 207
generation 207
genetic 207
ist@@ 207
ob@@ 207
personnes, 207
taught 207
teur 207
week 207
B 206
better. 206
break 206
connected 206
d? 206
es; 206
fabriquer 206
issue 206
moyens 206
objet 206
p, 206
pri@@ 206
présent 206
ready 206
rien. 206
space, 206
story, 206
technologie, 206
ve, 206
vis@@ 206
visage 206
web 206
économique 206
down@@ 205
l'A@@ 205
l'âge 205
mondiale 205
passion 205
rules 205
sounds 205
too. 205
vit 205
Those 204
actual 204
around. 204
calcul@@ 204
chi@@ 204
distance 204
end, 204
entrer 204
essentially 204
except 204
more, 204
pres@@ 204
rons 204
réalité, 204
sell 204
Another 203
Car 203
You've 203
aff@@ 203
air@@ 203
anti@@ 203
doute 203
essentiellement 203
exciting 203
ground 203
it." 203
suite 203
té. 203
Quel 202
Très 202
ated. 202
bro@@ 202
connu 202
do? 202
ins, 202
ized 202
questions. 202
recherches 202
religion 202
scientifique 202
tro@@ 202
vivons 202
y." 202
1,@@ 201
198@@ 201
J'avais 201
J’ai 201
color 201
country. 201
cœur 201
défi 201
ic, 201
ir. 201
other, 201
pose 201
rap@@ 201
see. 201
simple, 201
"C@@ 200
Combien 200
also, 200
because, 200
ble@@ 200
chanson 200
d'années 200
entr@@ 200
fear 200
fit 200
fun@@ 200
mental 200
pensée 200
secret 200
semaines 200
usually 200
vari@@ 200
wrong. 200
Lorsque 199
Pro@@ 199
Where 199
above 199
change, 199
concevoir 199
corps. 199
d’une 199
eront 199
fully 199
ger@@ 199
inc@@ 199
international 199
istes 199
nuit 199
room, 199
s" 199
sociétés 199
upon 199
written 199
», 199
ble 198
confiance 198
disant 198
famous 198
higher 198
nation 198
nouveau, 198
pattern 198
port@@ 198
posé 198
pétrole 198
rait 198
sauver 198
son. 198
tre, 198
truly 198
tés 198
ville, 198
ages, 197
alis@@ 197
antes. 197
ator 197
brain, 197
dic@@ 197
head@@ 197
humaine 197
movement 197
obviously 197
permis 197
ra 197
radi@@ 197
sites 197
wind 197
197@@ 196
dimensions 196
elles, 196
ends 196
her, 196
listen 196
person@@ 196
regardé 196
réaliser 196
réduire 196
serious 196
tre. 196
walked 196
600 195
Internet, 195
accès 195
body. 195
box 195
century 195
conserv@@ 195
died 195
dix 195
economy 195
finally, 195
lesquels 195
milliard 195
mode 195
mou@@ 195
r. 195
wish 195
conduit 194
content 194
ez-vous 194
gènes 194
lancer 194
money. 194
not. 194
ons-nous 194
réalis@@ 194
this: 194
d-@@ 193
design. 193
fonction 193
greater 193
human@@ 193
incroyable. 193
invent@@ 193
l'état 193
mains 193
military 193
our@@ 193
pal@@ 193
prim@@ 193
puissent 193
ss@@ 193
East 192
alors, 192
anim@@ 192
création 192
donnent 192
ensemble. 192
ette 192
films 192
finding 192
hom@@ 192
ic. 192
manger 192
notice 192
ps 192
révolution 192
sentir 192
traditional 192
vrai. 192
Gu@@ 191
He@@ 191
Th@@ 191
cer@@ 191
couleur 191
ded 191
expect 191
façon, 191
home. 191
imaginez 191
including 191
kid 191
mine 191
oh, 191
pr@@ 191
tim@@ 191
tourner 191
trai@@ 191
Are 190
Charles 190
George 190
ay. 190
camera 190
dec@@ 190
ite. 190
ks. 190
l'industrie 190
l'économie 190
late 190
loi 190
répondre 190
seraient 190
tenir 190
ton@@ 190
total 190
two, 190
verrez 190
works. 190
étudier 190
Di@@ 189
OK? 189
approche 189
around, 189
data, 189
den@@ 189
différente 189
ensemble, 189
kill 189
le-@@ 189
n'avaient 189
pages 189
pire 189
possible, 189
ran 189
reasons 189
rich 189
ship 189
soci@@ 189
suddenly 189
tirer 189
viv@@ 189
É@@ 189
/@@ 188
année, 188
back@@ 188
eau 188
lower 188
march@@ 188
mes, 188
od@@ 188
organis@@ 188
pol@@ 188
recognize 188
trouvent 188
ville. 188
S 187
af@@ 187
ami 187
cancer, 187
collabor@@ 187
concerne 187
entreprise 187
fre@@ 187
innovation 187
man. 187
moyenne 187
parti@@ 187
speed 187
technologie. 187
touch 187
true. 187
ères, 187
Bill 186
Sur 186
West 186
Yeah, 186
ain 186
ated, 186
central 186
connect 186
d'où 186
days, 186
façons 186
food. 186
iste 186
mise 186
mobile 186
non. 186
period 186
reading 186
tw@@ 186
various 186
Mars 185
Quelle 185
York, 185
bri@@ 185
current 185
device 185
er." 185
eventually 185
fort 185
ir, 185
larger 185
lim@@ 185
protection 185
sem@@ 185
something. 185
strong 185
tique. 185
w 185
Who 184
capital 184
chef 184
der, 184
devraient 184
direc@@ 184
exemple. 184
f, 184
ff@@ 184
fon@@ 184
lé@@ 184
original 184
quant 184
radio 184
reality 184
recently 184
sens. 184
sense, 184
somehow 184
Don't 183
Toutes 183
With 183
activ@@ 183
architecture 183
atteint 183
bonheur 183
cycle 183
est@@ 183
gagner 183
have. 183
ins. 183
ite, 183
présent@@ 183
rée 183
signal 183
throughout 183
with. 183
2, 182
Où 182
ar, 182
bal@@ 182
book, 182
d'accord 182
dem@@ 182
development 182
droits 182
enne 182
experiment 182
foot 182
forms 182
groups 182
iz@@ 182
l'eau. 182
machine. 182
matériaux 182
oh 182
pauvres 182
price 182
res 182
rise 182
sion 182
tres 182
"I'm 181
35 181
Al 181
Earth. 181
Ensuite, 181
First 181
alité 181
aspect 181
cont@@ 181
different. 181
draw 181
enne, 181
history. 181
ism 181
lien 181
manque 181
plan@@ 181
problem, 181
rac@@ 181
région 181
scène 181
side, 181
soleil 181
â@@ 181
I, 180
Paul 180
ade 180
am, 180
ances 180
becoming 180
cel@@ 180
computers 180
done. 180
else. 180
gros, 180
hum@@ 180
humain. 180
itself. 180
permettent 180
pieces 180
sol 180
vraiment. 180
allés 179
ati@@ 179
ay 179
bon, 179
children. 179
coût 179
distribution 179
entendre 179
entièrement 179
formation 179
further 179
hy@@ 179
idé@@ 179
jusqu'au 179
marcher 179
plac@@ 179
pour@@ 179
pousser 179
prenons 179
r, 179
room. 179
u. 179
"H@@ 178
ables, 178
cerveau, 178
choose 178
der. 178
designers 178
gaz 178
ignor@@ 178
journée 178
langue 178
pouvions 178
provide 178
resources 178
rés 178
soins 178
t: 178
thinking, 178
tre@@ 178
vécu 178
vérité 178
wh@@ 178
45 177
car, 177
cellule 177
children, 177
coup@@ 177
data. 177
dead 177
dehors 177
deux, 177
dri@@ 177
expériences 177
marché. 177
object 177
récemment 177
suppose 177
times, 177
tous. 177
écoles 177
196@@ 176
although 176
beau 176
cop@@ 176
court 176
devais 176
inventé 176
ists 176
kilomètres 176
loc@@ 176
ness, 176
neuf 176
numéro 176
porter 176
rec@@ 176
revenu 176
réel 176
security 176
techniques 176
terrain 176
tée 176
For@@ 175
Personne 175
accep@@ 175
clo@@ 175
dessus. 175
enter 175
envoyer 175
garder 175
glace 175
increase 175
l'art 175
list 175
ori@@ 175
problèmes. 175
rencontr@@ 175
standard 175
viol@@ 175
weren't 175
ze 175
époque 175
"Vous 174
-year-old 174
ani@@ 174
baby 174
choisir 174
collec@@ 174
creative 174
critical 174
ically 174
ings. 174
killed 174
l'im@@ 174
os@@ 174
passé. 174
problems. 174
sat 174
sex 174
somewhere 174
température 174
tur@@ 174
voulaient 174
véritable 174
whose 174
Aujourd'hui, 173
Be@@ 173
Western 173
activity 173
approach 173
bre@@ 173
dro@@ 173
information. 173
ique, 173
lui. 173
membres 173
protect 173
réseaux 173
table, 173
tests 173
ères. 173
10,000 172
199@@ 172
TED@@ 172
coeur 172
commençons 172
dev@@ 172
double 172
e" 172
effect 172
hour 172
idée. 172
kin@@ 172
l'autre. 172
l'information 172
l'époque 172
lancé 172
maison. 172
mois. 172
one-@@ 172
payer 172
wait 172
Imagine 171
J'aimerais 171
Look 171
Los 171
Middle 171
Your 171
ation@@ 171
au-delà 171
ceci. 171
désormais 171
film, 171
gh@@ 171
invented 171
j'aime 171
l'ex@@ 171
l'homme 171
not, 171
oc@@ 171
pass@@ 171
sho@@ 171
Ici 170
ain. 170
communautés 170
environmental 170
faisaient 170
gam@@ 170
general 170
information, 170
massive 170
n, 170
parler. 170
puis, 170
skin 170
tiens 170
ve. 170
Ho@@ 169
L’@@ 169
ah 169
ar. 169
bles. 169
chemical 169
cultural 169
effort 169
ey@@ 169
good, 169
habit@@ 169
issues 169
l'endroit 169
là-bas 169
mur 169
near 169
nés 169
off, 169
pression 169
présenter 169
sauf 169
software 169
song 169
école 169
actions 168
amener 168
appareil 168
cas. 168
d." 168
données. 168
ellement 168
following 168
ia 168
intelligent 168
light. 168
médicaments 168
role 168
sources 168
ue. 168
voler 168
Ex@@ 167
a's 167
act@@ 167
appar@@ 167
before, 167
body, 167
bought 167
devenue 167
experts 167
eye 167
flying 167
gener@@ 167
home, 167
interest 167
ique. 167
its. 167
lab 167
monter 167
médias 167
pass 167
possibly 167
pouvons-nous 167
retour 167
stimul@@ 167
urban 167
venait 167
voulu 167
India, 166
Laissez-moi 166
attend@@ 166
d'argent 166
derniers 166
exemples 166
flu@@ 166
food, 166
gas 166
ise, 166
l, 166
laisse 166
money, 166
movie 166
online 166
organismes 166
origin@@ 166
passent 166
specific 166
teaching 166
ties 166
z, 166
Mc@@ 165
aspects 165
biological 165
différents. 165
drug 165
examples 165
fol@@ 165
ful 165
greatest 165
hors 165
lar@@ 165
lines 165
montrent 165
ous@@ 165
parlent 165
parti 165
played 165
politiques 165
projects 165
public. 165
regardons 165
rées 165
something, 165
wi@@ 165
y: 165
"How 164
16@@ 164
Mal@@ 164
She's 164
appelons 164
consider 164
données, 164
dur 164
equ@@ 164
esprit 164
ess 164
familiar 164
financial 164
focused 164
ire 164
iv@@ 164
l'environnement 164
laissé 164
land@@ 164
pé@@ 164
quelles 164
side. 164
style 164
ta@@ 164
table. 164
they'd 164
treat 164
truth 164
ue, 164
understood 164
willing 164
wor@@ 164
Jo@@ 163
aine 163
bul@@ 163
commercial 163
culture, 163
dire. 163
driving 163
excited 163
future, 163
ide@@ 163
ille 163
non@@ 163
plantes 163
tar@@ 163
voice 163
yes, 163
Cet 162
Go@@ 162
améliorer 162
au-dessus 162
autre. 162
away, 162
direct 162
encore. 162
evolved 162
industry 162
influence 162
maison, 162
ning 162
obtenez 162
old, 162
part. 162
passe. 162
pourtant 162
prom@@ 162
raise 162
regardant 162
st 162
t'@@ 162
tes@@ 162
tou@@ 162
trou@@ 162
ways. 162
with, 162
Au@@ 161
Bien, 161
Ju@@ 161
States, 161
Think 161
York. 161
ail@@ 161
ators 161
autre, 161
cars 161
ch. 161
compagnie 161
connaissance 161
doing. 161
domin@@ 161
emp@@ 161
imp@@ 161
merveilleux 161
microbes 161
mostly 161
même, 161
note 161
record 161
route 161
santé. 161
sion, 161
w, 161
économie 161
"P@@ 160
Ici, 160
Oh 160
attention. 160
bureau 160
carry 160
chiffres 160
complicated 160
différentes. 160
discover 160
e's 160
enough, 160
faits 160
fier 160
grandi 160
histoire, 160
ign@@ 160
ing." 160
instance, 160
ish 160
j'espère 160
jet@@ 160
listening 160
merci 160
morning 160
nor@@ 160
oo@@ 160
papier 160
potentiel 160
raient 160
student 160
ther@@ 160
tique, 160
tous, 160
télé@@ 160
venue 160
women, 160
Ainsi 159
Europe, 159
Indian 159
aient, 159
bas, 159
cit@@ 159
complexe 159
cortex 159
des. 159
dites 159
end. 159
eng@@ 159
extra 159
général 159
justice 159
law 159
masse 159
range 159
rapide 159
reli@@ 159
respect 159
smaller 159
tremendous 159
Lo@@ 158
Terre. 158
aient. 158
aime 158
aware 158
cells, 158
complete 158
culture. 158
finir 158
happiness 158
l'expérience 158
lit 158
mes. 158
milli@@ 158
n. 158
objects 158
older 158
parlons 158
performance 158
prochaines 158
sons 158
succès 158
tt@@ 158
ture 158
"We 157
E 157
Michael 157
action. 157
ain, 157
arrê@@ 157
bringing 157
clearly 157
cul@@ 157
hot 157
humains, 157
importe 157
l'échelle 157
materials 157
observer 157
plant 157
pur@@ 157
rouge 157
senti@@ 157
stuff, 157
tiers 157
trou 157
"La 156
75 156
From 156
Web 156
ce, 156
ceci, 156
concentrer 156
côté, 156
dance 156
différent. 156
explor@@ 156
heure 156
ings, 156
noir 156
ouvert 156
p. 156
professeur 156
stat@@ 156
teurs 156
z. 156
Einstein 155
M. 155
bed 155
ce@@ 155
chant@@ 155
clairement 155
cover 155
cru@@ 155
deux. 155
devriez 155
dis, 155
excit@@ 155
galaxies 155
glob@@ 155
goal 155
isation 155
l'ar@@ 155
l'ensemble 155
lic@@ 155
pièces 155
private 155
shot 155
sujet. 155
transform@@ 155
waste 155
énergie 155
L'autre 154
Ma@@ 154
S. 154
bacteria 154
board 154
devoir 154
entier. 154
faible 154
games 154
gotten 154
importantes 154
l'océan 154
limit@@ 154
line, 154
lu 154
lun@@ 154
mettez 154
mind. 154
old. 154
ore 154
pan@@ 154
perdre 154
prison 154
sion. 154
slow 154
strange 154
th. 154
ues 154
vivant 154
C. 153
Dieu, 153
Oui. 153
Un@@ 153
ative. 153
audi@@ 153
auraient 153
avi@@ 153
besoins 153
concentr@@ 153
effets 153
eur@@ 153
gauche, 153
idea, 153
ines, 153
j'y 153
ke 153
l'Inde 153
long, 153
lui, 153
particules 153
plants 153
play@@ 153
protéger 153
rem@@ 153
santé, 153
sive 153
street 153
technique 153
tiques 153
Etats-Unis 152
Second 152
University 152
arts 152
century, 152
che. 152
class 152
communities 152
concer@@ 152
conf@@ 152
contexte 152
countries, 152
coup, 152
cultures 152
est. 152
face. 152
film. 152
her. 152
ind@@ 152
line. 152
minute. 152
moindre 152
pensait 152
person, 152
personne. 152
pouviez 152
slide 152
smart 152
James 151
Me@@ 151
alli@@ 151
als, 151
ath@@ 151
bas. 151
budget 151
difficile. 151
drop 151
experience. 151
extr@@ 151
faster 151
feed 151
fine 151
fou@@ 151
happened. 151
initi@@ 151
j'allais 151
ms 151
night, 151
office 151
outil 151
pied 151
pourtant, 151
press 151
proche 151
produced 151
prof@@ 151
questions, 151
re." 151
schools 151
seemed 151
simples 151
sm@@ 151
st, 151
teachers 151
Hu@@ 150
Like 150
Two 150
air. 150
beauté 150
cartes 150
cher. 150
ché 150
contenu 150
conçu 150
d'essayer 150
energy, 150
enormous 150
explore 150
fire 150
flow 150
il, 150
ist, 150
isé 150
l'eau, 150
lanc@@ 150
majorité 150
micro-@@ 150
même. 150
parents, 150
part@@ 150
pas? 150
serv@@ 150
sorti 150
successful 150
tâche 150
wall 150
"W@@ 149
Okay. 149
Se@@ 149
Yes, 149
a." 149
acc@@ 149
aviez 149
cat@@ 149
chang@@ 149
condition 149
eaux 149
example. 149
femmes, 149
ger 149
gre@@ 149
humaine. 149
ick@@ 149
laboratoire 149
ly@@ 149
marchés 149
models 149
paid 149
population. 149
pos@@ 149
push 149
qu’on 149
siècle, 149
though, 149
ut 149
vendre 149
waiting 149
échelle 149
"Why 148
chaîne 148
connec@@ 148
corps, 148
courant 148
d'abord, 148
fairly 148
faisais 148
grosse 148
ideas. 148
inf@@ 148
meilleures 148
mieux. 148
network 148
ours 148
related 148
stem 148
tap@@ 148
uc@@ 148
vit@@ 148
ying 148
"C'est 147
Bi@@ 147
antes, 147
beauty 147
connaissez 147
countries. 147
d'environ 147
due 147
euse. 147
lev@@ 147
loved 147
mal. 147
mettent 147
mortalité 147
moteur 147
multi@@ 147
nom@@ 147
nécessaire 147
parl@@ 147
pe 147
planète, 147
plastic 147
preuve 147
ses, 147
siècle. 147
slightly 147
stick 147
studies 147
suivante 147
trust 147
"Le 146
Americans 146
Life 146
ah, 146
aiment 146
arm@@ 146
auquel 146
ax@@ 146
az@@ 146
compréhension 146
cé@@ 146
distribu@@ 146
dit@@ 146
ensuite, 146
envers 146
ets, 146
finalement, 146
gouvernements 146
lignes 146
m'en 146
ments 146
my@@ 146
myself, 146
poin@@ 146
pp@@ 146
race 146
secteur 146
stars 146
tool 146
États-Unis, 146
"D@@ 145
"F@@ 145
Col@@ 145
Earth, 145
Encore 145
TV 145
X 145
carbone 145
consommation 145
creates 145
everything. 145
famili@@ 145
fic@@ 145
hur@@ 145
ian 145
importance 145
joue 145
land, 145
liberté 145
ls 145
perception 145
poissons 145
rappelle 145
s?" 145
surface, 145
t-il 145
vend@@ 145
%. 144
15@@ 144
17@@ 144
India. 144
NASA 144
ball@@ 144
below 144
brains 144
cach@@ 144
campagne 144
chacune 144
d'après 144
decide 144
dent 144
did, 144
décisions 144
découverte 144
emotional 144
enfant, 144
enfin 144
engineering 144
environment, 144
fantastic 144
inspired 144
iste, 144
land. 144
liv@@ 144
mesurer 144
nouveau. 144
play. 144
principe 144
produc@@ 144
prêt 144
qu'au 144
temperature 144
themselves. 144
tête. 144
universe. 144
écou@@ 144
0@@ 143
Y 143
choice 143
clean 143
coll@@ 143
demi 143
devenus 143
différences 143
emb@@ 143
enne. 143
er's 143
fro@@ 143
innov@@ 143
int@@ 143
inten@@ 143
mer, 143
phénomène 143
planet, 143
pleine 143
profondément 143
ré. 143
savait 143
tend@@ 143
ting. 143
touch@@ 143
travel 143
té@@ 143
voient 143
étiez 143
2. 142
3D 142
Many 142
X@@ 142
anci@@ 142
att@@ 142
choisi 142
color@@ 142
contient 142
cool. 142
crois, 142
da, 142
directly 142
dizaines 142
e?" 142
eating 142
extraordinaire 142
genes 142
ine@@ 142
journey 142
light, 142
lois 142
morts 142
peau 142
progrès 142
ram@@ 142
reduce 142
respec@@ 142
servir 142
sociaux 142
square 142
straight 142
suffisamment 142
tard. 142
trees 142
99 141
C, 141
Deux 141
His 141
Mr. 141
Vi@@ 141
Votre 141
achieve 141
co-@@ 141
envoyé 141
healthy 141
heat 141
image, 141
indi@@ 141
intéressant, 141
iques 141
ize 141
la@@ 141
lou@@ 141
meaning 141
mind, 141
molécules 141
none 141
passé, 141
pensé, 141
poly@@ 141
portable 141
puisque 141
rain@@ 141
safe 141
semblent 141
souviens 141
teacher 141
temp@@ 141
terre. 141
tomber 141
versus 141
wife 141
10, 140
Per@@ 140
Qu'@@ 140
affec@@ 140
als. 140
ancient 140
beaucoup, 140
bomb@@ 140
brill@@ 140
bébés 140
camp 140
ches. 140
child, 140
collective 140
connaissons 140
coûte 140
d'y 140
da 140
dat@@ 140
door 140
ences 140
esse 140
fallu 140
famille, 140
feels 140
feu 140
highly 140
ia. 140
image. 140
lui-même 140
mai@@ 140
malgré 140
mer. 140
mettons 140
mil@@ 140
of. 140
ors, 140
parler, 140
remarqué 140
rent 140
response 140
sciences 140
throw 140
tient 140
training 140
univers 140
valeurs 140
what? 140
y's 140
y; 140
To@@ 139
Washington 139
agent 139
am. 139
année. 139
anywhere 139
biologie 139
chances 139
cher@@ 139
continent 139
contrôler 139
days. 139
dream 139
face, 139
grav@@ 139
intelligence 139
l'image 139
mort. 139
necessarily 139
observ@@ 139
pat@@ 139
process. 139
programmes 139
project. 139
shared 139
sign@@ 139
speaking 139
suit 139
sun@@ 139
un, 139
worst 139
ages. 138
analy@@ 138
bord 138
boy 138
city. 138
coin 138
compare 138
connais 138
différente. 138
din@@ 138
discours 138
dispar@@ 138
helped 138
hol@@ 138
ics 138
job. 138
l'éducation 138
language. 138
on? 138
power. 138
products 138
public, 138
quement 138
r 138
remarkable 138
reti@@ 138
satellite 138
sujets 138
sun 138
écouter 138
étape 138
étudié 138
"Oh 137
Do@@ 137
Nor@@ 137
Or@@ 137
appro@@ 137
arrivent 137
arrêter 137
besoin. 137
ciel 137
costs 137
d'années, 137
de-@@ 137
engage 137
graphique 137
génér@@ 137
immediately 137
ines. 137
levels 137
long. 137
month 137
pile 137
pun@@ 137
quement, 137
ser. 137
sold 137
somme 137
surface. 137
ten 137
évolué 137
America. 136
God, 136
Li@@ 136
allée 136
appel 136
ary, 136
buildings 136
crazy 136
disease. 136
first, 136
h. 136
helping 136
individuals 136
jamais. 136
l'E@@ 136
matin 136
ness. 136
oper@@ 136
rend@@ 136
results 136
road 136
répondu 136
search 136
speci@@ 136
suivi 136
sûr. 136
therefore 136
un. 136
vote 136
$@@ 135
1, 135
Nos 135
Thomas 135
Yeah. 135
a: 135
applications 135
constitu@@ 135
dessous 135
droite, 135
gg@@ 135
hand. 135
idée, 135
individus 135
industrial 135
intéressant. 135
iti@@ 135
kids, 135
l'amour 135
limites 135
magazine 135
many, 135
messages 135
montr@@ 135
much, 135
patterns 135
publi@@ 135
ressemblent 135
ry 135
rythme 135
réponses 135
screen 135
tab@@ 135
turning 135
use. 135
ways, 135
"B@@ 134
Gr@@ 134
Har@@ 134
Quelqu'un 134
amené 134
book. 134
bébé 134
check 134
compassion, 134
compte, 134
connaître 134
d'années. 134
dents 134
erai 134
ettes 134
inform@@ 134
ing: 134
ise. 134
issant 134
lis@@ 134
magnifique 134
manière, 134
math 134
médecine 134
n'étaient 134
net 134
particip@@ 134
peace 134
ple@@ 134
poisson 134
recent 134
sign 134
subject 134
sustainable 134
sépar@@ 134
1,000 133
Again, 133
Bar@@ 133
Mor@@ 133
Take 133
aging 133
consiste 133
day@@ 133
des, 133
ear@@ 133
enregistr@@ 133
fix@@ 133
flo@@ 133
four@@ 133
habitu@@ 133
individu@@ 133
infrastructure 133
l'ADN 133
main. 133
migr@@ 133
organization 133
passait 133
person. 133
quels 133
sang 133
sil@@ 133
store 133
studying 133
tempor@@ 133
tor 133
useful 133
"Les 132
250 132
America, 132
Anderson: 132
Harvard 132
J'aime 132
Son 132
T 132
adop@@ 132
art. 132
bactéries 132
colon@@ 132
commenc@@ 132
correc@@ 132
déplacer 132
education. 132
encourage 132
femmes. 132
fight 132
forte 132
humain, 132
immédiatement 132
ires 132
issent 132
its, 132
l'Amérique 132
parfaitement 132
pratique 132
sac@@ 132
ton, 132
ture, 132
visible 132
vol 132
won 132
yeux, 132
yeux. 132
British 131
HIV 131
Robert 131
Why? 131
actuellement 131
apply 131
ber 131
brings 131
che, 131
clé 131
combin@@ 131
connection 131
conséquences 131
education, 131
facilement 131
femme, 131
figured 131
fix 131
great. 131
gri@@ 131
il. 131
imagination 131
let@@ 131
liber@@ 131
lie 131
nearly 131
nord 131
parlait 131
pit@@ 131
que@@ 131
quick 131
restaurant 131
sen@@ 131
spiritu@@ 131
station 131
trac@@ 131
transition 131
ver 131
voy@@ 131
étudi@@ 131
évolu@@ 131
"Et 130
L'idée 130
L'une 130
Mes 130
ality 130
ars 130
chem@@ 130
dur@@ 130
démocratie 130
d’autres 130
entes 130
gal@@ 130
holding 130
hospital 130
ists, 130
jeu. 130
j’@@ 130
machine, 130
male 130
marché, 130
passed 130
percent, 130
personne, 130
responsabilité 130
rue 130
règle 130
sie 130
t's 130
television 130
tic. 130
tree 130
ça? 130
ê@@ 130
"This 129
5. 129
Her@@ 129
Là 129
Ne@@ 129
Times 129
aine, 129
bus 129
closer 129
connaissent 129
côte 129
decisions 129
describe 129
décision 129
er-@@ 129
graph@@ 129
génome 129
held 129
humains. 129
iez 129
l'Université 129
lac@@ 129
lieux 129
match 129
nommé 129
noticed 129
nuit, 129
one's 129
opér@@ 129
paix 129
physics 129
please 129
possibility 129
prêts 129
rid 129
skills 129
sud 129
sw@@ 129
til@@ 129
travaillons 129
typical 129
"O@@ 128
Great 128
Sal@@ 128
aban@@ 128
aid 128
alone 128
arriv@@ 128
ash@@ 128
big, 128
boîte 128
cadre 128
cent. 128
clair 128
collègues 128
concepts 128
conver@@ 128
couche 128
créatures 128
d'al@@ 128
destruction 128
drugs 128
energy. 128
ently 128
envie 128
er: 128
erais 128
forget 128
futur. 128
hydro@@ 128
ist. 128
lights 128
longtemps. 128
muscle 128
niveaux 128
obvious 128
pli@@ 128
rights 128
sez 128
solaire 128
suivant 128
tors 128
track 128
trouvez 128
vir@@ 128
w. 128
women. 128
éviter 128
"No, 127
3. 127
Sud 127
Terre, 127
amis, 127
ane 127
appeler 127
billions 127
bits 127
bru@@ 127
cents 127
climatique 127
command@@ 127
demand@@ 127
début, 127
effet, 127
fournir 127
hun@@ 127
in-@@ 127
knowing 127
le? 127
lever 127
lives, 127
livre, 127
lumière. 127
matériel 127
motiv@@ 127
médi@@ 127
phase 127
pin@@ 127
poids 127
présence 127
président 127
religious 127
représent@@ 127
ser 127
significant 127
spending 127
transformation 127
twice 127
venus 127
économ@@ 127
élément 127
5,000 126
Man@@ 126
They've 126
achet@@ 126
acheté 126
anything. 126
appareils 126
ative, 126
business. 126
capacity 126
capacités 126
disent, 126
dés@@ 126
environment. 126
euse, 126
g. 126
gérer 126
head. 126
ies, 126
images, 126
interact 126
issons 126
mille 126
multi-@@ 126
ors. 126
patho@@ 126
process, 126
prê@@ 126
rapidement. 126
regul@@ 126
revenus 126
tel@@ 126
termin@@ 126
tics 126
trouv@@ 126
ves, 126
vrai@@ 126
"Pourquoi 125
An 125
Audience: 125
M 125
MIT 125
OK 125
States. 125
Steve 125
Ti@@ 125
alternative 125
apprennent 125
après, 125
beings 125
bil@@ 125
birth 125
cam@@ 125
caus@@ 125
challenges 125
civil 125
commun@@ 125
community. 125
compared 125
direction. 125
disons, 125
dit. 125
diversité 125
donn@@ 125
ely 125
enn@@ 125
ennes 125
ets. 125
euses 125
evolutionary 125
fera 125
fied 125
here? 125
himself 125
j'appelle 125
love, 125
mag@@ 125
opened 125
others. 125
picture. 125
plaisir 125
possède 125
preuves 125
priv@@ 125
re? 125
rencontrer 125
souris 125
taient 125
tom@@ 125
trained 125
trouble 125
two-@@ 125
Juste 124
ating, 124
caught 124
celui-ci 124
city, 124
c’était 124
disease, 124
dési@@ 124
erons 124
essaye 124
exist@@ 124
gagné 124
gene 124
helps 124
id 124
income 124
intéressante 124
ire, 124
ités 124
l'inter@@ 124
l'ét@@ 124
lab@@ 124
leading 124
logique 124
longtemps, 124
médecin 124
organisation 124
particulier, 124
popular 124
qué 124
qu’@@ 124
read@@ 124
rêve 124
seconds 124
sing 124
success 124
surprise 124
times. 124
tin@@ 124
tionn@@ 124
trial 124
universe, 124
vert 124
which, 124
wonder 124
worry 124
élèves 124
Don@@ 123
Indi@@ 123
Public 123
a? 123
allaient 123
arbres 123
argument 123
atten@@ 123
autor@@ 123
babies 123
batt@@ 123
centr@@ 123
champ 123
célèbre 123
date 123
ering 123
expensive 123
fail@@ 123
fascin@@ 123
gue 123
hole 123
ideas, 123
intérêt 123
le." 123
lets 123
lé 123
m’a 123
nourriture. 123
os, 123
photograph 123
post-@@ 123
principalement 123
rappeler 123
red, 123
sharing 123
situations 123
soin 123
sommet 123
suc@@ 123
super-@@ 123
supply 123
tester 123
yet. 123
étudiant 123
"E@@ 122
1. 122
50@@ 122
Bu@@ 122
Cor@@ 122
Darwin 122
Dis@@ 122
More 122
Tr@@ 122
actu@@ 122
adap@@ 122
ager 122
américains 122
ands 122
attention, 122
avion 122
ayons 122
balance 122
bizarre 122
chimiques 122
college 122
couleurs 122
d'ici 122
dessin@@ 122
doing, 122
enough. 122
ent-ils 122
façon. 122
flux 122
fonctionner 122
hearing 122
identi@@ 122
instant 122
interesting. 122
km 122
l'heure 122
magic 122
marketing 122
mem@@ 122
mourir 122
nations 122
né. 122
obtenu 122
plu@@ 122
produisent 122
régions 122
sert 122
solution. 122
stor@@ 122
tableau 122
tas@@ 122
tels 122
tive, 122
tive. 122
ty@@ 122
tôt 122
vaut 122
virtual 122
21 121
Chine, 121
D. 121
Pr@@ 121
ating. 121
ational 121
better, 121
bodies 121
c'est, 121
cerveaux 121
conference 121
considérer 121
crime 121
créativité 121
descend@@ 121
décider 121
définition 121
earth 121
entirely 121
entrepreneurs 121
favor@@ 121
glass 121
gène 121
happens. 121
high@@ 121
house. 121
ically, 121
ice, 121
ics, 121
instrument 121
ism, 121
l'en@@ 121
lez 121
libre 121
mur@@ 121
mères 121
other@@ 121
oxygen 121
présent, 121
ra@@ 121
revient 121
sociale 121
society. 121
som@@ 121
stopped 121
sum@@ 121
ters. 121
thé@@ 121
tées 121
tés. 121
vast 121
États-Unis. 121
ï@@ 121
12@@ 120
19 120
City 120
J'en 120
Very 120
aci@@ 120
arri@@ 120
caractéristiques 120
cases 120
compassion. 120
effective 120
electric 120
eraient 120
espaces 120
familles 120
form. 120
governments 120
ia, 120
impossible. 120
inst@@ 120
isol@@ 120
l. 120
laissez-moi 120
neurones 120
oppos@@ 120
oubli@@ 120
over. 120
patient. 120
phones 120
plastique 120
pressure 120
qu’elle 120
regard 120
rom@@ 120
ré, 120
signific@@ 120
soir 120
tat@@ 120
technologies, 120
three-@@ 120
tombe 120
toucher 120
venez 120
war. 120
wat@@ 120
éri@@ 120
2,000 119
:@@ 119
Inde, 119
No. 119
address 119
ahead 119
air, 119
amus@@ 119
any@@ 119
apporter 119
arr@@ 119
avant. 119
bande 119
basé 119
bouger 119
calls 119
dangerous 119
dog 119
entend@@ 119
enter@@ 119
entier, 119
erie 119
ess. 119
expression 119
famille. 119
filled 119
for. 119
fuel 119
function 119
géni@@ 119
know? 119
l'avenir 119
local@@ 119
low@@ 119
mang@@ 119
meeting 119
mouvements 119
naissance 119
oy@@ 119
partout. 119
per. 119
peu. 119
polio 119
pom@@ 119
quanti@@ 119
qui@@ 119
sculp@@ 119
secondes 119
sense. 119
simul@@ 119
souhai@@ 119
systems. 119
terre, 119
tru@@ 119
vrais 119
ç@@ 119
5, 118
adi@@ 118
ajouter 118
appel@@ 118
avant, 118
bel@@ 118
bâtiments 118
catch 118
cells. 118
disons 118
déplac@@ 118
développ@@ 118
eli@@ 118
ements, 118
family, 118
fy 118
game. 118
importants 118
internet 118
ker 118
l'avez 118
lot. 118
membre 118
ments. 118
moins, 118
nourriture, 118
nées 118
pain@@ 118
photo@@ 118
pic@@ 118
rare 118
remember, 118
rock 118
rural 118
réalité. 118
répon@@ 118
scar@@ 118
semaines, 118
ters, 118
tomb@@ 118
unes 118
weight 118
émissions 118
Each 117
European 117
Everybody 117
Non 117
affect 117
arrivés 117
auparavant. 117
bles, 117
car. 117
chambre 117
commun 117
community, 117
done, 117
dy@@ 117
dépend 117
ements. 117
ez-@@ 117
family. 117
garçon 117
guerre. 117
impression 117
istes, 117
later. 117
là-bas. 117
mauvaises 117
nég@@ 117
offici@@ 117
peut-être, 117
rencontre 117
rendent 117
revolution 117
separate 117
sexu@@ 117
tric@@ 117
trouvons 117
ty, 117
was. 117
évidemment 117
Amérique 116
El@@ 116
J'espère 116
P 116
So@@ 116
We'll 116
ains 116
au. 116
avez-vous 116
ball 116
biology 116
bs 116
changent 116
cle@@ 116
commencez 116
communicate 116
conclusion 116
degrees 116
despite 116
devrais 116
efficace 116
essayez 116
g, 116
ice. 116
join 116
l'histoire. 116
l'époque, 116
leads 116
left, 116
level. 116
molecules 116
music, 116
music. 116
occup@@ 116
pourra 116
profit 116
ps. 116
published 116
rentrer 116
ressembl@@ 116
réaction 116
sais, 116
sensation 116
serez 116
some@@ 116
text 116
tradition 116
transform 116
village, 116
was@@ 116
yeah, 116
électrique 116
étoiles 116
20, 115
Europe. 115
Im@@ 115
Inde 115
Rien 115
activité 115
acy 115
ard@@ 115
auto-@@ 115
bird 115
can, 115
cher, 115
collaboration 115
comm@@ 115
correspond 115
democracy 115
dernière, 115
efforts 115
force. 115
images. 115
inspir@@ 115
l'école. 115
lack 115
matéri@@ 115
océans 115
organisms 115
os. 115
policy 115
population, 115
pre-@@ 115
principes 115
producing 115
red. 115
rule 115
semblait 115
shift 115
situation. 115
sk@@ 115
st. 115
système. 115
traverser 115
treatment 115
trous 115
téléphones 115
use, 115
ut@@ 115
view, 115
vouloir 115
"L@@ 114
65 114
China, 114
Dé@@ 114
L'un 114
We@@ 114
acting 114
action, 114
amen@@ 114
ann@@ 114
ans@@ 114
ateur. 114
au, 114
aver@@ 114
beat 114
caméra 114
capture 114
connecter 114
context 114
core 114
designing 114
difference. 114
earlier 114
electrical 114
explique 114
forest 114
giant 114
haut, 114
infec@@ 114
instruments 114
keeping 114
left. 114
les@@ 114
level, 114
mondiale. 114
operating 114
oui. 114
ping 114
prises 114
présente 114
question: 114
retour@@ 114
ron@@ 114
ses. 114
shouldn't 114
sin@@ 114
sing@@ 114
so. 114
souches 114
telles 114
tent@@ 114
ting, 114
titre 114
ver. 114
visit 114
A. 113
KB: 113
Mu@@ 113
Once 113
R 113
S'il 113
Sometimes 113
affaires 113
afraid 113
apprend 113
ca 113
chercheurs 113
ches, 113
clu@@ 113
cognitive 113
complexité 113
course. 113
dd@@ 113
dez 113
doctors 113
décrire 113
equivalent 113
everywhere 113
ful@@ 113
ge, 113
ground. 113
happening. 113
horrible 113
kid@@ 113
l'am@@ 113
l'autre, 113
l'est 113
look, 113
mathématiques 113
matin, 113
months, 113
peur. 113
power, 113
programs 113
présentation 113
quitté 113
sit@@ 113
sorte, 113
tens 113
teur. 113
tives 113
volume 113
want. 113
"If 112
14@@ 112
2000 112
3, 112
Am@@ 112
B, 112
Everything 112
Have 112
Over 112
amène 112
arm 112
bone 112
century. 112
chien 112
clients 112
comprend 112
contribu@@ 112
créent 112
d'apprendre 112
decade 112
decision 112
ded. 112
fal@@ 112
foreign 112
install@@ 112
it'll 112
jobs 112
l'an 112
managed 112
mari@@ 112
moi-même 112
multiple 112
mère, 112
m’@@ 112
nation@@ 112
n’y 112
pho@@ 112
représentent 112
retourner 112
riches 112
sc@@ 112
séquence 112
task 112
tho@@ 112
to-@@ 112
ures 112
utilisée 112
voiture, 112
whom 112
worse 112
27 111
Cependant, 111
French 111
Pensez 111
administr@@ 111
afford 111
ayez 111
benefit 111
bois 111
bon. 111
building. 111
c. 111
company, 111
conn@@ 111
davantage 111
discu@@ 111
déchets 111
eff@@ 111
ences, 111
experience, 111
fabrication 111
fasse 111
fem@@ 111
fin, 111
génétique 111
history, 111
house, 111
intéressé 111
less@@ 111
lies 111
market. 111
marque 111
obtient 111
ones. 111
picked 111
puissions 111
raised 111
responsible 111
riche 111
saving 111
section 111
seuls 111
sions, 111
three, 111
tic, 111
tif 111
too, 111
ty. 111
ues. 111
étrange 111
8. 110
800 110
Ac@@ 110
Actually, 110
Afghanistan 110
Avant 110
Ber@@ 110
Certaines 110
Du 110
New@@ 110
Non. 110
]. 110
al-@@ 110
animals, 110
believed 110
character 110
ching 110
commerci@@ 110
connexion 110
cuisine 110
del@@ 110
differences 110
dirait 110
easily 110
female 110
ics. 110
ili@@ 110
ina 110
intéress@@ 110
invited 110
ke, 110
ky 110
l'ordinateur 110
lam@@ 110
legs 110
me? 110
missing 110
organic 110
perfectly 110
perte 110
pieds 110
places. 110
position, 110
projet. 110
pul@@ 110
rapidement, 110
talks 110
teurs, 110
tiques. 110
tis@@ 110
tra@@ 110
ture. 110
ver, 110
wearing 110
win 110
wing 110
z-@@ 110
zed 110
194@@ 109
4. 109
700 109
Ag@@ 109
Grand 109
Nobel 109
amélior@@ 109
blog 109
bruit 109
building, 109
convaincre 109
cy@@ 109
dad 109
demandez 109
différence. 109
dirais 109
disaient 109
discussion 109
ellement, 109
engag@@ 109
ente. 109
exist 109
ferait 109
forêt 109
from. 109
ful, 109
gauche. 109
guerre, 109
improve 109
ire. 109
it’s 109
journal 109
language, 109
lent 109
lit@@ 109
loin, 109
mobil@@ 109
mè@@ 109
médecins 109
night. 109
né, 109
over, 109
pai@@ 109
pens@@ 109
plans 109
plat@@ 109
profond 109
quer 109
remarqu@@ 109
réchauffement 109
same. 109
self 109
sequence 109
sup@@ 109
tan@@ 109
tional 109
tures 109
venant 109
via 109
vieille 109
voulions 109
Afrique, 108
I. 108
Sch@@ 108
ack@@ 108
artificial 108
ateur, 108
aurons 108
auxquels 108
bien@@ 108
breast 108
business, 108
ca@@ 108
chim@@ 108
computer. 108
concerned 108
crimin@@ 108
danger 108
dealing 108
die. 108
diver@@ 108
enfin, 108
ered 108
expériment@@ 108
fighting 108
idées. 108
ish@@ 108
ited 108
itself, 108
jouent 108
l'al@@ 108
losing 108
merveilleuse 108
morning, 108
méthode 108
no. 108
passant 108
path 108
pauvreté 108
personnage 108
personnel 108
prior@@ 108
quar@@ 108
quent 108
recevoir 108
region 108
ressentir 108
soutenir 108
statistiques 108
suiv@@ 108
teur, 108
thinks 108
urg@@ 108
vidéos 108
vrai, 108
where, 108
you? 108
zero 108
"Hey, 107
"Nous 107
However, 107
Permettez-moi 107
Twitter 107
articles 107
basically, 107
bridge 107
by@@ 107
case. 107
centi@@ 107
ci 107
comprennent 107
critique 107
currently 107
devaient 107
dly 107
dre 107
débat 107
emmener 107
enjoy 107
enseign@@ 107
expert 107
gro@@ 107
grown 107
head, 107
inv@@ 107
ira 107
isme, 107
laissez 107
leaving 107
marche. 107
me." 107
medicine 107
musique, 107
ouv@@ 107
picture, 107
planning 107
prevent 107
principal 107
prochain 107
project, 107
publié 107
rentr@@ 107
ront 107
rédu@@ 107
studied 107
tac@@ 107
tuer 107
tés, 107
unless 107
vidéo. 107
vies. 107
villages 107
yellow 107
ép@@ 107
éro@@ 107
.000 106
195@@ 106
23 106
Ad@@ 106
Depuis 106
G 106
Si@@ 106
ador@@ 106
animaux, 106
arch@@ 106
argent 106
assu@@ 106
attendre 106
autonom@@ 106
birds 106
bles 106
boys 106
caused 106
communic@@ 106
communiquer 106
compétences 106
concernant 106
dessus, 106
dos 106
dying 106
economy. 106
ess, 106
forme. 106
freedom 106
genome 106
hal@@ 106
hé@@ 106
importantly, 106
iques. 106
isi@@ 106
l'espace. 106
matter. 106
musique. 106
naturel 106
ner, 106
notes 106
offer 106
oiseaux 106
ong@@ 106
opportunité 106
ourselves. 106
ouvrir 106
passés 106
paying 106
practice 106
produit. 106
profound 106
qu'avec 106
raconte 106
ras@@ 106
risques 106
régime 106
scale. 106
second, 106
souvent, 106
star 106
tie 106
visu@@ 106
week, 106
Anyway, 105
BF: 105
Bur@@ 105
DH: 105
Fr@@ 105
Mars. 105
Ru@@ 105
adultes 105
another. 105
art, 105
ary. 105
associated 105
ates. 105
ation? 105
augment@@ 105
can. 105
celle-ci 105
chron@@ 105
complexity 105
conflit 105
courbe 105
driven 105
employ@@ 105
escal@@ 105
essaie 105
explorer 105
garçons 105
ges@@ 105
général, 105
intellectu@@ 105
laws 105
loin. 105
légèrement 105
marine 105
mile 105
minis@@ 105
molécule 105
mountain 105
mour@@ 105
noirs 105
nouvel 105
organisations 105
ously 105
per, 105
permet@@ 105
presse 105
ran@@ 105
religions 105
represent 105
réel. 105
signaux 105
sky 105
sn@@ 105
stood 105
stuck 105
summer 105
tait 105
te-@@ 105
une. 105
us? 105
verre 105
workers 105
ô@@ 105
L 104
Nord 104
Their 104
ak 104
artistes 104
ateurs, 104
aï@@ 104
begins 104
break@@ 104
c'est-à-dire 104
c, 104
calcul 104
ci, 104
coffee 104
d'enfants 104
dimension 104
durée 104
dée 104
elements 104
else, 104
en-@@ 104
fonds 104
grain 104
haut. 104
heureux. 104
humaine, 104
ier 104
illustr@@ 104
invisible 104
is? 104
jeter 104
ley 104
liens 104
main, 104
maintenir 104
minds 104
normally 104
passion@@ 104
politique, 104
possibilités 104
progress 104
proté@@ 104
purpose 104
return 104
rues 104
sions 104
ster 104
structure. 104
suff@@ 104
suffit 104
t; 104
tourne 104
toward 104
ues, 104
"Comment 103
.. 103
100@@ 103
Mil@@ 103
Pe@@ 103
Q@@ 103
aine. 103
appropri@@ 103
associ@@ 103
basis 103
blanc 103
boo@@ 103
café 103
considère 103
croy@@ 103
d'inter@@ 103
deliver 103
electricity 103
email 103
ero@@ 103
eth@@ 103
flu 103
fourth 103
hadn't 103
hate 103
jump 103
lec@@ 103
leg@@ 103
legal 103
logiciel 103
manières 103
matériau 103
medi@@ 103
nat@@ 103
necessary 103
phrase 103
places, 103
protec@@ 103
pure 103
ralenti@@ 103
random 103
regar@@ 103
regardent 103
sions. 103
ski@@ 103
sli@@ 103
sortie 103
sphère 103
stop@@ 103
ton. 103
tête, 103
vis 103
élev@@ 103
32 102
8, 102
AIDS 102
Bas@@ 102
Dan 102
Etats-Unis, 102
Tur@@ 102
War 102
accessible 102
according 102
ast 102
ately 102
atif 102
avoid 102
but, 102
cherche 102
choices 102
comportements 102
covered 102
d'ex@@ 102
definition 102
droite. 102
détec@@ 102
efficient 102
enseignants 102
es-@@ 102
essayant 102
faux 102
foo@@ 102
friends, 102
fs 102
fémin@@ 102
garde 102
graph 102
grippe 102
heures, 102
highest 102
ises 102
l'importance 102
largement 102
leader 102
mother, 102
n'existe 102
ou, 102
own. 102
particles 102
peut-on 102
plant@@ 102
posi@@ 102
predict 102
principale 102
propriété 102
ps, 102
racon@@ 102
radical 102
responsibility 102
rest@@ 102
sed, 102
sens@@ 102
ser, 102
site, 102
société, 102
sorti@@ 102
soyez 102
species. 102
tenter 102
termes, 102
think. 102
tissu 102
trade 102
tries 102
values 102
van@@ 102
wear 102
well-@@ 102
év@@ 102
évident 102
être, 102
4, 101
95 101
Did 101
Mas@@ 101
Toute 101
agree 101
ambi@@ 101
and. 101
anyway, 101
artists 101
carrière 101
collect 101
compar@@ 101
constantly 101
constru@@ 101
courage 101
donnez 101
détru@@ 101
d’être 101
eas@@ 101
easier 101
employés 101
estim@@ 101
ey 101
formidable 101
fs, 101
funny 101
fus@@ 101
grade 101
géné@@ 101
he'd 101
hopefully 101
inqui@@ 101
intense 101
invention 101
iste. 101
l'O@@ 101
l'effet 101
l'utilisation 101
mais, 101
mesur@@ 101
meters 101
minute, 101
mol@@ 101
molecular 101
médicament 101
objectif 101
photo, 101
politique. 101
programm@@ 101
raison. 101
society, 101
souff@@ 101
swe@@ 101
utile 101
utilisés 101
v 101
visite 101
voiture. 101
âge 101
élevé 101
états 101
Google, 100
Je@@ 100
alimentaire 100
armes 100
arrière 100
auront 100
avanc@@ 100
broken 100
capit@@ 100
chaleur 100
circuit 100
composants 100
comprendre. 100
confir@@ 100
d'obtenir 100
d: 100
dans@@ 100
douleur 100
ely, 100
ending 100
ent-@@ 100
event 100
farmers 100
foie 100
followed 100
forward. 100
four, 100
guy, 100
inner 100
ites. 100
ités. 100
l'ac@@ 100
loo@@ 100
lumière, 100
men, 100
mort, 100
mère. 100
nano@@ 100
numérique 100
omb@@ 100
partage 100
penser, 100
précisément 100
public@@ 100
quit@@ 100
quitter 100
responsable 100
retrouver 100
roll 100
roughly 100
site. 100
surviv@@ 100
tais 100
terres 100
there? 100
top@@ 100
touche 100
treated 100
war, 100
26 99
Américains 99
Facebook 99
Islam@@ 99
Nations 99
Or, 99
Sp@@ 99
ability. 99
accor@@ 99
américain 99
anglais 99
application 99
ates, 99
ator. 99
augmente 99
bleu 99
bour@@ 99
brand 99
chauff@@ 99
chois@@ 99
ders 99
diseases 99
duc@@ 99
décrit 99
défis 99
ely. 99
enf@@ 99
everyday 99
exact 99
far@@ 99
finished 99
forced 99
héros 99
ities 99
l'ordre 99
las@@ 99
lettres 99
mets 99
mieux, 99
musée 99
neu@@ 99
noire 99
objec@@ 99
ordinary 99
pa@@ 99
patients, 99
patients. 99
peu, 99
peuple 99
physi@@ 99
pont 99
poverty 99
predic@@ 99
ressembler 99
structure, 99
tail@@ 99
toi 99
travaillant 99
tué 99
website 99
œuvre 99
’s 99
100,000 98
20th 98
22 98
Cro@@ 98
O 98
Pl@@ 98
Right 98
Ré@@ 98
Sa 98
act. 98
advantage 98
aise 98
alement 98
aller. 98
appliqu@@ 98
atom@@ 98
avancer 98
brilliant 98
citoyens 98
clinical 98
colleagues 98
conduire 98
continué 98
corner 98
croyons 98
dernier, 98
dessin 98
dge 98
déc@@ 98
effects 98
existence 98
eyes. 98
femme. 98
fir@@ 98
for, 98
fri@@ 98
fun. 98
gag@@ 98
generate 98
hands. 98
happen, 98
homme, 98
ingly 98
kids. 98
lement. 98
majority 98
menace 98
mom 98
months. 98
naturelle 98
net@@ 98
opposite 98
organized 98
orient@@ 98
passi@@ 98
play, 98
portent 98
primary 98
professional 98
rain 98
rang@@ 98
religi@@ 98
reven@@ 98
riez 98
ring 98
réduit 98
résist@@ 98
sig@@ 98
species, 98
systems, 98
ti 98
vers@@ 98
violence, 98
écl@@ 98
3,000 97
7, 97
Arab@@ 97
D, 97
Du@@ 97
Japanese 97
[ 97
ably 97
ace 97
agents 97
anymore. 97
appear 97
appellent 97
attitude 97
auprès 97
bar 97
bit. 97
chinois 97
class@@ 97
ded, 97
define 97
det@@ 97
detec@@ 97
dynamique 97
désir 97
déterminer 97
forth. 97
fourmis 97
fs. 97
hab@@ 97
interaction 97
introduce 97
isent 97
ites, 97
jam@@ 97
joué 97
lav@@ 97
lik@@ 97
marqu@@ 97
obten@@ 97
ok@@ 97
paysage 97
pensaient 97
pilo@@ 97
port 97
pousse 97
protéines 97
proud 97
prépar@@ 97
puissant 97
puts 97
rat@@ 97
reality. 97
refer@@ 97
situation, 97
spéci@@ 97
stabil@@ 97
technologies. 97
town 97
vite. 97
én@@ 97
"R@@ 96
1000 96
9. 96
Apple 96
C’était 96
Mi@@ 96
Ri@@ 96
acts 96
adult 96
aqu@@ 96
arti@@ 96
aus@@ 96
buying 96
centres 96
chev@@ 96
cogni@@ 96
comprenons 96
degree 96
demandé, 96
directeur 96
distinc@@ 96
doigts 96
drawing 96
dés 96
e," 96
enfant. 96
entière 96
fill 96
fille, 96
formul@@ 96
frustr@@ 96
going. 96
hasn't 96
hommes, 96
iller 96
indic@@ 96
introduced 96
invest 96
istes. 96
ités, 96
jeu, 96
l'univers. 96
laser 96
letter 96
maisons 96
morceaux 96
mothers 96
new@@ 96
parents. 96
personn@@ 96
plan. 96
populations 96
position. 96
print 96
problems, 96
quasiment 96
rav@@ 96
ref@@ 96
report 96
respond 96
sel@@ 96
si, 96
sleep 96
studio 96
sujet, 96
survive 96
these, 96
tiques, 96
tly 96
télévision 96
urb@@ 96
usine 96
violent 96
virtu@@ 96
zz@@ 96
..." 95
Does 95
Inde. 95
Institute 95
Pen@@ 95
Ser@@ 95
absolute 95
affaire 95
ains, 95
bateau 95
belles 95
books. 95
cad@@ 95
cent@@ 95
certain@@ 95
computer, 95
coté 95
creativity 95
denti@@ 95
described 95
détails 95
emerging 95
erreurs 95
ery 95
families 95
fonctionnent 95
forment 95
from, 95
futur, 95
genre, 95
ges 95
graphie 95
idées, 95
ies. 95
independent 95
innovations 95
ism. 95
issement 95
izing 95
ki@@ 95
large, 95
low-@@ 95
lè@@ 95
mal, 95
mani@@ 95
manipul@@ 95
members 95
mener 95
myself. 95
mètre 95
negative 95
noms 95
offrir 95
opportunities 95
ors@@ 95
passage 95
perspective, 95
pollen 95
portée 95
press@@ 95
projec@@ 95
prototype 95
quel@@ 95
représentation 95
ressemblait 95
run@@ 95
ry@@ 95
selling 95
semaine, 95
serons 95
serve 95
soldats 95
spoke 95
stress 95
stri@@ 95
sérieux 95
s’est 95
te? 95
tension 95
traver@@ 95
virus. 95
yourself, 95
époque, 95
"It's 94
Afric@@ 94
China. 94
Go 94
Juli@@ 94
Long 94
ailleurs 94
aimons 94
alize 94
appréci@@ 94
arriver. 94
aut@@ 94
bab@@ 94
bees 94
benefits 94
blo@@ 94
cell@@ 94
chiffre 94
collection 94
combine 94
commerce 94
conférences 94
creatures 94
d'eux 94
designer 94
dor@@ 94
extreme 94
fabriqué 94
fié 94
l'architecture 94
l'utiliser 94
leçon 94
ligh@@ 94
lié 94
long@@ 94
men. 94
mit@@ 94
modifi@@ 94
moves 94
n'avions 94
neurons 94
pollution 94
prove 94
rep@@ 94
represents 94
ré 94
second. 94
stade 94
stories. 94
streets 94
syn@@ 94
sûrement 94
tandis 94
tex@@ 94
thème 94
ties, 94
transforme 94
transport 94
trom@@ 94
true, 94
vin 94
volonté 94
year-old 94
énormément 94
"Eh 93
"Tu 93
7. 93
Ni@@ 93
Vo@@ 93
You'll 93
angle 93
animals. 93
ard, 93
are@@ 93
assembl@@ 93
behavior. 93
career 93
considered 93
crisis 93
daily 93
deman@@ 93
dom@@ 93
ente, 93
ert 93
financ@@ 93
finance 93
fli@@ 93
happy. 93
iles 93
immense 93
institution 93
l'ab@@ 93
l'activité 93
l'enfant 93
lig@@ 93
love. 93
model. 93
n'êtes 93
networks 93
ones, 93
ought 93
phon@@ 93
prouver 93
rab@@ 93
real@@ 93
relativement 93
rock@@ 93
signe 93
sis@@ 93
soit, 93
solution, 93
terminer 93
test. 93
tra 93
vag@@ 93
ved. 93
viande 93
you." 93
$ 92
40@@ 92
JH: 92
Leur 92
Malheureusement, 92
Microsoft 92
Pal@@ 92
abeilles 92
ad, 92
attribu@@ 92
augmenter 92
auriez 92
basée 92
bouteille 92
bre 92
by, 92
cities. 92
comprends 92
convince 92
dies 92
disponible 92
diversity 92
doctor 92
entendu, 92
erreur 92
fabriqu@@ 92
feuille 92
gagn@@ 92
heads 92
ille. 92
implications 92
indeed, 92
jambes 92
joueurs 92
ke@@ 92
killing 92
l'intérieur. 92
l'école, 92
link 92
lég@@ 92
manqu@@ 92
mes@@ 92
metal 92
nucléaire 92
ot@@ 92
parking 92
pauvre 92
plane 92
plas@@ 92
prends 92
projet, 92
quartier 92
quatrième 92
rayons 92
relatively 92
remote 92
requires 92
retrouve 92
say. 92
sti@@ 92
suggest 92
synchron@@ 92
tation 92
technical 92
tres, 92
tron@@ 92
variety 92
vue. 92
wrong, 92
était, 92
Ah, 91
Chine. 91
London 91
May@@ 91
Obama 91
Quelques 91
Ste@@ 91
acqu@@ 91
acte 91
addition 91
al? 91
alement, 91
alité. 91
argue 91
avis, 91
chefs 91
chu@@ 91
cli@@ 91
clip 91
cold 91
combinaison 91
conflict 91
control@@ 91
cool@@ 91
deeply 91
dense 91
devions 91
difficiles 91
durable 91
décou@@ 91
entrain@@ 91
eyes, 91
facing 91
fell 91
fold 91
force, 91
frapp@@ 91
ge. 91
graduate 91
imag@@ 91
impliqu@@ 91
kes 91
l'espace, 91
launched 91
lesson 91
lettre 91
li 91
lif@@ 91
long-term 91
mand@@ 91
manu@@ 91
med 91
ner. 91
noise 91
ocean. 91
on-@@ 91
opening 91
optim@@ 91
party 91
phone, 91
phone. 91
photo. 91
proches 91
propos@@ 91
quo@@ 91
recycl@@ 91
relative 91
religion, 91
répar@@ 91
sagesse 91
scan@@ 91
scientifiques, 91
soleil, 91
soleil. 91
states 91
surfaces 91
tag@@ 91
tele@@ 91
teurs. 91
tifs 91
tonnes 91
tun@@ 91
two. 91
vibr@@ 91
vie@@ 91
vision. 91
week. 91
were, 91
zoom 91
échou@@ 91
"N@@ 90
%, 90
13@@ 90
6. 90
9, 90
Fin@@ 90
Iraq 90
Man: 90
Mars, 90
Peu 90
Sans 90
Science 90
Ver@@ 90
Wh@@ 90
Would 90
YouTube 90
ability, 90
accident 90
account 90
age@@ 90
agir 90
amp@@ 90
ances, 90
aspir@@ 90
assist@@ 90
assurer 90
ateurs. 90
atrice 90
ats, 90
bad@@ 90
carrying 90
cen@@ 90
cham@@ 90
compl@@ 90
const@@ 90
construc@@ 90
control. 90
cosmo@@ 90
croient 90
demi-@@ 90
ellement. 90
facile. 90
fais@@ 90
fer 90
fication 90
film@@ 90
finish 90
fish. 90
fonctionne. 90
ful. 90
grand. 90
génial 90
heureux, 90
illes 90
insul@@ 90
joie 90
key@@ 90
l'humanité 90
lais@@ 90
lay 90
ler, 90
livre. 90
lorsqu'on 90
main@@ 90
modern@@ 90
mots, 90
murs 90
music@@ 90
ned. 90
nourrir 90
observe 90
ons-@@ 90
où, 90
paraly@@ 90
positions 90
previous 90
problèmes, 90
propose 90
relate 90
rien, 90
sudden 90
tax@@ 90
term 90
test@@ 90
télé 90
ve? 90
venons 90
ves. 90
vidéo, 90
view. 90
vou@@ 90
water@@ 90
zing 90
écr@@ 90
--@@ 89
30, 89
50, 89
Bush 89
Francisco 89
Homo 89
K 89
Last 89
N'@@ 89
Ok, 89
VIH 89
allum@@ 89
anciens 89
answers 89
apporté 89
ard. 89
artiste 89
aux@@ 89
care. 89
centaine 89
chant 89
ched 89
choix. 89
conclu@@ 89
count 89
definitely 89
different, 89
dynamic 89
débu@@ 89
e". 89
ences. 89
etc., 89
express 89
fashion 89
financi@@ 89
fraction 89
fying 89
gram@@ 89
heures. 89
ill 89
illi@@ 89
ino@@ 89
interesting, 89
invite 89
markets 89
musical 89
others, 89
oui 89
ourselves, 89
perman@@ 89
pouss@@ 89
pren@@ 89
program@@ 89
pulled 89
ques@@ 89
quickly. 89
reconnaître 89
robot. 89
sculpture 89
sending 89
sent@@ 89
singes 89
société. 89
sol, 89
sont, 89
train@@ 89
tube 89
unique. 89
utilisez 89
what, 89
window 89
"Il 88
200@@ 88
Afghanistan, 88
Afrique. 88
Ceux 88
Good 88
Là, 88
Martin 88
accept 88
added 88
ads 88
alized 88
allant 88
alone. 88
another, 88
ats. 88
b. 88
biens 88
bit, 88
block 88
bright 88
chance, 88
communications 88
complexes 88
connections 88
conseil 88
conversations 88
copy 88
defined 88
design@@ 88
dessiner 88
dérou@@ 88
ed? 88
empêcher 88
essay@@ 88
examin@@ 88
extrait 88
feedback 88
formed 88
furent 88
gain 88
golf 88
ide, 88
ill, 88
iner 88
issait 88
l'av@@ 88
l'habitude 88
langues 88
le: 88
leaves 88
mains. 88
memory 88
menac@@ 88
mouse 88
n'aurait 88
nulle 88
participer 88
process@@ 88
présenté 88
ramener 88
replic@@ 88
s," 88
sentiments 88
similaire 88
stone 88
stratégie 88
whenever 88
woman, 88
worried 88
z-vous 88
ég@@ 88
émotions 88
"Well 87
B. 87
Ben 87
Bible 87
F 87
Tom 87
Trois 87
ail 87
ajou@@ 87
arrive. 87
astronom@@ 87
attack 87
aurez 87
aurions 87
avec. 87
battre 87
branch@@ 87
chair 87
chan@@ 87
changer. 87
changé. 87
chent 87
comprend@@ 87
condu@@ 87
consci@@ 87
contrôl@@ 87
côté. 87
di 87
dig@@ 87
disait, 87
domaines 87
donnant 87
départ 87
développement. 87
equal 87
experiments 87
ger. 87
great, 87
généralement 87
hav@@ 87
indépend@@ 87
injec@@ 87
interven@@ 87
ité@@ 87
j'aurais 87
ke. 87
l'armée 87
liked 87
limited 87
logie 87
longues 87
là-bas, 87
mail@@ 87
mam@@ 87
manage 87
ments, 87
mid-@@ 87
mondial 87
mondiale, 87
mémoire 87
ology 87
ond@@ 87
pair 87
patient, 87
pensées 87
planètes 87
pourcentage 87
princip@@ 87
probabilité 87
publique 87
quelqu’un 87
queue 87
réfléch@@ 87
satis@@ 87
shaped 87
signifi@@ 87
sister 87
siège 87
soi 87
soutien 87
succès. 87
talk, 87
technolog@@ 87
themselves, 87
these. 87
tée. 87
visi@@ 87
weird 87
win@@ 87
étrang@@ 87
être. 87
's, 86
120 86
30@@ 86
Center 86
Hum@@ 86
Inter@@ 86
J'adore 86
King 86
Ou@@ 86
President 86
Sar@@ 86
Three 86
U.K. 86
Wor@@ 86
ances. 86
anything, 86
area. 86
ase 86
avais 86
bases 86
bâ@@ 86
cercle 86
chimie 86
cin@@ 86
courir 86
daughter 86
difficile, 86
diplom@@ 86
découvertes 86
développement, 86
effray@@ 86
entour@@ 86
failed 86
fas@@ 86
feet. 86
fum@@ 86
indeed 86
intellectual 86
interface 86
itation 86
judg@@ 86
keeps 86
l'apprentissage 86
l'électricité 86
ligne, 86
limite 86
location 86
lour@@ 86
maths 86
montrant 86
muscles 86
mélange 86
neutr@@ 86
ologie 86
pes 86
pièce, 86
pollu@@ 86
quantum 86
rassembler 86
sauce 86
scale, 86
se? 86
sour@@ 86
spi@@ 86
spo@@ 86
suffering 86
sure, 86
tough 86
trait 86
vas@@ 86
vision, 86
vite, 86
ération 86
"J'ai 85
"Non, 85
Because, 85
Cal@@ 85
LG: 85
My@@ 85
Qu'est 85
Then, 85
Women 85
ap 85
auto@@ 85
bientôt 85
blind 85
calling 85
camp@@ 85
child. 85
circle 85
compos@@ 85
custom@@ 85
d'information 85
demandent 85
description 85
différents, 85
ency 85
endroit, 85
engineers 85
first. 85
fond, 85
fond@@ 85
fossil 85
frère 85
guerres 85
help. 85
hop@@ 85
hydrogen 85
increasing 85
ingénieurs 85
ink@@ 85
iter 85
know@@ 85
l'avenir. 85
lement, 85
ligne. 85
loss 85
moderne 85
mètres. 85
nent 85
nothing. 85
okay, 85
ome 85
opération 85
otherwise 85
page. 85
parfois, 85
passe, 85
passionn@@ 85
past, 85
pati@@ 85
ped 85
placer 85
pouv@@ 85
profonde 85
père, 85
radiation 85
regular 85
robo@@ 85
rée. 85
réserv@@ 85
s'agissait 85
sac 85
shor@@ 85
survie 85
tain@@ 85
thinking. 85
tically 85
tor, 85
truc@@ 85
tumeur 85
universal 85
vaste 85
video. 85
vieill@@ 85
wake 85
wal@@ 85
web, 85
♫@@ 85
Char@@ 84
Chicago 84
Enfin, 84
Gen@@ 84
Mac@@ 84
Prenez 84
alive 84
atory 84
belief 84
ce. 84
cherch@@ 84
company. 84
curi@@ 84
danc@@ 84
dent@@ 84
desire 84
dots 84
empty 84
ent? 84
eri@@ 84
essais 84
essenti@@ 84
everywhere. 84
extraordinaire. 84
fewer 84
final, 84
form, 84
frères 84
histori@@ 84
holes 84
hoping 84
ide. 84
identify 84
ive 84
je@@ 84
journée, 84
king. 84
l'impact 84
l'université 84
landscape 84
layer 84
lecture 84
medic@@ 84
mention 84
mené 84
minu@@ 84
molecule 84
motion 84
occasion 84
of@@ 84
orange 84
past. 84
peu@@ 84
politics 84
près, 84
pré-@@ 84
préfé@@ 84
présent. 84
quoi, 84
recently, 84
restent 84
row 84
school@@ 84
se-@@ 84
shar@@ 84
social, 84
stories, 84
string 84
texte 84
ths 84
top. 84
vic@@ 84
violence. 84
vue, 84
web@@ 84
will, 84
wood 84
-like 83
1.@@ 83
21st 83
24@@ 83
Can@@ 83
E: 83
First, 83
Ger@@ 83
Pol@@ 83
Puis, 83
abilité 83
activités 83
ad. 83
aim@@ 83
answer. 83
arms 83
artifici@@ 83
ask, 83
b, 83
band@@ 83
book@@ 83
childhood 83
classes 83
communauté, 83
compagnies 83
coûts 83
cross 83
crucial 83
dam@@ 83
donnée 83
dry 83
déf@@ 83
edge 83
embr@@ 83
engineer 83
essayent 83
events 83
fellow 83
floor 83
foot@@ 83
gang 83
gradu@@ 83
ground, 83
ham@@ 83
hear@@ 83
histoires. 83
implique 83
inclu@@ 83
industri@@ 83
infin@@ 83
isme. 83
logy 83
mathematical 83
meurent 83
montagnes 83
mène 83
need@@ 83
née. 83
om. 83
ordinateur, 83
ore@@ 83
parc 83
puissiez 83
rais 83
repas 83
ry, 83
résolution 83
s'ag@@ 83
s'arrê@@ 83
sensi@@ 83
serais 83
sets 83
six, 83
slowly 83
sons, 83
squ@@ 83
stock@@ 83
sure. 83
transmission 83
tue 83
tumor 83
ular 83
ultimate 83
underneath 83
watched 83
while, 83
ws. 83
6, 82
N 82
One, 82
Parfois 82
U.N. 82
War@@ 82
Washington, 82
accident. 82
advanced 82
ains. 82
alité, 82
alive. 82
arrive, 82
arrivée 82
arrêté 82
atta@@ 82
attraper 82
bath@@ 82
bit@@ 82
brain@@ 82
broke 82
bun@@ 82
changement. 82
client 82
climatique. 82
combination 82
competition 82
croyez 82
d'autre. 82
d'informations 82
does. 82
dépend@@ 82
détermin@@ 82
ement@@ 82
enseigner 82
essential 82
euses, 82
everything, 82
factory 82
faudrait 82
fin. 82
folks 82
fondamentalement 82
forcément 82
fresh 82
glu@@ 82
gy@@ 82
habitat 82
hair 82
his@@ 82
imprim@@ 82
isse 82
lap@@ 82
long-@@ 82
lumières 82
magasin 82
meat 82
minim@@ 82
monte 82
motif 82
mus@@ 82
mémor@@ 82
n'étais 82
nor 82
ory 82
parent 82
physique. 82
professeurs 82
protein 82
ration@@ 82
received 82
richesse 82
runs 82
souhaite 82
stage, 82
state. 82
structu@@ 82
suite, 82
surgery 82
sécurité, 82
sécurité. 82
t-elle 82
tered 82
terror@@ 82
toi@@ 82
toujours, 82
transcend@@ 82
véhicules 82
véritablement 82
wisdom 82
you@@ 82
2,@@ 81
Afghanistan. 81
Art 81
D'abord, 81
Hollywood 81
The@@ 81
accumul@@ 81
aident 81
animaux. 81
atifs 81
ato@@ 81
audience, 81
authenti@@ 81
auxquelles 81
bac@@ 81
cela? 81
charges 81
cheap 81
chemicals 81
chimique 81
cities, 81
comprendre, 81
confi@@ 81
controlled 81
coun@@ 81
creation 81
créons 81
danse 81
demand 81
différent, 81
dimensions. 81
diminu@@ 81
entre@@ 81
environnement@@ 81
erez 81
es" 81
esprits 81
excellent 81
exists 81
facteurs 81
fascinating 81
feet, 81
ff 81
forme, 81
ger, 81
ght, 81
heart, 81
improvis@@ 81
ingéni@@ 81
iron@@ 81
ities, 81
joy 81
l'équivalent 81
market, 81
mises 81
morale 81
mélang@@ 81
nés. 81
oil. 81
ont-ils 81
organizations 81
pack@@ 81
percentage 81
physique, 81
pratiquement 81
prepared 81
prison. 81
prix. 81
promise 81
proportion 81
provient 81
quote 81
rapide. 81
reached 81
requins 81
sensitive 81
serai 81
situ@@ 81
students, 81
système, 81
sélection 81
sû@@ 81
tement 81
tics. 81
ties. 81
tissue 81
tombé 81
trace 81
traffic 81
travaux 81
tres. 81
typically 81
ultimately 81
viruses 81
want, 81
wind@@ 81
ys 81
û@@ 81
"Qu'est-ce 80
'9@@ 80
Bob 80
Come 80
D'autres 80
Em@@ 80
Her 80
Instead 80
Pri@@ 80
T. 80
Te@@ 80
Time 80
ai, 80
ainsi, 80
arbre 80
artist 80
bad. 80
bank 80
be? 80
believe, 80
bin@@ 80
blogs 80
bouche 80
card 80
champs 80
chute 80
civilisation 80
constamment 80
convinced 80
culturel@@ 80
cycles 80
dedans. 80
di, 80
document@@ 80
expos@@ 80
feelings 80
five-@@ 80
flight 80
fonctions 80
glaci@@ 80
health. 80
hell 80
imagine, 80
informatique 80
intérêts 80
isons 80
it; 80
l'ai@@ 80
law@@ 80
leadership 80
lucky 80
mortality 80
née, 80
négoci@@ 80
ol 80
planets 80
pourrez 80
procédé 80
professionn@@ 80
préfér@@ 80
quantités 80
re: 80
remonte 80
research, 80
round 80
référence 80
saved 80
sie. 80
signals 80
sl@@ 80
spectre 80
stable 80
tera 80
terrifi@@ 80
threat 80
tourn@@ 80
travail@@ 80
trice 80
trip 80
utilisées 80
venir. 80
villes. 80
virus, 80
wild 80
,000 79
00@@ 79
About 79
Ap@@ 79
Bel@@ 79
Boston 79
Bri@@ 79
Deuxièmement, 79
Gre@@ 79
Kenya, 79
MIT, 79
Pau@@ 79
Pourtant, 79
Street 79
Stu@@ 79
Wall 79
Wil@@ 79
ack 79
animation 79
attrap@@ 79
beautiful, 79
cav@@ 79
classique 79
coast 79
commit@@ 79
conflits 79
confron@@ 79
connaissances 79
coral 79
d'argent. 79
degré 79
descendre 79
divis@@ 79
donnons 79
définir 79
démo@@ 79
econom@@ 79
ell, 79
ent." 79
ep@@ 79
experienced 79
expérience. 79
fa@@ 79
facteur 79
ferme 79
fish, 79
friends. 79
happens, 79
hours, 79
humanity 79
ick 79
implic@@ 79
instinc@@ 79
kilometers 79
l'ère 79
less, 79
letters 79
lin 79
longueur 79
lui-même. 79
mariage 79
market@@ 79
mentioned 79
mouth 79
news. 79
nur@@ 79
nécessairement 79
occurred 79
olog@@ 79
oun@@ 79
ouver@@ 79
painting 79
panneaux 79
passons 79
practic@@ 79
president 79
proph@@ 79
prédire 79
requ@@ 79
require 79
robot, 79
réel, 79
savions 79
scal@@ 79
scientifique. 79
scientist 79
soir, 79
solved 79
steps 79
toujours. 79
unlike 79
usage 79
vaisseaux 79
venaient 79
vertic@@ 79
vivre. 79
weapons 79
weeks, 79
who, 79
étonn@@ 79
évidemment, 79
"Do 78
Arab 78
Aujourd'hui 78
Bien. 78
Cap@@ 78
Cy@@ 78
Gal@@ 78
Lu@@ 78
Pi@@ 78
Pouvez-vous 78
She@@ 78
agriculture 78
aking 78
aliser 78
alone, 78
amazing. 78
appren@@ 78
ator, 78
attaque 78
base. 78
boat 78
carri@@ 78
code, 78
come. 78
conscious 78
couverture 78
cutting 78
debout 78
degrés 78
depends 78
device. 78
diri@@ 78
document 78
donnait 78
déplace 78
effectu@@ 78
esse, 78
existing 78
hard. 78
haut@@ 78
hier 78
humans, 78
initial 78
l'espoir 78
l'intérieur, 78
less. 78
lutte 78
magici@@ 78
malaria 78
mathematics 78
museum 78
musici@@ 78
offre 78
ok 78
ov@@ 78
piano 78
pill@@ 78
proce@@ 78
préserv@@ 78
pêche 78
raison, 78
rassembl@@ 78
reason, 78
reconn@@ 78
remon@@ 78
ride 78
savez. 78
scanner 78
senti 78
shall 78
shapes 78
small, 78
societies 78
spécialis@@ 78
technological 78
tent. 78
through. 78
till@@ 78
trouver@@ 78
upper 78
why. 78
éducation 78
“@@ 78
… 78
00, 77
2000, 77
29 77
Bre@@ 77
Etats-Unis. 77
Fi@@ 77
Guerre 77
Premièrement, 77
S, 77
Six 77
Sou@@ 77
Today 77
achiev@@ 77
affected 77
américaine 77
ana 77
appell@@ 77
arriver@@ 77
arrière. 77
attempt 77
awful 77
bear 77
bes 77
climb 77
coch@@ 77
connait 77
conséquent, 77
courte 77
destin@@ 77
différentes, 77
don 77
dropped 77
dépenser 77
eau. 77
eh 77
erie, 77
explic@@ 77
exposition 77
fall@@ 77
fat 77
fis@@ 77
fonctionnement 77
free. 77
guy. 77
gê@@ 77
hidden 77
hon@@ 77
inspiration 77
institu@@ 77
invité 77
island 77
itu@@ 77
l'In@@ 77
ling@@ 77
lon@@ 77
lorsqu'il 77
low. 77
maladie. 77
mettant 77
mouvement. 77
métaphore 77
ned 77
nutri@@ 77
oblig@@ 77
occident@@ 77
ocean, 77
ow@@ 77
parlez 77
partout, 77
pensions 77
populaire 77
pourrons 77
rai 77
relevant 77
remplacer 77
responsables 77
ressenti@@ 77
restaurants 77
riv@@ 77
s'était 77
scientifique, 77
sexual 77
simulation 77
sombre 77
sons. 77
ster@@ 77
stream 77
tables 77
tent, 77
three-dimensional 77
tion? 77
trillion 77
trouvait 77
vérifi@@ 77
wave 77
"G@@ 76
Hong 76
Since 76
Sud, 76
Tw@@ 76
White 76
a" 76
ame 76
amour 76
arrived 76
arrivé. 76
atives 76
augmentation 76
avance 76
beaux 76
besoin, 76
boite 76
bé@@ 76
connaît 76
craf@@ 76
cru 76
d'E@@ 76
d'ar@@ 76
die, 76
directions 76
dirigeants 76
discovery 76
disponibles 76
draw@@ 76
drink 76
détail@@ 76
elec@@ 76
electronic 76
ennes. 76
err@@ 76
fenêtre 76
government, 76
gènes. 76
heavy 76
horri@@ 76
identifier 76
ille, 76
illumin@@ 76
importante. 76
itent 76
ities. 76
journée. 76
l'Europe 76
l'animal 76
l'extérieur 76
l'univers, 76
l'époque. 76
ler. 76
lot, 76
mari 76
mind@@ 76
montagne 76
motor 76
movement. 76
narr@@ 76
nuit. 76
objectifs 76
ouvre 76
pap@@ 76
partag@@ 76
pensant 76
plants, 76
pointe 76
program. 76
pétrole. 76
quelques-uns 76
quickly, 76
replace 76
reçoivent 76
rur@@ 76
récupérer 76
rée, 76
schéma 76
scre@@ 76
se." 76
semaines. 76
set@@ 76
sie, 76
spec@@ 76
sul@@ 76
survivre 76
terme. 76
tire 76
top, 76
transformé 76
tée, 76
téléphon@@ 76
user 76
ved, 76
vehicle 76
voire 76
whe@@ 76
wide 76
world@@ 76
yo@@ 76
étapes 76
"A 75
"My 75
3.@@ 75
Howard 75
J’@@ 75
Ki@@ 75
Mad@@ 75
Nature 75
Ros@@ 75
Tro@@ 75
aged 75
aimer 75
ancien 75
anxi@@ 75
atro@@ 75
beautiful. 75
bien-être 75
books, 75
boulot 75
brother 75
citation 75
citizens 75
clinique 75
colors 75
communauté. 75
curious 75
cyber@@ 75
d'écrire 75
damage 75
demander, 75
dinosaures 75
détruire 75
elev@@ 75
explained 75
fantas@@ 75
father, 75
fils, 75
flew 75
flexi@@ 75
follow@@ 75
gone. 75
good@@ 75
hyper@@ 75
identifi@@ 75
ill. 75
ils. 75
increasingly 75
inspiré 75
investment 75
ished 75
l'appelle 75
l'origine 75
lay@@ 75
led, 75
lions 75
lock 75
m'est 75
management 75
mechan@@ 75
moteurs 75
motivation 75
nam@@ 75
normal@@ 75
ns 75
obviously, 75
ox@@ 75
participants 75
placed 75
pleasure 75
pluie 75
portables 75
posez 75
premi@@ 75
probable 75
rejet@@ 75
relationships 75
remarquable 75
rement 75
remind 75
représenter 75
researchers 75
reçoit 75
rich@@ 75
réc@@ 75
réponse. 75
seconde. 75
silence 75
soil 75
sol. 75
soldiers 75
solutions. 75
spectacle 75
spir@@ 75
stage. 75
stand@@ 75
supéri@@ 75
surprising 75
testing 75
them? 75
theme 75
unfortunately, 75
vague 75
variation 75
we, 75
works, 75
y?" 75
ène 75
économique, 75
édi@@ 75
élec@@ 75
éli@@ 75
"OK, 74
"Si 74
28 74
AB: 74
ADN 74
Dev@@ 74
IM@@ 74
Mark 74
Muslim 74
Okay? 74
Quelque 74
RB: 74
State 74
aille 74
amis. 74
amounts 74
an-@@ 74
aperçu 74
applied 74
appliquer 74
atmosphere 74
avantage 74
battery 74
bes@@ 74
bread 74
bureau. 74
burning 74
care, 74
cases, 74
changed. 74
cheveux 74
chirurgie 74
clin@@ 74
complet 74
compétition 74
consequences 74
contre@@ 74
copi@@ 74
corpor@@ 74
counter@@ 74
couver@@ 74
créée 74
debate 74
decades 74
direction, 74
dure 74
début. 74
ears 74
easy. 74
fle@@ 74
fondament@@ 74
fréqu@@ 74
goes, 74
going, 74
gue, 74
had, 74
had. 74
harder 74
health, 74
histoires, 74
infected 74
insec@@ 74
ires, 74
ists. 74
job, 74
lement@@ 74
life@@ 74
linked 74
lob@@ 74
machin@@ 74
matter, 74
mean? 74
mesures 74
ms, 74
mécanique 74
méthodes 74
mê@@ 74
opinion 74
peri@@ 74
points. 74
principles 74
propriétés 74
publicité 74
puis@@ 74
question@@ 74
remettre 74
réag@@ 74
sch@@ 74
sembl@@ 74
somewhat 74
specifically 74
spr@@ 74
state, 74
swimming 74
tape 74
think@@ 74
tics, 74
valu@@ 74
vies, 74
walls 74
wherever 74
économiques 74
émotionn@@ 74
énorme. 74
î@@ 74
"Bon, 73
"Oui, 73
...@@ 73
2007, 73
Ghana 73
God. 73
Japan 73
Pakistan 73
Red 73
SW: 73
Silicon 73
Sun 73
Today, 73
Uni@@ 73
Voyons 73
Wat@@ 73
accompl@@ 73
accur@@ 73
ace, 73
ach 73
apart 73
appelait 73
appreciate 73
architec@@ 73
assur@@ 73
audience. 73
aur@@ 73
balle 73
base, 73
bee@@ 73
behavioral 73
bes, 73
characters 73
comme, 73
compter 73
conditions. 73
continued 73
credit 73
d'accord. 73
democratic 73
designers, 73
devices 73
diffus@@ 73
disant, 73
dispos@@ 73
dispositif 73
déprim@@ 73
détecter 73
ency. 73
erg@@ 73
esses 73
eux@@ 73
expliqu@@ 73
exponenti@@ 73
falls 73
fantastique 73
figh@@ 73
figures 73
finit 73
fishing 73
font. 73
forth 73
gap 73
gie 73
grand-mère 73
gross@@ 73
gé 73
hasard 73
hommes. 73
hours. 73
i-@@ 73
iPhone 73
igh@@ 73
include 73
incroyables 73
ing; 73
innovation, 73
inspire 73
irs, 73
isant 73
l'étude 73
led. 73
ma. 73
magie 73
manière. 73
mécanisme 73
nervous 73
nouvelle, 73
ologues 73
om, 73
organ@@ 73
parent@@ 73
parlant 73
participation 73
personnages 73
plan, 73
pop 73
possibles 73
pourquoi. 73
pourront 73
principle 73
processing 73
productive 73
progress@@ 73
release 73
rue, 73
récemment, 73
say@@ 73
sick 73
silk 73
souven@@ 73
spirit 73
sse 73
statistics 73
steel 73
suffis@@ 73
swim 73
sé 73
tical 73
tiennent 73
tourné 73
traditions 73
tôt, 73
ur 73
valuable 73
verse 73
village. 73
villes, 73
voulez, 73
your@@ 73
zéro 73
é? 73
éti@@ 73
20,000 72
2004, 72
33 72
Air@@ 72
Any 72
Des@@ 72
Dieu. 72
Frank 72
Londres 72
Number 72
T, 72
Voila 72
accord 72
accoun@@ 72
ace@@ 72
aidé 72
airplane 72
ake 72
analyse 72
appropriate 72
atic 72
atique 72
atu@@ 72
beginning, 72
bibliothèque 72
bling 72
bum@@ 72
burn 72
cell. 72
chemistry 72
clear@@ 72
closed 72
constant 72
conç@@ 72
copyright 72
d'autres. 72
determine 72
dinner 72
dirige@@ 72
diriger 72
dons 72
défin@@ 72
engagement 72
expected 72
experiment@@ 72
faim 72
falling 72
filles. 72
fore@@ 72
gestion 72
girl, 72
happiness. 72
happy, 72
honor@@ 72
hoo@@ 72
individu 72
innovation. 72
intitulé 72
intégr@@ 72
ion 72
l'argent. 72
lève 72
lées 72
mati@@ 72
mel@@ 72
motor@@ 72
n’a 72
obstacles 72
ordinateur. 72
ot 72
page, 72
pein@@ 72
pil@@ 72
polar@@ 72
practical 72
prend@@ 72
proto@@ 72
psycho@@ 72
psychologie 72
rats 72
records 72
réelle 72
scene 72
seat 72
sentez 72
setting 72
shoot 72
sortent 72
split 72
substance 72
surprised 72
sélec@@ 72
terr@@ 72
traite 72
trois, 72
tâches 72
uck@@ 72
univers@@ 72
ure. 72
victimes 72
voilà, 72
will. 72
xi@@ 72
écran 72
écras@@ 72
éduc@@ 72
émer@@ 72
été, 72
Could 71
France 71
Green@@ 71
Gulf 71
Mer@@ 71
Min@@ 71
Nobody 71
Ray 71
Tim@@ 71
Wi@@ 71
abor@@ 71
acteurs 71
ai. 71
ancêtres 71
asse@@ 71
attaqu@@ 71
auc@@ 71
baleines 71
causing 71
cess@@ 71
chance. 71
chap@@ 71
cherché 71
circul@@ 71
composé 71
consumer 71
control, 71
correct 71
cs 71
curr@@ 71
d'énormes 71
dan@@ 71
depend 71
dess@@ 71
develop@@ 71
ding. 71
div@@ 71
dress@@ 71
em 71
encourag@@ 71
enfant@@ 71
engine 71
erie. 71
espérons 71
exchange 71
expressions 71
expérience, 71
fan 71
fast. 71
fet@@ 71
field, 71
field. 71
forward, 71
fruits 71
gs 71
guide 71
génial. 71
hospit@@ 71
hôpital 71
identity 71
ile 71
interactions 71
joined 71
l'équipe 71
labor 71
libérer 71
ling. 71
little, 71
livres. 71
locked 71
maj@@ 71
mak@@ 71
married 71
master 71
me: 71
ministre 71
model, 71
moins. 71
mâ@@ 71
need. 71
nombres 71
observation 71
ol. 71
on." 71
onal 71
organisme 71
paint 71
pani@@ 71
particular, 71
passionate 71
pause 71
peak 71
perd@@ 71
perfec@@ 71
pertin@@ 71
petit, 71
photos. 71
posent 71
property 71
pt 71
quiconque 71
rapidly 71
rappel@@ 71
re; 71
research. 71
savaient 71
screen. 71
scrip@@ 71
session 71
ship. 71
sky@@ 71
soie 71
south 71
spot 71
ste 71
suivent 71
survival 71
syndrome 71
tak@@ 71
target 71
tiré 71
variations 71
vel@@ 71
vendu 71
vent@@ 71
video, 71
voilà. 71
vêtements 71
year@@ 71
0.@@ 70
2.@@ 70
2008, 70
AB 70
AT@@ 70
Av@@ 70
Earth's 70
General 70
Gore 70
Hel@@ 70
N'est-ce 70
Perhaps 70
Quoi 70
Something 70
Wikipedia 70
You@@ 70
abstr@@ 70
ades 70
aise. 70
area, 70
arrivez 70
baisse 70
ballon 70
big. 70
bottle 70
campaign 70
carried 70
celui-ci. 70
circulation 70
click 70
coins 70
comfortable 70
conduc@@ 70
conventional 70
cours, 70
d'en@@ 70
def@@ 70
dozen 70
ed." 70
either. 70
ency, 70
entendez 70
esprit. 70
existent 70
expansion 70
explication 70
exposé 70
extrem@@ 70
faire? 70
faux. 70
fini. 70
frame 70
franch@@ 70
gers 70
grand, 70
générations 70
handle 70
honor 70
humaines 70
increased 70
ind 70
industry. 70
instant, 70
intern@@ 70
intéressante. 70
investig@@ 70
iques, 70
l's 70
lait 70
largely 70
lessons 70
liés 70
load 70
lumin@@ 70
lâ@@ 70
majeure 70
malheureusement, 70
matters 70
measured 70
metaphor 70
mines 70
miss 70
montrer. 70
monté 70
morning. 70
names 70
oceans 70
ordre 70
panneau 70
passée 70
pays@@ 70
permettant 70
permission 70
persist@@ 70
phenomenon 70
photos, 70
pointed 70
pping 70
presence 70
processes 70
puissante 70
rail@@ 70
recorded 70
refus@@ 70
remain 70
res. 70
resource 70
ress@@ 70
rions 70
réduction 70
s'appelait 70
safety 70
said. 70
side@@ 70
sides 70
solu@@ 70
sommes. 70
sound. 70
spaces 70
spatial 70
sty@@ 70
table@@ 70
talk. 70
ther 70
till 70
transmettre 70
trouver. 70
ush@@ 70
voulez. 70
vu, 70
véhicule 70
writ@@ 70
yourself. 70
ète 70
économique. 70
55 69
Canada 69
Jan@@ 69
Met@@ 69
Never 69
Oui 69
Pop@@ 69
School 69
St@@ 69
US@@ 69
abil@@ 69
absolu@@ 69
admit 69
agre@@ 69
aines 69
akes 69
anticip@@ 69
ation: 69
attirer 69
biologique 69
blow 69
breath 69
capitalis@@ 69
censé 69
choix, 69
claim 69
climat 69
connecting 69
considér@@ 69
consommateurs 69
coopér@@ 69
delà 69
dessins 69
débarrasser 69
défen@@ 69
euses. 69
eux-mêmes. 69
exercise 69
exploit@@ 69
expres@@ 69
fair 69
fields 69
flam@@ 69
focal@@ 69
friend@@ 69
fé@@ 69
gamme 69
generally 69
govern@@ 69
goût 69
group, 69
heav@@ 69
hits 69
hydr@@ 69
ient 69
importante, 69
increas@@ 69
intuition 69
invit@@ 69
king, 69
l'air. 69
l'objet 69
lan@@ 69
let, 69
liquid 69
logical 69
mainten@@ 69
medicine. 69
mess@@ 69
meu@@ 69
microscope 69
ming 69
minimum 69
mission. 69
montée 69
ms. 69
métal 69
na 69
natur@@ 69
nav@@ 69
ned, 69
neighborhood 69
odd 69
okay. 69
omni@@ 69
own, 69
pack 69
park 69
passe-t-il 69
perdu@@ 69
perspective. 69
pic 69
pollin@@ 69
potentiellement 69
pourquoi, 69
presented 69
provenant 69
pum@@ 69
rates 69
reaction 69
reality, 69
remove 69
san@@ 69
schools. 69
sees 69
sentent 69
soli@@ 69
sophistiqu@@ 69
status 69
sugg@@ 69
switch 69
symbol@@ 69
theater 69
tis 69
translate 69
traveling 69
urban@@ 69
ure, 69
vienne 69
vues 69
wealth 69
ye@@ 69
éré 69
îles 69
"On 68
"That's 68
11@@ 68
350 68
50,000 68
Americ@@ 68
Bal@@ 68
Californie 68
Iran, 68
Jim 68
Peter 68
Santa 68
abstract 68
apprenons 68
athe@@ 68
attach@@ 68
batterie 68
bel 68
bless@@ 68
board, 68
charg@@ 68
commun. 68
complexe. 68
computers, 68
computing 68
compéti@@ 68
connecté 68
correspon@@ 68
cruci@@ 68
créature 68
cultiv@@ 68
cérébr@@ 68
côtés 68
disais 68
dominant 68
dum@@ 68
dé 68
désor@@ 68
e! 68
encourager 68
entend 68
ese 68
essi@@ 68
ette. 68
examiner 68
experiences 68
experiment. 68
explosion 68
faced 68
feeding 68
finger, 68
fondamentale 68
four-@@ 68
game, 68
gel@@ 68
generated 68
glo@@ 68
grap@@ 68
growth. 68
générer 68
health@@ 68
imit@@ 68
immune 68
inconn@@ 68
incroyable, 68
indique 68
ingénieur 68
insi@@ 68
issez 68
jouer. 68
justice. 68
lo. 68
longu@@ 68
lying 68
lée 68
maximum 68
miracle 68
mét@@ 68
nez 68
nie 68
non? 68
observé 68
obtenons 68
ondes 68
organes 68
paper. 68
partie. 68
partis 68
performing 68
pierre 68
popul@@ 68
pouvez-vous 68
protected 68
quement. 68
rapproch@@ 68
recru@@ 68
rely 68
rent@@ 68
resté 68
réparer 68
savoir, 68
separ@@ 68
sex@@ 68
sexe 68
shark 68
solving 68
sphere 68
stic@@ 68
struggle 68
tick@@ 68
tif, 68
travaill@@ 68
treat@@ 68
treating 68
trouverez 68
tubes 68
twe@@ 68
unit 68
versions 68
vérifier 68
warm 68
warming 68
ça." 68
él@@ 68
étais 68
œu@@ 68
"What's 67
85 67
Ben@@ 67
California 67
Dr 67
Gar@@ 67
Instead, 67
Jam@@ 67
Valley 67
While 67
], 67
aigu@@ 67
amoureux 67
animal. 67
architectural 67
asi@@ 67
ave@@ 67
avons-nous 67
bactéri@@ 67
biais 67
bonheur. 67
born. 67
cancers 67
classi@@ 67
communication. 67
conce@@ 67
conten@@ 67
conven@@ 67
cours. 67
créant 67
cultures, 67
depending 67
ders. 67
discipline 67
drives 67
e", 67
embar@@ 67
envoie 67
era. 67
es' 67
exploration 67
faces 67
fantastique. 67
farm@@ 67
fed 67
fel@@ 67
geant 67
get. 67
groupe, 67
happ@@ 67
happened, 67
hauteur 67
heur@@ 67
hope. 67
horse 67
impressionn@@ 67
ing-@@ 67
inside. 67
interag@@ 67
intéressantes 67
investir 67
issue. 67
joueur 67
jusque 67
j’avais 67
l'Afrique. 67
l'air, 67
l'environnement, 67
larg@@ 67
lements 67
ling, 67
lorsqu'ils 67
l´@@ 67
means, 67
merveilleux. 67
mid@@ 67
motifs 67
nec@@ 67
nes. 67
nic@@ 67
normalement 67
nov@@ 67
nécessaires 67
n’importe 67
opposed 67
option 67
orb@@ 67
pain. 67
passing 67
passion, 67
photographie 67
pingouins 67
platform 67
pounds 67
prop@@ 67
pétrole, 67
relax@@ 67
remplac@@ 67
rempli 67
result, 67
righ@@ 67
rol@@ 67
rouge, 67
réunion 67
salle, 67
scan 67
siff@@ 67
smell 67
soi@@ 67
sophisticated 67
souvenir 67
sugar 67
tag 67
tain 67
tente 67
then. 67
tiv@@ 67
total@@ 67
ts? 67
understand. 67
vacc@@ 67
ved 67
wire 67
world? 67
ça@@ 67
èrement 67
électriques 67
"It 66
"L'@@ 66
.' 66
10. 66
25@@ 66
Ab@@ 66
Eastern 66
Fer@@ 66
Hol@@ 66
II 66
Kenya 66
Ko@@ 66
MS: 66
Narrator: 66
Nigeria 66
O, 66
Other 66
Pacific 66
Sir 66
Ven@@ 66
adul@@ 66
aider. 66
aimerions 66
allowing 66
appear@@ 66
appor@@ 66
arrang@@ 66
ation." 66
autrement 66
ave 66
baby, 66
bag@@ 66
blind@@ 66
by. 66
bâtiment. 66
cameras 66
celle-ci. 66
cellules, 66
chal@@ 66
charbon 66
children's 66
circuits 66
climatique, 66
colère 66
comple@@ 66
comprenez 66
concentration 66
coû@@ 66
descend 66
dites, 66
dynam@@ 66
educ@@ 66
engaged 66
eusement 66
eux-mêmes 66
extraire 66
forêts 66
foundation 66
friend, 66
fusion 66
gram 66
gratu@@ 66
guys, 66
happen? 66
husband 66
i? 66
ignore 66
illusion 66
ils, 66
incorpor@@ 66
industry, 66
inver@@ 66
isés 66
j’étais 66
l'argent, 66
latest 66
laugh@@ 66
lem@@ 66
live. 66
lo, 66
mine. 66
movies 66
mut@@ 66
nourr@@ 66
one? 66
origami 66
outside, 66
parfait 66
partner 66
peau, 66
photographs 66
pilote 66
players 66
prenant 66
prime 66
quête 66
rapports 66
re" 66
recherch@@ 66
recul@@ 66
rement. 66
renouvel@@ 66
rentre 66
retirer 66
retourné 66
reverse 66
river 66
réactions 66
réflexion 66
répondu, 66
réun@@ 66
salles 66
scène. 66
septembre 66
she@@ 66
singing 66
stands 66
stations 66
sub-@@ 66
sérieux. 66
this." 66
tif. 66
touched 66
traitements 66
traité 66
trop@@ 66
try. 66
vation 66
vente 66
viend@@ 66
visit@@ 66
voyager 66
vu. 66
weather 66
well@@ 66
wired 66
wireless 66
work? 66
évit@@ 66
évolution 66
"Look, 65
.com 65
19th 65
2005, 65
2009, 65
Adam 65
Bro@@ 65
Celui-ci 65
D'accord 65
Dar@@ 65
E. 65
Finalement, 65
Haw@@ 65
Here, 65
Nord. 65
PM: 65
Parfois, 65
Star@@ 65
Whit@@ 65
Woman: 65
Yes. 65
acy. 65
agr@@ 65
aj@@ 65
ality, 65
altern@@ 65
ambigu@@ 65
appears 65
apping 65
brû@@ 65
bus@@ 65
canc@@ 65
care@@ 65
cent, 65
centrale 65
challenging 65
cheval 65
classic 65
cloud 65
club 65
code. 65
combat 65
compliqué 65
comportement@@ 65
composition 65
consomm@@ 65
d'argent, 65
dangereux 65
demande, 65
detect 65
distant 65
dre@@ 65
dépendance 65
em. 65
emissions 65
emmené 65
emotions 65
empreinte 65
enthousias@@ 65
exposed 65
flott@@ 65
font, 65
fort. 65
fou 65
frais 65
fréquence 65
fundamentally 65
fur 65
galaxies, 65
glamour 65
habitants 65
ille@@ 65
impacts 65
influ@@ 65
ink 65
insectes 65
investiss@@ 65
irait 65
jamais, 65
jour@@ 65
l'histoire, 65
l'utilis@@ 65
l'écran 65
large. 65
launch 65
locaux 65
m'intéresse 65
machines. 65
made. 65
maps 65
measuring 65
memb@@ 65
nation, 65
newspaper 65
ney 65
ordinateurs, 65
organize 65
oublié 65
particuli@@ 65
passer. 65
pauvres, 65
pièce. 65
pleas@@ 65
porté 65
q@@ 65
quotidi@@ 65
radical@@ 65
rayon 65
retrouvé 65
reward 65
sand 65
scène, 65
secondes, 65
shape. 65
shel@@ 65
sion@@ 65
smo@@ 65
soit. 65
sont-ils 65
spiritual 65
spoken 65
sters 65
sts 65
stun@@ 65
stupi@@ 65
subjec@@ 65
success. 65
technici@@ 65
terme, 65
terri@@ 65
thanks 65
today's 65
trav@@ 65
vaccin 65
volcan@@ 65
wanting 65
web. 65
wel@@ 65
y" 65
énormes 65
"But 64
"Okay, 64
"Yes, 64
's. 64
?@@ 64
AS@@ 64
Bl@@ 64
CD@@ 64
DNA. 64
International 64
J'y 64
Jack 64
Latin 64
Only 64
PIB 64
Paris 64
Ph@@ 64
S: 64
Steven 64
Sun@@ 64
Tony 64
Union 64
accepter 64
accro@@ 64
adults 64
aise, 64
allons-nous 64
anyway. 64
apparaît 64
arc@@ 64
assume 64
autr@@ 64
avantages 64
avenir 64
background 64
beg@@ 64
bureau, 64
businesses 64
cars, 64
choice. 64
clou@@ 64
co 64
collap@@ 64
complète 64
computers. 64
consciousness 64
consist@@ 64
controlling 64
cool, 64
couches 64
d'O@@ 64
d'autre, 64
dedans, 64
densité 64
différente, 64
dimensions, 64
ding, 64
dinosaurs 64
eg@@ 64
em, 64
empê@@ 64
enable 64
enseigne 64
equipment 64
estime 64
formé 64
foule 64
free, 64
fronti@@ 64
ged 64
gravité 64
guer@@ 64
gues 64
géo@@ 64
handicap@@ 64
hel@@ 64
heureuse 64
hey, 64
immun@@ 64
infinite 64
internationale 64
invent 64
ires. 64
irs 64
issues. 64
istic 64
jum@@ 64
justice, 64
kill@@ 64
laid 64
liquide 64
m'y 64
ma, 64
machines, 64
magnifiques 64
maman 64
mangent 64
medium 64
millier 64
mix 64
moment-là, 64
monkeys 64
nationale 64
neighbor@@ 64
nes@@ 64
ness@@ 64
om 64
ooh, 64
opportunités 64
passez 64
penser. 64
perform@@ 64
pes@@ 64
photograph@@ 64
player 64
ports 64
potentially 64
principales 64
repair 64
restric@@ 64
road. 64
rouges 64
rég@@ 64
scientists, 64
scor@@ 64
sed. 64
service, 64
sett@@ 64
short, 64
social. 64
soudain 64
source, 64
souri@@ 64
soyons 64
suggère 64
tal 64
tenu 64
test, 64
them@@ 64
thi@@ 64
thérapie 64
tively 64
tours 64
traduire 64
traits 64
understand, 64
university 64
unusual 64
vaccine 64
vent. 64
vieilles 64
ving 64
viral 64
voices 64
vélo 64
walks 64
why, 64
œil 64
"the 63
., 63
50. 63
60@@ 63
Before 63
Bon@@ 63
Bronx 63
English. 63
Feynman 63
Islam 63
Larry 63
September 63
Ter@@ 63
Thanks 63
Web. 63
abou@@ 63
affecte 63
amie 63
apparaître 63
ards 63
aries 63
aî@@ 63
banque 63
bataille 63
ben@@ 63
bility 63
board. 63
brief 63
cep@@ 63
chaussures 63
chemin. 63
chirurgien 63
chromosome 63
circu@@ 63
clic@@ 63
coal 63
color, 63
compren@@ 63
compte. 63
conceptu@@ 63
contamin@@ 63
contraire 63
d'aider 63
d'ailleurs 63
deeper 63
dernier. 63
deser@@ 63
dinosau@@ 63
doigt, 63
dramatic 63
délic@@ 63
démocrati@@ 63
désert 63
d’entre 63
educational 63
effectively 63
ell 63
ence? 63
environnement. 63
esse. 63
ever@@ 63
everybody's 63
faisons, 63
fille. 63
fondamental 63
froid 63
gramme 63
ide 63
industries 63
integr@@ 63
interrup@@ 63
intr@@ 63
isez 63
l'agriculture 63
l'éducation. 63
l'étape 63
leg 63
lentement 63
littér@@ 63
marcher. 63
meaningful 63
model@@ 63
mondes 63
moon 63
naturally 63
noir, 63
north 63
oil, 63
ologi@@ 63
opportunity. 63
organ 63
organiser 63
ouvri@@ 63
paper, 63
papier. 63
partie, 63
parts. 63
pense. 63
peur, 63
plo@@ 63
pois@@ 63
pot 63
proof 63
provides 63
précis 63
quarter 63
quelques-unes 63
rationn@@ 63
recor@@ 63
required 63
reux 63
risqu@@ 63
ritu@@ 63
sample 63
secondes. 63
sell@@ 63
servent 63
shi@@ 63
shoes 63
shop 63
sible 63
sois 63
stag@@ 63
sur, 63
surrounded 63
talents 63
therefore, 63
théâtre 63
tin 63
ub@@ 63
unité 63
utilisation 63
vaccin@@ 63
ve." 63
veu@@ 63
vide 63
visions 63
vous? 63
voyez. 63
vérité, 63
waves 63
way@@ 63
week@@ 63
wit@@ 63
"T@@ 62
"Yeah, 62
&amp; 62
.» 62
Bor@@ 62
Brian 62
Central 62
Chris, 62
Finally, 62
Grande 62
Islamic 62
Jusqu'à 62
Luc@@ 62
Moyen 62
Nord, 62
Super@@ 62
Thanks. 62
Unfortunately, 62
Wal@@ 62
Will 62
ablement 62
aborder 62
ace. 62
admettre 62
aiss@@ 62
anatom@@ 62
anch@@ 62
annu@@ 62
apporte 62
arrivé, 62
assise 62
atif, 62
atif. 62
augmenté 62
auparavant, 62
avo@@ 62
ba@@ 62
behavior, 62
box, 62
breaking 62
bres, 62
bris@@ 62
bulle 62
capac@@ 62
cause. 62
chas@@ 62
chiens 62
closely 62
comment@@ 62
considéré 62
construction. 62
contempl@@ 62
contempor@@ 62
contrôle. 62
convaincu 62
cooking 62
crack 62
croit 62
cure 62
d'eau, 62
d'eau. 62
dar@@ 62
diagnostic 62
dictat@@ 62
display 62
door, 62
dram@@ 62
décor@@ 62
développent 62
era, 62
evolution. 62
facial 62
factor 62
feel@@ 62
fiction 62
fine. 62
foi 62
fonc@@ 62
fondation 62
football 62
frag@@ 62
frontière 62
games. 62
gars, 62
globale 62
graphic 62
group. 62
génétiques 62
half-@@ 62
holds 62
implant@@ 62
ini@@ 62
inno@@ 62
internal 62
ka 62
l'arrière 62
l'attention 62
l'innovation 62
l'intelligence 62
l'éducation, 62
leçons 62
live, 62
mange 62
mange@@ 62
mark 62
matin. 62
modifier 62
mono@@ 62
mul@@ 62
mécan@@ 62
ne-@@ 62
occur@@ 62
offered 62
often, 62
oldest 62
onto@@ 62
oph@@ 62
partenaires 62
pe. 62
perform 62
plants. 62
plenty 62
points, 62
politicians 62
poorest 62
port. 62
pourrai@@ 62
probability 62
proteins 62
préparer 62
puiss@@ 62
pushing 62
rat 62
raw 62
reasons. 62
remains 62
remonter 62
s'en@@ 62
sandwich 62
search@@ 62
sharks 62
shop@@ 62
simil@@ 62
so-called 62
sonne 62
sport 62
stupid 62
sum 62
tail 62
taste 62
theory. 62
tors, 62
transplant@@ 62
traverse 62
tree, 62
try, 62
ts@@ 62
tte 62
une, 62
unique, 62
vouliez 62
voyait 62
whist@@ 62
who@@ 62
wine 62
yeah. 62
épuis@@ 62
.] 61
000. 61
193@@ 61
Anderson 61
Atten@@ 61
CA@@ 61
Chacun 61
City, 61
D'@@ 61
D'une 61
I’m 61
Map@@ 61
Merci, 61
Norden 61
Pakistan, 61
Please 61
Pu@@ 61
Quelles 61
Ric@@ 61
Rom@@ 61
Rome 61
SIDA 61
See 61
Stephen 61
Vol@@ 61
adopter 61
advis@@ 61
alle@@ 61
ana, 61
artistic 61
asth@@ 61
automatically 61
ber, 61
biology, 61
bombe 61
bénéfici@@ 61
caf@@ 61
chanter 61
chaud 61
chil@@ 61
chou@@ 61
ci. 61
cohér@@ 61
common@@ 61
comparé 61
component 61
components 61
concept, 61
conscient 61
consider@@ 61
conséquence 61
content. 61
contrairement 61
corn 61
corporate 61
coupe 61
crash@@ 61
d'autres, 61
d'énergie, 61
dead. 61
deal. 61
ders, 61
desert 61
details 61
diffusion 61
disaster 61
divided 61
divor@@ 61
décr@@ 61
défi@@ 61
ecosystem 61
endroit. 61
entreprise. 61
est-@@ 61
europé@@ 61
exerc@@ 61
exist. 61
far, 61
farm 61
films, 61
ft 61
galaxie 61
gold 61
gou@@ 61
grab 61
grid 61
grosses 61
guys. 61
génie 61
humaines. 61
institutions, 61
internet, 61
introver@@ 61
j'essaie 61
journaux 61
l'atmosphère 61
length 61
marche, 61
marr@@ 61
member 61
mix@@ 61
mom@@ 61
mérite 61
nettoy@@ 61
network. 61
normal, 61
obsessed 61
options 61
organism 61
outside. 61
parole 61
partageons 61
participate 61
particulier. 61
pauvreté, 61
pel@@ 61
pires 61
powered 61
poème 61
poésie 61
produit, 61
providing 61
pâ@@ 61
quart 61
reaching 61
recherche, 61
rendue 61
represent@@ 61
ressor@@ 61
restor@@ 61
risks 61
root 61
rough@@ 61
rue. 61
rétro@@ 61
rô@@ 61
sais. 61
seen. 61
solaire. 61
souvenez 61
spati@@ 61
spectrum 61
started, 61
strategy 61
séduis@@ 61
that." 61
thing@@ 61
thrown 61
tiss@@ 61
tons. 61
totale 61
travaillait 61
trick 61
type, 61
utilisateurs 61
visages 61
vivants 61
whereas 61
wise 61
word, 61
words. 61
yes. 61
younger 61
écar@@ 61
écoute 61
-to-@@ 60
72 60
AR@@ 60
Angeles 60
Bir@@ 60
Christ@@ 60
Dès 60
Earth@@ 60
Ge@@ 60
Iran 60
Isn't 60
Mat@@ 60
Museum 60
Pourquoi? 60
V 60
X-@@ 60
ab 60
actually. 60
acy, 60
addic@@ 60
ah. 60
ami, 60
architecture. 60
arrivons 60
art@@ 60
ationn@@ 60
atoms 60
auparavant 60
bizarre. 60
blog@@ 60
box. 60
box@@ 60
bras, 60
cardi@@ 60
carré 60
celebrate 60
chés 60
civilization 60
clim@@ 60
concert 60
conclure 60
conqu@@ 60
considérons 60
consumption 60
contains 60
contribution 60
conversation. 60
cook@@ 60
cooper@@ 60
coups 60
d; 60
death. 60
deaths 60
differ@@ 60
disper@@ 60
does, 60
drôle 60
dun@@ 60
efficaces 60
eless 60
entered 60
ep 60
espér@@ 60
ette, 60
explanation 60
faisions 60
faites, 60
faith 60
feront 60
fingers 60
floating 60
gagne 60
generations 60
gift 60
glace, 60
gn@@ 60
goutte 60
government. 60
grad@@ 60
gènes, 60
hang 60
harmon@@ 60
histor@@ 60
hope, 60
immer@@ 60
infantile 60
interview 60
irs. 60
iter@@ 60
j'adore 60
jusqu'aux 60
l'I@@ 60
l'environnement. 60
l'hôpital 60
l'océan. 60
laun@@ 60
leav@@ 60
m'avait 60
magnetic 60
maintain 60
major@@ 60
mentale 60
merci. 60
mine, 60
mondi@@ 60
montrer, 60
mots. 60
move. 60
moyenne, 60
naturel. 60
navig@@ 60
neither 60
nel 60
news, 60
nous-mêmes. 60
now@@ 60
nuage 60
ordinateurs. 60
paradig@@ 60
paras@@ 60
parfait. 60
perc@@ 60
perd 60
personnelle 60
physic@@ 60
placé 60
plante 60
pped 60
progressi@@ 60
promo@@ 60
propor@@ 60
provided 60
pulling 60
puzzle 60
pén@@ 60
péri@@ 60
regret 60
requin 60
rooms 60
route. 60
répand@@ 60
résolu 60
résultats. 60
s-tu 60
sad 60
sci@@ 60
seu@@ 60
sof@@ 60
solid 60
stayed 60
su 60
sée. 60
terriblement 60
thing: 60
three. 60
tissus 60
toile 60
town, 60
toxic 60
trag@@ 60
transformed 60
traumati@@ 60
vertical 60
whatever. 60
wr@@ 60
ès, 60
!@@ 59
"? 59
00. 59
100, 59
48 59
Bang 59
D'accord, 59
Fri@@ 59
German 59
Hey, 59
Hou@@ 59
Japon 59
Pan@@ 59
Res@@ 59
Rwanda, 59
Sel@@ 59
Sen@@ 59
Tor@@ 59
Video: 59
accidents 59
accompag@@ 59
ade, 59
ajoute 59
ality. 59
ange 59
applau@@ 59
architectur@@ 59
arm, 59
articul@@ 59
artistique 59
asse 59
atiques 59
bactérie 59
bed, 59
biolog@@ 59
blocks 59
boom@@ 59
cataly@@ 59
celebr@@ 59
collected 59
competi@@ 59
compil@@ 59
comprom@@ 59
connue 59
corruption 59
cœur, 59
d'imaginer 59
d'or@@ 59
dedicated 59
discussions 59
distributed 59
drove 59
décennies 59
economy, 59
efficiency 59
elle-même 59
embedded 59
emergency 59
entrent 59
esp@@ 59
ez@@ 59
fit@@ 59
flat 59
flies 59
gang@@ 59
genre. 59
gh 59
gol@@ 59
hip 59
honest 59
hypo@@ 59
idio@@ 59
impliquer 59
import@@ 59
insects 59
installation 59
installer 59
interests 59
is." 59
jaune 59
kne@@ 59
l'Inde, 59
l'ap@@ 59
l'em@@ 59
lad@@ 59
lady 59
lance 59
lever@@ 59
libér@@ 59
lieu, 59
liée 59
made, 59
marchent 59
margin@@ 59
material, 59
mean@@ 59
mention@@ 59
method 59
moment@@ 59
nom. 59
nouvelle. 59
o: 59
open-@@ 59
open@@ 59
operate 59
pac@@ 59
perhaps, 59
personally 59
perç@@ 59
pleur@@ 59
polar 59
portrait 59
possibilities 59
post 59
poussé 59
poverty, 59
power@@ 59
poè@@ 59
principaux 59
prison, 59
présents 59
pâte 59
regions 59
regre@@ 59
remo@@ 59
rivière 59
robu@@ 59
récompense 59
s! 59
s". 59
sach@@ 59
sand@@ 59
schools, 59
seconde, 59
seed 59
semaine. 59
sensible 59
seul. 59
show. 59
sinc@@ 59
sociales 59
soft 59
souffrance 59
souten@@ 59
speech 59
standards 59
stupéfi@@ 59
symbole 59
t-on 59
terrain. 59
thes@@ 59
thin@@ 59
thro@@ 59
through, 59
title 59
tly, 59
tombée 59
tor. 59
town. 59
tracking 59
trees, 59
vascul@@ 59
virtually 59
wed 59
yer 59
é." 59
éco@@ 59
éduqu@@ 59
0s. 58
42 58
Aucun 58
D'un 58
DNA, 58
E, 58
Econom@@ 58
Force 58
Ford 58
GDP 58
Health 58
Me 58
Mesdames 58
Oxford 58
P, 58
Regar@@ 58
See, 58
Sil@@ 58
Stanford 58
abond@@ 58
absur@@ 58
actuelle, 58
agu@@ 58
ai-je 58
ain't 58
alisation 58
ami@@ 58
ams 58
amusant 58
analyser 58
apprendre. 58
après. 58
arriver, 58
ators, 58
awareness 58
bec@@ 58
beginning. 58
being, 58
bâtiment, 58
carefully 58
cellules. 58
cha@@ 58
changes. 58
chimpanzés 58
civi@@ 58
collectiv@@ 58
conservation 58
contain 58
contrô@@ 58
copies 58
couvrir 58
cover@@ 58
crash 58
dark@@ 58
decline 58
detail 58
digit@@ 58
divide 58
division 58
documents 58
don't. 58
donné, 58
drag@@ 58
drinking 58
démarrer 58
e... 58
ear. 58
eigh@@ 58
embrace 58
employees 58
endommag@@ 58
ennu@@ 58
epidemic 58
espoir 58
eter 58
evil 58
evolve 58
exclu@@ 58
expliqué 58
exploring 58
exprimer 58
factu@@ 58
faisons. 58
false 58
fat@@ 58
fleurs 58
forever. 58
fragment@@ 58
frontières 58
funded 58
funding 58
gagnent 58
gouvernement@@ 58
graphiques 58
gray 58
grim@@ 58
hire 58
historique 58
ico@@ 58
id. 58
ideal 58
identical 58
increases 58
input 58
instantan@@ 58
instructions 58
intelligence, 58
intelligents 58
it: 58
iting 58
jardin 58
l'opportunité 58
lab, 58
labo 58
leaders. 58
likes 58
literally, 58
low, 58
l’on 58
man's 58
marriage 58
massi@@ 58
million. 58
month, 58
nant 58
nou@@ 58
nour@@ 58
now? 58
office. 58
ont, 58
opérations 58
oul@@ 58
particle 58
payé 58
peau. 58
philosoph@@ 58
photographi@@ 58
plays 58
poem 58
positive. 58
possèdent 58
potenti@@ 58
pper 58
profit@@ 58
prostitu@@ 58
psychological 58
ramen@@ 58
ree@@ 58
reference 58
remarquer 58
rie 58
rising 58
road, 58
robotic 58
romantic 58
rub@@ 58
réchauff@@ 58
réus@@ 58
saut@@ 58
sauv@@ 58
scope 58
second@@ 58
sentence 58
seri@@ 58
she'd 58
ship, 58
sinon 58
sociale. 58
spar@@ 58
spl@@ 58
stock 58
stress@@ 58
struck 58
suggests 58
surpris 58
synthetic 58
ta. 58
te." 58
tendances 58
thing." 58
thri@@ 58
tifs, 58
tion: 58
tox@@ 58
travailleurs 58
utile. 58
ve-@@ 58
verte 58
videos 58
vivaient 58
with@@ 58
working. 58
ya 58
âge, 58
èr@@ 58
économies 58
économistes 58
établir 58
étai@@ 58
-and-@@ 57
190@@ 57
2000. 57
21@@ 57
Africans 57
Also, 57
Bab@@ 57
Cam@@ 57
Christmas 57
El 57
Google. 57
Ham@@ 57
K: 57
Kenya. 57
Nelson 57
Northern 57
Por@@ 57
Pre@@ 57
Regardons 57
T-@@ 57
actuelle 57
age? 57
aliments 57
ancienne 57
angl@@ 57
anglais, 57
apparemment 57
apparu 57
appu@@ 57
assi@@ 57
ator@@ 57
avéré 57
aéro@@ 57
band 57
bio-@@ 57
boy@@ 57
branches 57
bureaux 57
by-@@ 57
cell, 57
center, 57
commencer, 57
compet@@ 57
conscience, 57
coo@@ 57
crimes 57
crow@@ 57
célébr@@ 57
d'art 57
d'aujourd'hui 57
danger. 57
dant 57
destroy 57
diap@@ 57
dirige 57
dist@@ 57
distinction 57
distr@@ 57
doctor@@ 57
dul@@ 57
dî@@ 57
element 57
ene@@ 57
entré 57
envoy@@ 57
essaient 57
est-elle 57
evol@@ 57
exhibition 57
exo@@ 57
extraordinaires 57
facil@@ 57
failure 57
fifth 57
fire. 57
five, 57
frankly, 57
gentlemen, 57
grandiss@@ 57
grandmother 57
greenhouse 57
gue. 57
générale 57
hands, 57
honte 57
incredible. 57
iner@@ 57
initiative 57
intensi@@ 57
interconnec@@ 57
intest@@ 57
iront 57
itaires 57
itali@@ 57
j'utilise 57
journaliste 57
joy@@ 57
l'Ar@@ 57
l'Union 57
l'as@@ 57
l'océan, 57
l'équ@@ 57
lab. 57
levé 57
littérature 57
livres, 57
lointain@@ 57
lui-même, 57
lunch 57
lux@@ 57
magné@@ 57
materials. 57
maxim@@ 57
means. 57
message, 57
mirror 57
moderne. 57
mètres, 57
n'arrive 57
narrative 57
nest 57
northern 57
numbers. 57
ologists 57
ome@@ 57
orang@@ 57
organisé 57
papier, 57
parallel 57
parlais 57
picking 57
politici@@ 57
porte, 57
possé@@ 57
pouvoir, 57
prati@@ 57
processus. 57
produ@@ 57
profits 57
program, 57
provoque 57
que? 57
regard@@ 57
represented 57
reproduction 57
res, 57
respir@@ 57
retenir 57
rouge. 57
roul@@ 57
règles, 57
sang, 57
sauter 57
serre 57
signature 57
similaires 57
suici@@ 57
suivre. 57
symbo@@ 57
system@@ 57
tam@@ 57
terait 57
teri@@ 57
terminé 57
tested 57
thought. 57
tum@@ 57
util@@ 57
van 57
vital 57
voies 57
vraies 57
ws 57
zoom@@ 57
électro@@ 57
élever 57
équip@@ 57
étonnant 57
"Don't 56
"V@@ 56
3,@@ 56
As@@ 56
H 56
June 56
Nin@@ 56
Ok. 56
Qu'en 56
Rec@@ 56
Sin@@ 56
Stat@@ 56
Val@@ 56
abo@@ 56
acted 56
adv@@ 56
africains 56
agricultural 56
ajouté 56
aliment@@ 56
aller, 56
altitude 56
an." 56
animal, 56
apparaissent 56
armée 56
ater 56
ation; 56
attendent 56
avec, 56
average, 56
baiss@@ 56
biology. 56
bonheur, 56
bouge 56
buildings, 56
busy 56
calculer 56
carbone, 56
classe, 56
classroom 56
colonies 56
confiance, 56
consul@@ 56
continuent 56
corruption, 56
crab@@ 56
crisis. 56
cule 56
cô@@ 56
d'Afrique 56
d'am@@ 56
d'im@@ 56
d'énergie. 56
dait 56
distance. 56
do?" 56
dogs 56
doubt 56
doulou@@ 56
déplacent 56
effect. 56
entrepreneur 56
equally 56
es," 56
es?" 56
exp@@ 56
extract 56
feuilles 56
fisher@@ 56
fournit 56
fund 56
galaxies. 56
galaxy 56
girl@@ 56
globe 56
gor@@ 56
gouvernement, 56
graphics 56
ha 56
ha, 56
hyper-@@ 56
ills 56
ily 56
iment 56
inattend@@ 56
incar@@ 56
installations 56
introdu@@ 56
ish, 56
j'essaye 56
just, 56
knowledge. 56
l'avenir, 56
l'été 56
laiss@@ 56
laissent 56
lamp@@ 56
languages 56
lighting 56
liées 56
look. 56
loy@@ 56
make. 56
marri@@ 56
masses 56
mate 56
militaires 56
millions, 56
monkey 56
mother. 56
movements 56
neur@@ 56
neural 56
ning, 56
noir. 56
obser@@ 56
oeu@@ 56
ont. 56
open, 56
organs 56
paire 56
passion. 56
permanent 56
pla@@ 56
plate 56
polic@@ 56
politiciens 56
poursuivre 56
pouvoir. 56
produces 56
promen@@ 56
proposition 56
pyram@@ 56
pèse 56
qu'a 56
quelqu'un, 56
radio@@ 56
raisons. 56
recev@@ 56
reconnaissance 56
repeat 56
repose 56
ressemble. 56
rup@@ 56
répét@@ 56
rés, 56
s... 56
sa@@ 56
sachant 56
sad@@ 56
sait, 56
sandwi@@ 56
sangu@@ 56
sauvé 56
sensori@@ 56
show@@ 56
signed 56
simpl@@ 56
spécial 56
stati@@ 56
statut 56
still, 56
surveill@@ 56
tem@@ 56
thoughts 56
thre@@ 56
tied 56
tran@@ 56
transporter 56
travaillais 56
trend 56
tsunami 56
tôt. 56
veget@@ 56
vers, 56
volunte@@ 56
vus 56
wai@@ 56
wall, 56
weak 56
wom@@ 56
ws, 56
y," 56
éch@@ 56
éclai@@ 56
équilibre 56
été. 56
0,@@ 55
15, 55
1990, 55
2006, 55
30,000 55
70, 55
Banque 55
Bat@@ 55
Benjamin 55
Cas@@ 55
Chin@@ 55
Clinton 55
Ed@@ 55
Everyone 55
Green 55
Jac@@ 55
John@@ 55
Ke@@ 55
Lincoln 55
Mam@@ 55
Manhattan 55
May 55
Nothing 55
PC@@ 55
RB 55
Red@@ 55
S'ils 55
Sierra 55
Space 55
Sud. 55
Sur@@ 55
Sylvia 55
Trade 55
accomplir 55
actuel 55
adolescents 55
ago@@ 55
ailles 55
ake. 55
allions 55
ang 55
anony@@ 55
answer, 55
appeared 55
apped 55
appl@@ 55
apprécier 55
arbres, 55
arme 55
assembler 55
atoire 55
atomes 55
atric@@ 55
attaques 55
attend 55
bad, 55
bee 55
bet@@ 55
biologie, 55
blanche 55
bloc 55
bomb 55
bottom, 55
brand@@ 55
bs. 55
but. 55
celui-ci, 55
center. 55
centers 55
chain 55
chers 55
cole 55
collecting 55
comb@@ 55
comport@@ 55
conse@@ 55
construisent 55
créateurs 55
d'atteindre 55
dame 55
development. 55
diam@@ 55
difficult. 55
dioxyde 55
diverses 55
doc@@ 55
docum@@ 55
décid@@ 55
ei@@ 55
elle-même. 55
enlever 55
ennuy@@ 55
enregistré 55
environments 55
ern@@ 55
every@@ 55
expand 55
ext@@ 55
facts 55
fast, 55
fav@@ 55
fire@@ 55
floor. 55
fun, 55
fê@@ 55
glace. 55
gouvern@@ 55
great@@ 55
grow@@ 55
him@@ 55
houses 55
hurt 55
impact. 55
impliqué 55
includes 55
industrie 55
influenc@@ 55
inspi@@ 55
intellig@@ 55
involves 55
isée 55
ization 55
j'entends 55
jet 55
jusqu'en 55
juste. 55
l'expression 55
let. 55
liqu@@ 55
lum@@ 55
l’ai 55
maintenance 55
manger. 55
map. 55
multiples 55
n'aurais 55
nar@@ 55
number, 55
nés, 55
océan 55
ously, 55
pain, 55
pav@@ 55
philosophi@@ 55
physically 55
physici@@ 55
plaît, 55
plon@@ 55
predat@@ 55
pregn@@ 55
premier, 55
propul@@ 55
puis-je 55
puissants 55
qualités 55
raisonn@@ 55
rar@@ 55
re". 55
re?" 55
route, 55
ry. 55
régl@@ 55
rés. 55
réussir 55
réussite 55
saisir 55
saison 55
semi-@@ 55
service. 55
seul, 55
signs 55
sis 55
sive. 55
skill 55
soign@@ 55
spring 55
stop. 55
sucre 55
supplémentaires 55
surprise, 55
s’il 55
tations 55
teeth 55
tion." 55
tir@@ 55
toit 55
tonn@@ 55
totalité 55
transport@@ 55
travailler. 55
trials 55
triste 55
tus 55
vide@@ 55
visage. 55
wall. 55
woman. 55
étendre 55
événement 55
"Mais 54
"Ne 54
2003, 54
36 54
Ah@@ 54
Bon 54
Canada, 54
Chinois 54
Cho@@ 54
D’@@ 54
Five 54
Gene 54
Henry 54
Hun@@ 54
Lam@@ 54
Liber@@ 54
London, 54
Newton 54
Ouais, 54
Research 54
Rick 54
Scott 54
Should 54
Somebody 54
Tu@@ 54
World@@ 54
abandonner 54
abr@@ 54
accepté 54
accélér@@ 54
active, 54
active. 54
adapt 54
ade@@ 54
ading 54
ailleurs. 54
aimé 54
aint 54
alement. 54
algorith@@ 54
alisme 54
all-@@ 54
ancestors 54
anciennes 54
apart. 54
apprend@@ 54
architectes 54
architects 54
areas. 54
aris@@ 54
arité 54
atur@@ 54
audio 54
aujourd’hui 54
autom@@ 54
automobile 54
bale@@ 54
berg 54
boy, 54
brûl@@ 54
business@@ 54
caractère 54
cars. 54
chass@@ 54
chat 54
chiffres. 54
clas@@ 54
cle, 54
comparer 54
connexions 54
contemporary 54
continent. 54
cris@@ 54
crowd 54
d'ailleurs, 54
d'idées 54
dance, 54
demandant 54
dependent 54
devienne 54
differently. 54
dir@@ 54
director 54
disaient, 54
distingu@@ 54
distrac@@ 54
doigt 54
dom 54
domesti@@ 54
déjeuner 54
déser@@ 54
détection 54
effici@@ 54
electro@@ 54
emploi 54
emprun@@ 54
entreprises, 54
entrez 54
esc@@ 54
ettes, 54
exten@@ 54
fait-il 54
fake 54
fear@@ 54
fication, 54
figu@@ 54
finir, 54
flash 54
flash@@ 54
flowers 54
fur@@ 54
goû@@ 54
gros. 54
groups. 54
grows 54
gè@@ 54
gène, 54
hanging 54
homosexu@@ 54
hôpitaux 54
ical, 54
ier, 54
illes. 54
imagination. 54
impro@@ 54
infl@@ 54
inside, 54
instant. 54
interacting 54
interagir 54
introduit 54
iso@@ 54
it?" 54
jambe 54
ki 54
l'occasion 54
laboratoire, 54
laboratoires 54
ladies 54
len@@ 54
like? 54
limits 54
lines. 54
luc@@ 54
manufacturing 54
maybe, 54
minuscule 54
modes 54
mutation 54
mutations 54
myth@@ 54
média 54
médit@@ 54
n'aime 54
neige 54
net. 54
new. 54
nécessite 54
oeuvre 54
office, 54
oublier 54
paix. 54
paro@@ 54
partagent 54
pend@@ 54
penguins 54
personnel. 54
poli@@ 54
precisely 54
pression, 54
product. 54
products. 54
préci@@ 54
pupp@@ 54
périodes 54
quali@@ 54
raconté 54
radicalement 54
raising 54
real. 54
recognized 54
reconnaiss@@ 54
regardez, 54
rement, 54
replac@@ 54
reproduire 54
ressenti 54
revue 54
règ@@ 54
récol@@ 54
rées. 54
réguli@@ 54
répond 54
réserve 54
résistance 54
rêves 54
s'av@@ 54
s'étend 54
sable 54
scientist, 54
seen, 54
sembler 54
sensibles 54
soi. 54
sourc@@ 54
strang@@ 54
strength 54
suivante, 54
sunlight 54
sympath@@ 54
therap@@ 54
touché 54
traversé 54
type. 54
unknown 54
veil@@ 54
vitesse, 54
voitures, 54
want@@ 54
échantillons 54
élé@@ 54
énergétique 54
"Y@@ 53
"je 53
37 53
App@@ 53
Blue 53
Commençons 53
Einstein, 53
English, 53
Far@@ 53
Fre@@ 53
Get 53
Gi@@ 53
Kar@@ 53
Kevin 53
Mel@@ 53
Moi 53
Muslims 53
Nigeria, 53
PC 53
Sam@@ 53
Soviet 53
Ty@@ 53
Van 53
academ@@ 53
ado@@ 53
affi@@ 53
agricul@@ 53
agé 53
ainsi. 53
aliz@@ 53
amin@@ 53
and-@@ 53
anger 53
anniversaire 53
army 53
arrach@@ 53
asked, 53
associé 53
baisser 53
barely 53
batteries 53
battle 53
bes. 53
blancs 53
bones 53
bras. 53
breathing 53
bres. 53
campaig@@ 53
caractéris@@ 53
champignons 53
change@@ 53
changement, 53
cir@@ 53
colonie 53
connaiss@@ 53
connectés 53
conserver 53
courag@@ 53
cricket 53
crisis, 53
cross-@@ 53
cus@@ 53
d'amour 53
dangerous. 53
density 53
designs 53
destruc@@ 53
dialogue 53
diction@@ 53
doing? 53
drawn 53
dur. 53
durable. 53
déci@@ 53
ed: 53
emmen@@ 53
emplois 53
empêche 53
en." 53
entrain 53
environnements 53
ery. 53
essai 53
estimate 53
ethni@@ 53
eut 53
examples. 53
exis@@ 53
ey, 53
fabrique 53
factors 53
fauteuil 53
feed@@ 53
focusing 53
fondé 53
found@@ 53
fruit 53
functional 53
fête 53
gee@@ 53
generation. 53
gent@@ 53
gentil@@ 53
glad 53
golden 53
graines 53
grand-@@ 53
happiness, 53
hardly 53
has@@ 53
hitting 53
humans. 53
ical. 53
ids 53
ign 53
ins@@ 53
insight 53
interest@@ 53
ish. 53
ity? 53
jazz 53
jur@@ 53
kil@@ 53
kilo@@ 53
knowledge, 53
l'Afrique, 53
l'action 53
l'avoir 53
l'essence 53
l'op@@ 53
libr@@ 53
lier 53
lieu. 53
lion 53
lobe 53
lovely 53
l’a 53
l’eau 53
milit@@ 53
mistakes 53
mixed 53
modul@@ 53
mondial. 53
multipli@@ 53
nan@@ 53
nes, 53
network, 53
object, 53
okay 53
opens 53
organiz@@ 53
overall 53
overcome 53
parcours 53
pattern. 53
pe, 53
peinture 53
permettez-moi 53
pet@@ 53
pieds. 53
politics, 53
portable. 53
portion 53
poster 53
pratique, 53
prefer 53
printing 53
profiter 53
projet@@ 53
protéine 53
prou@@ 53
qualifi@@ 53
quiet 53
recording 53
released 53
remercier 53
requi@@ 53
revenue 53
rez, 53
robots. 53
rocket 53
rules. 53
saf@@ 53
sage 53
scop@@ 53
sea. 53
seconds, 53
secrets 53
sensory 53
seuil 53
severe 53
signifiait 53
size. 53
sky. 53
spreading 53
spécifique 53
staff 53
stronger 53
students. 53
suppli@@ 53
sées 53
s’appelle 53
team. 53
tends 53
tentative 53
ther, 53
therapy 53
tives, 53
tol@@ 53
tools, 53
traduc@@ 53
troubles 53
truc, 53
truth. 53
tures, 53
ule 53
utiles 53
value. 53
visuel 53
vivait 53
voisins 53
vé@@ 53
vérité. 53
weak@@ 53
west 53
whale 53
whales 53
what@@ 53
who've 53
wn 53
wo@@ 53
word. 53
ète, 53
élément@@ 53
équipes 53
évoluer 53
"Mon 52
,000. 52
130 52
5% 52
80@@ 52
Air 52
Angeles, 52
Che@@ 52
Craig 52
England 52
Hans 52
Joe 52
Ku@@ 52
Pas@@ 52
Prize 52
Ren@@ 52
Rou@@ 52
Stage 52
Tal@@ 52
We'd 52
ade. 52
adress@@ 52
algorithmes 52
align@@ 52
ament 52
analysis 52
ans? 52
appe@@ 52
arrière, 52
arro@@ 52
association 52
ath 52
athle@@ 52
ativ@@ 52
atives, 52
atmosphere. 52
atri@@ 52
automatiquement 52
aw 52
ays 52
aéri@@ 52
bars 52
bet 52
bing 52
bleue 52
bloc@@ 52
bre, 52
breaks 52
cadeau 52
calories 52
carbon@@ 52
cau@@ 52
charge. 52
chicken 52
chosen 52
cigar@@ 52
class, 52
clean@@ 52
collapse 52
coming. 52
commande 52
concept. 52
concours 52
concre@@ 52
condition@@ 52
conditions, 52
confrontés 52
consistent 52
contribuer 52
convers@@ 52
cordes 52
couleur, 52
cow 52
coût@@ 52
crois@@ 52
d'aujourd'hui. 52
demonstrate 52
diable 52
différemment. 52
disais, 52
disappear@@ 52
discover@@ 52
dose 52
doses 52
déclar@@ 52
déclin 52
dépensé 52
dériv@@ 52
développe 52
effectuer 52
efficace. 52
embarrass@@ 52
engager 52
enregistrement 52
enregistrer 52
ently, 52
ery, 52
ethical 52
eu, 52
ever, 52
explaining 52
exécu@@ 52
faces. 52
far. 52
filles, 52
fish@@ 52
fla@@ 52
forming 52
forms. 52
foyer 52
frappé 52
garanti@@ 52
ght 52
grandir 52
gravity 52
guit@@ 52
hard@@ 52
heigh@@ 52
hide 52
homme. 52
how, 52
identité 52
illegal 52
integrated 52
interpre@@ 52
invisible. 52
judge 52
kid, 52
l'avait 52
l'extérieur, 52
l'être 52
landed 52
legs. 52
life-@@ 52
lire. 52
local, 52
lune 52
lung 52
mascul@@ 52
matières 52
mechanical 52
microscop@@ 52
milieu, 52
millén@@ 52
mourir. 52
name. 52
naturellement 52
negoti@@ 52
novel 52
occur 52
oeil 52
opinions 52
ouverte 52
parle, 52
partenaire 52
passer@@ 52
phrases 52
pig@@ 52
plaît 52
plong@@ 52
port, 52
portant 52
poste 52
pourcent 52
poussent 52
poverty. 52
prefer@@ 52
primitive 52
prison@@ 52
profondes 52
projection 52
projects. 52
psychology 52
pushed 52
quatre, 52
rece@@ 52
reflect 52
removed 52
rendus 52
rentré 52
reser@@ 52
results. 52
reur 52
reux, 52
reç@@ 52
réserves 52
save@@ 52
script 52
sea@@ 52
separated 52
serp@@ 52
seules 52
sever@@ 52
shut 52
sité, 52
soir. 52
sommes-nous 52
sorry 52
souci@@ 52
southern 52
subjects 52
success@@ 52
sui@@ 52
suit@@ 52
summer, 52
surgeon 52
surgery. 52
survi@@ 52
sweet 52
synthèse 52
talent 52
tapis 52
technologique 52
ter's 52
theory, 52
thè@@ 52
théories 52
titres 52
traveled 52
tromp@@ 52
tures. 52
téri@@ 52
uck 52
ures, 52
veill@@ 52
vers. 52
vois@@ 52
voix. 52
volont@@ 52
volé 52
warm@@ 52
wer 52
wonder@@ 52
wondering 52
yp@@ 52
zer@@ 52
zéro. 52
° 52
ès 52
élég@@ 52
époque. 52
étoile 52
évid@@ 52
"K@@ 51
0s 51
50% 51
80% 51
Alle@@ 51
Arthur 51
At@@ 51
Aucune 51
Bank 51
Basically, 51
Bon. 51
CE@@ 51
Carol@@ 51
Celui 51
Chi@@ 51
Cri@@ 51
Cyrus 51
Doc@@ 51
Foundation 51
Human 51
Mag@@ 51
Media 51
P. 51
Robo@@ 51
Same 51
Shakespeare 51
Sor@@ 51
Tim 51
Virgini@@ 51
Voilà, 51
War, 51
Whether 51
absence 51
acceler@@ 51
accurate 51
act, 51
actions. 51
adding 51
agreed 51
alisé 51
apple 51
arrivait 51
attached 51
atti@@ 51
auteurs 51
avis 51
avoir, 51
barri@@ 51
barrière 51
behaviors 51
bike 51
boun@@ 51
buil@@ 51
but@@ 51
bê@@ 51
calculs 51
camps 51
cardiaque 51
cellul@@ 51
chansons 51
chaos 51
coc@@ 51
combined 51
comfort 51
communication, 51
comportement. 51
configur@@ 51
content@@ 51
correctement 51
couper 51
covering 51
crazy. 51
d'eux. 51
d'or 51
devenues 51
difficulté 51
dive 51
divers 51
diverse 51
docteur 51
eaux. 51
economics 51
en? 51
ence@@ 51
engaging 51
ent: 51
entertainment 51
entouré 51
eral 51
ettes. 51
eté 51
eventually, 51
ever. 51
everyone. 51
everywhere, 51
extension 51
faciles 51
facilit@@ 51
fam@@ 51
fication. 51
figuring 51
founded 51
fédér@@ 51
goods 51
gras@@ 51
groups, 51
gén@@ 51
génétique. 51
hall@@ 51
hautement 51
headed 51
heart. 51
home@@ 51
hospital. 51
however, 51
inquiét@@ 51
intim@@ 51
intégrer 51
l'anglais 51
l'enseign@@ 51
l'espèce 51
l'existence 51
l'É@@ 51
lear@@ 51
li, 51
lift 51
logic 51
l’autre 51
mains, 51
maire 51
material. 51
mic@@ 51
month. 51
mountains 51
musulman@@ 51
mér@@ 51
nez, 51
noy@@ 51
object. 51
occuper 51
once, 51
orbite 51
own@@ 51
p-@@ 51
pairs 51
particulière 51
performances 51
plat 51
poetry 51
poor, 51
positif 51
positive, 51
pray@@ 51
prescri@@ 51
prices 51
progression 51
proposé 51
provo@@ 51
publics 51
quoi? 51
rate. 51
reconstruire 51
reg@@ 51
religion. 51
ressource 51
reten@@ 51
ri 51
roi 51
résolu@@ 51
réuni@@ 51
réveill@@ 51
s'occuper 51
score 51
seas@@ 51
sed 51
segment 51
semblable 51
serions 51
sits 51
six-@@ 51
siz@@ 51
souvent. 51
spider 51
spor@@ 51
stars, 51
started. 51
stratégi@@ 51
street, 51
subi 51
suicide 51
teach@@ 51
th-@@ 51
thin 51
thing? 51
thr@@ 51
thé 51
ti. 51
tiez 51
time? 51
tools. 51
tour, 51
tradu@@ 51
trajectoire 51
transformation. 51
travaillez 51
users 51
ush 51
vessels 51
vide. 51
visionn@@ 51
voi@@ 51
vole 51
vrai? 51
végét@@ 51
ward 51
weigh@@ 51
winter 51
women's 51
wood. 51
worse, 51
zo@@ 51
écri@@ 51
ément 51
étend@@ 51
"Que 50
,000-@@ 50
.com, 50
60, 50
80, 50
Albert 50
City. 50
Congrès 50
Design 50
F. 50
Give 50
Gro@@ 50
Grâce 50
Israel 50
Jeff 50
Lau@@ 50
Like, 50
Londres, 50
Next 50
On@@ 50
Oxford, 50
Parmi 50
Satur@@ 50
Selon 50
Ten 50
Trans@@ 50
William 50
achète 50
actif 50
agon@@ 50
ail, 50
amongst 50
amusant. 50
annon@@ 50
architecte 50
aren@@ 50
arguments 50
attendez 50
aujourd’hui. 50
author@@ 50
bag 50
basse 50
bottom. 50
bouton 50
cable 50
calculate 50
called, 50
capteurs 50
caractéristique 50
carte. 50
cependant, 50
cer 50
civile 50
cold, 50
collaborative 50
combattre 50
commitment 50
companies. 50
concev@@ 50
confidence 50
conférence, 50
consum@@ 50
couleur. 50
crossing 50
cuisine. 50
cycl@@ 50
d's 50
death, 50
department 50
deviez 50
dions 50
dirty 50
disciplin@@ 50
domestic 50
démar@@ 50
earlier, 50
economists 50
elled 50
ental 50
enthusias@@ 50
entrée 50
environnement, 50
essayait 50
essentiel 50
esti@@ 50
eure, 50
examiné 50
exciting. 50
excus@@ 50
expertise 50
exponential 50
extraterres@@ 50
fabule@@ 50
facilement. 50
faites. 50
features 50
fil. 50
finds 50
fly. 50
fossiles 50
framework 50
gall@@ 50
ght. 50
gif@@ 50
gig@@ 50
girls. 50
gotta 50
gras 50
group@@ 50
gun 50
hasard, 50
hour. 50
icul@@ 50
imagination, 50
importantes. 50
in? 50
infections 50
innovative 50
interactive 50
internet. 50
intéri@@ 50
inventer 50
iture. 50
ive. 50
jeunes. 50
journal@@ 50
jumped 50
justi@@ 50
killer 50
l'accès 50
l'écriture 50
lands 50
laptop 50
letting 50
ley, 50
links 50
littéralement, 50
logo 50
lycée 50
là-dessus. 50
mammo@@ 50
miles. 50
moderne, 50
moi-même. 50
monitor 50
mother@@ 50
mun@@ 50
mystère 50
need, 50
nerveux 50
norm@@ 50
notions 50
nous-mêmes 50
nouveau@@ 50
offert 50
ois 50
oiseau 50
one: 50
op 50
ously. 50
outer 50
paradigm 50
paraît 50
perdez 50
person's 50
persu@@ 50
pez 50
plant, 50
powerful. 50
promote 50
proposer 50
prostate 50
puzz@@ 50
rati@@ 50
ray@@ 50
recover@@ 50
region, 50
reproduc@@ 50
réseau. 50
réunir 50
sain@@ 50
sam@@ 50
samples 50
satellites 50
savings 50
sector 50
seriez 50
servi 50
shopping 50
show, 50
skin. 50
sound, 50
succès, 50
sun. 50
super. 50
surpren@@ 50
suspec@@ 50
symphon@@ 50
symptômes 50
sœur 50
terrain, 50
tly. 50
tombent 50
too@@ 50
trad@@ 50
transi@@ 50
transpar@@ 50
triang@@ 50
underlying 50
variété 50
vend 50
vieil 50
visage, 50
voyant 50
weeks. 50
wonder, 50
zone. 50
à, 50
à-@@ 50
çons 50
échantillon 50
écriv@@ 50
élève 50
émission 50
équipement 50
événements 50
île 50
"And 49
2005 49
4,000 49
4,@@ 49
Asia. 49
Aussi 49
Cham@@ 49
Dec@@ 49
Den@@ 49
Japon, 49
Jill 49
Mexico 49
Mur@@ 49
N. 49
Ok@@ 49
Rit@@ 49
Sim@@ 49
Sol@@ 49
Tri@@ 49
Web, 49
X, 49
a; 49
abord@@ 49
ac 49
activities 49
activity. 49
adéqu@@ 49
affaires, 49
ak, 49
alism 49
along, 49
anglais. 49
apport@@ 49
architecture, 49
ash 49
ask@@ 49
ass 49
atives. 49
avoir. 49
bow@@ 49
boxes 49
brutal@@ 49
bénéfices 49
calend@@ 49
caméras 49
cards 49
ceux-ci 49
choice, 49
chons 49
class. 49
collision 49
complexe, 49
concern 49
connaissait 49
consac@@ 49
consume 49
contex@@ 49
contiennent 49
contraire, 49
contre, 49
contribute 49
copie 49
coup. 49
couvre 49
créativité. 49
dancing 49
danger@@ 49
dehors, 49
determined 49
dez-@@ 49
diet 49
dil@@ 49
dioxide 49
diplô@@ 49
discuter 49
dramatically 49
dures 49
dégrad@@ 49
déta@@ 49
eggs 49
endroits, 49
entreprise, 49
est: 49
experiment, 49
export@@ 49
factor@@ 49
fear. 49
fixed 49
floo@@ 49
formule 49
fractal@@ 49
function@@ 49
gamin 49
generation, 49
graphique. 49
grati@@ 49
groupe. 49
guil@@ 49
hall 49
hard, 49
high. 49
hotel 49
house@@ 49
human, 49
hybri@@ 49
inch 49
informations, 49
inspiring 49
intui@@ 49
intéressés 49
ital 49
iving 49
law, 49
learning. 49
lex@@ 49
logiciels 49
l’histoire 49
mach@@ 49
mainly 49
map, 49
marques 49
merveilleuses 49
modernes 49
moi-même, 49
mur, 49
mutil@@ 49
mutu@@ 49
mécanismes 49
médicaments, 49
mén@@ 49
new, 49
nommée 49
normal. 49
ns, 49
obligé 49
offic@@ 49
oit 49
orial 49
pare@@ 49
parti. 49
partly 49
pattes 49
pauvreté. 49
percevoir 49
peurs 49
philosophie 49
physiques 49
pirat@@ 49
pis@@ 49
porte-@@ 49
possible@@ 49
pregnant 49
première, 49
procé@@ 49
programmer 49
provoquer 49
pub@@ 49
père. 49
quoi@@ 49
qu’en 49
qu’un 49
rational 49
regroup@@ 49
rejo@@ 49
resear@@ 49
resources. 49
reste. 49
retro@@ 49
ric@@ 49
routes 49
roy@@ 49
règles. 49
réci@@ 49
région. 49
rép@@ 49
répond@@ 49
réponse, 49
sales 49
see@@ 49
selection 49
senior 49
sensors 49
served 49
sociale, 49
soudainement 49
summar@@ 49
supprim@@ 49
survey 49
sy@@ 49
symbol 49
sérieusement 49
tech 49
techno@@ 49
tel. 49
threw 49
ticul@@ 49
tiny, 49
traces 49
trucs. 49
tré@@ 49
turb@@ 49
understand@@ 49
visuelle 49
vivant. 49
volant 49
washing 49
watts 49
whi@@ 49
échelle. 49
érer 49
êtes-vous 49
œuvres 49
"Ce 48
"Let's 48
0s, 48
12. 48
20. 48
2001, 48
2008. 48
2010, 48
52 48
Alice 48
Be 48
Carl 48
Environ 48
Ethiop@@ 48
Frank@@ 48
Heureusement, 48
Island@@ 48
Johnny 48
Nigéri@@ 48
Ou, 48
Peace 48
Remember 48
TE@@ 48
abilité. 48
able? 48
able@@ 48
absorb@@ 48
aces 48
actors 48
adulte 48
affects 48
agriculteurs 48
aider@@ 48
aill@@ 48
aimez 48
alo@@ 48
amor@@ 48
américaine. 48
announced 48
antenn@@ 48
architect 48
ars, 48
assistance 48
atte@@ 48
attract 48
auti@@ 48
avant-@@ 48
avocat@@ 48
azz@@ 48
bak@@ 48
bat 48
beau. 48
bed. 48
biologistes 48
bleu, 48
boire 48
bol@@ 48
boule 48
bruits 48
bubble 48
built. 48
carbone. 48
carte, 48
catastrophe 48
catégorie 48
catégories 48
celle-ci, 48
chaus@@ 48
chocol@@ 48
choqu@@ 48
ck@@ 48
cles, 48
cliniques 48
companies, 48
comparable 48
compassion@@ 48
compliqué. 48
comporte 48
concrete 48
concurr@@ 48
conseils 48
considé@@ 48
constat@@ 48
construite 48
contradic@@ 48
cost. 48
coul@@ 48
d'entrer 48
d'esprit 48
delivered 48
democracy. 48
deven@@ 48
diab@@ 48
died. 48
discuss 48
dol@@ 48
dreams 48
dur, 48
défense 48
eat. 48
effect, 48
emball@@ 48
enfance 48
engineered 48
enlève 48
entering 48
er; 48
eriez 48
erreurs. 48
es". 48
essai@@ 48
essentielle 48
execu@@ 48
exemples. 48
exprim@@ 48
extrê@@ 48
fabulous 48
faibles 48
fail 48
fascinated 48
fau@@ 48
feu. 48
feu@@ 48
flow@@ 48
four. 48
fourmi 48
franchement, 48
frozen 48
futur@@ 48
gather 48
get, 48
girl. 48
gonna 48
gour@@ 48
grains 48
gran@@ 48
grass@@ 48
grave 48
gées 48
général. 48
han@@ 48
happen@@ 48
hip@@ 48
hour, 48
important? 48
ina, 48
indirec@@ 48
inspec@@ 48
intuitive 48
invas@@ 48
investi@@ 48
joint 48
k." 48
kno@@ 48
l'avion 48
l'axe 48
l'extérieur. 48
l'information, 48
law. 48
lea@@ 48
lutter 48
m'appelle 48
males 48
mark@@ 48
materials, 48
mathématique 48
mig@@ 48
miles, 48
millions. 48
mini@@ 48
mission, 48
morts. 48
movement, 48
moy@@ 48
mystery 48
notic@@ 48
nécess@@ 48
océans. 48
open-source 48
operation 48
orchestr@@ 48
parfaite 48
pensez-vous 48
perceive 48
plain@@ 48
plantes, 48
plaque 48
polici@@ 48
politiques, 48
production, 48
protégé@@ 48
prévu 48
qu'aucun 48
racines 48
radio, 48
rage 48
rarement 48
real, 48
receive 48
recep@@ 48
recette 48
refl@@ 48
remplir 48
resolution 48
ressent@@ 48
restait 48
retourne 48
rules, 48
réfléchir, 48
régul@@ 48
sang@@ 48
scand@@ 48
se: 48
set. 48
simples. 48
solaire, 48
source. 48
sourire 48
spécialement 48
stars. 48
stop, 48
surg@@ 48
séquences 48
tering 48
tern@@ 48
the-@@ 48
this?" 48
though@@ 48
throwing 48
tives. 48
tour. 48
tribu@@ 48
trois. 48
tter@@ 48
téléphone, 48
tê@@ 48
universit@@ 48
université 48
up? 48
vaisseau 48
vas 48
vehicles 48
venais 48
vice 48
vulnerable 48
wars 48
website. 48
windows 48
working, 48
worse. 48
you?" 48
à@@ 48
égale 48
élevés 48
élimin@@ 48
épidémie 48
évalu@@ 48
"Is 47
"No 47
0 47
21ème 47
5000 47
Alexander 47
Any@@ 47
Argent@@ 47
Asia, 47
Aux 47
BM@@ 47
Buil@@ 47
CO2. 47
Californie, 47
Chris. 47
Chris@@ 47
College 47
Del@@ 47
Est 47
Four 47
Golfe 47
IR@@ 47
Irani@@ 47
Jer@@ 47
L'année 47
Lad@@ 47
Luther 47
Mac 47
Nu@@ 47
Prenons 47
Que@@ 47
Quels 47
Right. 47
Royaume-Uni 47
Rus@@ 47
Scot@@ 47
TV, 47
Times, 47
Un, 47
Within 47
Woo@@ 47
Yet 47
accéder 47
achieved 47
actor 47
adresse 47
advice 47
alimentation 47
an's 47
anné@@ 47
apparten@@ 47
appels 47
arg@@ 47
arrière-@@ 47
ators. 47
aun@@ 47
available. 47
balanc@@ 47
beau@@ 47
bicy@@ 47
bin 47
blanch@@ 47
blin@@ 47
blue@@ 47
boring 47
breathe 47
brown 47
bulles 47
candidat@@ 47
captured 47
carburant 47
clar@@ 47
classe. 47
clients. 47
clon@@ 47
commencé. 47
confor@@ 47
construire. 47
cour 47
courbes 47
creativity. 47
creature 47
crime. 47
croyais 47
cycle, 47
d'arriver 47
d'équ@@ 47
d'étudier 47
dangereux. 47
dead, 47
democracy, 47
demonstr@@ 47
difference, 47
dimension@@ 47
distance, 47
diviser 47
doub@@ 47
dys@@ 47
décennie 47
décoll@@ 47
démonstration 47
démontrer 47
démontré 47
earn 47
effor@@ 47
entraî@@ 47
envelop@@ 47
ession 47
eth 47
excep@@ 47
excitant 47
existed 47
explains 47
fabric 47
failure. 47
faudra 47
finissent 47
floor, 47
formation, 47
frequ@@ 47
frequency 47
gad@@ 47
gas@@ 47
generating 47
genes. 47
geograph@@ 47
ges, 47
global. 47
gouvernance 47
hauts 47
host 47
inches 47
ing?" 47
instead, 47
intelligents, 47
isation. 47
itaire 47
juste, 47
kidn@@ 47
kr@@ 47
l'hum@@ 47
l'humanité. 47
lai@@ 47
laissons 47
living. 47
luci@@ 47
légumes 47
manufactur@@ 47
media, 47
meilleur. 47
ment? 47
missed 47
mod@@ 47
movie. 47
name, 47
needs. 47
nouvelles. 47
nucléaires 47
objects. 47
official 47
pages. 47
parasite 47
parties. 47
paysages 47
petit. 47
peuples 47
piece, 47
pir@@ 47
plier 47
portes 47
pound 47
pous@@ 47
problem@@ 47
problémati@@ 47
propag@@ 47
proviennent 47
précision 47
prévisi@@ 47
psychologi@@ 47
regim@@ 47
rejoindre 47
rot@@ 47
réfléchi 47
réunions 47
secteurs 47
shape, 47
shock 47
signer 47
sive, 47
size, 47
song, 47
spe@@ 47
speakers 47
sphere, 47
sponsor@@ 47
stupide 47
suivante. 47
supported 47
supérieur 47
surely 47
s’ils 47
te: 47
technique. 47
thermi@@ 47
thir@@ 47
those. 47
tionner 47
torture 47
tree. 47
tribus 47
trust@@ 47
usu@@ 47
vec@@ 47
verser 47
vert. 47
vingt 47
visible. 47
voice. 47
wondered 47
yesterday 47
élevée 47
étoiles. 47
"U@@ 46
"When 46
40,000 46
Africains 46
Britain 46
Cambridge 46
Charlie 46
Chil@@ 46
Johnson 46
Joshua 46
La@@ 46
Lab@@ 46
Make 46
Mau@@ 46
Pap@@ 46
Project 46
Président 46
Secondly, 46
Sher@@ 46
Singap@@ 46
Tell 46
Whereas 46
Ye@@ 46
Z 46
acceptable 46
acti@@ 46
actifs 46
ades, 46
ailleurs, 46
ails 46
aines. 46
airs 46
ama 46
amazing, 46
anymore, 46
ap, 46
areas, 46
aring 46
avancée 46
baby. 46
balance. 46
balloon 46
banan@@ 46
bigger. 46
cage 46
characteristics 46
cherchons 46
ciel. 46
civiliz@@ 46
clair. 46
comics 46
commença 46
compliqu@@ 46
constructions 46
construis@@ 46
consult@@ 46
context, 46
continents 46
continues 46
continuons 46
convul@@ 46
conçus 46
créez 46
culturelle 46
câble 46
d'acheter 46
d'oxygène 46
dal@@ 46
defin@@ 46
destroyed 46
devin@@ 46
différence, 46
dilem@@ 46
ding@@ 46
dirigé 46
disap@@ 46
doctor, 46
don’t 46
déjà. 46
démocratie. 46
eau, 46
eco@@ 46
edit@@ 46
eds 46
efficacité 46
effond@@ 46
eless. 46
eling 46
emotion 46
enlev@@ 46
espace, 46
etc@@ 46
exam@@ 46
excell@@ 46
excuse 46
exig@@ 46
existence. 46
extent 46
extern@@ 46
fausse 46
feature 46
file 46
films. 46
flip 46
format 46
fortes 46
frapper 46
friendly 46
ga@@ 46
genetically 46
get@@ 46
graphe 46
graphi@@ 46
guer 46
génération, 46
h-@@ 46
healthcare 46
human. 46
iPod 46
id, 46
inhabitu@@ 46
internation@@ 46
intervention 46
it-@@ 46
jette 46
jobs, 46
joke 46
jug@@ 46
kitchen 46
l'Inde. 46
l'enseignement 46
l'exemple 46
l'homme, 46
l'évolution. 46
labor@@ 46
langu@@ 46
lawy@@ 46
library 46
life? 46
linear 46
lines, 46
logi@@ 46
lunettes 46
là? 46
mac@@ 46
mail 46
makers 46
maladie, 46
mesu@@ 46
milk 46
mistake 46
mouvement, 46
moyenne. 46
musiciens 46
nice, 46
noire. 46
normes 46
number. 46
on: 46
online, 46
oreilles 46
organisms. 46
origin 46
oss@@ 46
owned 46
papers 46
paquet 46
pareil 46
partners 46
pauvres. 46
pensiez 46
personnalis@@ 46
personnalité 46
phy@@ 46
piles 46
please. 46
plot 46
portable, 46
portait 46
present. 46
present@@ 46
presentation 46
pression. 46
primarily 46
privilège 46
proc@@ 46
produire. 46
produite 46
promouvoir 46
properties 46
précéd@@ 46
prét@@ 46
prévoir 46
puc@@ 46
puissant. 46
quelconque 46
random@@ 46
rarely 46
refer 46
refriger@@ 46
reprendre 46
ressources. 46
reux. 46
rhyth@@ 46
rir. 46
rul@@ 46
rus@@ 46
réalise 46
récifs 46
révé@@ 46
sacs 46
salle. 46
sang. 46
scol@@ 46
seconds. 46
serving 46
siez 46
singe 46
six@@ 46
sky, 46
smile 46
sommes, 46
speak, 46
speak. 46
spher@@ 46
sport@@ 46
ste, 46
sun, 46
supporter 46
surveillance 46
swit@@ 46
t" 46
taille. 46
tau@@ 46
texture 46
that’s 46
tip 46
tisme 46
tit@@ 46
toi, 46
transfer 46
travaillaient 46
traî@@ 46
tremblement 46
trons 46
tte, 46
tunnel 46
tural 46
types. 46
tér@@ 46
ultra-@@ 46
unexpected 46
usines 46
vert, 46
visited 46
vivez 46
voyais 46
ward, 46
were. 46
wind, 46
winning 46
worldwide 46
égal@@ 46
éliminer 46
émerg@@ 46
équ@@ 46
étern@@ 46
ête 46
"Hé, 45
-up 45
0, 45
0. 45
12, 45
180 45
3000 45
47 45
99@@ 45
A: 45
Al-@@ 45
Allez 45
Alpha 45
Asi@@ 45
B: 45
Bou@@ 45
France. 45
Global 45
Hill@@ 45
Hon@@ 45
Hé 45
Ken 45
Louis 45
Man 45
Mary 45
Naz@@ 45
Peut-on 45
Soit 45
Som@@ 45
St. 45
TV. 45
US 45
Was 45
Without 45
Wolfram 45
about? 45
acides 45
adaptation 45
addi@@ 45
admi@@ 45
adultes. 45
affir@@ 45
airement 45
argent. 45
assemble 45
avant@@ 45
avons, 45
axis 45
barre 45
behav@@ 45
belie@@ 45
beneath 45
biologie. 45
blé 45
bond 45
brothers 45
canop@@ 45
cartoon 45
cast 45
categor@@ 45
cave 45
certific@@ 45
changes, 45
chasse 45
cherchent 45
chop 45
clam@@ 45
clever 45
clés 45
comput@@ 45
concep@@ 45
confiance. 45
conflic@@ 45
constituent 45
consumer@@ 45
content, 45
continuous 45
cook 45
cortex, 45
cosmic 45
câ@@ 45
d'ADN 45
death@@ 45
decade, 45
dedans 45
degrad@@ 45
di. 45
difficul@@ 45
dig 45
disparu. 45
distor@@ 45
dité 45
diversity, 45
diving 45
dé. 45
délici@@ 45
détail 45
détermine 45
election 45
electricity. 45
emplo@@ 45
ent-elles 45
entreprises. 45
entrop@@ 45
ere 45
error 45
espèces. 45
experienc@@ 45
exploiter 45
extended 45
extinction 45
fabric@@ 45
facile, 45
fais. 45
faits. 45
fantastic. 45
father. 45
faveur 45
fears 45
ferai 45
finger 45
fits 45
flag@@ 45
fond. 45
forc@@ 45
frappe 45
ga 45
general, 45
gli@@ 45
growth, 45
génère 45
gér@@ 45
hambur@@ 45
hautes 45
hér@@ 45
hô@@ 45
importance. 45
ingrédients 45
introduire 45
irons 45
ishing 45
issues, 45
kilos 45
l'Institut 45
l'augmentation 45
l'esp@@ 45
l'esprit. 45
l'opér@@ 45
l'île 45
langue. 45
leu@@ 45
lifetime 45
limité 45
lire, 45
liter@@ 45
located 45
l’idée 45
m'intéress@@ 45
magique 45
manger, 45
mangé 45
manifestation 45
media. 45
medicine, 45
memor@@ 45
message. 45
mi 45
millenni@@ 45
minuscules 45
mm@@ 45
mode. 45
moelle 45
musulmans 45
myst@@ 45
naturelle. 45
neg@@ 45
neighbors 45
noci@@ 45
not@@ 45
nucléaire, 45
observant 45
observations 45
océ@@ 45
ograph@@ 45
ology, 45
ore, 45
organe 45
pages, 45
parcourir 45
pictu@@ 45
pivo@@ 45
plais@@ 45
posée 45
poulet 45
predictions 45
presid@@ 45
prin@@ 45
prize 45
production. 45
provi@@ 45
préparé 45
publique. 45
purchas@@ 45
py@@ 45
que-@@ 45
qu’est 45
race, 45
rapide, 45
recommand@@ 45
regarder. 45
relev@@ 45
religieux 45
relâ@@ 45
rendant 45
rendez 45
repli@@ 45
restaurant, 45
revolution. 45
rewar@@ 45
ridicul@@ 45
rigi@@ 45
récom@@ 45
réussi@@ 45
s'assurer 45
s'étaient 45
sacred 45
same, 45
satisfaction 45
septembre, 45
services, 45
services. 45
shame 45
shap@@ 45
silenci@@ 45
simuler 45
sièges 45
smallest 45
sortir. 45
souris, 45
speak@@ 45
squar@@ 45
suggesting 45
suivant, 45
suppos@@ 45
supposé 45
surpris@@ 45
surve@@ 45
synap@@ 45
sûre 45
tari@@ 45
teams 45
tendency 45
tez, 45
that?" 45
thor@@ 45
tiles 45
tric 45
ty-@@ 45
typo@@ 45
ultimately, 45
utiliser. 45
vac@@ 45
valent 45
venir, 45
verrons 45
vet@@ 45
view@@ 45
vil@@ 45
vio@@ 45
vols 45
voyag@@ 45
yez 45
yl@@ 45
young, 45
z-moi 45
Ça, 45
ète. 45
école, 45
énergies 45
étudie 45
"You're 44
"la 44
6,000 44
900 44
90@@ 44
Andrew 44
Bell 44
Black 44
CO@@ 44
California, 44
California. 44
Californie. 44
Cape 44
Cl@@ 44
Daniel 44
E.@@ 44
Every@@ 44
Facebook, 44
GPS 44
Iraq. 44
M: 44
PD@@ 44
Pacifique 44
Park 44
Plat@@ 44
Russian 44
Rwanda 44
SJ: 44
Smith 44
Str@@ 44
Texas 44
Things 44
Tre@@ 44
York@@ 44
abe@@ 44
accident@@ 44
actuelle. 44
adolescent@@ 44
agit 44
aimait 44
aisse 44
ars. 44
assure 44
atique. 44
atmosphere, 44
atr@@ 44
aître, 44
bank@@ 44
barrières 44
bateau, 44
bateau. 44
beings, 44
bend 44
ber. 44
bie 44
blu@@ 44
bourse 44
c'est. 44
capturer 44
chaise 44
choices. 44
church 44
cible 44
circonstances 44
clair@@ 44
clear. 44
climat@@ 44
climbing 44
combiner 44
complex@@ 44
complexes. 44
compris, 44
consequ@@ 44
construisons 44
consumers 44
corail 44
couvert 44
crack@@ 44
cuisin@@ 44
d'améliorer 44
d'équip@@ 44
defen@@ 44
dez. 44
died, 44
diff@@ 44
differently 44
disposi@@ 44
door. 44
drap@@ 44
décès 44
démarré 44
département 44
ed; 44
efficac@@ 44
electricity, 44
else@@ 44
emerged 44
empire 44
en's 44
enabled 44
encourage@@ 44
entes, 44
environment@@ 44
envisager 44
espérer 44
essence 44
et? 44
experimental 44
ey. 44
faci@@ 44
famil@@ 44
fascinant 44
fibre 44
flour@@ 44
forces. 44
fron@@ 44
games, 44
garden 44
gathering 44
genes, 44
gentleman 44
gh. 44
ging 44
glaciers 44
graphie. 44
grat@@ 44
gren@@ 44
half, 44
hang@@ 44
heure. 44
historical 44
hop 44
hot@@ 44
ich 44
icon@@ 44
individuals. 44
intelligence. 44
intention@@ 44
interagissent 44
intég@@ 44
intéressante, 44
is-@@ 44
issu@@ 44
ive, 44
journey, 44
journey. 44
jusqu’à 44
l'aise 44
l'humanité, 44
l'oxygène 44
l'usage 44
laissant 44
languages. 44
layers 44
least, 44
lib@@ 44
logie, 44
logique, 44
markets. 44
mechanism 44
medit@@ 44
merely 44
mettait 44
mi-@@ 44
militaire 44
mortal@@ 44
mot, 44
moving. 44
médicale 44
mée 44
nager 44
nerve 44
nets 44
neuroscience 44
ning. 44
nomb@@ 44
numériques 44
ny 44
objects, 44
objets. 44
obstacle 44
obtiend@@ 44
ol, 44
olo@@ 44
ore. 44
our, 44
output 44
ouverture 44
parachute 44
parle. 44
partant 44
perdent 44
perspectives 44
pessim@@ 44
peti@@ 44
phantom 44
photographed 44
pick@@ 44
pieds, 44
pire, 44
pitch 44
pix@@ 44
plantes. 44
planét@@ 44
pleins 44
poche 44
porte. 44
powers 44
precise 44
prenait 44
professor 44
promet@@ 44
présid@@ 44
pyramide 44
pétroli@@ 44
qualities 44
quoi. 44
read. 44
realizing 44
reasons, 44
reduction 44
relier 44
rescue 44
resili@@ 44
response. 44
ressent 44
reuse 44
rever@@ 44
rire 44
rocks 44
rolling 44
room@@ 44
régler 44
répondent 44
rési@@ 44
safe. 44
sale 44
scolaire 44
sculptures 44
seek 44
selec@@ 44
sensor@@ 44
sentais 44
sex. 44
shake 44
silence. 44
sité 44
sociaux. 44
software, 44
sommeil 44
ss 44
storytel@@ 44
stu@@ 44
stuff@@ 44
subir 44
success, 44
suffer 44
susceptible 44
susceptibles 44
suspect 44
taper 44
teacher. 44
technique, 44
than@@ 44
there@@ 44
tionné 44
topic 44
transparent 44
travailler, 44
type@@ 44
ung 44
unités 44
vaccins 44
vent, 44
voul@@ 44
way? 44
wer@@ 44
wheel@@ 44
worked. 44
worlds 44
worth@@ 44
z? 44
zone, 44
Égyp@@ 44
écouté 44
éloig@@ 44
étoiles, 44
"Est-ce 43
"le 43
-based 43
-là, 43
1994, 43
43 43
Alan 43
Améric@@ 43
Amérique. 43
Australi@@ 43
Bay 43
Bulgar@@ 43
Christian 43
DH 43
Dutch 43
East, 43
Eco@@ 43
God@@ 43
It’s 43
Jewish 43
L'histoire 43
MS 43
Mexique. 43
Mike 43
None 43
Octo@@ 43
Ori@@ 43
Pennsylvani@@ 43
Pres@@ 43
Soleil 43
Tam@@ 43
They'll 43
VIH. 43
Voix 43
Wright 43
abstrai@@ 43
academic 43
acteur 43
acu@@ 43
agréable 43
ained 43
aircraft 43
ake, 43
algorithms 43
along. 43
ame, 43
américain. 43
ane, 43
anor@@ 43
anthropolog@@ 43
approach. 43
archives 43
artistes, 43
assassin@@ 43
atifs. 43
attr@@ 43
balay@@ 43
baleine 43
bandes 43
batter@@ 43
blanc, 43
bly 43
bodies, 43
bombes 43
born, 43
bot@@ 43
boucle 43
bran@@ 43
broad@@ 43
brother@@ 43
brow@@ 43
bud@@ 43
call@@ 43
cami@@ 43
camér@@ 43
cand@@ 43
ceux-@@ 43
challenge. 43
chromosomes 43
ciel, 43
cinquième 43
come, 43
commencer. 43
committed 43
conclude 43
conclusion, 43
conclusions 43
congr@@ 43
connaissais 43
constructed 43
contagi@@ 43
convainc@@ 43
correctement. 43
croyait 43
crâ@@ 43
cultiver 43
cup 43
d'I@@ 43
d'apprentissage 43
d'hommes 43
da. 43
demain 43
demandais 43
demi, 43
demie 43
discovering 43
disposition 43
distances 43
distinguer 43
docteurs 43
donnés 43
dos, 43
dot 43
douzaine 43
dozens 43
dream@@ 43
débar@@ 43
démocratie, 43
départ. 43
dépenses 43
développée 43
effort. 43
encounter 43
endroits. 43
entrepreneur@@ 43
espace. 43
estimation 43
etc, 43
evolution, 43
examine 43
expect@@ 43
extraordinaire, 43
eye. 43
faster. 43
federal 43
fermer 43
fertil@@ 43
fiber 43
fortune 43
français 43
gau@@ 43
geste 43
gging 43
girls, 43
grande. 43
green@@ 43
grow. 43
gs, 43
gues, 43
hack@@ 43
hallucin@@ 43
heart@@ 43
hero 43
hired 43
hour@@ 43
humanit@@ 43
humili@@ 43
ily, 43
immediate 43
impul@@ 43
industrielle 43
informations. 43
ingu@@ 43
innocent 43
instruc@@ 43
intelligent, 43
intéresse 43
isation, 43
ket@@ 43
kilomètres. 43
l'amour, 43
l'imagination 43
l'information. 43
l'ingénierie 43
langage. 43
learning, 43
legacy 43
libre, 43
lie, 43
lie. 43
limb 43
lined 43
lit, 43
lo 43
lors@@ 43
magazines 43
make, 43
mammifères 43
marchait 43
measu@@ 43
meur@@ 43
middle, 43
missions 43
modèle. 43
mother's 43
médical 43
médicaux 43
n't, 43
nait 43
naturel, 43
nose 43
numérique, 43
n’ai 43
n’était 43
occu@@ 43
ong 43
onne 43
ony 43
opposition 43
ord@@ 43
ordin@@ 43
ordinaire 43
ories, 43
outils. 43
partir. 43
parvenir 43
people? 43
permettra 43
philosophy 43
pictures, 43
plug 43
plum@@ 43
pointing 43
possibilités. 43
possible? 43
predicted 43
printed 43
privilege 43
processus, 43
profession@@ 43
progr@@ 43
projects, 43
propagand@@ 43
proper 43
propriétaire 43
prospec@@ 43
prête 43
quelqu'un. 43
read, 43
really. 43
rebon@@ 43
recherche. 43
recours 43
rejoint 43
remar@@ 43
resources, 43
respon@@ 43
retin@@ 43
revolution, 43
rice 43
right@@ 43
roof 43
rose 43
roun@@ 43
récente 43
récolter 43
réf@@ 43
s", 43
s'adap@@ 43
scep@@ 43
scro@@ 43
sea, 43
searching 43
sections 43
shado@@ 43
shooting 43
signes 43
sle@@ 43
sleeping 43
sni@@ 43
societ@@ 43
soigner 43
somebody's 43
sorry, 43
sorry. 43
souffle 43
sous-mar@@ 43
specific@@ 43
start, 43
stratégies 43
stream. 43
street. 43
structures. 43
substances 43
superbe 43
superfici@@ 43
surgery, 43
surmonter 43
surprise. 43
survive. 43
s’agit 43
tant, 43
tap 43
tax 43
tea 43
teachers, 43
team, 43
telephone 43
ten. 43
terrible. 43
tez-@@ 43
toilettes 43
tort. 43
tortu@@ 43
tournée 43
toy 43
traduit 43
transportation 43
tront 43
used. 43
utop@@ 43
va. 43
vid@@ 43
viendra 43
wid@@ 43
world." 43
wrong@@ 43
èmes 43
èrement, 43
èse 43
éclat@@ 43
électrique. 43
étudiants, 43
évidence 43
évènements 43
"Ah, 42
"Wow, 42
.C. 42
/ 42
140 42
160 42
20ème 42
30-@@ 42
90% 42
Arc@@ 42
Ash@@ 42
Bosni@@ 42
Command@@ 42
Conn@@ 42
Corée 42
Fe@@ 42
France, 42
Gol@@ 42
Japan, 42
L'homme 42
Lat@@ 42
Lis@@ 42
Mondiale 42
Mou@@ 42
Mus@@ 42
Nigeria. 42
Pakistan. 42
Put 42
RO@@ 42
SETI 42
Sev@@ 42
Some@@ 42
Southern 42
Up 42
[unclear] 42
a-t-elle 42
accue@@ 42
aches 42
achè@@ 42
adapter 42
adhé@@ 42
affecting 42
aining 42
ala 42
alimentaires 42
alist 42
ally? 42
amaz@@ 42
analyze 42
apo@@ 42
app 42
atomic 42
atrices 42
attiré 42
aval@@ 42
begun 42
behave 42
beings. 42
biologiques 42
birthday 42
blanc. 42
blement 42
blocs 42
bodies. 42
boulang@@ 42
casu@@ 42
catching 42
cellular 42
certitude 42
chanc@@ 42
chart 42
child@@ 42
chips 42
choc 42
cinéma 42
citoy@@ 42
civil@@ 42
codes 42
colony 42
colored 42
comment, 42
commun, 42
commune 42
communities, 42
complicated. 42
complètement. 42
concepteurs 42
condam@@ 42
connecte 42
connects 42
context. 42
contre-@@ 42
controvers@@ 42
convert 42
courant. 42
creus@@ 42
croch@@ 42
croi@@ 42
cryst@@ 42
curve 42
câbles 42
cœur. 42
d'affaires 42
d'aide 42
dead@@ 42
decades, 42
decisions. 42
deni@@ 42
dg@@ 42
differenti@@ 42
difficultés 42
district 42
dog@@ 42
domaine. 42
download 42
droit, 42
drugs, 42
dynamics 42
d´@@ 42
déclen@@ 42
dées 42
earlier. 42
ect 42
ell. 42
emment 42
enables 42
engagé 42
engend@@ 42
ennem@@ 42
entraîner 42
enz@@ 42
erreur. 42
es-tu 42
escence 42
esprit, 42
espèces, 42
existence, 42
expériences, 42
extend 42
external 42
fassent 42
father's 42
fatigu@@ 42
favor 42
fibres 42
fleur 42
flower 42
formes. 42
fortunate 42
foss@@ 42
fous 42
frontal@@ 42
full-@@ 42
furniture 42
glac@@ 42
gouvernement. 42
grandi@@ 42
graphy 42
gun@@ 42
harm@@ 42
height 42
help@@ 42
hospitals 42
hunger 42
hyperbo@@ 42
hypothè@@ 42
ica 42
ices, 42
ides 42
illir 42
imagined 42
immor@@ 42
immédi@@ 42
incapable 42
incroyables. 42
independ@@ 42
influenced 42
influencer 42
informatique, 42
informed 42
infrastructures 42
insurance 42
intelligent. 42
intelligente 42
investissement 42
iron 42
issent. 42
jeté 42
jobs. 42
jouant 42
k? 42
kg 42
ko@@ 42
l'Asie 42
l'appareil 42
l'avant 42
l'entrée 42
l'espérance 42
laboratory 42
leaders, 42
left-hand 42
lette 42
leverage 42
list@@ 42
living, 42
là@@ 42
magical 42
masse, 42
merci, 42
meter 42
milieu. 42
moi@@ 42
més 42
narrow 42
ners 42
nucléaire. 42
numéri@@ 42
néo@@ 42
obtiennent 42
ois@@ 42
orbit@@ 42
outcome 42
paintings 42
paradox@@ 42
parlaient 42
passes 42
passions 42
peace. 42
peer 42
pen 42
perfect. 42
period, 42
perpétu@@ 42
phones, 42
physics, 42
pire. 42
pizz@@ 42
plaisir. 42
police, 42
pommes 42
primaire 42
prise, 42
prisonniers 42
privé 42
prix, 42
probabil@@ 42
profondeur 42
préfère 42
préféré 42
psych@@ 42
pump 42
pé 42
que." 42
rassemblé 42
reb@@ 42
recogniz@@ 42
record. 42
reduc@@ 42
region. 42
reminded 42
reminds 42
reports 42
respons@@ 42
ressens 42
restore 42
restée 42
retar@@ 42
retour. 42
reviend@@ 42
sciences. 42
scores 42
seeking 42
self. 42
sensibilité 42
seriously 42
skills, 42
sme 42
songs 42
spectacular 42
sting 42
struggling 42
student, 42
sud-@@ 42
symétri@@ 42
symétrie 42
sè@@ 42
teacher, 42
temper@@ 42
term, 42
terribly 42
tons, 42
tool. 42
trains 42
troupes 42
truc. 42
truck 42
tumor@@ 42
typi@@ 42
tées. 42
ultime 42
unfortunately 42
ut. 42
value, 42
vely 42
vill@@ 42
vivre, 42
voila 42
voitures. 42
voler. 42
voudrait 42
voulez-vous 42
well-being 42
widely 42
wonderful. 42
ze. 42
°@@ 42
âge. 42
écologi@@ 42
émo@@ 42
énergie, 42
épidémi@@ 42
"I've 41
...] 41
2007 41
450 41
AK: 41
Afghan 41
Ann@@ 41
Asia 41
BG: 41
Back 41
Ban@@ 41
Boston. 41
Carnegie 41
Cou@@ 41
Cre@@ 41
Danny 41
Day 41
Delhi, 41
Department 41
Eric 41
Es@@ 41
Eu@@ 41
Europé@@ 41
Facebook. 41
Fort 41
Francisco, 41
Fu@@ 41
Ful@@ 41
Gates 41
Germany, 41
God's 41
Haiti 41
Hi@@ 41
Hom@@ 41
I.@@ 41
Indeed, 41
Island 41
It'll 41
Jane 41
Lar@@ 41
Les@@ 41
Leurs 41
Londres. 41
MRI 41
Mach@@ 41
Malgré 41
Minister 41
Monterey 41
Moore 41
N'importe 41
Nouvelle-@@ 41
Pet@@ 41
Philip 41
Pur@@ 41
Quatre 41
R, 41
Saint 41
Sarah 41
Sir@@ 41
Vidéo 41
West, 41
West. 41
Who@@ 41
Wikipedia, 41
about@@ 41
adapted 41
after@@ 41
agenda 41
aig@@ 41
aines, 41
allumer 41
already, 41
altru@@ 41
ambiti@@ 41
analogi@@ 41
ano@@ 41
antly 41
artisan@@ 41
ash. 41
ast@@ 41
attendant 41
attends 41
aurais 41
auto 41
autop@@ 41
been. 41
believe. 41
best, 41
bias@@ 41
bill@@ 41
billion. 41
biologists 41
blown 41
bouteilles 41
bouts 41
brains. 41
brilli@@ 41
bs, 41
budgets 41
c'@@ 41
ca, 41
cab@@ 41
careful 41
cependant 41
challenge, 41
champ@@ 41
chaî@@ 41
cheap@@ 41
chocolate 41
ck 41
cliff@@ 41
clock 41
combustibles 41
commençait 41
complic@@ 41
compris. 41
conception, 41
conden@@ 41
conflicts 41
consequence 41
construction, 41
continue. 41
contrôle, 41
couples 41
croissance. 41
d'Amérique 41
d'aujourd'hui, 41
d'origine 41
d'études 41
depth 41
derni@@ 41
descri@@ 41
diagnostic@@ 41
diapositive 41
différemment 41
digit 41
diplôme 41
directions. 41
discre@@ 41
donner. 41
doubl@@ 41
duquel 41
débarr@@ 41
décennie, 41
déclaration 41
découvre 41
dégâts 41
départ, 41
dépression 41
easy, 41
eau@@ 41
edi@@ 41
elected 41
elling 41
emerg@@ 41
ening 41
enlevé 41
entière. 41
entraîn@@ 41
es... 41
escape 41
explan@@ 41
expériences. 41
fact. 41
faus@@ 41
filter 41
find, 41
forces, 41
forth, 41
fou. 41
found, 41
fournissent 41
fully, 41
furn@@ 41
gamins 41
ged. 41
gent 41
geons 41
glori@@ 41
grandissent 41
grimper 41
guid@@ 41
guy's 41
gène. 41
génération. 41
heure, 41
high-tech 41
himself. 41
how@@ 41
if, 41
ignent 41
imagine. 41
imaginé 41
important@@ 41
insist@@ 41
inspirer 41
installé 41
int 41
intention 41
itch@@ 41
ity." 41
japonais 41
journalis@@ 41
jusqu'@@ 41
kills 41
l'aspect 41
l'intérêt 41
l'énergie. 41
lac 41
lic 41
listen@@ 41
logique. 41
loud 41
magazine, 41
malade 41
manifes@@ 41
marionn@@ 41
mature 41
migration 41
mons 41
month@@ 41
moyen, 41
mur. 41
mysti@@ 41
nage@@ 41
not? 41
numérique. 41
n’t 41
objets, 41
obli@@ 41
od 41
oeuvres 41
orbit 41
ord 41
pace 41
parfai@@ 41
parli@@ 41
partagé 41
passive 41
path. 41
patterns. 41
pau@@ 41
performance. 41
personnel, 41
peupl@@ 41
physiquement 41
pian@@ 41
plastique, 41
pleu@@ 41
plonger 41
plongée 41
poison@@ 41
pole 41
police. 41
possibil@@ 41
pratique. 41
pressing 41
pretend 41
pric@@ 41
préc@@ 41
précis. 41
pub 41
puce 41
pur 41
pères 41
qu’elles 41
qu’une 41
rares 41
rate, 41
recognition 41
relativ@@ 41
remarquable. 41
rembour@@ 41
resul@@ 41
rey 41
roads 41
robots, 41
récompenses 41
réfugi@@ 41
répandre 41
réseau, 41
résumer 41
scanning 41
scared 41
sciences, 41
seeds 41
self@@ 41
sers 41
sham@@ 41
ship@@ 41
simplement, 41
skin, 41
slav@@ 41
slow@@ 41
solutions, 41
sometimes, 41
soul 41
stru@@ 41
sudden, 41
taille, 41
ten, 41
things: 41
thy 41
théori@@ 41
tool@@ 41
tournent 41
tow@@ 41
track@@ 41
trail@@ 41
translated 41
transmet@@ 41
transmis 41
trends 41
télescope 41
télévision, 41
télévision. 41
têtes 41
uri@@ 41
utiliser, 41
vement 41
vieillissement 41
vitesse. 41
voc@@ 41
voici. 41
voix, 41
website, 41
wheel 41
whis@@ 41
wife, 41
wonderful, 41
worthy 41
zation 41
´@@ 41
çant 41
échange 41
écrite 41
écu@@ 41
émis@@ 41
épou@@ 41
établ@@ 41
étrange. 41
” 41
10-@@ 40
185@@ 40
20-@@ 40
2001 40
2008 40
Angleterre, 40
Arctic 40
Barr@@ 40
Boy: 40
Brazil 40
Christi@@ 40
Clar@@ 40
D'où 40
Disney 40
Elec@@ 40
Faites 40
Hor@@ 40
IRM 40
Indus 40
J'aurais 40
January 40
Jay 40
Joel 40
LED 40
Lego 40
Moore's 40
Nav@@ 40
Norman 40
Prix 40
Right, 40
Rock@@ 40
Septemb@@ 40
Ses 40
Shanghai 40
Square 40
Syri@@ 40
U 40
UN@@ 40
V. 40
Vietnam 40
aa@@ 40
absor@@ 40
adapt@@ 40
additional 40
ads, 40
advanc@@ 40
affronter 40
al." 40
alien 40
alization 40
allé@@ 40
ancy 40
ande 40
ank@@ 40
apparue 40
approfon@@ 40
argent, 40
atmosphère 40
attaquer 40
au-@@ 40
authority 40
avancées 40
axe 40
backs 40
banlieue 40
baseball 40
been, 40
besides 40
biologique, 40
biop@@ 40
bli@@ 40
blue, 40
bombar@@ 40
brouill@@ 40
bébé. 40
camera, 40
cesse 40
character. 40
chaînes 40
chief 40
chinoise 40
cid@@ 40
cles 40
coeur, 40
common. 40
compli@@ 40
conduite 40
contexte, 40
contribué 40
controls 40
corde 40
could, 40
courses 40
crain@@ 40
critic@@ 40
cube 40
cue@@ 40
culp@@ 40
cute 40
céréales 40
d'animaux 40
d'attention 40
d'envoyer 40
d'hydrogène 40
d'opér@@ 40
de? 40
defining 40
devenez 40
dez, 40
dignité 40
dispu@@ 40
dit-@@ 40
divin@@ 40
does@@ 40
doors 40
double-@@ 40
drill 40
driver 40
décharge 40
défini 40
dévas@@ 40
dîner 40
d’énergie 40
e] 40
economies 40
eight-@@ 40
elementary 40
encour@@ 40
enfer@@ 40
equation 40
ers? 40
eure. 40
everybody, 40
exemp@@ 40
exercice 40
expensive. 40
eye, 40
forgotten 40
fourn@@ 40
fragile 40
frontal 40
garage 40
gged 40
gonfl@@ 40
gradually 40
génétique, 40
habit 40
harvest 40
herself 40
historic 40
homes 40
honest@@ 40
honneur 40
hormone 40
hou@@ 40
housing 40
humain@@ 40
hypothèse 40
héritage 40
héroï@@ 40
ically. 40
identiques 40
ier. 40
illusions 40
impliqués 40
incentive 40
incentives 40
inclut 40
individuals, 40
inter-@@ 40
intrigu@@ 40
intégré 40
intérieur 40
key. 40
l'absence 40
l'an@@ 40
l'analyse 40
l'art, 40
l'essentiel 40
l'intention 40
l'écran. 40
la. 40
laboratoire. 40
lent@@ 40
licen@@ 40
lisi@@ 40
lows 40
magn@@ 40
magnétique 40
malheureusement 40
mant@@ 40
microbial 40
mistak@@ 40
models, 40
morts, 40
mosquito 40
mov@@ 40
mâle 40
mènent 40
mée, 40
nag@@ 40
nation. 40
neat 40
neo@@ 40
next. 40
no-@@ 40
nom, 40
normale. 40
noter 40
notes. 40
nous@@ 40
onde 40
paralys@@ 40
paraître 40
particul@@ 40
pas." 40
passera 40
path@@ 40
patient's 40
ped. 40
perception. 40
personnellement 40
planetary 40
plaît. 40
plus@@ 40
poignée 40
policy. 40
pratiques 40
preserve 40
prevent@@ 40
pris@@ 40
procès 40
productivité 40
profess@@ 40
programmation 40
programming 40
prouvé 40
psycholog@@ 40
pê@@ 40
ramène 40
ratio 40
reason@@ 40
rebuild 40
reconnu 40
recur@@ 40
reflec@@ 40
regardais 40
remarquerez 40
renseign@@ 40
replicate 40
reported 40
retrouvent 40
reviens 40
road@@ 40
réfléchir. 40
réponses. 40
révél@@ 40
sanc@@ 40
sanguins 40
savoir. 40
scary 40
set, 40
sharp 40
ships 40
si. 40
signification 40
smart, 40
sociaux, 40
sorte. 40
souffrent 40
souligner 40
souris. 40
spectacul@@ 40
states, 40
staying 40
submer@@ 40
suggérer 40
suis-je 40
survivre. 40
survécu 40
symboles 40
séparer 40
tableaux 40
targ@@ 40
tement, 40
temple 40
them." 40
thon 40
those, 40
ti, 40
tomorrow 40
topo@@ 40
tort 40
traditionn@@ 40
tragédie 40
training, 40
tranch@@ 40
tribes 40
témoin 40
unable 40
underwater 40
ures. 40
ute 40
va, 40
vache 40
values, 40
ven, 40
vents 40
victims 40
vision@@ 40
visiter 40
voice, 40
voil@@ 40
walk. 40
we’re 40
whatever, 40
writer 40
échapp@@ 40
échelle, 40
également. 40
électroniques 40
épar@@ 40
étab@@ 40
éthique 40
évènement 40
œufs 40
"All 39
"Are 39
"Where 39
&amp;@@ 39
186@@ 39
187@@ 39
1960, 39
19ème 39
40, 39
98 39
A.@@ 39
Absolu@@ 39
Ach@@ 39
Alex 39
Angleterre 39
Atlantic 39
Avez-vous 39
BF 39
Bay@@ 39
Boy@@ 39
Congr@@ 39
D'accord. 39
Direc@@ 39
Exact@@ 39
Francisco. 39
G. 39
Gall@@ 39
Hai@@ 39
Harry 39
House 39
ID@@ 39
Its 39
JA: 39
Ky@@ 39
Lake 39
Lors@@ 39
Monde 39
PDG 39
Paris. 39
Passons 39
Revenons 39
SE@@ 39
SIDA, 39
Soci@@ 39
Sovi@@ 39
Street, 39
T.@@ 39
Taliban 39
Vos 39
XX@@ 39
YouTube. 39
a! 39
abilité, 39
achètent 39
acier 39
activis@@ 39
adore 39
affich@@ 39
agir. 39
ajust@@ 39
aled 39
aler@@ 39
allez-vous 39
angles 39
annonce 39
apparently 39
approach, 39
approxim@@ 39
aps 39
atic@@ 39
audaci@@ 39
aventure 39
background, 39
balis@@ 39
believing 39
bilité 39
biom@@ 39
bizarre, 39
black@@ 39
blague 39
bois. 39
branche 39
bre. 39
briefly 39
broad 39
buff@@ 39
buried 39
bus. 39
bébé, 39
bét@@ 39
cacher 39
camp. 39
carre@@ 39
certi@@ 39
chapitre 39
chau@@ 39
cherchant 39
chiffres, 39
chol@@ 39
chée 39
citer 39
cle 39
cog@@ 39
coin. 39
college, 39
colère, 39
combat@@ 39
comfor@@ 39
complexity. 39
comportement, 39
compu@@ 39
compét@@ 39
conscience. 39
conséquent 39
coupé 39
couv@@ 39
croyances 39
cry@@ 39
cycle. 39
d'aff@@ 39
d'elle 39
d'elles 39
d'endroits 39
d'entr@@ 39
d'expliquer 39
date, 39
dehors. 39
demandait 39
den 39
describes 39
deserve 39
devrions-nous 39
dge. 39
difficulty 39
dirai 39
diront 39
discrimin@@ 39
disparaître 39
dominated 39
douce 39
doute, 39
dung 39
dé, 39
dél@@ 39
détr@@ 39
earliest 39
east 39
eaten 39
ecological 39
eless, 39
else's 39
emotion@@ 39
ence." 39
enceinte 39
enco@@ 39
ens@@ 39
enseigné 39
eries 39
espèce, 39
ester 39
ethnic 39
eu. 39
exception 39
exceptionn@@ 39
extraordinarily 39
faites-vous 39
families, 39
figur@@ 39
first-@@ 39
flowing 39
flows 39
foot, 39
fort, 39
fortement 39
from? 39
frustration 39
function. 39
furi@@ 39
further. 39
gains 39
gaz@@ 39
gender 39
geo@@ 39
globe. 39
goal. 39
graphique, 39
gs. 39
happened? 39
happening, 39
hau@@ 39
he'll 39
healthy, 39
hypothes@@ 39
ides, 39
illustrer 39
impati@@ 39
impos@@ 39
impossible, 39
informatique. 39
inféri@@ 39
interprét@@ 39
interro@@ 39
investissements 39
islam@@ 39
ji@@ 39
jolie 39
juge 39
k-@@ 39
kins 39
l'ancien 39
l'éco@@ 39
landais 39
lead@@ 39
liberté. 39
libé@@ 39
lisez 39
list. 39
listened 39
là-dedans. 39
là-dessus, 39
manuel 39
marcher, 39
masse. 39
materi@@ 39
mathématiciens 39
maîtr@@ 39
mean. 39
messieurs, 39
million, 39
mind-@@ 39
minister 39
miroir 39
modi@@ 39
moment-là 39
morte 39
médecine, 39
mélo@@ 39
n'allons 39
n-@@ 39
nano-@@ 39
night@@ 39
nous-@@ 39
nuages 39
o's 39
obsession 39
oiseaux, 39
ond 39
open. 39
options. 39
ories. 39
origines 39
outils, 39
parlerai 39
pauvre, 39
perceived 39
personnelle. 39
peut-il 39
philanthro@@ 39
pierres 39
ply 39
poor@@ 39
prec@@ 39
preparing 39
produits. 39
professionnels 39
pronon@@ 39
propos, 39
protecting 39
prototypes 39
pèler@@ 39
qu'aux 39
realiz@@ 39
realm 39
reas@@ 39
recherches, 39
recipe 39
regarder@@ 39
rein@@ 39
remercie 39
rempl@@ 39
riche, 39
ridicule. 39
ries 39
robust 39
romanti@@ 39
roo@@ 39
roof@@ 39
row. 39
réduc@@ 39
résultat, 39
réussi. 39
satisfaire 39
scénario 39
shifting 39
simples, 39
skeletal 39
smoke 39
sous-jac@@ 39
spin 39
spots 39
statement 39
step, 39
stepped 39
stes 39
sto@@ 39
store. 39
stores 39
strai@@ 39
stream@@ 39
strong, 39
study. 39
succ@@ 39
suffered 39
surprenant 39
sustain 39
sustainability 39
symbols 39
séparation 39
sûrs 39
t," 39
t... 39
ter." 39
terrorisme 39
there." 39
ticket 39
tifs. 39
timi@@ 39
toits 39
tournant 39
tragedy 39
traitement, 39
treatment, 39
trouver, 39
trouvée 39
tuna 39
turbul@@ 39
télécharg@@ 39
ums 39
usual 39
vach@@ 39
vagues 39
vallée 39
variole 39
voisin 39
volent 39
wards 39
wood, 39
wore 39
yesterday, 39
yn@@ 39
zed. 39
zero. 39
Évidemment, 39
ène, 39
é: 39
économiser 39
égoï@@ 39
électronique 39
éte@@ 39
évolue 39
"Can 38
"In@@ 38
--- 38
100% 38
1990 38
200,000 38
31 38
34 38
44 38
AM@@ 38
Adam@@ 38
Amazon 38
Brésil 38
C: 38
Chicago, 38
Cr@@ 38
D: 38
DE@@ 38
Dean 38
England, 38
Esp@@ 38
Europe@@ 38
FDA 38
Fif@@ 38
Fried@@ 38
G, 38
Ground 38
Harvard, 38
Himalay@@ 38
Hy@@ 38
II, 38
Kennedy 38
Ker@@ 38
L, 38
L.A. 38
Maison 38
Mark@@ 38
Medic@@ 38
Muslim@@ 38
Natu@@ 38
Paris, 38
Probably 38
Ra@@ 38
Richard, 38
Sant@@ 38
That@@ 38
Thir@@ 38
UC@@ 38
USA 38
Unies 38
Voilà. 38
Zo@@ 38
ably, 38
achetez 38
actuellement, 38
administration 38
after, 38
afternoon, 38
again@@ 38
agressi@@ 38
airs. 38
aises 38
américain, 38
annual 38
ano 38
applic@@ 38
ards, 38
arm. 38
artist, 38
assembly 38
astonishing 38
attacks 38
attrac@@ 38
attrape 38
aud@@ 38
automati@@ 38
aveugle 38
bacteria, 38
batail@@ 38
belong@@ 38
bert 38
bis@@ 38
blas@@ 38
bo, 38
bound 38
built, 38
capita 38
cardiaque. 38
cartes, 38
catastrophes 38
celui-là 38
centimètres 38
changing. 38
chest 38
chip 38
clair, 38
closest 38
cm 38
colleague 38
colonne 38
combatt@@ 38
command 38
communities. 38
complexes, 38
complexité. 38
compose 38
conference, 38
confort 38
consciously 38
constaté 38
constitue 38
constitué 38
construct 38
corruption. 38
courri@@ 38
coutez, 38
covers 38
crevet@@ 38
crime, 38
crit@@ 38
crédit 38
cultu@@ 38
d'objets 38
decor@@ 38
democrati@@ 38
dernière. 38
dessiné 38
devices. 38
deviendra 38
deviner 38
devo@@ 38
diagr@@ 38
dieu, 38
diez 38
différenci@@ 38
disas@@ 38
dissi@@ 38
dra 38
drew 38
dust 38
défini@@ 38
déform@@ 38
déménagé 38
dépassé 38
déroule 38
détruit 38
dévou@@ 38
ef 38
effective. 38
effectué 38
ement? 38
enemy 38
engin 38
enrich@@ 38
espoir. 38
ester@@ 38
estimated 38
ety, 38
evening 38
exag@@ 38
excited. 38
expan@@ 38
expanding 38
expedi@@ 38
experiences. 38
expose 38
facul@@ 38
famine 38
flu. 38
fluctu@@ 38
forcer 38
foyers 38
futu@@ 38
gas. 38
goals 38
governance 38
grand-père 38
grands-@@ 38
gur@@ 38
gâ@@ 38
habitués 38
hardware 38
haz@@ 38
high, 38
hob@@ 38
hole. 38
honn@@ 38
honnête 38
human-@@ 38
humanitarian 38
iPhone. 38
igne 38
iles, 38
illage 38
illes, 38
illé 38
imprimer 38
infirmières 38
ing's 38
inging 38
injection 38
insis@@ 38
interfaces 38
interviews 38
intéressants 38
iser. 38
issent, 38
it! 38
ito@@ 38
ja 38
jec@@ 38
joindre 38
joli 38
jun@@ 38
kee@@ 38
l'ag@@ 38
l'heure. 38
l'équilibre 38
lampe 38
lean 38
lentement, 38
levez 38
ley. 38
libre. 38
license 38
limin@@ 38
livrer 38
local. 38
loves 38
lée, 38
magnitude 38
maintenant@@ 38
manipulate 38
manipulation 38
marketing. 38
matern@@ 38
matériaux. 38
mauvais. 38
meaning@@ 38
mic 38
millisecon@@ 38
mondial, 38
mondialis@@ 38
money@@ 38
moustiqu@@ 38
movie, 38
moyen. 38
mystéri@@ 38
mé 38
mémoire, 38
naiss@@ 38
nearest 38
neuron 38
noire, 38
nomin@@ 38
novel@@ 38
noyau 38
nurses 38
obscur@@ 38
ole 38
our. 38
painful 38
paires 38
parad@@ 38
parcouru 38
passage, 38
passant, 38
pente 38
period. 38
phones. 38
photographe 38
phénomènes 38
pie 38
pigment@@ 38
piqu@@ 38
plaisant@@ 38
planets, 38
plant. 38
planter 38
planètes. 38
plateforme 38
poissons, 38
postul@@ 38
prendre. 38
prepare 38
print@@ 38
problè@@ 38
product, 38
productivity 38
profoundly 38
promesse 38
prote@@ 38
précédent 38
prédictions 38
présentation. 38
prévenir 38
prévention 38
publication 38
qual@@ 38
ra. 38
raisons, 38
recherches. 38
reflète 38
regardait 38
remaining 38
remembered 38
représenté 38
respect, 38
rit 38
row@@ 38
rément 38
réplic@@ 38
s'accro@@ 38
s'adapter 38
scr@@ 38
screen, 38
secre@@ 38
secret. 38
sein, 38
sel 38
sely 38
shoulder 38
sight 38
signal@@ 38
silic@@ 38
simplicity 38
sites. 38
sleep. 38
smallpox 38
soi, 38
solide 38
souhait 38
spac@@ 38
sper@@ 38
sses 38
stade, 38
stadi@@ 38
staring 38
states. 38
ston@@ 38
subject. 38
swal@@ 38
sym@@ 38
symptoms 38
sée 38
tale 38
tant. 38
team@@ 38
tel, 38
teront 38
tes? 38
tez. 38
tien 38
tion; 38
titu@@ 38
titude 38
today? 38
toler@@ 38
tomber. 38
tors. 38
translat@@ 38
treatment. 38
trouble. 38
télé, 38
téléphone. 38
units 38
veness 38
views 38
ving. 38
ving@@ 38
voir@@ 38
voyages 38
vulnérabilité 38
vén@@ 38
wed. 38
western 38
wider 38
wrap 38
writers 38
you’re 38
ys, 38
zon@@ 38
ème. 38
écoles. 38
écosystèmes 38
émotionnelle 38
éparg@@ 38
étendue 38
étudiants. 38
évolutionn@@ 38
"In 37
,000, 37
.com. 37
3D. 37
60,000 37
7,@@ 37
8,@@ 37
90, 37
97 37
Alexand@@ 37
Asie 37
BL: 37
Bang. 37
Barack 37
Being 37
Boo@@ 37
Both 37
Brad 37
Brown 37
C.@@ 37
Canada. 37
Congo 37
Congress 37
Conseil 37
Dalai 37
ES@@ 37
Etats 37
Francis 37
Greek 37
Hawai@@ 37
High@@ 37
His@@ 37
Icel@@ 37
Island, 37
L: 37
Ladies 37
Lin@@ 37
Mak@@ 37
Mexico. 37
Mill@@ 37
Net@@ 37
Oh. 37
Ph.D. 37
Photo@@ 37
Ret@@ 37
SS: 37
Sw@@ 37
Tami@@ 37
Teszler 37
Twitter. 37
U.S., 37
Watson 37
X-ray 37
You'd 37
a," 37
abandonné 37
accepted 37
accélérer 37
ache 37
adoption 37
affiche 37
agissent 37
ail. 37
alphab@@ 37
also. 37
anecdo@@ 37
anie 37
annoncé 37
answ@@ 37
answers. 37
apartment 37
appartient 37
approaching 37
arly 37
assez. 37
at-@@ 37
atis@@ 37
atter@@ 37
ature. 37
ayed 37
bai@@ 37
barr@@ 37
beauté. 37
bedro@@ 37
being. 37
best. 37
boat. 37
body's 37
body@@ 37
borne 37
bott@@ 37
breas@@ 37
bref, 37
buck@@ 37
bug 37
buildings. 37
builds 37
bus, 37
carbur@@ 37
cartoon@@ 37
cascad@@ 37
ceinture 37
changer, 37
changez 37
chao@@ 37
choo@@ 37
chos@@ 37
circumstances 37
coff@@ 37
college. 37
collègue 37
comic 37
commencé, 37
commentaires 37
commençant 37
communiqu@@ 37
complex, 37
complexité, 37
compo@@ 37
conception. 37
configuration 37
conflict. 37
connu, 37
considèrent 37
contac@@ 37
contradiction 37
contrast 37
conveni@@ 37
convertir 37
convic@@ 37
conçue 37
coopération 37
correspondent 37
cost, 37
cost@@ 37
critiques 37
cuisine, 37
curieux 37
d" 37
d'ab@@ 37
d'accord? 37
d'action 37
d'apporter 37
d'explorer 37
d'éviter 37
d'évolu@@ 37
daughter, 37
deli@@ 37
depression 37
desc@@ 37
detailed 37
diagnosed 37
diagramme 37
diapo 37
diaposi@@ 37
diarrhe@@ 37
did@@ 37
dies. 37
dire@@ 37
disgu@@ 37
dog, 37
donnera 37
donné@@ 37
dress 37
défendre 37
dépensent 37
dépensons 37
easily. 37
empir@@ 37
empower@@ 37
ena 37
ender 37
ends, 37
ends. 37
enfance, 37
enjoyed 37
ensure 37
envoient 37
espoir, 37
esthé@@ 37
eures 37
evapor@@ 37
everybody. 37
ex-@@ 37
exact@@ 37
experiments, 37
faible. 37
fancy 37
faul@@ 37
feu, 37
fie 37
fini, 37
fixer 37
flor@@ 37
forbi@@ 37
forme@@ 37
garbage 37
gestes 37
goal, 37
goes. 37
gras. 37
gris 37
grossi@@ 37
groupes. 37
génial, 37
généré 37
gés 37
half. 37
heli@@ 37
hero@@ 37
heroes 37
heureusement, 37
hormones 37
ians 37
ight 37
immobil@@ 37
impres@@ 37
improving 37
incit@@ 37
infer@@ 37
infrastructure, 37
inhi@@ 37
institutional 37
institutions. 37
insur@@ 37
invest@@ 37
invested 37
invitation 37
inviter 37
izes 37
j'essayais 37
jac@@ 37
jeux. 37
journalistes 37
l'entreprise 37
l'instant 37
l'émergence 37
l'épidémie 37
lang@@ 37
langue, 37
le" 37
leadership, 37
light@@ 37
limit 37
longer. 37
loop 37
lée. 37
légi@@ 37
mapping 37
mass@@ 37
master@@ 37
matic 37
meg@@ 37
membran@@ 37
mentionné 37
mesure, 37
methods 37
milliards. 37
mim@@ 37
mir@@ 37
mondialisation 37
most, 37
méd@@ 37
médecine. 37
médical@@ 37
météor@@ 37
nothing, 37
notice, 37
nouv@@ 37
nucle@@ 37
nœu@@ 37
océans, 37
odeur 37
online. 37
organization, 37
organization. 37
originally 37
ownership 37
painted 37
paradigme 37
partent 37
persis@@ 37
pertes 37
petits, 37
petits-enfants 37
physicien 37
pictures. 37
pied. 37
pier@@ 37
pig 37
pige@@ 37
pin 37
pione@@ 37
plage 37
plane, 37
plastique. 37
pleasant 37
poids. 37
pomme 37
pool 37
possibilities. 37
possibles. 37
precious 37
prenne 37
pron@@ 37
properly 37
pros@@ 37
protest@@ 37
prototype. 37
prud@@ 37
précis, 37
prédat@@ 37
puits 37
pursue 37
pè@@ 37
qu'après 37
qu'être 37
quick@@ 37
qués 37
race. 37
raison@@ 37
ramp@@ 37
rapid 37
reduced 37
reducing 37
remis 37
rendez-vous 37
rends 37
replaced 37
representation 37
resistant 37
reson@@ 37
ressentez 37
restaurant. 37
result. 37
retraite 37
revi@@ 37
reviennent 37
right-hand 37
robe 37
roue 37
rouler 37
rush 37
ré-@@ 37
réd@@ 37
révélé 37
s'amélior@@ 37
salaire 37
saviez 37
savons, 37
seats 37
security, 37
seemingly 37
self, 37
senses 37
servi@@ 37
seulement, 37
shine 37
simplic@@ 37
simplicité 37
situe 37
small. 37
sonde 37
soul@@ 37
speaker 37
spectaculaire 37
sphère, 37
spontan@@ 37
sports 37
star. 37
stays 37
ster, 37
stil@@ 37
store, 37
stretch 37
substanti@@ 37
supplémentaire 37
symmetry 37
systémati@@ 37
sée, 37
t-il? 37
tenant 37
terms, 37
territ@@ 37
toi. 37
tough@@ 37
toxi@@ 37
traditionnelle 37
traduction 37
trafic 37
transformation, 37
tâ@@ 37
ultraviolet 37
umb@@ 37
urge 37
venues 37
ves@@ 37
victim@@ 37
visualiser 37
volunteers 37
watch@@ 37
went, 37
wis@@ 37
wn@@ 37
x-@@ 37
year-olds 37
États 37
âgé@@ 37
écosystème 37
écoutez 37
également, 37
énergie. 37
établi 37
étiquet@@ 37
"Ch@@ 36
'8@@ 36
11. 36
2004. 36
2020. 36
38 36
46 36
57 36
60. 36
AIDS. 36
Africa's 36
Bonjour, 36
CT 36
Caroline 36
Celle-ci 36
Chicago. 36
Dan@@ 36
Dieu@@ 36
Dr@@ 36
Er@@ 36
F, 36
Fem@@ 36
Fran@@ 36
Hyper@@ 36
Irak 36
Irak. 36
Iraq@@ 36
Ivan 36
Jamais 36
Jesus 36
Joseph 36
Lor@@ 36
Love 36
Natasha 36
Numéro 36
O. 36
Ob@@ 36
Ol@@ 36
Pour@@ 36
Rand@@ 36
Sea 36
Spe@@ 36
Sri 36
Street. 36
Susan 36
Talk 36
Techno@@ 36
Titan 36
Tou@@ 36
Tru@@ 36
Tun@@ 36
Twitter, 36
U, 36
Whatever 36
Wow. 36
Zero 36
aby@@ 36
ach. 36
acquis 36
ades. 36
admir@@ 36
adopted 36
adorent 36
advertising 36
affaire. 36
affirm@@ 36
agré@@ 36
ahead. 36
aider, 36
alimentaire. 36
alités 36
alive, 36
alizing 36
alliez 36
already. 36
an? 36
anes@@ 36
applying 36
apprendre, 36
aries. 36
arrivera 36
attentes 36
austr@@ 36
aven@@ 36
avion, 36
bacterial 36
bais@@ 36
balcon@@ 36
ball, 36
banc@@ 36
beach 36
bicycle 36
bles@@ 36
blessures 36
bow 36
boîtes 36
brea@@ 36
brie@@ 36
burden 36
butter@@ 36
button 36
camions 36
cancé@@ 36
capteur 36
cardiaque, 36
cat 36
cercles 36
chann@@ 36
chapter 36
chaud, 36
chè@@ 36
cip@@ 36
claire 36
classical 36
clig@@ 36
color. 36
coming, 36
compag@@ 36
complex. 36
compris@@ 36
compréhensi@@ 36
conférence. 36
connection. 36
considérez 36
conspir@@ 36
contente 36
conventionn@@ 36
coordination 36
coqu@@ 36
creatures. 36
criminal 36
crops 36
cry 36
créatifs 36
célibat@@ 36
d'accord, 36
d'activité 36
d'air 36
d'aussi 36
d'espèces 36
d'éducation 36
daient 36
damage. 36
damn 36
date. 36
deals 36
demain. 36
demographic 36
desert. 36
desig@@ 36
desk 36
destiné 36
destruction, 36
determines 36
device, 36
dieu 36
difficiles. 36
dilemme 36
dinosaur 36
discoveries 36
dise 36
disrup@@ 36
distinct 36
djihad 36
don, 36
dream. 36
drops 36
dus 36
dynamiques 36
définit 36
détest@@ 36
d’avoir 36
ear, 36
earthquake 36
educate 36
effet. 36
elles-mêmes 36
ells 36
emploi. 36
endur@@ 36
ennes, 36
enseignement 36
entendre. 36
entes. 36
espérant 36
established 36
eting 36
experiencing 36
f-@@ 36
fall, 36
faut. 36
fermiers 36
fires 36
flexible 36
fluid 36
fonction@@ 36
forgot 36
fortu@@ 36
fresh@@ 36
front, 36
functions 36
further, 36
gap@@ 36
garden@@ 36
gathered 36
genom@@ 36
genres 36
gh, 36
globalization 36
got. 36
grass 36
green, 36
guarantee 36
gues. 36
guess, 36
gée 36
habitude 36
halfway 36
ham, 36
hes@@ 36
hier, 36
hormon@@ 36
horrible. 36
hospital, 36
hostile 36
hunting 36
ial 36
ich@@ 36
illons 36
imaginer. 36
inclure 36
ingredi@@ 36
ingredients 36
ino 36
intermédi@@ 36
interne 36
interventions 36
into. 36
intuiti@@ 36
isse. 36
isse@@ 36
iture 36
jets 36
join@@ 36
jouait 36
jouer, 36
judici@@ 36
just@@ 36
kick 36
kid. 36
kilomètre 36
l'ADN. 36
l'amour. 36
l'art. 36
l'efficacité 36
l'explosion 36
l'ordinateur. 36
l'ouverture 36
lands, 36
langage, 36
laugh 36
lers 36
liberté, 36
lifesp@@ 36
literature 36
liver 36
loaded 36
locale 36
log 36
longé@@ 36
lowest 36
lutt@@ 36
l’un 36
magnifi@@ 36
marqué 36
marry 36
matin@@ 36
matri@@ 36
mentor 36
mess 36
moments, 36
monde@@ 36
mont@@ 36
multination@@ 36
mytho@@ 36
mâles 36
métho@@ 36
ne? 36
ners, 36
networks, 36
neurone 36
niveau, 36
niveau. 36
nuclé@@ 36
number@@ 36
numbers, 36
négatif 36
n’avons 36
oes 36
of-@@ 36
off-@@ 36
offen@@ 36
oni@@ 36
org@@ 36
other's 36
out? 36
over-@@ 36
pag@@ 36
partici@@ 36
pensez, 36
permanence 36
permettait 36
pers 36
phenomenon. 36
philosop@@ 36
planets. 36
pling 36
pocket 36
poison 36
pompe 36
portraits 36
posséder 36
press, 36
primiti@@ 36
prob@@ 36
processeur 36
progress. 36
proposed 36
proven 36
précise 36
prés@@ 36
puber@@ 36
puissantes 36
pursuit 36
put@@ 36
pénétr@@ 36
quality. 36
quartiers 36
quote, 36
rait. 36
rap 36
rappelé 36
react 36
reasonable 36
reck@@ 36
regardless 36
relations. 36
releas@@ 36
religions, 36
remained 36
repos@@ 36
ressentent 36
ressort 36
richer 36
roman 36
rotat@@ 36
row, 36
résoudre. 36
résul@@ 36
réuss@@ 36
réussite. 36
sail@@ 36
samp@@ 36
saw, 36
scientifiques. 36
scri@@ 36
security. 36
shrimp 36
sixth 36
slide. 36
slides 36
snow 36
soldat 36
song. 36
soon, 36
souvenirs 36
speed, 36
spinning 36
spécialistes 36
spécifiquement 36
spécifiques 36
stable, 36
start. 36
static 36
steal 36
stereo@@ 36
studio. 36
subway 36
suddenly, 36
suggested 36
suit. 36
suppor@@ 36
surf@@ 36
suspended 36
sympa 36
tacti@@ 36
teachers. 36
techniques. 36
technologi@@ 36
temporal 36
tenté 36
tienne 36
tired 36
tle 36
tone 36
transmit@@ 36
trees. 36
trig@@ 36
troops 36
tuberculo@@ 36
tuer. 36
typique 36
ule, 36
underground 36
unlikely 36
upset 36
ut, 36
utilisaient 36
valis@@ 36
vendent 36
vern@@ 36
vide, 36
visualisation 36
vivant, 36
vous-même 36
voyons, 36
vê@@ 36
wait, 36
walk, 36
welcome 36
wn. 36
woke 36
yn 36
ètes 36
égar@@ 36
énorme, 36
étrange, 36
études, 36
êtes, 36
"Quand 35
.'" 35
10% 35
1970, 35
2: 35
3D, 35
50-@@ 35
AIDS, 35
Academy 35
America's 35
Bang, 35
Bank, 35
Bref, 35
Cel@@ 35
Centr@@ 35
Chacune 35
Dem@@ 35
Durant 35
Franç@@ 35
Fro@@ 35
Gor@@ 35
Harr@@ 35
Jus@@ 35
Kal@@ 35
Kong 35
Lab 35
Lama 35
Law@@ 35
March@@ 35
Mexique 35
Mid@@ 35
Montana 35
Mère 35
N, 35
Op@@ 35
Open 35
Organ@@ 35
PE@@ 35
Person@@ 35
Philadelph@@ 35
Philipp@@ 35
Puisque 35
Quo@@ 35
RI@@ 35
Ram@@ 35
Really 35
Redwood 35
Roc@@ 35
Royal 35
SR@@ 35
Seconde 35
Shar@@ 35
Son@@ 35
Soud@@ 35
Stanford, 35
Tar@@ 35
Third 35
Through 35
Ton@@ 35
Virgin 35
Yu@@ 35
abat@@ 35
accumulation 35
ach, 35
activity, 35
actuellement. 35
admet@@ 35
adolescent 35
adopté 35
age-@@ 35
agriculture, 35
al: 35
aliens 35
aliste 35
allo@@ 35
ambition 35
amou@@ 35
ampou@@ 35
américains, 35
anced 35
anesthes@@ 35
antibio@@ 35
anymore 35
ap. 35
apprenez 35
apprise 35
aries, 35
armed 35
arrête 35
artists, 35
assurance 35
astu@@ 35
atmo@@ 35
atteign@@ 35
aujourd’hui, 35
aventu@@ 35
bacteria. 35
bain 35
bam@@ 35
bang@@ 35
barres 35
belong 35
blame 35
bouche. 35
brillant 35
britannique 35
broc@@ 35
bu 35
calme 35
camion 35
caric@@ 35
carries 35
celui-là. 35
changeant 35
chaud. 35
cheese 35
cherchez 35
chiff@@ 35
chirurgic@@ 35
cic@@ 35
cim@@ 35
commentaire 35
comparaison 35
computational 35
comédi@@ 35
concentre 35
concentré 35
conclure, 35
concurrence 35
confident 35
conflict, 35
connais@@ 35
contents 35
contract 35
contrain@@ 35
contras@@ 35
contributed 35
convenient 35
conviction 35
copy@@ 35
cortex. 35
cousins 35
cratic 35
croyance 35
crâne 35
créateur 35
d' 35
d'amener 35
d'importance 35
d'o@@ 35
delivery 35
diagnosti@@ 35
diamon@@ 35
diction 35
diminue 35
diminuer 35
dira 35
discussion. 35
disparu 35
domaine, 35
donor 35
dos. 35
dragon@@ 35
drapeau 35
droit. 35
déch@@ 35
découvert, 35
décri@@ 35
défi. 35
dégu@@ 35
déjeuner. 35
déjà, 35
dérang@@ 35
désastre 35
eaux, 35
eb@@ 35
eleg@@ 35
embau@@ 35
embry@@ 35
emo@@ 35
employer 35
ened 35
enjoying 35
entends 35
entraîne 35
entropy 35
envah@@ 35
ers' 35
espère 35
et." 35
eux-mêmes, 35
ex, 35
examen 35
excité 35
exister 35
expectations 35
explos@@ 35
fenêtres 35
fications 35
financiers 35
flav@@ 35
fly, 35
fonctionne, 35
forests 35
forever 35
forms, 35
foun@@ 35
froid, 35
ft. 35
fumée 35
geni@@ 35
glacier 35
glasses 35
go? 35
graiss@@ 35
habil@@ 35
hardest 35
haï@@ 35
here: 35
hostil@@ 35
humanité 35
humil@@ 35
hérit@@ 35
i." 35
ication 35
ick, 35
idi@@ 35
ids. 35
idéal 35
illa 35
immigr@@ 35
importants. 35
impulsion 35
in's 35
inclin@@ 35
individus, 35
infection 35
ing" 35
insect 35
inspirés 35
intéressantes. 35
investi 35
ised 35
ision 35
issaient 35
isé. 35
izz@@ 35
j'arrive 35
jeune, 35
l'Islam 35
l'homme. 35
l'inst@@ 35
l'objectif 35
l'organisation 35
l'écr@@ 35
le; 35
learn. 35
lecteur 35
magasins 35
magnificent 35
malaria, 35
mammographie 35
map@@ 35
marg@@ 35
miser@@ 35
mode, 35
models. 35
modes@@ 35
modé@@ 35
motion. 35
mousti@@ 35
mé, 35
méch@@ 35
médicaments. 35
métro 35
nage 35
naturels 35
nd 35
nettoyer 35
noble 35
non-zero-sum 35
normale 35
n’ont 35
offering 35
oncle 35
ongoing 35
opinion, 35
ops 35
ouer 35
ounce 35
parlé, 35
partenariat 35
particule 35
pattern, 35
peaceful 35
performed 35
pet 35
phas@@ 35
phras@@ 35
physician 35
picks 35
piece. 35
pink 35
piét@@ 35
placement 35
planet@@ 35
pleinement 35
policies 35
politiques. 35
pollution, 35
porno@@ 35
posted 35
prendra 35
preser@@ 35
princ@@ 35
prints 35
produis@@ 35
profession 35
progressivement 35
projets, 35
précis@@ 35
prédiction 35
psychologues 35
publier 35
publique, 35
pulls 35
quarti@@ 35
quez 35
rad@@ 35
rassemble 35
realis@@ 35
realistic 35
reefs 35
refugee 35
remarquez 35
rendait 35
reste, 35
restre@@ 35
retire 35
riches, 35
riez-vous 35
rir 35
rooms. 35
régulièrement 35
résol@@ 35
résume 35
réunis 35
réveil@@ 35
rê@@ 35
s'asseoir 35
scru@@ 35
secou@@ 35
sensibil@@ 35
sequ@@ 35
seriously. 35
sexy 35
shoes. 35
sick. 35
significantly 35
signifie, 35
slogan 35
slowly, 35
sommet. 35
sors 35
spaghetti 35
sph@@ 35
sphere. 35
sport, 35
stored 35
storm 35
strategies 35
style. 35
substitu@@ 35
successfully 35
suck 35
sulfure 35
supporting 35
surrounding 35
survive, 35
sy 35
tackle 35
technologiques 35
températures 35
terrible, 35
theories 35
thèmes 35
time-@@ 35
tionnel 35
tissu@@ 35
tonight 35
transf@@ 35
transforment 35
transist@@ 35
transplant 35
trotto@@ 35
trouvé. 35
truth, 35
used, 35
utiles. 35
utterly 35
virul@@ 35
voyage, 35
vulnerability 35
wash 35
weapon 35
weight, 35
while. 35
wish@@ 35
worker 35
yant 35
zi@@ 35
Être 35
écrit, 35
élabor@@ 35
élevé. 35
élè@@ 35
émet 35
éprouv@@ 35
équivalent 35
était. 35
étranges 35
"Re@@ 34
"É@@ 34
) 34
1950, 34
1995, 34
2009 34
Abrah@@ 34
Abraham 34
Almost 34
Americans, 34
Anybody 34
Aussi, 34
Australia, 34
Bio@@ 34
Ble@@ 34
Blu@@ 34
Bomb@@ 34
Boston, 34
Bow@@ 34
Business 34
Camp@@ 34
Centre 34
Cinq 34
Compar@@ 34
Congo. 34
Cop@@ 34
Copenhag@@ 34
Coran 34
Cur@@ 34
DR: 34
Darwin@@ 34
David, 34
Dor@@ 34
Dur@@ 34
Explor@@ 34
Fo@@ 34
Fren@@ 34
Geographic 34
Imag@@ 34
Indiens 34
Ir@@ 34
Is@@ 34
LA 34
LE@@ 34
Lord 34
Lou@@ 34
Mandela 34
Manhattan, 34
Mexique, 34
October 34
PA 34
Plutôt 34
R. 34
Rob@@ 34
Ross 34
SO@@ 34
Sauf 34
Sk@@ 34
Someone 34
Sweden 34
Sé@@ 34
TT@@ 34
Tant 34
Texas, 34
There@@ 34
Thre@@ 34
Times. 34
Titan@@ 34
Until 34
Ur@@ 34
Voice: 34
W: 34
YouTube, 34
Zipcar 34
[in@@ 34
abondance 34
ac, 34
accent 34
accessibles 34
accou@@ 34
adults. 34
affordable 34
ailes 34
airs, 34
algorithme 34
alternatives 34
aléato@@ 34
ami. 34
amélioration 34
américaine, 34
anesthé@@ 34
anywhere. 34
aperç@@ 34
appelées 34
appli@@ 34
appr@@ 34
apprentissage 34
asteroid 34
atelier 34
ateur@@ 34
atifs, 34
attack@@ 34
bags 34
basically. 34
benef@@ 34
blow@@ 34
blowing 34
bousi@@ 34
brillants 34
calcium 34
cali@@ 34
caractères 34
cartographi@@ 34
cases. 34
ceil@@ 34
changeons 34
channel 34
chat@@ 34
chec@@ 34
chick@@ 34
chirurgiens 34
choosing 34
cité 34
clari@@ 34
clear, 34
clinic 34
clothes 34
coas@@ 34
colum@@ 34
communicating 34
conc@@ 34
concrè@@ 34
conduis@@ 34
confin@@ 34
connected. 34
consensus 34
constater 34
contenu. 34
coordin@@ 34
court. 34
craw@@ 34
creativity, 34
créatif 34
customers 34
d'entendre 34
dark, 34
day? 34
dear 34
decrease 34
demandons 34
demi. 34
descendu 34
dessous, 34
destination 34
development, 34
devinez 34
devint 34
dictionn@@ 34
differently, 34
difficult, 34
dirais, 34
dish 34
dite 34
dites-@@ 34
divergence 34
diversi@@ 34
divertissement 34
divisé 34
dollar, 34
dollar@@ 34
dormir 34
dossier 34
douzaines 34
dressed 34
drugs. 34
décision. 34
démonstr@@ 34
détails, 34
détecteur 34
déten@@ 34
ecolog@@ 34
edges 34
efficaces. 34
ego 34
electron 34
elimin@@ 34
emerge 34
employe@@ 34
empowered 34
endeav@@ 34
engineering, 34
entrepreneurs. 34
escalier 34
essed 34
estimer 34
excellente 34
expectancy 34
expensive, 34
experiments. 34
exploit 34
expédi@@ 34
extéri@@ 34
failing 34
fantôme 34
faster, 34
fastest 34
façons. 34
fermi@@ 34
fermé 34
final. 34
fire, 34
firing 34
fores@@ 34
formidable. 34
found. 34
fourni@@ 34
freedom. 34
freely 34
fru@@ 34
galaxie, 34
galaxy, 34
geome@@ 34
gon@@ 34
grandfather 34
green. 34
généri@@ 34
génétiquement 34
géométrie 34
h? 34
habill@@ 34
hallucinations 34
hand-@@ 34
hap@@ 34
has, 34
hasard. 34
hat@@ 34
heard, 34
honey@@ 34
humanity, 34
humanity. 34
hypothèses 34
hys@@ 34
iceberg 34
ici? 34
ignorer 34
ik@@ 34
immeuble 34
impact, 34
inconsci@@ 34
indu@@ 34
inscri@@ 34
insectes, 34
instrument, 34
interestingly, 34
interpret 34
interpretation 34
introduction 34
ished. 34
isées 34
itaire, 34
ives 34
j'aie 34
jeunes, 34
journ@@ 34
killed. 34
kilomètres, 34
kind, 34
l'accent 34
l'auto-@@ 34
l'exploration 34
l'exposition 34
l'échec 34
l'énergie, 34
le's 34
legs, 34
lendemain 34
leng@@ 34
lets. 34
lever. 34
leç@@ 34
libres 34
licence 34
logy, 34
longs 34
lost. 34
maker 34
making. 34
malade. 34
malaria. 34
mammif@@ 34
manag@@ 34
managers 34
manifestations 34
manipuler 34
marin@@ 34
marins 34
markets, 34
marée 34
mathematicians 34
may@@ 34
meetings 34
meilleur, 34
memes 34
memory, 34
mice 34
minus 34
minus@@ 34
mistakes. 34
moder@@ 34
monit@@ 34
monstr@@ 34
montagne, 34
mysterious 34
mythe 34
naissent 34
nas@@ 34
neighbor 34
nerfs 34
net, 34
networks. 34
nigh@@ 34
notation 34
note, 34
note. 34
ns. 34
obesity 34
observez 34
oct@@ 34
ocul@@ 34
offer@@ 34
offers 34
ologique 34
onom@@ 34
optimis@@ 34
orph@@ 34
ours, 34
paint@@ 34
palestini@@ 34
parabo@@ 34
parachu@@ 34
parall@@ 34
parcour@@ 34
partage@@ 34
pensée. 34
perce@@ 34
pes, 34
petite, 34
pharmac@@ 34
pharmaceu@@ 34
physiciens 34
piques 34
piste 34
plaques 34
please, 34
point@@ 34
politics. 34
poor. 34
portrai@@ 34
powerful, 34
practice, 34
premier. 34
printemps 34
profit. 34
propriét@@ 34
protection. 34
provoqué 34
précieux 34
préoccup@@ 34
puzzles 34
période, 34
qu'ont 34
quotidien 34
raccour@@ 34
racine 34
rais@@ 34
rapid@@ 34
rayonn@@ 34
reaches 34
reason. 34
rechercher 34
recul 34
refuse 34
remix@@ 34
repenser 34
ressources, 34
retur@@ 34
reveal 34
review 34
revoir 34
ridicule 34
rig@@ 34
rubber 34
rum@@ 34
run, 34
run. 34
réalisation 34
récupér@@ 34
réfléchissez 34
référ@@ 34
région, 34
répliqu@@ 34
résultat. 34
s'arrête 34
s'intitule 34
sar@@ 34
scrat@@ 34
secondaires 34
seven, 34
simultan@@ 34
sites, 34
skin@@ 34
smooth 34
software. 34
sont. 34
sortis 34
souffr@@ 34
span 34
stabilité 34
stac@@ 34
statistici@@ 34
ste. 34
sticks 34
strat@@ 34
structural 34
study, 34
subtle 34
suppose, 34
supprimer 34
surement 34
switched 34
sérieux, 34
ta, 34
tangi@@ 34
task. 34
teaches 34
teau 34
tely 34
temperature, 34
tenais 34
third, 34
thou@@ 34
tier 34
toilet 34
torn@@ 34
traditionnel 34
tragic 34
traitement. 34
transforming 34
transférer 34
transistor 34
transl@@ 34
transpor@@ 34
traversent 34
trich@@ 34
troubl@@ 34
trucks 34
univers, 34
universités 34
utile, 34
vacuum 34
vagin@@ 34
valait 34
valeur, 34
valeur. 34
venti@@ 34
venture 34
version. 34
verts 34
victime 34
villages, 34
ving, 34
viseur 34
visualis@@ 34
vote. 34
vous-@@ 34
weigh 34
wher@@ 34
who'd 34
wil@@ 34
wooden 34
years? 34
zero-@@ 34
âgées 34
ège. 34
échapper 34
élections 34
ément. 34
épo@@ 34
érup@@ 34
éth@@ 34
étude, 34
évaluer 34
‘@@ 34
’@@ 34
"We're 33
00,000 33
16, 33
18, 33
1960. 33
2,5 33
2002. 33
2006 33
201@@ 33
2050, 33
25% 33
4.@@ 33
70% 33
76 33
AC@@ 33
Am 33
Arrê@@ 33
Ass@@ 33
Autrement 33
BG 33
Beat@@ 33
Bonjour 33
CO2, 33
Children 33
Cin@@ 33
Coke 33
Color@@ 33
Costa 33
Cour@@ 33
Deep 33
Delhi 33
Egyp@@ 33
Entre 33
Everest. 33
Faisons 33
Fur@@ 33
Heal@@ 33
Homme 33
Indones@@ 33
Iraq, 33
J.@@ 33
Joh@@ 33
Keep 33
Keith 33
Kh@@ 33
Kor@@ 33
Korea 33
Lac@@ 33
Laissez 33
Lak@@ 33
Las 33
Law 33
London. 33
Mé@@ 33
Nathan 33
O'@@ 33
PI@@ 33
Pat@@ 33
Projet 33
Pôle 33
Rachel 33
SIDA. 33
Sand@@ 33
Se 33
Seattle 33
Security 33
Shoo@@ 33
Soleil, 33
Soyez 33
Spr@@ 33
Stanford. 33
Stewart 33
Sty@@ 33
Sunday 33
Sweeney: 33
Temp@@ 33
Valley. 33
Watch 33
Yves 33
abri@@ 33
académi@@ 33
accomp@@ 33
accus@@ 33
acqui@@ 33
actes 33
activer 33
adjust 33
adolescence 33
adulte. 33
afficher 33
affron@@ 33
afrai@@ 33
aimaient 33
alization, 33
ally-@@ 33
améliore 33
ane. 33
ant? 33
apart, 33
apart@@ 33
apl@@ 33
appelés 33
aque 33
ardi@@ 33
ards. 33
asks 33
assign@@ 33
assum@@ 33
ata 33
ater, 33
attaché 33
attendu 33
attraction 33
attrapé 33
autobio@@ 33
autour. 33
avat@@ 33
balles 33
banqui@@ 33
beating 33
beau, 33
behind. 33
birds, 33
border 33
bouger. 33
boulot. 33
boys, 33
branch 33
brillante 33
brin 33
briser 33
bub@@ 33
bucks 33
bénéfice 33
caché 33
cal, 33
came, 33
capability 33
casque 33
celles-ci 33
cellule, 33
cents. 33
challenged 33
channels 33
chasseurs 33
chemins 33
chercheur 33
chirurgi@@ 33
choisis 33
chor@@ 33
civilis@@ 33
close, 33
clô@@ 33
commit 33
comparing 33
compassionate 33
composit@@ 33
comptes 33
confront 33
connectée 33
connexi@@ 33
connus 33
consu@@ 33
contacts 33
contain@@ 33
contin@@ 33
continuing 33
contributing 33
convaincu@@ 33
convention 33
costume 33
cott@@ 33
cotton 33
couloir 33
counting 33
coute@@ 33
credi@@ 33
cut@@ 33
cybercrimin@@ 33
célébrer 33
d'agir 33
d'ap@@ 33
d'individus 33
d'étudiants 33
databas@@ 33
decision. 33
dents. 33
depend@@ 33
devenait 33
devi@@ 33
devices, 33
devil 33
diabète 33
diagram 33
diamètre 33
différemment, 33
disparaî@@ 33
dispose 33
dispositifs 33
disque 33
dly, 33
do." 33
domain 33
dopamine 33
dorm@@ 33
drif@@ 33
duré 33
défend@@ 33
dépasse 33
déplacement 33
désert. 33
développer. 33
eliminate 33
elite 33
empath@@ 33
employé 33
enten@@ 33
entrés 33
ep, 33
erions 33
essayer. 33
ession. 33
estimates 33
event, 33
exposés 33
exprime 33
expérimenter 33
extrême 33
fair@@ 33
fallen 33
families. 33
father@@ 33
fathers 33
faç@@ 33
filtre 33
financer 33
fine, 33
fins 33
fonctionner. 33
fondamentaux 33
fondée 33
foot. 33
fought 33
fragments 33
front. 33
gan@@ 33
gases 33
gene@@ 33
genocide 33
gone, 33
grandeur 33
graph, 33
grille 33
guess@@ 33
guider 33
gère 33
géométri@@ 33
hair@@ 33
ham 33
help, 33
horizontal 33
hundre@@ 33
hôtel 33
identified 33
illez 33
illustrate 33
illustration 33
immeubles 33
implication 33
incident 33
income, 33
indiquer 33
indre, 33
industriel 33
iness 33
inez 33
initially 33
institutionn@@ 33
integrate 33
interdit 33
interior 33
intervie@@ 33
interviewed 33
intér@@ 33
involve 33
involved. 33
issue, 33
journal, 33
jus 33
kin 33
l' 33
l'ancienne 33
l'approche 33
l'au@@ 33
l'esprit, 33
l'expérience, 33
l'huile 33
l'informatique 33
l'ouest 33
l'économie. 33
l'écou@@ 33
l'élec@@ 33
labyrin@@ 33
large-scale 33
lens 33
ler@@ 33
limitations 33
locales 33
loop@@ 33
ly-@@ 33
lycée. 33
là-dessus 33
léger 33
lét@@ 33
m'amène 33
m'avoir 33
m'étais 33
marchand@@ 33
marketing, 33
maïs 33
merveil@@ 33
merveilleux, 33
met, 33
meubles 33
mimic 33
minds. 33
modèles. 33
montent 33
muni@@ 33
muscul@@ 33
médecin, 33
métabol@@ 33
naissance. 33
nez. 33
nice. 33
nigéri@@ 33
nord, 33
nord-@@ 33
nourrit 33
nul@@ 33
nécessaire. 33
n’avais 33
o? 33
observons 33
obstac@@ 33
ome, 33
omè@@ 33
optical 33
ordinaires 33
orientation 33
osit@@ 33
ours. 33
oxy@@ 33
pandémi@@ 33
paper@@ 33
parfait, 33
parie 33
pathologi@@ 33
pattern@@ 33
peace@@ 33
peindre 33
pensais, 33
pensée, 33
perpetu@@ 33
pharmaceutical 33
photographié 33
piano, 33
pilot 33
pingou@@ 33
plai@@ 33
planes 33
pleines 33
poign@@ 33
poisson. 33
populaire. 33
pots 33
pourr@@ 33
prepar@@ 33
present, 33
print, 33
pro-@@ 33
productiv@@ 33
products, 33
professeur, 33
profil@@ 33
profondeur. 33
programme, 33
présentation, 33
présentent 33
présentes 33
psy@@ 33
puissante. 33
pô@@ 33
ralentir 33
ramasser 33
rant 33
recover 33
recovery 33
relever 33
relie 33
repe@@ 33
reprodu@@ 33
returned 33
revenons 33
reçois 33
risk. 33
risque. 33
rock. 33
roots 33
rotate 33
réagir 33
réal@@ 33
récent@@ 33
récit 33
rén@@ 33
résister 33
rétin@@ 33
rêves. 33
s'arrêter 33
schem@@ 33
semblaient 33
sends 33
serious. 33
shock@@ 33
signal. 33
silent 33
silver 33
single-@@ 33
sized 33
siècles 33
slic@@ 33
slide, 33
slo@@ 33
slum@@ 33
sne@@ 33
sociales. 33
soeur 33
soldier 33
soon. 33
sted 33
stoc@@ 33
storage 33
strongly 33
subst@@ 33
subtil@@ 33
suffisant 33
supérieure 33
surplus 33
surtout, 33
symbio@@ 33
symme@@ 33
synthes@@ 33
synthé@@ 33
systèmes, 33
systématiquement 33
t! 33
teen 33
tement. 33
ter-@@ 33
theor@@ 33
thick 33
thus 33
tig@@ 33
tivement 33
toire. 33
told, 33
tombés 33
trading 33
training. 33
trajet 33
transduc@@ 33
trol@@ 33
trouvé, 33
télé. 33
univers. 33
universel@@ 33
uter@@ 33
utilisait 33
ux 33
valeurs, 33
vapeur 33
ve: 33
vention 33
verre. 33
virg@@ 33
vité 33
volati@@ 33
voyage. 33
voyagé 33
vulnér@@ 33
wife. 33
win, 33
wings 33
wondering, 33
ètent 33
ément, 33
étonnamment 33
étro@@ 33
étudient 33
évén@@ 33
'll 32
1-@@ 32
125 32
1950 32
1980, 32
25,000 32
26@@ 32
Amy 32
Amérique, 32
Angel@@ 32
Bangladesh 32
Basically 32
Black@@ 32
Bol@@ 32
Bonne 32
Brooklyn 32
Cambridge, 32
Cha@@ 32
Coca-Cola 32
Cold 32
Cu@@ 32
Cul@@ 32
Darwin, 32
December 32
Democr@@ 32
Design@@ 32
Gordon 32
Grande-Bretagne 32
HIV. 32
Hall 32
Hiroshim@@ 32
Hop@@ 32
Human@@ 32
Hus@@ 32
Italian 32
J 32
Japon. 32
Jefferson 32
Jerry 32
Kosovo 32
Lee 32
Lewis 32
Lim@@ 32
Little 32
Loc@@ 32
Lors 32
Mahatma 32
Margaret 32
Mathematic@@ 32
Moi, 32
Moyen-Orient 32
Mul@@ 32
Nick 32
Nolly@@ 32
Noël 32
Palest@@ 32
Phoenix 32
Pic@@ 32
Premier 32
Professor 32
Py@@ 32
R.@@ 32
Regardez, 32
Rem@@ 32
Rob 32
Roger 32
Rover 32
SB: 32
Savez-vous 32
Sky@@ 32
Sony 32
Sun. 32
Sup@@ 32
Suède 32
Syst@@ 32
Thail@@ 32
This, 32
Tric@@ 32
UV 32
VIH, 32
Verme@@ 32
Voyez 32
Yet, 32
accessi@@ 32
aching 32
acquire 32
actively 32
ado 32
advance 32
afford@@ 32
aging. 32
agriculture. 32
aid, 32
ait-il 32
ajoutez 32
ambul@@ 32
amed 32
amment 32
ank 32
apocalyp@@ 32
arity 32
array 32
aside 32
assis@@ 32
astero@@ 32
astronau@@ 32
ation-@@ 32
ativement 32
attack. 32
atterriss@@ 32
attracted 32
ature 32
atures. 32
autonomous 32
autour, 32
autrefois 32
ban 32
beauty. 32
befor@@ 32
believ@@ 32
biodiversity 32
biodiversité 32
black, 32
blank 32
ble? 32
boar@@ 32
boat, 32
bois, 32
bonus 32
both. 32
bound@@ 32
bread. 32
bread@@ 32
bres 32
broader 32
brûler 32
bureaucr@@ 32
cabinet 32
calam@@ 32
camera. 32
candidate 32
capital. 32
[...]
