, 350155
. 310732
the 118281
de 110328
a 89632
to 73031
of 68846
and 59651
la 58084
et 53922
that 53305
que 51091
est 50974
I 49444
le 47461
à 46857
les 45349
in 44518
un 41878
is 39739
you 39327
l&apos; 39301
&quot; 38541
it 37084
des 36437
en 34787
&apos;s 34688
une 33737
we 32277
d&apos; 31757
-- 30393
vous 30030
And 29853
nous 29690
qui 28056
on 27215
? 26266
this 25470
ce 25062
dans 25015
Et 24115
pas 23911
pour 23593
je 20498
il 20304
: 18034
was 17877
qu&apos; 17008
du 16798
for 16433
have 16313
are 16270
plus 15762
they 15676
ne 15453
c&apos; 15429
with 14335
can 14008
So 13695
sur 13329
what 13298
&apos;t 13273
n&apos; 13178
y 13171
about 12861
ai 12830
’ 12604
be 12024
me 11554
sont 11419
avec 11265
at 11257
as 11226
j&apos; 11032
all 10927
do 10752
ils 10547
there 10541
fait 10511
au 10468
not 10442
&apos;re 10418
se 10130
Je 9979
It 9798
ces 9630
one 9580
ça 9350
like 9269
an 9265
comme 9237
people 9198
ont 9178
cette 9014
par 8981
from 8974
C&apos; 8966
faire 8914
so 8910
my 8779
si 8683
Il 8635
avons 8550
était 8449
but 8267
tout 8044
just 7928
very 7852
or 7819
We 7721
s&apos; 7701
Mais 7632
mais 7608
But 7599
The 7534
these 7505
Nous 7483
if 7445
ou 7386
out 7384
know 7370
our 7283
going 7271
très 6965
up 6858
them 6845
by 6631
être 6578
because 6282
think 6276
see 6255
when 6231
which 6231
bien 6207
had 6201
he 6164
more 6042
really 6024
monde 6008
gens 5989
♫ 5855
get 5839
chose 5787
&apos;ve 5711
would 5674
your 5661
here 5633
who 5632
were 5590
how 5562
This 5500
&apos;m 5414
their 5370
cela 5328
You 5327
then 5314
dit 5309
elle 5289
us 5256
time 5124
actually 5079
world 5037
même 4992
quand 4956
où 4942
don 4932
has 4929
things 4888
into 4859
some 4827
Vous 4818
; 4775
J&apos; 4759
way 4758
vraiment 4733
leur 4660
suis 4586
years 4583
tous 4572
Donc 4560
La 4539
notre 4524
été 4518
now 4501
aux 4449
go 4447
will 4442
peut 4407
where 4407
donc 4392
want 4373
beaucoup 4295
other 4294
choses 4281
parce 4270
Now 4256
They 4172
aussi 4150
autre 4117
deux 4115
mon 4095
could 4084
make 4052
Ce 4030
been 3992
said 3992
ans 3965
son 3903
Les 3873
something 3870
quelque 3811
Le 3778
voir 3764
ici 3700
m&apos; 3667
dire 3664
little 3608
thing 3606
vie 3536
right 3528
got 3525
Ils 3502
much 3475
autres 3470
On 3434
avait 3430
two 3420
first 3418
no 3403
peu 3351
than 3349
pouvez 3346
avoir 3331
look 3326
That 3306
votre 3305
temps 3269
say 3259
those 3259
nos 3253
là 3242
back 3235
l 3230
also 3184
entre 3151
- 3144
fois 3094
En 3078
kind 3070
over 3044
Alors 3005
work 2960
avez 2941
ma 2921
life 2914
What 2909
she 2870
lot 2864
comment 2857
important 2856
his 2850
only 2841
need 2815
point 2805
pense 2798
take 2796
question 2791
sommes 2781
most 2771
There 2738
did 2728
&apos;ll 2726
d 2712
moi 2701
around 2677
In 2664
Si 2626
dont 2609
encore 2581
good 2579
even 2576
different 2574
many 2567
down 2563
années 2560
elles 2546
A 2467
façon 2445
maintenant 2442
new 2440
sa 2422
! 2418
vais 2415
through 2406
Well 2387
10 2376
alors 2370
toutes 2370
doing 2364
moment 2361
come 2360
leurs 2360
same 2358
juste 2340
If 2311
personnes 2307
put 2301
part 2289
L&apos; 2276
use 2273
va 2273
« 2271
every 2266
her 2243
He 2242
being 2230
place 2209
enfants 2191
besoin 2185
veux 2174
» 2171
hui 2118
called 2087
sans 2087
idée 2065
savez 2063
mes 2049
pays 2044
histoire 2039
&apos; 2013
&apos;d 2004
three 2003
jamais 1992
any 1980
lui 1980
day 1977
Voici 1971
made 1964
... 1962
quelques 1949
dollars 1940
change 1939
long 1938
eu 1932
non 1926
pouvons 1904
problème 1901
après 1894
pendant 1893
parler 1890
tell 1889
percent 1888
well 1870
moins 1863
toujours 1849
seulement 1846
able 1840
why 1838
fact 1826
chaque 1821
talk 1814
course 1812
étaient 1801
year 1792
est-ce 1769
idea 1766
ses 1766
find 1764
trois 1760
Elle 1756
great 1756
peuvent 1755
20 1751
soit 1749
car 1746
partie 1743
simple 1733
voyez 1724
s 1722
didn 1714
human 1712
personne 1705
aujourd&apos; 1700
went 1697
last 1696
peut-être 1691
today 1690
quoi 1680
its 1674
exemple 1665
thought 1664
big 1659
own 1654
toute 1640
première 1636
started 1635
off 1628
cet 1623
after 1621
should 1619
vers 1614
another 1613
étais 1607
information 1601
give 1595
sort 1594
manière 1589
let 1587
commencé 1581
show 1576
jour 1559
Maintenant 1557
before 1554
millions 1553
sûr 1550
êtes 1550
eau 1548
avant 1545
travail 1538
ago 1530
puis 1527
tant 1526
système 1525
possible 1522
grand 1520
start 1518
design 1515
million 1512
problem 1512
story 1505
better 1489
bit 1489
again 1486
never 1483
might 1478
Merci 1463
came 1463
together 1453
does 1452
mean 1450
sorte 1437
Because 1434
pourquoi 1434
system 1434
him 1429
Un 1423
avais 1420
OK 1419
next 1419
assez 1401
rien 1397
science 1394
petit 1393
technology 1385
Une 1380
each 1379
still 1372
water 1370
c 1363
jusqu&apos; 1359
few 1358
nature 1358
Cela 1357
brain 1351
depuis 1349
Thank 1346
grande 1345
vu 1344
eux 1340
bon 1337
done 1331
train 1329
Parce 1327
used 1326
aller 1325
font 1325
whole 1319
looking 1317
n 1306
air 1302
between 1300
end 1300
Quand 1295
re@@ 1288
technologie 1287
prendre 1286
Ça 1277
% 1274
cas 1272
genre 1272
pourrait 1269
environ 1268
cerveau 1267
When 1265
50 1264
doesn 1261
too 1261
image 1260
example 1257
qu 1254
trouver 1249
understand 1240
vos 1239
Dans 1228
appelle 1221
utiliser 1220
30 1219
ceci 1212
call 1195
devons 1195
try 1193
six 1189
How 1186
found 1186
quelqu&apos; 1186
New 1185
avaient 1184
comprendre 1184
love 1184
wanted 1180
passé 1177
faut 1169
peux 1169
real 1169
always 1168
children 1164
trying 1164
premier 1162
100 1160
passe 1159
créer 1154
person 1153
away 1152
believe 1152
cancer 1150
four 1147
minutes 1145
working 1138
&#91; 1135
&#93; 1135
face 1135
crois 1134
sais 1134
nouveau 1129
données 1128
femmes 1128
voici 1123
montrer 1120
second 1120
sens 1117
TED 1113
live 1111
bonne 1109
data 1108
feel 1105
ensuite 1104
mettre 1100
may 1097
simplement 1092
ever 1090
questions 1087
type 1082
public 1080
women 1079
-@@ 1075
art 1073
man 1073
in@@ 1071
chez 1068
took 1068
laquelle 1061
pouvoir 1061
ait 1059
space 1056
donner 1055
plutôt 1055
stuff 1055
problèmes 1054
Pour 1053
plupart 1053
everything 1052
année 1051
school 1051
thinking 1048
One 1041
S@@ 1040
Oh 1039
homme 1034
country 1033
kids 1030
using 1024
light 1023
déjà 1021
getting 1019
create 1018
Internet 1017
maybe 1017
money 1017
food 1013
jours 1009
petite 1008
social 1005
énergie 1004
ensemble 1003
means 1002
These 1001
sous 1001
tu 1001
000 997
old 997
quite 996
sense 994
culture 991
power 990
building 987
travers 984
Here 983
help 983
comes 982
importe 981
enough 980
probably 980
mois 977
savoir 975
future 974
happened 971
interesting 963
argent 961
ainsi 960
five 960
15 958
nouvelle 958
population 957
forme 955
small 955
Tout 954
trop 951
ant 950
making 950
mieux 950
pris 949
corps 947
près 947
play 946
Africa 945
agit 944
am 942
energy 942
film 941
raison 940
number 937
gros 934
talking 934
fin 933
coming 930
espace 927
er 926
penser 922
veut 922
vrai 922
best 919
cause 919
côté 918
machine 918
Afrique 917
times 917
My 915
vont 915
become 914
left 913
doit 912
less 910
C 905
main 905
projet 904
lieu 902
She 901
pretty 901
serait 901
allons 896
compte 896
anything 892
femme 892
says 892
ceux 891
Comment 888
force 887
surface 887
No 881
trouve 881
without 881
age 876
certain 876
York 875
images 874
home 868
expérience 865
goes 865
autour 863
endroit 863
side 863
body 861
nombre 861
quel 861
sera 855
room 853
différentes 852
o 852
enfant 851
happen 846
Pourquoi 845
propre 844
ask 843
B@@ 840
changer 840
passer 840
idées 836
ville 836
planète 834
cours 833
saw 833
certains 831
seule 828
across 825
else 824
quatre 822
seen 822
attention 821
niveau 821
j 820
Why 818
happens 816
ons 816
such 814
Earth 813
contre 811
Let 810
told 810
faisons 805
case 801
technologies 801
basically 798
difficile 796
lumière 795
move 795
large 792
arrive 791
ways 790
santé 786
es 784
picture 784
countries 783
ideas 783
build 782
having 782
photo 782
half 781
living 779
business 778
faites 777
makes 777
réalité 777
tard 777
days 773
problems 773
A@@ 772
mis 769
planet 768
ez 767
allez 766
lives 766
parents 765
ée 765
bad 763
structure 762
experience 759
hard 758
trouvé 758
saying 755
imagine 754
lorsque 754
reste 754
probablement 752
dé@@ 751
essayer 751
mal 751
computer 750
Cette 749
voulez 749
produit 747
Qu&apos; 746
marché 745
asked 744
situation 744
souvent 744
40 743
All 742
Eh 742
maison 742
process 742
école 742
seul 741
inside 740
later 739
Au 737
cellules 737
te 737
chance 735
reason 735
é 735
sujet 734
P@@ 733
Ces 732
book 732
groupe 732
parle 732
partir 730
high 729
travailler 727
2 726
billion 726
ent 726
vue 726
T@@ 724
milliards 724
savons 724
Voilà 723
hand 723
regardez 723
project 722
couple 721
cells 720
jeu 720
tellement 720
global 718
De 717
learn 716
hommes 715
société 715
far 714
voilà 714
également 714
child 713
both 712
within 710
devez 709
esprit 709
looks 709
care 708
For 706
guy 706
top 706
D&apos; 704
avions 703
construire 703
set 703
single 703
Bon 702
és 702
différents 701
almost 700
commencer 700
mind 700
donne 699
haut 698
pu 698
changement 697
base 696
presque 696
yet 696
solution 695
Elles 694
Bien 693
accord 693
cent 692
history 692
univers 692
As 690
aient 690
animal 690
family 690
mère 689
t 689
3 688
donné 688
heard 688
époque 688
nothing 687
once 685
bas 684
form 684
livre 684
moyen 682
cinq 681
line 681
nouvelles 681
wrong 681
humains 680
M@@ 679
vient 677
looked 676
bring 674
places 672
Oui 671
matter 670
already 669
sure 668
universe 668
C@@ 667
health 666
piece 666
heures 665
i 665
apprendre 664
beautiful 664
regarder 664
hope 663
while 663
D@@ 662
complètement 662
Des 661
young 661
compassion 660
humain 660
months 660
points 660
m 658
intérieur 657
ées 657
Ceci 654
Europe 654
pouvait 654
demandé 653
signifie 652
plusieurs 651
open 650
community 649
guerre 649
réponse 648
true 648
India 647
environnement 647
petits 647
God 646
entendu 646
keep 646
whether 646
12 645
often 645
read 645
F@@ 644
answer 644
everybody 644
famille 643
men 642
ligne 641
site 641
début 638
terre 638
dernière 637
video 637
music 635
species 634
patient 633
remember 633
Non 632
quelle 631
rendre 631
CA 630
United 630
animaux 630
Que 629
intéressant 629
ordinateur 627
fais 626
tête 626
patients 625
processus 625
group 624
Inde 621
commence 621
language 620
city 617
aurait 616
G@@ 615
figure 615
disent 612
myself 612
order 612
works 612
kinds 611
words 611
nourriture 609
yeux 608
vision 607
aider 606
aime 606
level 605
someone 605
taking 605
under 605
Dieu 604
control 604
met 604
propos 604
voiture 604
60 603
appelé 603
partout 603
somebody 603
built 602
amazing 601
itself 601
modèle 600
test 598
turn 598
until 598
vidéo 598
Terre 597
aide 597
capable 597
un@@ 596
appris 595
musique 595
dis 593
happening 591
R@@ 589
completely 588
développement 587
virus 586
voulais 586
25 585
lequel 585
woman 584
aucun 583
head 582
impact 582
though 582
Comme 581
Then 581
pensé 581
recherche 581
voyons 581
job 580
must 580
L@@ 579
front 579
gets 579
isn 579
run 579
voit 579
table 578
1 577
States 577
decided 577
e@@ 577
mother 576
wasn 576
Okay 575
mesure 574
plan 574
ones 572
E@@ 571
histoires 571
Mon 570
coup 568
guys 568
per 568
America 567
Est-ce 567
abord 567
exactly 567
exactement 566
H@@ 565
certaines 565
communauté 565
model 565
since 565
Ainsi 564
meilleur 564
montre 563
robot 563
b@@ 562
capacité 561
particular 561
Or 560
Google 559
heart 559
ourselves 559
existe 558
huge 558
stories 558
réellement 557
décidé 556
stop 556
turns 556
word 556
marche 555
vivre 555
company 554
dernier 554
action 553
dernières 553
informations 553
jouer 553
4 551
prix 551
learned 550
amis 549
mer 548
80 545
e 545
hear 544
incroyable 544
loin 544
name 544
voulons 544
écrit 544
animals 543
devenir 543
mort 543
rather 543
night 542
rapidement 542
dessus 541
government 541
research 541
education 540
état 540
along 539
aucune 539
nom 539
sait 539
ni 538
lots 537
won 537
K@@ 535
effet 535
house 535
game 534
200 533
village 533
war 533
d@@ 531
environment 531
couldn 530
découvert 530
knew 529
source 529
5 527
petites 527
ressemble 527
grâce 525
t@@ 525
disease 524
themselves 524
became 523
dois 523
père 523
hours 522
politique 522
créé 521
choix 520
endroits 520
wonderful 520
sound 519
regarde 518
longtemps 517
message 517
oil 517
semble 517
types 517
centre 516
difference 516
futur 516
grandes 516
grands 515
least 515
share 515
arriver 514
k@@ 514
sometimes 514
study 514
suite 514
peur 513
etc 512
students 512
gauche 511
siècle 511
en@@ 509
happy 509
created 508
society 508
worked 508
oui 507
différence 504
milliers 504
outside 504
États-Unis 504
obtenir 503
version 503
American 502
against 501
news 501
terms 501
N@@ 500
moving 500
area 499
code 499
early 499
land 498
fille 497
entier 496
gave 496
photos 495
taille 495
11 494
arrivé 493
celle 493
minute 493
taken 493
impossible 492
past 492
concept 490
demande 490
natural 489
s@@ 489
view 489
China 488
friends 488
everyone 487
innovation 487
évolution 487
aimerais 486
venir 485
Chris 484
beginning 484
g@@ 484
position 483
importante 482
jeunes 482
local 482
veulent 482
direction 481
entire 481
mots 480
takes 480
énorme 480
devient 478
Ou 477
meilleure 477
third 477
compris 476
gouvernement 476
instead 476
systems 476
thousands 476
économie 476
celui 475
o@@ 475
page 475
cell 474
milieu 474
devant 473
mot 473
parfois 473
Chine 472
free 472
market 472
learning 471
close 470
conditions 470
permet 470
state 470
fut 469
others 469
seeing 469
service 469
production 468
échelle 468
century 467
devrait 467
ability 465
finally 465
parlé 465
seven 465
continue 464
i@@ 463
éducation 463
needs 462
perhaps 462
size 462
termes 461
architecture 460
leave 460
sortes 460
droite 459
unique 459
ocean 458
particulier 458
plein 458
selon 458
Amérique 457
humaine 457
18 456
deal 456
voudrais 456
différent 455
parts 455
salle 455
sécurité 455
vite 455
produits 454
y@@ 454
Pas 453
cool 453
puisse 453
whatever 453
facile 452
systèmes 452
90 451
utilise 451
amount 450
difficult 450
scientifiques 449
âge 449
Par 448
eyes 448
black 447
cannot 444
mouvement 444
turned 444
étudiants 444
al 443
ants 443
ar@@ 443
chacun 443
/ 442
Do 442
combien 441
during 441
500 438
afin 438
fish 438
Yeah 436
équipe 436
a@@ 435
devenu 435
easy 435
feet 435
middle 435
Puis 434
dû 434
gone 434
scale 434
buy 433
Is 432
demander 431
interested 431
jeune 431
pensez 431
finalement 430
given 430
imaginer 430
physique 430
World 429
grow 429
rapport 429
began 427
programme 427
walk 424
doivent 423
villes 423
amour 422
machines 422
changed 421
p@@ 421
O@@ 420
eight 420
utilisé 420
contrôle 419
droit 419
maladie 419
ation 417
needed 417
bout 416
cost 416
seconde 416
tried 416
yourself 416
robots 414
based 413
heure 412
heureux 412
quickly 412
spend 412
allé 411
autant 411
zone 411
présent 410
sortir 410
week 410
nuit 409
étions 409
deuxième 408
longer 408
moitié 408
mondiale 408
livres 407
porte 407
J 406
espèce 406
im@@ 406
miles 406
DNA 405
changé 405
impression 405
vies 405
ADN 404
die 404
full 404
prend 404
Tu 403
pièce 403
simply 403
red 402
produire 401
relation 401
rest 401
importance 400
known 400
pensons 400
realized 400
ter 400
fonctionne 399
V@@ 398
solutions 398
behind 397
common 397
father 397
pouvais 397
Some 396
eat 396
normal 396
Right 395
h@@ 395
lire 395
powerful 395
semaines 395
Mars 394
People 394
carte 394
différente 394
filles 394
fond 394
hands 394
incredible 392
ais 391
bâtiment 390
shows 390
sitting 390
70 389
Ensuite 389
certaine 389
complex 389
semaine 389
ers 388
là-bas 388
mètres 388
raisons 388
ton 388
behavior 387
economic 387
espère 387
green 387
fun 386
nouveaux 386
propres 386
6 385
At 385
al@@ 385
ate 385
construit 385
ordinateurs 385
terme 385
derrière 384
entreprise 384
opportunity 383
Just 382
cities 382
comportement 382
construction 382
final 382
ts 382
weeks 382
feeling 381
program 381
write 381
croissance 380
starting 380
brought 379
espèces 379
media 379
perspective 379
poor 379
I@@ 378
centaines 378
essayé 378
pain 378
lost 377
spent 377
step 377
théorie 377
average 376
ing 376
Yes 375
humans 375
companies 374
mêmes 374
pourrions 374
audience 373
books 373
either 373
field 373
ice 373
objet 373
oh 373
écrire 373
ailleurs 372
ch@@ 372
economy 372
growing 372
team 372
viennent 372
tour 371
violence 371
gars 370
troisième 370
U.S. 369
di@@ 369
felt 369
objets 369
partager 369
travaille 369
an@@ 368
changes 368
disait 368
raconter 368
soleil 368
wrote 368
Not 367
born 367
laisser 367
ré@@ 367
avenir 366
réel 366
réseau 366
web 366
outils 365
soient 365
speak 365
valeur 365
pensent 364
phone 364
re 364
reality 364
ti@@ 364
u@@ 364
death 363
forces 363
domaine 362
océan 362
W@@ 361
developed 361
faisait 360
pourriez 360
résoudre 360
literally 359
matière 359
theory 359
trucs 359
ab@@ 358
communication 358
paper 358
résultat 358
nice 357
scientifique 357
vitesse 357
– 357
center 356
co@@ 356
l@@ 356
value 356
cut 355
aura 354
entreprises 354
faisant 354
friend 354
quantité 354
services 354
tes 354
watch 354
économique 354
challenge 353
parties 353
blue 352
dis@@ 352
forward 352
jeux 352
maladies 352
bottom 351
girl 351
giving 351
os 351
pay 351
résultats 351
support 351
taux 351
truc 351
To 350
expliquer 350
political 350
pourraient 350
vois 350
J@@ 349
areas 349
nombreuses 349
voix 349
wouldn 349
am@@ 348
intelligence 348
religion 348
étude 348
English 347
n@@ 347
short 347
Afghanistan 346
ad@@ 346
c@@ 346
conférence 346
formes 346
pétrole 346
16 345
evolution 345
ground 345
journée 345
nombreux 345
running 345
règles 345
zones 345
acheter 344
dimensions 344
développer 344
leaders 344
montré 344
premiers 344
sent 343
super 343
climate 342
individual 342
passion 342
ac@@ 341
mains 341
material 341
travaillé 341
growth 340
knows 340
parmi 340
réfléchir 340
scientists 340
allait 339
morning 339
playing 339
tendance 339
assis 338
fast 338
300 337
Can 337
Ici 337
discovered 337
era 337
notion 337
police 337
stage 337
utilisant 337
absolutely 336
f@@ 336
rendu 336
voyage 336
Etats-Unis 335
gives 335
ressources 335
seems 335
shape 335
tools 335
étant 335
map 334
white 334
faite 333
moral 333
sept 333
talked 333
South 332
projets 332
relationship 332
telling 332
understanding 332
knowledge 331
national 331
qualité 331
voulait 331
article 330
at@@ 330
begin 330
developing 330
er@@ 330
positive 330
sol 330
focus 329
période 329
modèles 328
bonnes 327
fini 327
tas 327
movement 326
blood 325
conversation 325
dark 325
fils 325
mauvais 325
thank 325
bi@@ 324
langage 324
physical 324
fly 323
instant 323
result 323
showed 323
tel 323
computers 322
incredibly 322
John 321
bras 321
girls 321
groupes 321
institutions 321
r@@ 321
classe 320
personal 320
venu 320
guess 319
haven 319
realize 319
voie 319
D 318
anyone 318
général 318
hold 318
li@@ 318
savent 318
scène 318
14 317
Après 317
matin 317
moments 317
ra@@ 317
réalisé 317
Qui 316
involved 316
sea 316
seront 316
24 315
extrêmement 315
issue 315
produce 315
rate 315
téléphone 315
8 314
atteindre 314
devrions 314
hundreds 314
m@@ 314
pourtant 314
rules 314
Ma 313
alone 313
arrière 313
becomes 313
bonheur 313
product 313
rend 313
Our 312
bons 312
deep 312
structures 312
clear 311
conscience 311
device 311
imagination 311
seem 311
allow 310
ante 310
baby 310
charge 310
crée 310
succès 310
cher 309
major 309
numbers 309
prise 309
voitures 309
In@@ 308
chercher 308
available 307
experiment 307
putting 307
visage 307
National 306
Re@@ 306
industry 306
key 306
pouvaient 306
color 305
creating 305
mine 305
prison 305
recently 305
confiance 304
content 304
poser 304
suivre 304
conception 303
v@@ 303
absolument 302
anybody 302
mauvaise 302
David 301
de@@ 301
films 301
mission 301
on@@ 301
reasons 301
vérité 301
accès 300
con@@ 300
contact 300
ed 300
meet 300
meilleurs 300
non-@@ 300
pauvres 300
stand 300
traitement 300
bureau 299
digital 299
distance 299
kid 299
lorsqu&apos; 299
manger 299
peine 299
save 299
études 299
cœur 298
génération 298
terrible 298
utilisent 298
z@@ 298
aren 297
chemin 297
generation 297
pictures 297
éléments 297
bigger 296
died 296
industrie 296
towards 296
À 296
$ 294
B 294
CO2 294
access 294
amp 294
approche 294
dead 294
lived 294
moyenne 294
série 294
vivent 294
box 293
couleur 293
glace 293
happiness 293
représente 293
ag@@ 292
especially 292
low 292
present 292
tiny 292
cars 291
crise 291
groups 291
nobody 291
18@@ 290
act 290
avion 290
designed 290
Richard 289
anglais 289
expériences 289
fil 289
fort 289
teach 289
L 288
effect 288
explain 288
lab 288
marcher 288
pages 288
particulièrement 288
rouge 288
el 287
obviously 287
revenir 287
solve 287
certainly 286
découvrir 286
effectivement 286
espoir 286
morceau 286
noir 286
rapide 286
Avec 285
Chinese 285
designers 285
or@@ 285
pensais 285
Look 284
climatique 284
object 284
par@@ 284
schools 284
7 283
Maybe 283
Peut-être 283
route 283
starts 283
vieux 283
Of 282
changing 282
drive 282
galaxies 282
issues 282
pattern 282
writing 282
active 281
asking 281
beyond 281
entrer 281
fear 281
lesquelles 281
lui-même 281
papier 281
perfect 281
recherches 281
uns 281
&amp; 280
resources 280
worth 280
ami 279
totalement 279
yes 279
écran 279
13 278
Web 278
West 278
activité 278
arrêter 278
mode 278
Ca 277
complexe 277
es@@ 277
h 277
réussi 277
vent 277
perdu 276
risque 276
récemment 276
special 276
ère 276
Ne 275
capables 275
development 275
justice 275
network 275
office 275
showing 275
w@@ 275
17 274
400 274
choice 274
entendre 274
extraordinaire 274
modern 274
prochaine 274
terrain 274
wants 274
appelée 272
k 272
measure 271
period 271
prenez 271
similar 271
sur@@ 271
walking 271
East 270
hit 270
led 270
lors 270
onto 270
relations 270
rester 270
rôle 270
sentiment 270
étape 270
étudier 270
changements 269
disant 269
huit 269
moved 269
potential 269
risk 269
send 269
soon 269
utilisons 269
3@@ 268
E 268
camera 268
hundred 268
littéralement 268
plants 268
suivante 268
écoles 268
2@@ 267
basic 267
dollar 267
materials 267
merveilleux 267
wall 267
Certains 266
First 266
dehors 266
deviennent 266
exciting 266
radio 266
scientific 266
Même 265
as@@ 265
dur 265
e-@@ 265
effort 265
favorite 265
liste 265
mur 265
possibilité 265
région 265
telle 265
Plus 264
Regardez 264
exemples 264
fall 264
pire 264
rue 264
secret 264
skin 264
Notre 263
Sud 263
directement 263
défi 263
incroyablement 263
langue 263
month 263
movie 263
pensée 263
Washington 262
merci 262
truth 262
By 261
ap@@ 261
approach 261
continuer 261
el@@ 261
extérieur 261
projects 261
quality 261
vraie 261
Don 260
croire 260
develop 260
further 260
games 260
several 260
Where 259
chiffres 259
cycle 259
développé 259
evidence 259
examples 259
intelligent 259
nine 259
totally 259
appareil 258
celui-ci 258
durant 258
expression 258
peau 258
plantes 258
sit 258
City 257
belle 257
doute 257
nuclear 257
particularly 257
wish 257
bunch 256
enfin 256
extraordinary 256
infrastructure 256
nation 256
reçu 256
sociétés 256
extremely 255
follow 255
hour 255
kilomètres 255
mass 255
online 255
surtout 255
êtres 255
agriculture 254
commencent 254
em@@ 254
eurs 254
everywhere 254
likely 254
ready 254
rencontré 254
software 254
street 254
tions 254
traiter 254
travaillent 254
cultures 253
eye 253
médicaments 253
speed 253
tôt 253
voice 253
wind 253
Einstein 252
activity 252
avère 252
disons 252
objects 252
politiques 252
total 252
u 252
Aujourd&apos; 251
Beaucoup 251
ations 251
beau 251
carbon 251
carbone 251
sorts 251
9 250
eur 250
named 250
puissance 250
2000 249
aspect 249
gènes 249
longue 249
matériaux 249
sounds 249
technique 249
thousand 249
vivant 249
connu 248
est-il 248
internet 248
intérêt 248
listen 248
security 248
sein 248
teacher 248
Most 247
capital 247
class 247
devait 247
serious 247
façons 246
lose 246
uniquement 246
Chaque 245
affaires 245
allowed 245
création 245
envoyer 245
ex@@ 245
gas 245
laboratoire 245
portable 245
sang 245
savais 245
screen 245
antes 244
biggest 244
break 244
celles 244
goal 244
influence 244
medical 244
notice 244
per@@ 244
protection 244
reach 244
African 243
MIT 243
San 243
Who 243
arbres 243
haute 243
permettre 243
pick 243
secondes 243
simples 243
solar 243
techniques 243
trees 243
wife 243
auparavant 242
connected 242
door 242
intéressante 242
loi 242
moyens 242
premières 242
stars 242
stay 242
success 242
ta 242
électricité 242
Which 241
biologie 241
da 241
ended 241
eventually 241
humanité 241
is@@ 241
masse 241
sites 241
spread 241
bo@@ 240
causes 240
complicated 240
dès 240
signal 240
solaire 240
strong 240
sun 240
tons 240
150 239
certainement 239
existence 239
fine 239
law 239
student 239
Con@@ 238
dites 238
faster 238
fonction 238
general 238
grew 238
inter@@ 238
record 238
rich 238
université 238
Every 237
apprentissage 237
biology 237
court 237
genes 237
international 237
teachers 237
tend 237
Big 236
TV 236
add 236
bébé 236
formation 236
journey 236
race 236
répondre 236
tree 236
Even 235
Nord 235
cellule 235
communities 235
higher 235
lead 235
self-@@ 235
supposed 235
tests 235
viens 235
Pendant 234
commun 234
essentiellement 234
expect 234
fire 234
forms 234
individus 234
late 234
road 234
vivons 234
étoiles 234
Car 233
U@@ 233
améliorer 233
mobile 233
révolution 233
somehow 233
suddenly 233
té 233
watching 233
écouter 233
Tous 232
bacteria 232
buildings 232
essentially 232
okay 232
pourrais 232
price 232
somewhere 232
HIV 231
cases 231
coeur 231
distribution 231
fabriquer 231
importantes 231
morts 231
pratique 231
réaliser 231
sociale 231
suppose 231
among 230
km 230
medicine 230
performance 230
amener 229
crazy 229
foot 229
former 229
gagner 229
models 229
shown 229
sociaux 229
standard 229
Quel 228
boy 228
concevoir 228
contexte 228
essayons 228
killed 228
lines 228
pieces 228
smart 228
celle-ci 227
finir 227
meant 227
mental 227
médias 227
pa@@ 227
respect 227
bizarre 226
chef 226
continent 226
response 226
retour 226
répondu 226
sex 226
soir 226
beings 225
connaissance 225
courant 225
fit 225
gaz 225
original 225
sell 225
surprise 225
visual 225
After 224
Are 224
Imaginez 224
ar 224
beauté 224
ciel 224
individuals 224
p 224
please 224
prennent 224
pull 224
´ 224
Life 223
aire 223
aurais 223
brains 223
commercial 223
excited 223
feu 223
fundamental 223
larger 223
liberté 223
list 223
products 223
series 223
tells 223
wait 223
above 222
central 222
démocratie 222
hospital 222
reading 222
results 222
ri@@ 222
ting 222
Ch@@ 221
allais 221
faible 221
fallait 221
note 221
pauvreté 221
slide 221
tent 221
tr@@ 221
Ar@@ 220
Là 220
North 220
Z@@ 220
demi 220
g 220
military 220
om@@ 220
pied 220
plant 220
sauver 220
smaller 220
suivant 220
ve 220
anti-@@ 219
hot 219
interest 219
j@@ 219
paix 219
revenu 219
standing 219
taught 219
ated 218
beauty 218
coût 218
largest 218
moi-même 218
regardé 218
successful 218
tool 218
trans@@ 218
transformer 218
usually 218
Times 217
actions 217
adore 217
erait 217
neuf 217
poverty 217
worse 217
written 217
a-t-il 216
bed 216
democracy 216
dix 216
listening 216
mourir 216
naturel 216
restaurant 216
touch 216
transformation 216
3D 215
alive 215
allows 215
clair 215
creative 215
experts 215
forth 215
arts 214
communautés 214
ine 214
libre 214
magazine 214
médecine 214
ouvert 214
physics 214
Très 213
ale 213
crisis 213
génial 213
imaginez 213
kill 213
organisation 213
safe 213
training 213
Al 212
coin 212
der 212
except 212
ro@@ 212
sciences 212
seconds 212
sources 212
vi@@ 212
vécu 212
X 211
kept 211
ordre 211
parti 211
poissons 211
qu@@ 211
évidemment 211
— 211
Bill 210
George 210
NASA 210
arm 210
budget 210
context 210
faits 210
genetic 210
lancer 210
observer 210
patterns 210
permis 210
professeur 210
recognize 210
tirer 210
N&apos; 209
Où 209
earlier 209
hôpital 209
indeed 209
older 209
personnel 209
potentiel 209
re-@@ 209
réseaux 209
si@@ 209
subject 209
température 209
tenir 209
truly 209
é@@ 209
Another 208
Hey 208
contenu 208
decisions 208
fantastic 208
pi@@ 208
revolution 208
role 208
temperature 208
uses 208
actuellement 207
ayant 207
camp 207
chanson 207
droits 207
drugs 207
essaye 207
lit 207
lower 207
massive 207
meaning 207
organismes 207
perception 207
réduire 207
Ah 206
Anderson 206
Kenya 206
condition 206
rise 206
réponses 206
sentir 206
store 206
tourner 206
upon 206
waste 206
Those 205
bus 205
date 205
healthy 205
nécessaire 205
souris 205
ted 205
town 205
verrez 205
wonder 205
99 204
Charles 204
Harvard 204
accident 204
ages 204
concerne 204
conduit 204
essaie 204
famous 204
finding 204
jobs 204
le@@ 204
océans 204
op@@ 204
opportunité 204
proche 204
skills 204
soins 204
style 204
traditional 204
trouvent 204
utilisation 204
35 203
600 203
Americans 203
Quelle 203
college 203
cuisine 203
décisions 203
facilement 203
faux 203
génétique 203
os@@ 203
song 203
voler 203
x 203
T 202
University 202
actual 202
anywhere 202
arrivent 202
au-delà 202
cartes 202
choose 202
crime 202
créativité 202
direct 202
greater 202
legs 202
milliard 202
moteur 202
origine 202
sh@@ 202
sérieux 202
tomber 202
walked 202
yeah 202
Combien 201
anyway 201
besoins 201
com@@ 201
critical 201
himself 201
it@@ 201
manque 201
region 201
t&apos; 201
therefore 201
vit 201
Lorsque 200
S&apos; 200
board 200
dance 200
draw 200
drug 200
ds 200
désormais 200
envers 200
following 200
invisible 200
magnifique 200
math 200
outil 200
plaisir 200
plastique 200
studies 200
Darwin 199
choisir 199
electricity 199
et@@ 199
increase 199
microbes 199
pieds 199
tu@@ 199
valeurs 199
Paul 198
dangerous 198
engineering 198
fi@@ 198
instrument 198
lesquels 198
lien 198
marketing 198
pièces 198
pose 198
pousser 198
pré@@ 198
sky 198
television 198
étrange 198
anymore 197
compagnie 197
connection 197
danger 197
exist 197
informatique 197
inventé 197
poisson 197
ating 196
doctor 196
dream 196
ement 196
expensive 196
range 196
1@@ 195
Y@@ 195
aspects 195
bactéries 195
including 195
né 195
puissent 195
slow 195
trust 195
vert 195
45 194
Like 194
Mar@@ 194
atteint 194
clearly 194
current 194
double 194
euse 194
evolved 194
habitude 194
oiseaux 194
ables 193
cortex 193
il@@ 193
intéresse 193
invented 193
levels 193
ma@@ 193
moderne 193
nations 193
organization 193
peace 193
voulaient 193
aid 192
aiment 192
complexité 192
dedans 192
discours 192
dog 192
décision 192
entrepreneurs 192
flying 192
instance 192
invention 192
payer 192
st@@ 192
strange 192
teaching 192
treatment 192
vote 192
website 192
War 191
blanc 191
campagne 191
clairement 191
clients 191
connect 191
faisaient 191
floor 191
gouvernements 191
immediately 191
nucléaire 191
shot 191
toi 191
Man 190
attendre 190
grandi 190
instruments 190
médecin 190
numérique 190
occasion 190
plastic 190
se@@ 190
4@@ 189
Facebook 189
R 189
allés 189
appelons 189
conference 189
destruction 189
ent@@ 189
numéro 189
objectif 189
passent 189
prenons 189
progrès 189
summer 189
survive 189
travel 189
Sur 188
appeler 188
bodies 188
car@@ 188
character 188
devraient 188
entièrement 188
immédiatement 188
limites 188
membres 188
parlons 188
particules 188
th@@ 188
throughout 188
75 187
London 187
becoming 187
ca@@ 187
creativity 187
decade 187
ir@@ 187
lancé 187
ni@@ 187
prêt 187
station 187
weren 187
auraient 186
costs 186
erreurs 186
familiar 186
interaction 186
noire 186
nord 186
oxygène 186
provide 186
présentation 186
sons 186
tri@@ 186
understood 186
various 186
voulu 186
Personne 185
Second 185
Two 185
affaire 185
hole 185
king 185
muscle 185
éviter 185
Iran 184
Toutes 184
bateau 184
ler 184
mise 184
parlent 184
poids 184
ran 184
rights 184
sorti 184
trouble 184
Pakistan 183
Twitter 183
With 183
ahead 183
ates 183
au-dessus 183
bois 183
driving 183
horrible 183
molécules 183
organisms 183
ou@@ 183
permettent 183
protéger 183
télévision 183
électrique 183
10,000 182
Michael 182
Ok 182
bébés 182
cou@@ 182
decision 182
donnent 182
dos 182
earth 182
f 182
flow 182
naissance 182
obvious 182
perdre 182
photograph 182
pouvions 182
présenter 182
sat 182
self 182
situations 182
soi 182
specific 182
surgery 182
trou 182
Islam 181
Your 181
although 181
atmosphère 181
durable 181
efficace 181
interface 181
meeting 181
po@@ 181
press 181
principe 181
protect 181
remarkable 181
sommet 181
Car@@ 180
arbre 180
argument 180
ball 180
cold 180
collective 180
concepts 180
familles 180
focused 180
tâche 180
useful 180
values 180
véritable 180
Imagine 179
chambre 179
choices 179
commençons 179
consommation 179
différences 179
découverte 179
effets 179
forte 179
ie 179
ol@@ 179
policy 179
sud 179
Iraq 178
Sh@@ 178
Western 178
Y 178
américain 178
armée 178
function 178
garder 178
heat 178
income 178
messages 178
mondial 178
ours 178
riches 178
seraient 178
su@@ 178
tableau 178
urban 178
.@@ 177
Francisco 177
ah 177
complexity 177
devais 177
directly 177
départ 177
explorer 177
importants 177
monter 177
oxygen 177
pression 177
responsabilité 177
rock 177
èrent 177
6@@ 176
De@@ 176
VIH 176
aviez 176
bleu 176
bord 176
bought 176
couleurs 176
magic 176
ra 176
rait 176
riche 176
rêve 176
adultes 175
américains 175
angle 175
ci@@ 175
compréhension 175
concentrer 175
conclusion 175
du@@ 175
played 175
possibly 175
produced 175
progress 175
satellite 175
square 175
stick 175
vendre 175
ver@@ 175
artistes 174
atmosphere 174
aware 174
clean 174
erreur 174
families 174
glass 174
graphique 174
lignes 174
lu 174
minds 174
notes 174
phénomène 174
regardant 174
revenus 174
task 174
track 174
tuer 174
whose 174
Nigeria 173
agir 173
babies 173
balance 173
challenges 173
derniers 173
disaient 173
enormous 173
environmental 173
essence 173
eux-mêmes 173
feed 173
freedom 173
mathématiques 173
near 173
net 173
passait 173
pressure 173
rare 173
religions 173
sauf 173
verre 173
volume 173
YouTube 172
au@@ 172
be@@ 172
complexes 172
consider 172
entière 172
fonctionner 172
humanity 172
mon@@ 172
mostly 172
naturelle 172
tradition 172
treat 172
zero 172
Al@@ 171
Indian 171
James 171
Los 171
alternative 171
carry 171
ez-vous 171
inspiration 171
ment 171
neurones 171
obtenez 171
path 171
polio 171
politics 171
practice 171
suit 171
sujets 171
tion 171
utile 171
waiting 171
élément 171
évolué 171
Laissez-moi 170
below 170
boys 170
capacity 170
chien 170
chimiques 170
collègues 170
devenue 170
explore 170
ons-nous 170
paid 170
phrase 170
pouvons-nous 170
private 170
quick 170
rule 170
sleep 170
tés 170
venait 170
Middle 169
biological 169
bouger 169
decide 169
efforts 169
extra 169
fuel 169
laisse 169
lois 169
majorité 169
networks 169
posé 169
vidéos 169
21 168
appel 168
applications 168
connaissez 168
est-à-dire 168
fantastique 168
financial 168
greatest 168
hors 168
laissé 168
mesurer 168
molecules 168
pe@@ 168
regardons 168
sign 168
suivi 168
vol 168
Canada 167
Cet 167
Chicago 167
discover 167
discussion 167
marchés 167
ner 167
possibilités 167
speaking 167
star 167
win 167
Dr. 166
application 166
bâtiments 166
connaissons 166
conçu 166
designer 166
diversité 166
définition 166
génome 166
ly 166
opinion 166
opération 166
pile 166
rythme 166
servir 166
twice 166
visible 166
z 166
Américains 165
clé 165
conflict 165
cultural 165
détails 165
eating 165
event 165
faisais 165
governments 165
journal 165
purpose 165
push 165
states 165
supply 165
toucher 165
télé 165
énormes 165
étudiant 165
California 164
Le@@ 164
Londres 164
Street 164
apart 164
apporter 164
armes 164
calcul 164
collaboration 164
côte 164
degrees 164
engagement 164
fight 164
pollution 164
quelles 164
seuls 164
tremendous 164
willing 164
élèves 164
Great 163
Steve 163
Think 163
alimentaire 163
auto-@@ 163
birds 163
cerveaux 163
créatures 163
drop 163
joue 163
match 163
ouvrir 163
publique 163
raise 163
stem 163
t-@@ 163
villages 163
AIDS 162
Deux 162
France 162
artist 162
avis 162
boîte 162
ca 162
chemical 162
closer 162
douleur 162
emotional 162
envie 162
experiments 162
gagné 162
genome 162
pensait 162
profondément 162
programs 162
puissant 162
s-@@ 162
straight 162
studio 162
transition 162
travaillons 162
Encore 161
Union 161
actuelle 161
bridge 161
café 161
chaîne 161
complete 161
conséquences 161
forget 161
leader 161
phase 161
profond 161
remarqué 161
weight 161
worry 161
élevé 161
2008 160
Californie 160
Today 160
ard 160
blog 160
cents 160
chinois 160
cover 160
célèbre 160
diseases 160
easily 160
effective 160
gotten 160
hasard 160
loved 160
matériel 160
montrent 160
possibility 160
programmes 160
règle 160
souviens 160
sustainable 160
venue 160
émissions 160
évident 160
7@@ 159
corruption 159
devoir 159
devriez 159
doctors 159
dés@@ 159
humaines 159
identité 159
ies 159
lights 159
niveaux 159
parfait 159
plans 159
pollen 159
prochaines 159
statistiques 159
19@@ 158
ance 158
choisi 158
dessous 158
forêt 158
garçons 158
grosse 158
logiciel 158
meilleures 158
none 158
ot@@ 158
rappelle 158
tiers 158
19 157
S 157
basis 157
connaître 157
contrôler 157
corner 157
inspired 157
over@@ 157
passage 157
preuve 157
trial 157
ves 157
œil 157
An@@ 156
From 156
dying 156
euses 156
funny 156
lieux 156
markets 156
marque 156
moindre 156
mouvements 156
planets 156
popular 156
rencontrer 156
shared 156
ue 156
zéro 156
Par@@ 155
artiste 155
av@@ 155
creatures 155
farmers 155
graph 155
malaria 155
médecins 155
particles 155
passant 155
responsibility 155
slightly 155
vide 155
émotions 155
Apple 154
Boston 154
Bush 154
achieve 154
answers 154
bar@@ 154
critique 154
differences 154
diversity 154
effects 154
exploration 154
jambes 154
merveilleuse 154
mettez 154
mom 154
neurons 154
parfaitement 154
pauvre 154
peuple 154
pouviez 154
sold 154
workers 154
aires 153
amène 153
américaine 153
artists 153
birth 153
br@@ 153
cor@@ 153
coûte 153
formidable 153
garçon 153
gene 153
hair 153
hearing 153
leadership 153
lie 153
logique 153
mortalité 153
mountain 153
pro@@ 153
prêts 153
r 153
seemed 153
ship 153
significant 153
suffisamment 153
worst 153
Thomas 152
and@@ 152
attack 152
avance 152
b 152
bits 152
bringing 152
carrière 152
communicate 152
creates 152
difficiles 152
déplacer 152
elements 152
els 152
eront 152
fairly 152
la@@ 152
memory 152
pass 152
porter 152
réaction 152
savait 152
search 152
secteur 152
um 152
Again 151
augmentation 151
career 151
ch 151
espaces 151
forest 151
fully 151
iPhone 151
ings 151
insectes 151
male 151
necessarily 151
plane 151
silence 151
En@@ 150
address 150
ai@@ 150
ajouter 150
ancient 150
chacune 150
chances 150
dimension 150
déchets 150
email 150
exposition 150
fl@@ 150
individu 150
planètes 150
principal 150
rues 150
shift 150
stade 150
équilibre 150
Di@@ 149
abeilles 149
ad 149
boat 149
bu@@ 149
devenus 149
enseignants 149
sculpture 149
sous-@@ 149
usine 149
DH 148
Many 148
colleagues 148
connaissent 148
contient 148
couche 148
devices 148
dirais 148
envoyé 148
institution 148
lettres 148
maths 148
mémoire 148
noticed 148
planning 148
prototype 148
risques 148
somme 148
tombe 148
Asie 147
Center 147
Instead 147
Japan 147
Parfois 147
Sun 147
auquel 147
bruit 147
champ 147
connais 147
daughter 147
decades 147
manières 147
mettent 147
ob@@ 147
pleine 147
ressemblent 147
scientist 147
sharing 147
stopped 147
titre 147
ul@@ 147
window 147
AB 146
Angeles 146
Public 146
augmenter 146
avancer 146
bar 146
bone 146
caméra 146
check 146
coffee 146
contraire 146
cu@@ 146
dizaines 146
doigts 146
feels 146
fix 146
foie 146
gr@@ 146
missing 146
médicament 146
produisent 146
published 146
reduce 146
regard 146
étudié 146
œuvre 146
Asia 145
aujourd 145
cadre 145
capacités 145
courbe 145
engage 145
entrée 145
grippe 145
helped 145
ins 145
presse 145
preuves 145
related 145
rural 145
sick 145
sing 145
trade 145
étiez 145
2005 144
95 144
BF 144
Mr. 144
Paris 144
Université 144
anti@@ 144
compliqué 144
fou 144
mauvaises 144
ous 144
rappeler 144
religious 144
sensation 144
societies 144
term 144
voient 144
Cependant 143
ancien 143
biologique 143
bread 143
figured 143
flu 143
helping 143
laws 143
maisons 143
montagne 143
profit 143
quartier 143
sequence 143
sorry 143
te@@ 143
Actually 142
Go 142
Good 142
His 142
Wikipedia 142
amené 142
appareils 142
arrivée 142
compétences 142
conflit 142
definition 142
differently 142
fasse 142
interact 142
iste 142
mar@@ 142
morale 142
musée 142
nous-mêmes 142
pont 142
précis 142
puisque 142
semblent 142
spending 142
streets 142
tive 142
versus 142
2004 141
Bang 141
Bible 141
Est 141
Japon 141
Quelqu&apos; 141
Son 141
Votre 141
acheté 141
appelait 141
augmente 141
caractéristiques 141
competition 141
fallu 141
fonctionnent 141
highly 141
ingénieurs 141
knowing 141
malgré 141
mille 141
mères 141
piano 141
quant 141
recent 141
souches 141
studying 141
throw 141
trained 141
usage 141
5@@ 140
French 140
allaient 140
bouche 140
classique 140
compare 140
danse 140
degree 140
débat 140
fabrication 140
ique 140
langues 140
lo@@ 140
parlait 140
ph@@ 140
plaît 140
principes 140
remarquable 140
x@@ 140
King 139
Microsoft 139
billions 139
caught 139
chair 139
elle-même 139
encourage 139
gar@@ 139
ions 139
lent 139
molecule 139
passed 139
possède 139
return 139
soin 139
turning 139
yellow 139
1,000 138
2007 138
Art 138
British 138
Dan 138
Institute 138
Very 138
accessible 138
afraid 138
ales 138
bl@@ 138
broken 138
commerce 138
dangereux 138
doigt 138
expert 138
mi@@ 138
mo@@ 138
oeil 138
personnage 138
prochain 138
présence 138
surfaces 138
survivre 138
ter@@ 138
tissue 138
Se@@ 137
Wow 137
boulot 137
communiquer 137
due 137
dynamique 137
désir 137
explosion 137
molécule 137
morceaux 137
o-@@ 137
président 137
radiation 137
régions 137
slowly 137
text 137
tissu 137
trouvez 137
typical 137
27 136
Mo@@ 136
agent 136
allée 136
assurer 136
benefits 136
chaleur 136
chaud 136
consiste 136
coté 136
dents 136
dinosaures 136
dirait 136
directions 136
fashion 136
holding 136
héros 136
intelligents 136
laser 136
membre 136
mouth 136
opened 136
option 136
options 136
populaire 136
populations 136
protéines 136
responsable 136
revient 136
septembre 136
sombre 136
suffering 136
téléphones 136
vin 136
visit 136
22 135
8@@ 135
Nos 135
Robert 135
apply 135
background 135
bird 135
calls 135
capture 135
describe 135
décider 135
emploi 135
female 135
for@@ 135
fournir 135
portables 135
présente 135
queue 135
sou@@ 135
transport 135
ur@@ 135
visite 135
250 134
An 134
Ma@@ 134
SIDA 134
apprennent 134
articles 134
brings 134
courage 134
ence 134
engineers 134
fera 134
fonds 134
heads 134
landscape 134
organizations 134
quels 134
rencontre 134
sudden 134
Li@@ 133
Oxford 133
Pro@@ 133
altitude 133
arrivés 133
changent 133
conférences 133
décrire 133
ends 133
flight 133
flux 133
gang 133
incroyables 133
intuition 133
joie 133
jump 133
mile 133
motivation 133
mu@@ 133
nearly 133
negative 133
noise 133
opportunities 133
party 133
propriété 133
quote 133
rent 133
ser@@ 133
stable 133
île 133
9@@ 132
Audience 132
Avant 132
Obama 132
brand 132
cheap 132
colors 132
différemment 132
faces 132
finished 132
forever 132
hier 132
loss 132
man@@ 132
mettons 132
muscles 132
obtenu 132
statistics 132
Depuis 131
Everybody 131
M. 131
Mes 131
Nobel 131
ain 131
amusant 131
colère 131
davantage 131
demandez 131
employés 131
entirely 131
essentiel 131
events 131
froid 131
gérer 131
identity 131
languages 131
lever 131
meat 131
organic 131
perte 131
principalement 131
publié 131
sortie 131
trouvons 131
23 130
65 130
Dr 130
More 130
Nations 130
Valley 130
agree 130
aurons 130
chercheurs 130
connecter 130
connections 130
dense 130
discovery 130
enter 130
faim 130
ferme 130
globe 130
helps 130
innovations 130
intense 130
ise 130
isme 130
méthode 130
noirs 130
painting 130
phenomenon 130
pure 130
rentrer 130
stuck 130
talks 130
viande 130
RB 129
analyse 129
card 129
client 129
concerned 129
desire 129
dessin 129
disponible 129
enseignement 129
essais 129
finger 129
galaxie 129
golf 129
industrial 129
lentement 129
moon 129
necessary 129
proches 129
relationships 129
retourner 129
similaire 129
stress 129
sub@@ 129
séquence 129
us@@ 129
vaut 129
venez 129
warming 129
wisdom 129
états 129
P 128
Thanks 128
all@@ 128
block 128
co-@@ 128
damage 128
domaines 128
ec@@ 128
engine 128
importantly 128
jouent 128
leading 128
lucky 128
meters 128
meurent 128
micro@@ 128
mor@@ 128
museum 128
nourrir 128
organisations 128
phones 128
profonde 128
ressentir 128
référence 128
régime 128
sagesse 128
shoes 128
tube 128
venus 128
virtual 128
équivalent 128
Bi@@ 127
Hé 127
Science 127
Sometimes 127
Take 127
cardiaque 127
charbon 127
circle 127
citoyens 127
civil 127
civilization 127
clip 127
conduire 127
core 127
degrés 127
enjoy 127
everyday 127
evolutionary 127
galaxy 127
letter 127
mal@@ 127
neighborhood 127
opposite 127
separate 127
sert 127
tester 127
tient 127
utilisée 127
vast 127
volonté 127
2,000 126
Once 126
Rwanda 126
See 126
Stanford 126
adults 126
apprend 126
benefit 126
ble 126
blind 126
citizens 126
cognitive 126
easier 126
eaux 126
end@@ 126
equivalent 126
exact 126
failed 126
immense 126
intéressé 126
join 126
leads 126
murs 126
nommé 126
oceans 126
principale 126
responsible 126
ultimately 126
walls 126
G 125
Rien 125
circuit 125
civilisation 125
compared 125
dad 125
electric 125
grand-mère 125
gu@@ 125
ha 125
illusion 125
liens 125
magie 125
matériau 125
mouse 125
observation 125
perfectly 125
prises 125
report 125
rid 125
scanner 125
sister 125
sport 125
steps 125
32 124
Bo@@ 124
Did 124
Ghana 124
Irak 124
Juste 124
ayons 124
bou@@ 124
breast 124
catch 124
convaincre 124
correspond 124
disais 124
défis 124
efficient 124
enfance 124
failure 124
fighting 124
fourmis 124
ines 124
mener 124
motion 124
précisément 124
puissante 124
radical 124
sauce 124
super@@ 124
terres 124
traverser 124
unfortunately 124
wearing 124
Ex@@ 123
Mon@@ 123
airplane 123
animation 123
begins 123
blogs 123
brilliant 123
comportements 123
connaissances 123
dépend 123
engineer 123
enseigner 123
fer@@ 123
frère 123
grain 123
hi@@ 123
improve 123
lecture 123
là-dessus 123
operating 123
organes 123
ps 123
sociales 123
tez 123
trous 123
tué 123
whom 123
Everything 122
Homme 122
addition 122
brother 122
childhood 122
complet 122
connexion 122
disponibles 122
drawing 122
durée 122
désert 122
experiences 122
fenêtre 122
laissez-moi 122
lettre 122
mathematics 122
microscope 122
mothers 122
moves 122
occuper 122
park 122
parking 122
paysage 122
principle 122
random 122
saving 122
soldats 122
transmission 122
weapons 122
.com 121
Co@@ 121
affect 121
attitude 121
believed 121
climat 121
comprend 121
consciousness 121
continué 121
emotions 121
fields 121
ge 121
interactions 121
investissement 121
leaving 121
ley 121
moment-là 121
noms 121
offer 121
origami 121
rain 121
recevoir 121
soil 121
thinks 121
tée 121
utilisés 121
weird 121
échec 121
Ben 120
Grand 120
Mexico 120
afford 120
aimons 120
ba@@ 120
basé 120
chaussures 120
clinique 120
conséquent 120
exists 120
fascinating 120
finance 120
hopefully 120
insects 120
location 120
née 120
oc@@ 120
profound 120
représentent 120
simulation 120
spaces 120
theater 120
ver 120
2009 119
Angleterre 119
Anyway 119
Me@@ 119
ancienne 119
bande 119
bees 119
cercle 119
correctement 119
créent 119
essayez 119
expansion 119
explique 119
générations 119
ha@@ 119
held 119
intéressantes 119
mariage 119
ot 119
parent 119
pensées 119
quitté 119
raised 119
réelle 119
shouldn 119
signaux 119
singes 119
stratégie 119
ten@@ 119
tourne 119
via 119
yesterday 119
° 119
écriture 119
26 118
Each 118
Rome 118
aging 118
aise 118
ateur 118
auront 118
chiffre 118
classes 118
comprennent 118
considérer 118
demain 118
décennies 118
existent 118
ferait 118
foreign 118
ill@@ 118
lack 118
limite 118
members 118
normally 118
obtient 118
otherwise 118
partage 118
pounds 118
pourra 118
principles 118
puzzle 118
pêche 118
ques 118
seat 118
section 118
soldiers 118
soutenir 118
spectacle 118
spirit 118
survie 118
survival 118
transform 118
treated 118
viruses 118
vrais 118
Hollywood 117
Manhattan 117
Nature 117
Women 117
ang@@ 117
avez-vous 117
bientôt 117
composants 117
correct 117
creation 117
desert 117
despite 117
devrais 117
empêcher 117
factory 117
giant 117
joy 117
maintenir 117
menace 117
metal 117
multiple 117
pointe 117
predict 117
rendent 117
requins 117
ressembler 117
richesse 117
réchauffement 117
réduit 117
signals 117
ss@@ 117
terminer 117
écoute 117
1990 116
Would 116
X@@ 116
account 116
advantage 116
argue 116
arms 116
che 116
count 116
edge 116
ens 116
grandmother 116
hell 116
ing@@ 116
invited 116
link 116
légèrement 116
managed 116
mis@@ 116
movies 116
nulle 116
personnelle 116
pu@@ 116
sexe 116
spot 116
studied 116
suffit 116
tiens 116
touche 116
trip 116
vieille 116
wild 116
worried 116
électriques 116
2001 115
Mc@@ 115
Three 115
bouteille 115
cheveux 115
collection 115
commencez 115
conflits 115
conversations 115
designing 115
dessiner 115
driven 115
emplois 115
extrait 115
holes 115
iez 115
investment 115
labo 115
lesson 115
lycée 115
names 115
pl@@ 115
possibles 115
prevent 115
producing 115
protein 115
raconte 115
represent 115
res 115
rêves 115
semblait 115
speech 115
ters 115
tough 115
vehicle 115
vélo 115
économiques 115
Bronx 114
Come 114
Mexique 114
Moore 114
Over 114
Ro@@ 114
acte 114
adult 114
appear 114
arrête 114
artificial 114
aurions 114
avantage 114
ayez 114
bank 114
chemistry 114
debout 114
demandent 114
described 114
dinosaurs 114
directeur 114
efficacité 114
electrical 114
esprits 114
feedback 114
ger 114
honte 114
istes 114
leçon 114
malheureusement 114
montagnes 114
orange 114
organisme 114
productive 114
professeurs 114
regardent 114
sable 114
tens 114
to@@ 114
tonnes 114
voulions 114
épidémie 114
1000 113
2006 113
II 113
Japanese 113
ban@@ 113
bien-être 113
cherche 113
closed 113
cr@@ 113
décrit 113
déjeuner 113
ents 113
filled 113
ge@@ 113
hate 113
island 113
joueurs 113
joué 113
locaux 113
lu@@ 113
matters 113
opportunités 113
participer 113
picked 113
pierre 113
pre@@ 113
700 112
Be@@ 112
Du 112
KB 112
Pensez 112
Tom 112
als 112
arrived 112
axe 112
bases 112
businesses 112
constantly 112
copy 112
croyons 112
deliver 112
dinner 112
emmener 112
fer 112
followed 112
football 112
fourth 112
habitat 112
harder 112
kilometers 112
mentioned 112
métaphore 112
players 112
professional 112
repas 112
roll 112
résolution 112
seriously 112
telles 112
wave 112
électronique 112
800 111
Enfin 111
However 111
chemicals 111
chimie 111
circulation 111
covered 111
dieu 111
découvertes 111
eraient 111
feelings 111
frontières 111
generations 111
gravité 111
husband 111
identifier 111
implications 111
independent 111
instructions 111
labor 111
largement 111
legal 111
letters 111
losing 111
management 111
nes 111
nez 111
ordinary 111
ouvre 111
particulière 111
pen@@ 111
puissions 111
restaurants 111
retrouver 111
roughly 111
so@@ 111
stone 111
texte 111
threat 111
tomorrow 111
vouloir 111
wealth 111
énormément 111
.. 110
Certaines 110
European 110
Have 110
School 110
administration 110
adulte 110
breath 110
campaign 110
chaos 110
currently 110
côtés 110
dynamic 110
gras 110
générale 110
id@@ 110
ingénierie 110
jardin 110
mari 110
metaphor 110
monte 110
offrir 110
passés 110
pleasure 110
property 110
ren@@ 110
respond 110
scene 110
session 110
shapes 110
sugar 110
teeth 110
unité 110
équipement 110
Gore 109
Please 109
anciens 109
arrêté 109
ass@@ 109
battre 109
bear 109
consequences 109
deeply 109
empty 109
ey 109
grown 109
généralement 109
hadn 109
ks 109
lumières 109
lunch 109
marine 109
nationale 109
normale 109
paying 109
pluie 109
positif 109
possibilities 109
proud 109
row 109
sentiments 109
soie 109
toward 109
tumor 109
universal 109
unless 109
étapes 109
17@@ 108
1960 108
Au@@ 108
Vi@@ 108
accidents 108
auxquels 108
classroom 108
communications 108
concernant 108
constamment 108
dealing 108
décennie 108
equipment 108
fier 108
fu@@ 108
layer 108
leaves 108
married 108
publicité 108
relative 108
rouges 108
sharks 108
surprising 108
tail 108
tape 108
vivants 108
wear 108
20@@ 107
Britain 107
England 107
Per@@ 107
Permettez-moi 107
alimentation 107
associated 107
avoid 107
beat 107
bio@@ 107
chimique 107
coast 107
conseil 107
coral 107
debate 107
devaient 107
drink 107
drôle 107
enne 107
eu@@ 107
exception 107
extreme 107
folks 107
highest 107
hu@@ 107
ig@@ 107
internationale 107
jaune 107
keeping 107
ker 107
laissez 107
lait 107
magasin 107
malade 107
observe 107
ok 107
parfaite 107
player 107
portée 107
représentation 107
réussite 107
soyez 107
tra@@ 107
tumeur 107
unes 107
vaste 107
victimes 107
vis 107
vêtements 107
100,000 106
120 106
Malheureusement 106
Pourtant 106
ach@@ 106
activités 106
agents 106
attaque 106
auriez 106
bright 106
cameras 106
can@@ 106
carré 106
caused 106
demand 106
dreams 106
essayant 106
fabriqué 106
glamour 106
ic@@ 106
liquide 106
me@@ 106
mentale 106
ne@@ 106
offre 106
pousse 106
promise 106
rates 106
represents 106
river 106
round 106
sand 106
signe 106
soutien 106
stood 106
strategy 106
sucre 106
suggest 106
super-@@ 106
tables 106
tort 106
traditions 106
ty 106
violent 106
wood 106
étranger 106
2003 105
Congo 105
Gu@@ 105
Howard 105
Jo@@ 105
Martin 105
Occident 105
Su@@ 105
absence 105
battery 105
characters 105
chirurgie 105
collect 105
compagnies 105
comprends 105
concentration 105
efficaces 105
essai 105
ff@@ 105
hydrogène 105
invest 105
journaux 105
launched 105
leg 105
majority 105
medium 105
nervous 105
obstacles 105
quatrième 105
resource 105
tels 105
tenter 105
testing 105
travaillant 105
verte 105
weather 105
Soleil 104
Texas 104
absolute 104
belief 104
bottle 104
cl@@ 104
considère 104
crucial 104
description 104
details 104
ding 104
fat 104
finish 104
gain 104
guerres 104
ho@@ 104
inner 104
intérêts 104
min@@ 104
mistakes 104
motif 104
nouvel 104
positions 104
processes 104
ressemblait 104
sentence 104
spoke 104
stupid 104
sélection 104
thème 104
traffic 104
ture 104
university 104
venant 104
ét@@ 104
étoile 104
2010 103
Cambridge 103
M 103
Ouais 103
Their 103
actuel 103
aurez 103
boite 103
chain 103
cloud 103
compétition 103
curious 103
d-@@ 103
document 103
dots 103
dr@@ 103
emerging 103
fell 103
fold 103
forment 103
hasn 103
hydrogen 103
introduced 103
jeter 103
objectifs 103
organized 103
ors 103
pair 103
president 103
quitter 103
reconnaître 103
reward 103
shop 103
spectrum 103
target 103
ve@@ 103
20th 102
5,000 102
Royaume-Uni 102
according 102
appellent 102
atomes 102
ber@@ 102
biens 102
cancers 102
charges 102
comprenons 102
detail 102
dure 102
exercise 102
exprimer 102
fondamentalement 102
fresh 102
fusion 102
gravity 102
intervention 102
lié 102
mortality 102
mélange 102
oiseau 102
pensaient 102
photographs 102
physiques 102
remote 102
ride 102
récompense 102
sac 102
serez 102
siège 102
syndrome 102
sûrement 102
ten 102
utilisateurs 102
É@@ 102
étonnant 102
Bonjour 101
Island 101
President 101
Toute 101
affected 101
analysis 101
ancêtres 101
artistique 101
autrement 101
awful 101
bibliothèque 101
calling 101
centres 101
chefs 101
cheval 101
disaster 101
disparu 101
déterminer 101
economics 101
essential 101
extinction 101
feuille 101
historique 101
initiative 101
killing 101
lies 101
maman 101
musical 101
normalement 101
opening 101
peut-on 101
plat 101
plate 101
rés 101
saved 101
sector 101
serve 101
solved 101
spécial 101
standards 101
stream 101
technical 101
theme 101
wine 101
Israel 100
Trois 100
accept 100
agissait 100
ay@@ 100
carefully 100
ches 100
chute 100
combinaison 100
consommateurs 100
consumption 100
croient 100
descendre 100
dirigeants 100
dry 100
equal 100
fondamentale 100
gène 100
har@@ 100
increasing 100
interview 100
isé 100
long-term 100
longueur 100
là-dedans 100
master 100
north 100
propose 100
rats 100
rivière 100
rées 100
réunion 100
safety 100
selling 100
silk 100
spectre 100
théâtre 100
y-@@ 100
Bank 99
Bu@@ 99
Long 99
Ne@@ 99
Pacific 99
Sa 99
Six 99
adapter 99
aimer 99
automobile 99
ballon 99
buying 99
celui-là 99
conclure 99
couverture 99
daily 99
ded 99
define 99
display 99
effectively 99
emissions 99
ente 99
facing 99
facteurs 99
figures 99
generate 99
honest 99
intention 99
limited 99
lune 99
newspaper 99
no@@ 99
organs 99
ouverture 99
participation 99
rapidly 99
regret 99
rou@@ 99
sandwich 99
sides 99
sphère 99
string 99
sérieusement 99
terminé 99
tie 99
travaux 99
tâches 99
utilisez 99
valuable 99
vous-même 99
Ap@@ 98
acting 98
ateurs 98
batterie 98
champs 98
computing 98
curve 98
cycles 98
der@@ 98
donnez 98
ements 98
erai 98
fonctions 98
fr@@ 98
globale 98
grade 98
high-@@ 98
intellectual 98
men@@ 98
parc 98
photographie 98
prends 98
primary 98
rassembler 98
rée 98
triste 98
variety 98
visuel 98
véhicules 98
For@@ 97
Time 97
cependant 97
chimpanzés 97
complète 97
considered 97
constant 97
coûts 97
extraordinaires 97
factor 97
faith 97
fill 97
goût 97
grave 97
infection 97
introduce 97
molecular 97
mécanique 97
ness 97
organiser 97
quelqu 97
rayons 97
sc@@ 97
schéma 97
steel 97
thoughts 97
tsunami 97
underneath 97
variation 97
visages 97
véhicule 97
waves 97
O 96
Park 96
U.N. 96
apporté 96
auprès 96
beaux 96
belles 96
chromosome 96
cour@@ 96
croyez 96
definitely 96
engager 96
ette 96
evil 96
fellow 96
flat 96
formed 96
frais 96
frères 96
generally 96
hauteur 96
heavy 96
horse 96
industries 96
liked 96
longues 96
moteurs 96
opérations 96
organism 96
pause 96
personally 96
probable 96
présenté 96
quasiment 96
reproduction 96
requires 96
ridicule 96
sad 96
soudain 96
south 96
substance 96
swim 96
transforme 96
videos 96
wire 96
3,000 95
Does 95
JH 95
SW 95
U.K. 95
appliquer 95
auteur 95
cité 95
combat 95
combine 95
concert 95
courte 95
entends 95
entrepreneur 95
environments 95
fiction 95
graduate 95
habitants 95
he@@ 95
hidden 95
ille 95
manage 95
micro-@@ 95
métal 95
oeuvre 95
ordinaire 95
ouverte 95
partner 95
pe 95
relativement 95
retraite 95
retrouve 95
ring 95
réflexion 95
specifically 95
status 95
th 95
tic 95
toit 95
unit 95
wide 95
winter 95
échange 95
85 94
Feynman 94
Mark 94
Project 94
a-@@ 94
attend 94
baisse 94
bleue 94
broke 94
ce@@ 94
discipline 94
donnée 94
employees 94
experienced 94
fan 94
fruits 94
gap 94
génétiques 94
implique 94
investir 94
invite 94
lady 94
lifetime 94
maximum 94
parlez 94
personnages 94
port 94
pourcentage 94
proposition 94
puts 94
reaction 94
relatively 94
sal@@ 94
setting 94
spécifique 94
struggle 94
supplémentaires 94
switch 94
tandis 94
transparent 94
utilisées 94
vaccine 94
ven@@ 94
voisins 94
ères 94
Ad@@ 93
H 93
Homo 93
Jusqu&apos; 93
Last 93
MS 93
Me 93
Or@@ 93
Quoi 93
St@@ 93
carrying 93
comfortable 93
components 93
continents 93
courir 93
creature 93
excellent 93
exchange 93
exploitation 93
exposé 93
facteur 93
fondamental 93
grandir 93
grid 93
hits 93
infected 93
interests 93
iser 93
motor 93
movements 93
og@@ 93
out@@ 93
parole 93
platform 93
pop 93
pos@@ 93
print 93
processing 93
proportion 93
proteins 93
prouver 93
prove 93
raient 93
rat 93
res@@ 93
restent 93
ru@@ 93
shark 93
swimming 93
sympa 93
tension 93
worlds 93
Bob 92
Frank 92
Hu@@ 92
Leur 92
Peu 92
Prenez 92
Sans 92
Th@@ 92
aborder 92
added 92
anniversaire 92
ars 92
atoms 92
basée 92
centaine 92
clinical 92
combination 92
convince 92
cooking 92
degré 92
dent 92
dessins 92
explication 92
farm 92
forced 92
gestion 92
go@@ 92
heureuse 92
hiver 92
identify 92
increasingly 92
inspiré 92
magique 92
mets 92
mistake 92
one-@@ 92
parlant 92
pingouins 92
pre-@@ 92
presentation 92
ramener 92
records 92
responsables 92
sets 92
similaires 92
souffrance 92
spatial 92
sunlight 92
surpris 92
technologique 92
trick 92
venons 92
worldwide 92
zoom 92
éthique 92
&apos;@@ 91
Moi 91
Quelques 91
Voyons 91
Wall 91
aliments 91
architecte 91
boring 91
club 91
conséquence 91
convinced 91
cricket 91
devions 91
diet 91
dispositif 91
eh 91
emotion 91
epidemic 91
erie 91
express 91
extraire 91
gl@@ 91
gold 91
initial 91
installation 91
joke 91
ky 91
logo 91
nécessaires 91
nés 91
partenaires 91
permission 91
poche 91
poly@@ 91
practical 91
pulled 91
regular 91
sion 91
smell 91
stations 91
suivent 91
surprised 91
tente 91
tique 91
traitements 91
users 91
watched 91
ya 91
ème 91
1950 90
29 90
33 90
Ceux 90
Delhi 90
Fi@@ 90
Foundation 90
State 90
attraper 90
bataille 90
catastrophe 90
chicken 90
créature 90
dialogue 90
do@@ 90
erons 90
ess@@ 90
falling 90
fingers 90
foi 90
foundation 90
fraction 90
hall 90
ic 90
ina 90
ins@@ 90
laptop 90
lets 90
marriage 90
masses 90
mention 90
minimum 90
multi-@@ 90
mène 90
peak 90
pensions 90
previous 90
profondeur 90
quantités 90
riez 90
risks 90
sending 90
shaped 90
solide 90
vague 90
year-old 90
établir 90
28 89
55 89
Pacifique 89
Tony 89
Vietnam 89
advanced 89
allant 89
attaquer 89
aveugle 89
ay 89
bomb 89
centrale 89
chat 89
circuits 89
citation 89
climb 89
coal 89
compter 89
créée 89
defined 89
driver 89
déplace 89
expected 89
fail 89
fair 89
fascinant 89
fishing 89
fleurs 89
fossil 89
fossiles 89
goods 89
génie 89
homes 89
ingénieur 89
iques 89
ity 89
liquid 89
mines 89
mirror 89
naturally 89
neighbors 89
occurred 89
ouest 89
passée 89
penguins 89
pot 89
poésie 89
probabilité 89
procédé 89
provient 89
received 89
rire 89
réparer 89
secrets 89
tait 89
talent 89
tourné 89
variations 89
wing 89
wondering 89
émission 89
évoluer 89
15@@ 88
Adam 88
Bar@@ 88
Cor@@ 88
Deuxièmement 88
Mondiale 88
Monterey 88
Ray 88
accepter 88
aidé 88
ances 88
architect 88
balle 88
banque 88
centers 88
click 88
consumer 88
credit 88
dy 88
ears 88
entertainment 88
error 88
expressions 88
fewer 88
forcément 88
furent 88
garde 88
gentlemen 88
gra@@ 88
horizon 88
keeps 88
lutte 88
là-haut 88
magnifiques 88
majeure 88
maps 88
mesures 88
montrant 88
multi@@ 88
nombres 88
operation 88
paint 88
panneaux 88
placer 88
release 88
remplacer 88
researchers 88
sample 88
scan 88
selection 88
souvenir 88
voices 88
whenever 88
énergétique 88
0@@ 87
Brésil 87
Finalement 87
GDP 87
Germany 87
He@@ 87
Premièrement 87
Qu@@ 87
Shanghai 87
aident 87
amoureux 87
applied 87
avons-nous 87
baleines 87
batteries 87
chiens 87
connaît 87
controlled 87
copyright 87
créons 87
dogs 87
efficiency 87
fin@@ 87
fréquence 87
interagir 87
ke@@ 87
ked 87
kitchen 87
mathematical 87
mer@@ 87
method 87
militaires 87
modernes 87
médical 87
naturellement 87
nets 87
ought 87
pan@@ 87
panneau 87
pr@@ 87
protected 87
psychologie 87
quiet 87
réussir 87
souhaite 87
stupide 87
technological 87
three-dimensional 87
tiques 87
tire 87
totale 87
touché 87
typically 87
unusual 87
vertical 87
warm 87
è@@ 87
10@@ 86
2002 86
Ford 86
Muslim 86
PIB 86
White 86
admit 86
agréable 86
ancestors 86
ards 86
burning 86
cal@@ 86
conservation 86
dies 86
donnant 86
dropped 86
débarrasser 86
définir 86
essayent 86
explanation 86
foule 86
foyer 86
houses 86
hypothèse 86
industrielle 86
intégrer 86
liés 86
mené 86
miracle 86
mondes 86
mountains 86
mètre 86
odd 86
oreilles 86
partis 86
percentage 86
prepared 86
profits 86
quantum 86
quelques-uns 86
rec@@ 86
roof 86
singing 86
skill 86
smile 86
staff 86
tissus 86
tombé 86
ultimate 86
véritablement 86
échantillons 86
étendre 86
Brazil 85
Her@@ 85
Jim 85
Johnson 85
LG 85
Mu@@ 85
Museum 85
PM 85
Peter 85
USA 85
alité 85
aperçu 85
appropriate 85
architectes 85
attempt 85
bal@@ 85
blocks 85
boxes 85
burn 85
cards 85
chromosomes 85
civile 85
crash 85
crowd 85
depends 85
diriger 85
distances 85
factors 85
falls 85
framework 85
guide 85
honor 85
héritage 85
ically 85
infantile 85
input 85
jambe 85
lay 85
neige 85
nécessairement 85
participants 85
prédire 85
requin 85
require 85
rez 85
runs 85
récupérer 85
savions 85
shoot 85
signs 85
solid 85
ste@@ 85
strength 85
talents 85
toile 85
tours 85
traditionnelle 85
transmettre 85
traveling 85
user 85
voyager 85
wake 85
wars 85
21st 84
Ac@@ 84
Aussi 84
International 84
Jack 84
Pouvez-vous 84
September 84
afternoon 84
ator 84
attirer 84
branches 84
camps 84
collision 84
colonies 84
cordes 84
couches 84
cra@@ 84
discussions 84
dépenser 84
dépression 84
détecter 84
element 84
espérons 84
ettes 84
excitant 84
existing 84
explained 84
facts 84
faudrait 84
fonctionnement 84
forêts 84
garage 84
gift 84
graines 84
hoping 84
nerveux 84
ots 84
politicians 84
pré-@@ 84
psychology 84
puissiez 84
quiconque 84
rage 84
reached 84
relevant 84
remonte 84
reproduire 84
rer 84
rooms 84
sortent 84
sphere 84
split 84
st 84
title 84
trillion 84
visuelle 84
“ 84
… 84
Also 83
Basically 83
Could 83
Five 83
Hong 83
Mor@@ 83
acier 83
ali@@ 83
ari@@ 83
audio 83
auxquelles 83
blancs 83
bones 83
cer@@ 83
collapse 83
comp@@ 83
connait 83
connecté 83
continued 83
decline 83
deeper 83
den@@ 83
di 83
dic@@ 83
docteur 83
ecosystem 83
eggs 83
form@@ 83
fragile 83
handle 83
huile 83
hôtel 83
inspire 83
invité 83
lessons 83
library 83
lé 83
ministre 83
motifs 83
mécanisme 83
ooh 83
orbite 83
oublié 83
pairs 83
pattes 83
personnalité 83
pilote 83
post-@@ 83
pourrez 83
pratiquement 83
reference 83
relate 83
reverse 83
surprenant 83
tea 83
trace 83
vaccin 83
vendu 83
vulnerable 83
vérifier 83
w 83
16@@ 82
48 82
Allemagne 82
Guerre 82
abstract 82
accent 82
acteurs 82
activities 82
adoption 82
ally 82
amie 82
avantages 82
bactérie 82
bars 82
basse 82
blanche 82
cable 82
chanter 82
cinéma 82
comprenez 82
cross 82
cutting 82
donnait 82
engaged 82
ets 82
evolve 82
fa@@ 82
flowers 82
gen@@ 82
hero 82
hey 82
hôpitaux 82
ia 82
inventer 82
ka 82
length 82
mange 82
measured 82
nose 82
ombre 82
organ 82
profondes 82
replace 82
rons 82
routes 82
ré 82
sale 82
sees 82
senses 82
sions 82
tag 82
taste 82
traite 82
trials 82
tubes 82
um@@ 82
up@@ 82
vaisseaux 82
vues 82
60s 81
About 81
Australia 81
Com@@ 81
N 81
Shakespeare 81
acts 81
aff@@ 81
al-@@ 81
augmenté 81
bureaux 81
corail 81
democratic 81
disparaître 81
documents 81
détruire 81
famine 81
garden 81
ill 81
impacts 81
installations 81
lions 81
médicale 81
médicaux 81
nuage 81
onde 81
participate 81
passe-t-il 81
properties 81
propriétés 81
rel@@ 81
remettre 81
représenter 81
résistance 81
résolu 81
sensitive 81
signature 81
suicide 81
therapy 81
unknown 81
utiles 81
venaient 81
événement 81
” 81
Abraham 80
F 80
Gulf 80
Her 80
Nobody 80
Noël 80
Red 80
Video 80
africains 80
apparemment 80
architectural 80
behaviors 80
calculs 80
circumstances 80
col@@ 80
cru 80
dancing 80
densité 80
dramatic 80
dés 80
empathie 80
equation 80
français 80
frontière 80
gi@@ 80
gratuitement 80
honnête 80
linked 80
locale 80
monkeys 80
méthodes 80
nucléaires 80
oreille 80
papers 80
passons 80
plait 80
poetry 80
presence 80
primitive 80
regions 80
satellites 80
senti 80
serons 80
sexual 80
shame 80
sommeil 80
thé 80
ti 80
tiré 80
traité 80
transformé 80
tue 80
unclear 80
v 80
écosystème 80
él@@ 80
élève 80
1980 79
Australie 79
Clinton 79
Gandhi 79
Gates 79
Si@@ 79
Vidéo 79
Yet 79
accomplir 79
admettre 79
aimez 79
ane 79
bor@@ 79
bouge 79
composé 79
depression 79
descend 79
designs 79
diagnostic 79
director 79
dominant 79
exercice 79
extrême 79
features 79
feuilles 79
fundamentally 79
ira 79
ism 79
ke 79
li 79
littérature 79
morte 79
média 79
nu@@ 79
philosophy 79
poem 79
portent 79
poème 79
professor 79
publics 79
remains 79
reçoit 79
reçoivent 79
sensible 79
souffle 79
tera 79
unlike 79
upper 79
vente 79
versions 79
vessels 79
équation 79
ér@@ 79
événements 79
îles 79
Alzheimer 78
Arab 78
Benjamin 78
Du@@ 78
June 78
K 78
Lincoln 78
Since 78
Smith 78
Woman 78
Z 78
ant@@ 78
biologiques 78
challenging 78
church 78
cli@@ 78
closely 78
deaths 78
détail 78
erais 78
fête 78
gagne 78
honneur 78
however 78
impliqué 78
include 78
increased 78
installer 78
intelligente 78
interactive 78
intuitive 78
joueur 78
literature 78
ms 78
ologie 78
paradigm 78
partners 78
passionate 78
permanent 78
phrases 78
pourrons 78
recorded 78
rose 78
réduction 78
sophisticated 78
sp@@ 78
surgeon 78
traits 78
tur@@ 78
well-being 78
wherever 78
économies 78
émotion 78
350 77
Ab@@ 77
Africans 77
Cal@@ 77
Force 77
Har@@ 77
Henry 77
Moyen-Orient 77
SS 77
Sal@@ 77
Sir 77
Something 77
Titan 77
accurate 77
adolescents 77
agenda 77
ak@@ 77
ann@@ 77
appreciate 77
arme 77
automatiquement 77
breathe 77
cam@@ 77
cat 77
champignons 77
chant 77
cliniques 77
conscious 77
coups 77
cré@@ 77
electronic 77
envoie 77
evening 77
extension 77
feeding 77
flew 77
fondation 77
frame 77
goals 77
ignore 77
immeuble 77
jazz 77
kilos 77
ls 77
manufacturing 77
member 77
militaire 77
orchestre 77
plante 77
rem@@ 77
remain 77
revenue 77
solving 77
taient 77
tor@@ 77
vieillissement 77
visions 77
whales 77
élevés 77
Allez 76
Congrès 76
Indus 76
Kong 76
Newton 76
Po@@ 76
amounts 76
anger 76
arrivait 76
assistance 76
attendez 76
awareness 76
cave 76
chirurgien 76
combined 76
commitment 76
contribution 76
crack 76
crimes 76
cy@@ 76
doubt 76
drives 76
enlever 76
entend 76
finit 76
flexible 76
gamme 76
gouvernance 76
gray 76
gun 76
infections 76
intitulé 76
laugh 76
launch 76
leçons 76
mettant 76
monkey 76
odeur 76
outcome 76
pensant 76
presented 76
prices 76
principales 76
quantique 76
quer 76
remind 76
siècles 76
somewhat 76
songs 76
soul 76
souvenez 76
sweet 76
symmetry 76
ties 76
trait 76
tries 76
trouverez 76
vital 76
36 75
72 75
Latin 75
May 75
Norden 75
Ru@@ 75
Scott 75
Silicon 75
Voila 75
af@@ 75
apprenons 75
architects 75
arrivez 75
artificielle 75
association 75
att@@ 75
attacks 75
automatically 75
aventure 75
blow 75
bref 75
busy 75
calories 75
chansons 75
cherché 75
chers 75
chi@@ 75
ci 75
coins 75
component 75
copie 75
cow 75
croit 75
encourager 75
entendez 75
erez 75
expertise 75
faced 75
fund 75
hurt 75
identiques 75
intéressants 75
invent 75
ling 75
liver 75
mathématique 75
naturels 75
nest 75
novel 75
observé 75
permanence 75
physically 75
prize 75
prostate 75
protéine 75
puissants 75
rentre 75
resté 75
sa@@ 75
saison 75
salles 75
savaient 75
serais 75
shall 75
simplicité 75
sinon 75
sive 75
sourire 75
symétrie 75
tendances 75
teur 75
trend 75
trouvait 75
vehicles 75
vraies 75
âme 75
14@@ 74
BG 74
Berlin 74
Cyrus 74
General 74
Geographic 74
German 74
Green 74
Larry 74
Perhaps 74
Pi@@ 74
Prize 74
Quelque 74
Sch@@ 74
Unfortunately 74
Vraiment 74
accéder 74
advice 74
aliser 74
apparaissent 74
apparaît 74
apparaître 74
ative 74
battle 74
birthday 74
bon@@ 74
caractère 74
carried 74
claire 74
collaborative 74
confidence 74
connue 74
convaincu 74
créatif 74
determine 74
diffusion 74
distant 74
donnons 74
désolé 74
développent 74
ennes 74
enseignant 74
enti@@ 74
espérance 74
examiner 74
frankly 74
hospitals 74
hotel 74
identical 74
infinite 74
innovative 74
inverse 74
ir 74
jusqu 74
largely 74
libérer 74
load 74
légumes 74
mangent 74
mate 74
meaningful 74
miroir 74
mises 74
occur 74
on-@@ 74
orbit 74
plage 74
plan@@ 74
potentially 74
poulet 74
pourront 74
religieux 74
required 74
rising 74
sauter 74
sentez 74
seules 74
spiritual 74
statement 74
stronger 74
sûre 74
sœur 74
texture 74
thanks 74
tures 74
économistes 74
église 74
20,000 73
Lab 73
Mac@@ 73
Mandela 73
Ser@@ 73
Sweden 73
adolescence 73
alement 73
ana 73
analyser 73
araignée 73
attaques 73
authority 73
balloon 73
behavioral 73
bles 73
bombe 73
bouton 73
breathing 73
calculer 73
carburant 73
causing 73
celebrate 73
comfort 73
conventional 73
difficulté 73
défense 73
expliqué 73
extent 73
ff 73
increases 73
inf@@ 73
infrastructures 73
isation 73
logic 73
marchent 73
minuscule 73
nor 73
ont-ils 73
operate 73
optimiste 73
peinture 73
perd 73
perform 73
personnellement 73
philosophie 73
pregnant 73
prévu 73
pyramide 73
quelconque 73
rayon 73
remarquer 73
roads 73
script 73
sexy 73
spider 73
toilettes 73
traces 73
trains 73
translate 73
wi@@ 73
wireless 73
2020 72
Any 72
Bell 72
Brian 72
Celui-ci 72
Christmas 72
Everest 72
Lune 72
Number 72
Really 72
Remember 72
Russia 72
Suède 72
accepté 72
ade 72
agreed 72
amélioration 72
appears 72
assise 72
autorité 72
biais 72
brief 72
bur@@ 72
censé 72
clothes 72
composition 72
cure 72
density 72
depend 72
dignity 72
distributed 72
divided 72
douce 72
dozen 72
développe 72
enseigne 72
exhibition 72
false 72
insight 72
ish 72
issent 72
journaliste 72
logical 72
mutation 72
mérite 72
opinions 72
politiciens 72
poster 72
potentiellement 72
privé 72
préparer 72
raw 72
reconnaissance 72
released 72
retirer 72
retourné 72
réactions 72
répond 72
sales 72
sensors 72
soft 72
spreading 72
spring 72
suggère 72
topic 72
travailleurs 72
vache 72
variole 72
victims 72
whale 72
wondered 72
younger 72
étudie 72
37 71
Am@@ 71
Bangladesh 71
Boy 71
Finally 71
Gene 71
Mi@@ 71
Never 71
PC 71
Santa 71
Steven 71
Stop 71
army 71
boire 71
bubble 71
bulle 71
celle-là 71
chips 71
classic 71
clock 71
comics 71
commune 71
courses 71
créateurs 71
destination 71
detect 71
démonstration 71
economists 71
election 71
emergency 71
empreinte 71
enemy 71
franchement 71
funding 71
ics 71
lève 71
milk 71
modifier 71
montée 71
narrative 71
obtenons 71
organisé 71
permettant 71
poorest 71
post 71
primaire 71
quarter 71
remove 71
ris@@ 71
serre 71
ster 71
subjects 71
t-il 71
telephone 71
thin 71
tives 71
transportation 71
tru@@ 71
tées 71
voire 71
électroniques 71
élever 71
élevée 71
1,@@ 70
70s 70
AK 70
Aucun 70
Central 70
Health 70
ONU 70
Ouest 70
Seattle 70
Tim 70
algorithms 70
apparu 70
assume 70
bag 70
beach 70
bike 70
che@@ 70
circonstances 70
collected 70
connecting 70
dame 70
desk 70
divide 70
dose 70
economies 70
environnements 70
file 70
fous 70
goutte 70
incentives 70
indique 70
infini 70
lendemain 70
limits 70
lovely 70
lunettes 70
measuring 70
merveilleuses 70
monté 70
oublier 70
painful 70
paludisme 70
particle 70
pires 70
placed 70
pri@@ 70
progression 70
préféré 70
réserve 70
seed 70
severe 70
simplicity 70
smallpox 70
soi-même 70
stands 70
su 70
tement 70
tonight 70
traduire 70
ultime 70
van 70
wanting 70
wheel 70
19th 69
Ju@@ 69
Muslims 69
Orient 69
Research 69
US 69
While 69
après-midi 69
ber 69
boom 69
cadeau 69
char@@ 69
chart 69
colonie 69
conscient 69
considéré 69
câble 69
disappear 69
déplacent 69
embrace 69
entoure 69
etc. 69
eusement 69
faisions 69
fake 69
fausse 69
gamin 69
générer 69
heureusement 69
iPod 69
interprétation 69
isés 69
laid 69
logiciels 69
lung 69
mechanism 69
mix 69
mou@@ 69
multiples 69
mystère 69
ore 69
overall 69
parachute 69
pareil 69
performing 69
por@@ 69
pouvez-vous 69
provenant 69
pâte 69
rempli 69
scary 69
scolaire 69
seeds 69
sentent 69
sont-ils 69
terrorisme 69
tracking 69
travaillait 69
under@@ 69
underwater 69
weak 69
writer 69
épaule 69
étend 69
-là 68
2050 68
50,000 68
Brown 68
College 68
Day 68
Eastern 68
Four 68
Haiti 68
Joshua 68
Narrator 68
Nothing 68
Other 68
Russie 68
SETI 68
Space 68
Ti@@ 68
Wright 68
actif 68
adopter 68
agriculteurs 68
algorithmes 68
appar@@ 68
apparence 68
assurance 68
bee 68
bra@@ 68
cible 68
ck 68
claim 68
clés 68
confrontés 68
consume 68
consumers 68
copies 68
croi@@ 68
culturelle 68
delà 68
department 68
dioxide 68
division 68
dopamine 68
dynamics 68
elles-mêmes 68
enable 68
ennemi 68
feature 68
ful 68
functions 68
funded 68
grosses 68
gs 68
immune 68
in-@@ 68
inquiète 68
joined 68
laboratory 68
lighting 68
links 68
mail 68
millier 68
mutations 68
opposed 68
organize 68
output 68
pack 68
partenaire 68
payé 68
physiquement 68
principaux 68
professionnel 68
pub 68
quelques-unes 68
quement 68
radi@@ 68
rapports 68
rational 68
remonter 68
réserves 68
réunions 68
samples 68
seats 68
seuil 68
smoke 68
spectaculaire 68
spoken 68
statut 68
stock 68
symbole 68
thérapie 68
tics 68
tif 68
tou@@ 68
trajectoire 68
two-@@ 68
voisin 68
vus 68
we@@ 68
well-@@ 68
ys 68
État 68
évidence 68
-like 67
1970 67
1999 67
42 67
80s 67
Before 67
Design 67
Everyone 67
GPS 67
IRM 67
Im@@ 67
Mal@@ 67
Only 67
Ros@@ 67
So@@ 67
We@@ 67
adaptation 67
advertising 67
ain@@ 67
ak 67
allowing 67
apporte 67
apprécier 67
attendent 67
avancée 67
baisser 67
baleine 67
bat 67
careful 67
chip 67
chocolat 67
construite 67
controlling 67
cook 67
cour 67
créant 67
depending 67
dignité 67
disappeared 67
discuter 67
dou@@ 67
drinking 67
dégâts 67
embedded 67
emmené 67
entré 67
equally 67
floating 67
formule 67
formé 67
furniture 67
grass 67
healthcare 67
hy@@ 67
ier 67
impliquer 67
iron 67
jouets 67
jusque 67
laboratoires 67
layers 67
lin 67
mess 67
messieurs 67
mystery 67
naturelles 67
obsessed 67
obstacle 67
od@@ 67
ol 67
ondes 67
ori@@ 67
paintings 67
parallel 67
parcours 67
pig 67
pocket 67
portrait 67
pourcent 67
proof 67
properly 67
recording 67
removed 67
retrouvé 67
roi 67
root 67
savings 67
scared 67
season 67
shed 67
speakers 67
tested 67
tin 67
torture 67
toy 67
transformed 67
vieilles 67
vivaient 67
vouliez 67
échoué 67
éclairage 67
élections 67
étendue 67
Atlantic 66
Congress 66
Get 66
Grande-Bretagne 66
JA 66
Lego 66
Milo 66
Nelson 66
Sa@@ 66
Star 66
Tokyo 66
Unies 66
Zero 66
aimerions 66
arabe 66
asseoir 66
axis 66
bet 66
caméras 66
cap@@ 66
chest 66
concrete 66
coupe 66
courbes 66
curieux 66
dise 66
distinction 66
diverses 66
divertissement 66
déclin 66
dîner 66
educational 66
empathy 66
enregistrement 66
enregistré 66
existed 66
expand 66
exposed 66
feront 66
fié 66
fruit 66
fur 66
ga@@ 66
inch 66
inspiring 66
interviews 66
ladies 66
latest 66
liées 66
maintenance 66
marques 66
neuroscience 66
nowhere 66
numériques 66
observations 66
offered 66
ordinaires 66
pal@@ 66
parlais 66
partageons 66
passive 66
placé 66
plenty 66
prenant 66
productivity 66
présents 66
pushing 66
qualités 66
quart 66
quez 66
ration 66
respirer 66
ressource 66
ron@@ 66
shopping 66
shoulder 66
signed 66
sum 66
surveillance 66
symptômes 66
technologiques 66
three-@@ 66
tombée 66
touched 66
traditionnel 66
truck 66
vivante 66
windows 66
échantillon 66
1998 65
Air 65
Amazon 65
Chinois 65
Islamic 65
Kosovo 65
LED 65
Q@@ 65
abandonner 65
adapt 65
ailes 65
aircraft 65
angles 65
arguments 65
artistic 65
band 65
barrière 65
blague 65
cardiaques 65
catégories 65
ceux-ci 65
chaise 65
coll@@ 65
connectés 65
cul@@ 65
diable 65
divers 65
dor@@ 65
dramatically 65
dée 65
ences 65
ending 65
estime 65
exploring 65
fed 65
forts 65
fortune 65
fou@@ 65
ges 65
grab 65
gratuit 65
grows 65
hab@@ 65
heroes 65
hide 65
hire 65
hunger 65
illusions 65
ingrédients 65
interventions 65
issant 65
japonais 65
kg 65
locales 65
loop 65
maïs 65
meetings 65
ments 65
missions 65
musiciens 65
nie 65
obscurité 65
open-source 65
passez 65
perspectives 65
poste 65
poursuivre 65
productivité 65
précision 65
quotidien 65
rares 65
recognition 65
recognized 65
ressenti 65
retenir 65
slides 65
soyons 65
stores 65
supérieur 65
surrounded 65
temple 65
terait 65
terriblement 65
théories 65
tunnel 65
utilisateur 65
viral 65
voies 65
wa@@ 65
équipes 65
1994 64
Blue 64
Br@@ 64
Corée 64
Egypt 64
Kevin 64
Korea 64
Lu@@ 64
Mike 64
Min@@ 64
No@@ 64
Ra@@ 64
Will 64
ades 64
afterwards 64
aimait 64
allons-nous 64
anciennes 64
appeared 64
arrivera 64
ary 64
assembler 64
auto 64
boucle 64
britannique 64
brothers 64
capteurs 64
carrés 64
centuries 64
chinoise 64
connexions 64
constructions 64
construisent 64
contr@@ 64
couper 64
dish 64
démarrer 64
ell@@ 64
ellement 64
ennuyeux 64
facial 64
faciles 64
faibles 64
financier 64
friendly 64
housing 64
int@@ 64
internal 64
introduction 64
ist 64
lift 64
lée 64
maintain 64
males 64
mammifères 64
ns 64
oldest 64
ome 64
overcome 64
paire 64
passing 64
probability 64
projection 64
provides 64
pyramid 64
périodes 64
racines 64
ralentir 64
repair 64
rescue 64
resolution 64
romantic 64
ry 64
réfléchi 64
score 64
secteurs 64
snow 64
stayed 64
suggests 64
tall 64
tapis 64
tenu 64
travaillais 64
tribus 64
ure 64
volant 64
épargne 64
œufs 64
Act 63
Atlanta 63
Ba@@ 63
Cam@@ 63
Chacun 63
El@@ 63
Give 63
Go@@ 63
Histoire 63
La@@ 63
Phoenix 63
Square 63
Stephen 63
Sylvia 63
Uganda 63
affecte 63
ai-je 63
alisé 63
alternatives 63
arrivons 63
ash@@ 63
ats 63
ax@@ 63
bloc 63
button 63
campus 63
channel 63
comparé 63
conseils 63
contrast 63
cousins 63
destroyed 63
diabetes 63
diront 63
développés 63
ear 63
entered 63
entr@@ 63
fenêtres 63
flash 63
frappe 63
gel 63
grains 63
graphics 63
gris 63
ideal 63
illegal 63
ingredients 63
intéresser 63
joli 63
legacy 63
liée 63
lying 63
miss 63
mobiles 63
neighbor 63
neither 63
négatif 63
obésité 63
opposition 63
peurs 63
pic 63
portion 63
pour@@ 63
prototypes 63
précise 63
précédent 63
rais 63
rapides 63
reaching 63
rendue 63
rocket 63
rocks 63
réfléchissez 63
sage 63
saisir 63
sanguins 63
satisfaction 63
scales 63
singe 63
so-called 63
sports 63
struck 63
surely 63
survey 63
titres 63
transporter 63
traverse 63
trice 63
vienne 63
virtually 63
west 63
wise 63
éri@@ 63
97 62
Africains 62
Age 62
Bay 62
Charlie 62
Child 62
Dès 62
El 62
Hall 62
Jones 62
Laden 62
Lewis 62
Moyen 62
Next 62
Pe@@ 62
TED@@ 62
WK 62
abondance 62
ads 62
alien 62
avéré 62
backwards 62
behave 62
bio-@@ 62
borders 62
boule 62
caractéristique 62
catégorie 62
chasse 62
chocolate 62
concours 62
contain 62
contains 62
corporate 62
croyances 62
dons 62
décès 62
détection 62
empire 62
estimate 62
extinct 62
fermé 62
format 62
four@@ 62
frappé 62
frequency 62
frozen 62
gender 62
generated 62
han@@ 62
height 62
hormones 62
imagerie 62
imaginé 62
innocent 62
intelligentes 62
jail 62
jour-là 62
lens 62
levé 62
mat@@ 62
moléculaire 62
my@@ 62
occidentale 62
oi@@ 62
ously 62
performances 62
picking 62
poison 62
poitrine 62
possèdent 62
precise 62
precisely 62
privée 62
propriétaire 62
provided 62
providing 62
psychological 62
publiques 62
puce 62
pères 62
radicalement 62
rarement 62
recovery 62
reflect 62
repeat 62
represented 62
resistance 62
récompenses 62
sensibles 62
ser 62
sheep 62
skull 62
spots 62
sustainability 62
symbol 62
symptoms 62
tasks 62
ticket 62
till 62
tragedy 62
unexpected 62
urgence 62
vaccins 62
val@@ 62
virtuel 62
volunteers 62
ég@@ 62
éliminer 62
émotionnelle 62
étranges 62
évènement 62
Brooklyn 61
Haïti 61
Heureusement 61
Inter@@ 61
Isn 61
Jesus 61
Jupiter 61
Man@@ 61
Mesdames 61
Montana 61
Pole 61
Quelles 61
aie 61
aille 61
allions 61
apartment 61
aside 61
assure 61
atif 61
autonome 61
aéroport 61
baseball 61
bel 61
bière 61
briefly 61
celles-ci 61
chosen 61
ché 61
clever 61
conclude 61
consequence 61
contrairement 61
contribuer 61
corn 61
céréales 61
darkness 61
de-@@ 61
demie 61
dirty 61
district 61
diverse 61
existait 61
facility 61
fait-il 61
fiber 61
fixed 61
granted 61
greenhouse 61
hallucinations 61
hip 61
inspirer 61
lac 61
locked 61
magnetic 61
modes 61
musulmans 61
mâle 61
obesity 61
ole 61
oo@@ 61
pool 61
printing 61
profiter 61
pulling 61
revue 61
ski 61
soigner 61
spin 61
sts 61
suffisant 61
synthèse 61
thrown 61
to-@@ 61
treating 61
urbain 61
ut@@ 61
voyages 61
walks 61
whereas 61
wired 61
écologique 61
130 60
34 60
38 60
Alex 60
BJ 60
Craig 60
DVD 60
Daniel 60
Disney 60
Do@@ 60
Girl 60
Grande 60
Hi 60
January 60
Law 60
Pittsburgh 60
Qu 60
Teszler 60
Un@@ 60
V 60
Watson 60
actifs 60
aimé 60
ajouté 60
angry 60
apple 60
associé 60
auteurs 60
auto@@ 60
aw@@ 60
bicycle 60
characteristics 60
clinic 60
combattre 60
comparaison 60
conserver 60
considérons 60
contemporary 60
cri@@ 60
curiosité 60
dedicated 60
demandais 60
destroy 60
dra@@ 60
dress 60
employer 60
enf@@ 60
enregistrer 60
entrent 60
essaient 60
exister 60
ez-le 60
fantôme 60
fauteuil 60
frustration 60
ft 60
gagnent 60
gh@@ 60
glamorous 60
governance 60
heaven 60
herself 60
interacting 60
interne 60
isent 60
low-@@ 60
manuel 60
meal 60
nôtre 60
onne 60
origin 60
pace 60
paradigme 60
paysages 60
pes 60
ping 60
piste 60
pitch 60
plier 60
profession 60
pump 60
quête 60
raconté 60
rely 60
remercie 60
rentré 60
rions 60
robotic 60
sauvé 60
secondaires 60
separated 60
signification 60
sois 60
spécifiques 60
succeed 60
teams 60
ther@@ 60
totalité 60
toxic 60
trends 60
tres 60
tro@@ 60
troubles 60
verts 60
voila 60
vulnérabilité 60
worker 60
Antarctique 59
Arthur 59
At@@ 59
Be 59
Bur@@ 59
Coca-Cola 59
Ha@@ 59
House 59
Italy 59
Joe 59
Mac 59
Mer@@ 59
Monde 59
Ni@@ 59
Ri@@ 59
Somebody 59
Voyez 59
achieved 59
agricultural 59
ajoute 59
ality 59
arg@@ 59
attached 59
attente 59
bain 59
beer 59
bri@@ 59
bug 59
bénéfices 59
calculate 59
chaude 59
cho@@ 59
co 59
collecting 59
collègue 59
continuent 59
crops 59
cube 59
demonstrate 59
diabète 59
diapo 59
dinosaur 59
dirige 59
disposition 59
donn@@ 59
drill 59
em 59
engaging 59
enlève 59
entrez 59
estimation 59
examen 59
extract 59
fabulous 59
farmer 59
fears 59
financiers 59
fleur 59
fon@@ 59
grand-père 59
géant 59
hang 59
hostile 59
iceberg 59
imagined 59
integrated 59
interfaces 59
issez 59
kilomètre 59
landed 59
likes 59
limb 59
limité 59
mid-@@ 59
monitor 59
nuages 59
onn@@ 59
organe 59
organique 59
parasite 59
personality 59
physicist 59
pierres 59
plot 59
poussé 59
prefer 59
printemps 59
produces 59
professionnels 59
raising 59
ridiculous 59
récente 59
shock 59
sight 59
soci@@ 59
sonne 59
supplémentaire 59
sûrs 59
thick 59
thon 59
tired 59
triangle 59
tuna 59
uni@@ 59
units 59
usines 59
vaisseau 59
variable 59
vivait 59
vivez 59
volé 59
voyait 59
évènements 59
Col@@ 58
Ethiopia 58
Johnny 58
Kennedy 58
Make 58
Natasha 58
Regardons 58
Tell 58
Ver@@ 58
abri 58
acquis 58
actors 58
alimentaires 58
ambition 58
anc@@ 58
bombes 58
bour@@ 58
cm 58
colleague 58
comparer 58
conflicts 58
connectome 58
continues 58
contradiction 58
cry 58
crâne 58
demandant 58
diagram 58
diapositive 58
dive 58
diviser 58
drawn 58
drove 58
east 58
effectuer 58
effrayant 58
escape 58
essentielle 58
fication 58
footprint 58
fourmi 58
fournit 58
ham 58
harm 58
high-tech 58
holds 58
host 58
ick@@ 58
id 58
informatiques 58
introduit 58
ités 58
ized 58
jeunesse 58
lis@@ 58
magazines 58
mentor 58
meter 58
minuscules 58
musicale 58
mé@@ 58
mécanismes 58
nager 58
nécessite 58
op 58
opens 58
paquet 58
parvenir 58
percevoir 58
petits-enfants 58
peuples 58
pla@@ 58
plaque 58
pommes 58
pon@@ 58
positives 58
potable 58
poumons 58
prime 58
privilege 58
programmer 58
provoque 58
puisqu&apos; 58
pur@@ 58
pèse 58
qualities 58
rai 58
recette 58
rejoindre 58
retourne 58
résumer 58
scores 58
segment 58
servent 58
son@@ 58
soudainement 58
tableaux 58
terrorism 58
teurs 58
transparence 58
travaillez 58
vagues 58
écouté 58
2,@@ 57
30,000 57
90s 57
Albert 57
Alexander 57
Etat 57
Italie 57
Mary 57
Mom 57
My@@ 57
Northern 57
Ouganda 57
Sea 57
Super 57
Ten 57
To@@ 57
Trade 57
Voice 57
africain 57
air@@ 57
app 57
arrêt 57
ators 57
biologistes 57
breaking 57
bucks 57
bulles 57
cage 57
categories 57
cats 57
choc 57
codes 57
compliquée 57
concern 57
couvrir 57
cre@@ 57
crossing 57
crying 57
créatifs 57
crédit 57
cur@@ 57
démontrer 57
dépenses 57
développée 57
earthquake 57
educated 57
elsewhere 57
enceinte 57
esclavage 57
est-elle 57
favor 57
fibres 57
five-@@ 57
folle 57
functional 57
globalization 57
grandissent 57
herbe 57
hitting 57
hom@@ 57
idéal 57
infirmières 57
intéressés 57
involves 57
jet 57
judge 57
loud 57
memes 57
minister 57
morality 57
métier 57
neat 57
northern 57
occupe 57
optique 57
partagent 57
pen 57
phantom 57
photography 57
pigs 57
plays 57
portes 57
pratiques 57
predictions 57
prête 57
reconstruire 57
reef 57
remercier 57
repose 57
robust 57
rom@@ 57
réunir 57
sachant 57
shut 57
smooth 57
superbe 57
tan@@ 57
tap 57
tentative 57
terrestre 57
tiennent 57
tin@@ 57
traduction 57
traversé 57
têtes 57
ues 57
unbelievable 57
universités 57
usual 57
vacances 57
volontaire 57
watts 57
œuvres 57
98 56
Berkeley 56
CD 56
Dé@@ 56
Eric 56
Institut 56
Israël 56
Jeff 56
Media 56
October 56
Revolution 56
Rick 56
River 56
W 56
Wal@@ 56
actor 56
adi@@ 56
adresse 56
apparently 56
avi@@ 56
bang 56
blé 56
boundaries 56
bourse 56
cacher 56
catastrophes 56
colony 56
contribute 56
conçus 56
coordination 56
corde 56
croyais 56
cup 56
cute 56
dieux 56
doses 56
désastre 56
eBay 56
emails 56
emerge 56
excuse 56
fifth 56
filter 56
flower 56
fluid 56
fo@@ 56
focusing 56
forming 56
frapper 56
froide 56
gal@@ 56
graphiques 56
headed 56
hearts 56
iller 56
implication 56
inches 56
includes 56
ind@@ 56
laissent 56
le-@@ 56
leverage 56
license 56
matières 56
mechanical 56
mondialisation 56
nurses 56
optimistic 56
pandemic 56
passions 56
pensez-vous 56
pilot 56
posée 56
prisonniers 56
procès 56
quartiers 56
ratio 56
remplir 56
retard 56
riz 56
roots 56
salaire 56
shrimp 56
signifiait 56
souhait 56
theories 56
traveled 56
troupes 56
ugly 56
unités 56
vents 56
voyant 56
évidente 56
31 55
Alpha 55
Amy 55
Aucune 55
Avez-vous 55
Banque 55
Canyon 55
Christian 55
Galapagos 55
Hans 55
IBM 55
Jane 55
Rover 55
Ré@@ 55
Sierra 55
U 55
Wi@@ 55
alphabet 55
antibiotiques 55
appartement 55
awesome 55
barrières 55
bleus 55
brillant 55
budgets 55
circles 55
commande 55
comporte 55
concepteurs 55
coopération 55
devienne 55
dioxyde 55
docteurs 55
dot 55
dust 55
démocratique 55
dépensé 55
edges 55
effondrement 55
ell 55
encounter 55
ent-ils 55
entes 55
entropie 55
excité 55
fabric 55
fascinated 55
flies 55
fortes 55
fs 55
fuels 55
genius 55
grandfather 55
hanging 55
hungry 55
inconnu 55
injection 55
insurance 55
intentions 55
journalistes 55
kers 55
magnitude 55
mainly 55
malades 55
methane 55
mice 55
mixed 55
méthane 55
ning 55
oeuvres 55
offert 55
paraître 55
partagé 55
perceive 55
portraits 55
privilège 55
proposer 55
proposé 55
puis-je 55
realm 55
reduction 55
réagir 55
sau@@ 55
sauvages 55
sculptures 55
secondaire 55
sembler 55
sièges 55
slavery 55
sleeping 55
soeur 55
sommes-nous 55
spaghetti 55
sticks 55
strategies 55
supporter 55
supérieure 55
symboles 55
synthetic 55
sé@@ 55
ta@@ 55
telescope 55
tical 55
tifs 55
tragédie 55
télescope 55
universel 55
upset 55
vacuum 55
vallée 55
variété 55
vend 55
vulnerability 55
writers 55
économiser 55
écrivain 55
én@@ 55
00@@ 54
43 54
AM 54
Alaska 54
Commençons 54
Em@@ 54
Golfe 54
Harry 54
Hello 54
Joseph 54
Maman 54
McDonald 54
ONG 54
Ocean 54
SMS 54
Sarah 54
TEDTalk 54
Up 54
Voix 54
Wh@@ 54
William 54
ange 54
archives 54
ath@@ 54
attendant 54
biodiversité 54
brown 54
calme 54
cap 54
capita 54
cat@@ 54
chang@@ 54
cheaper 54
chimpanzees 54
chère 54
comparable 54
conclusions 54
confort 54
customers 54
câbles 54
depressed 54
depth 54
enquête 54
entrain 54
escalier 54
explaining 54
fantastiques 54
fassent 54
figuring 54
financière 54
forgotten 54
founded 54
fumée 54
glaciers 54
gram 54
humanitaire 54
impliqués 54
intellectuelle 54
invitation 54
isée 54
ite 54
ju@@ 54
lam@@ 54
limit 54
limitations 54
léger 54
makers 54
maternelle 54
meurt 54
missed 54
métro 54
neural 54
neuron 54
ney 54
nid 54
notions 54
official 54
paradis 54
paraît 54
parti@@ 54
perdez 54
personnelles 54
physicien 54
plafond 54
predicted 54
prisons 54
préparé 54
pushed 54
rap@@ 54
recul 54
roman 54
résumé 54
sacré 54
scenario 54
scénario 54
sen@@ 54
sensory 54
serai 54
ships 54
souvenirs 54
spectacular 54
subi 54
suivantes 54
surmonter 54
suspect 54
symbols 54
séquences 54
the@@ 54
tiles 54
translation 54
tribe 54
tribes 54
typique 54
ur 54
vagin 54
volontaires 54
whatsoever 54
winning 54
ze 54
écart 54
étonnante 54
0 53
52 53
Ben@@ 53
Brad 53
Florida 53
Mumbai 53
Pl@@ 53
Président 53
Pu@@ 53
Saturn 53
Should 53
Soviet 53
Van 53
academic 53
assemble 53
asteroid 53
barely 53
barre 53
captured 53
cartoon 53
cesse 53
climbing 53
clubs 53
compassionate 53
computation 53
conduite 53
connaissait 53
constante 53
contiennent 53
emerged 53
empêche 53
engineered 53
enthousiasme 53
entropy 53
exploiter 53
fabrique 53
fondé 53
forests 53
genocide 53
geste 53
glad 53
golden 53
hal@@ 53
half-@@ 53
hardly 53
hardware 53
harvest 53
illness 53
improvement 53
iner 53
investissements 53
isant 53
kes 53
lance 53
lifestyle 53
linear 53
linéaire 53
loc@@ 53
magnétique 53
marchait 53
methods 53
mondiaux 53
oncle 53
permettez-moi 53
plongée 53
polar 53
policies 53
pomme 53
pur 53
quée 53
rant 53
remarquables 53
reports 53
representation 53
ressent 53
rice 53
réalise 53
sacs 53
sain 53
served 53
servi 53
signes 53
str@@ 53
suffer 53
tank 53
tante 53
tied 53
tournée 53
trafic 53
télé@@ 53
underground 53
ut 53
vice 53
ying 53
yours 53
éré 53
êtes-vous 53
5000 52
96 52
Alice 52
Cha@@ 52
Coran 52
Department 52
Fer@@ 52
Floride 52
Ge@@ 52
Human 52
MT 52
Same 52
Taliban 52
Tri@@ 52
Tu@@ 52
acteur 52
adding 52
affordable 52
announced 52
appels 52
ast@@ 52
atten@@ 52
beliefs 52
biodiversity 52
biologists 52
bo 52
bran@@ 52
branche 52
breaks 52
bro@@ 52
centimètres 52
cite 52
clouds 52
commerciaux 52
contract 52
controls 52
cooperation 52
cro@@ 52
créateur 52
culturel 52
curiosity 52
cérébral 52
delivered 52
dependent 52
determined 52
difficultés 52
diplôme 52
disciplines 52
discoveries 52
dung 52
dynamiques 52
décharge 52
démontré 52
efficacement 52
elected 52
entouré 52
espérer 52
essayais 52
exponential 52
extended 52
ferai 52
fermer 52
fins 52
glacier 52
habitués 52
hop 52
illustration 52
imagery 52
immunitaire 52
incident 52
jouet 52
journalist 52
killer 52
libres 52
lion 52
lis 52
mad 52
majeur 52
maker 52
mang@@ 52
mangé 52
mark 52
mechanics 52
micro 52
nommée 52
normes 52
nu 52
obligé 52
ocytocine 52
oir 52
opposé 52
orientation 52
originally 52
ory 52
ouverts 52
ow 52
owned 52
pente 52
physician 52
portant 52
poussent 52
provoquer 52
prévention 52
puits 52
pé@@ 52
qui@@ 52
receive 52
relier 52
rendus 52
ressens 52
roue 52
récifs 52
répondent 52
sacred 52
secours 52
semblable 52
sol@@ 52
southern 52
spatiale 52
spécialement 52
stages 52
storm 52
sup@@ 52
tangible 52
tax 52
tombent 52
transports 52
travaillaient 52
témoin 52
uncertainty 52
vas 52
vides 52
viendra 52
vole 52
wings 52
âgées 52
çons 52
écologie 52
étonnamment 52
180 51
1945 51
1990s 51
47 51
50s 51
Antarctica 51
Bel@@ 51
Celui 51
Cinq 51
FG 51
Far@@ 51
Jay 51
Jewish 51
Mad@@ 51
Minister 51
PDG 51
Por@@ 51
Quatre 51
Turkey 51
Turquie 51
Whether 51
accepted 51
achète 51
advance 51
airplanes 51
aliens 51
alisme 51
ami@@ 51
astéroïde 51
attraction 51
autrefois 51
bio 51
blocs 51
bond 51
brillants 51
bruits 51
bul@@ 51
camion 51
capability 51
cercles 51
chief 51
consistent 51
consommer 51
constructed 51
daughters 51
den 51
devenues 51
dira 51
discuss 51
dly 51
domestic 51
déc@@ 51
décou@@ 51
entre@@ 51
eriez 51
essayait 51
ethical 51
examiné 51
expanding 51
expectancy 51
expectations 51
fermiers 51
fiable 51
fibre 51
finds 51
fires 51
flip 51
genetics 51
graphic 51
gut 51
génocide 51
hackers 51
hautement 51
hauts 51
historical 51
immediate 51
inquiéter 51
instinct 51
interagissent 51
ité 51
jumped 51
ki 51
kin@@ 51
lement 51
lier 51
lobe 51
lutter 51
malheureux 51
meubles 51
nurse 51
ois 51
origines 51
outcomes 51
ox@@ 51
oxytocin 51
pandémie 51
paralyzed 51
parcourir 51
pin 51
pin@@ 51
plug 51
pompe 51
produite 51
programmation 51
promote 51
précieux 51
préfère 51
prévoir 51
puissantes 51
relever 51
rendez-vous 51
reprendre 51
sauvage 51
secure 51
seek 51
shell 51
shing 51
shooting 51
sits 51
souffrent 51
stabilité 51
stops 51
stratégies 51
successfully 51
survécu 51
tears 51
terror 51
tip 51
toys 51
tracks 51
tribu 51
uncomfortable 51
underlying 51
venais 51
venues 51
visited 51
volent 51
écosystèmes 51
écoutez 51
éloigner 51
900 50
Andrew 50
Arctic 50
Bangalore 50
Carl 50
Children 50
Dean 50
Dutch 50
Elizabeth 50
Global 50
Grâce 50
Kansas 50
Ken 50
Kibera 50
Louis 50
Mel@@ 50
Parmi 50
Ph@@ 50
Rio 50
Rob@@ 50
Secondly 50
Selon 50
Stage 50
Sur@@ 50
Third 50
Toronto 50
Wolfram 50
affiche 50
allemand 50
amongst 50
anim@@ 50
appartient 50
attends 50
attentes 50
avocat 50
az@@ 50
back@@ 50
banques 50
bears 50
begun 50
blah 50
bombs 50
bonus 50
cin@@ 50
committed 50
contents 50
cosmos 50
cuisiner 50
cérébrale 50
defense 50
demi-@@ 50
deviez 50
diminue 50
distinct 50
distinguer 50
dormir 50
démarré 50
dépassé 50
détecteur 50
détermine 50
eaten 50
ed@@ 50
electronics 50
engagé 50
experimental 50
exponentielle 50
faveur 50
flag 50
foods 50
fortunate 50
foyers 50
fragments 50
gather 50
gathering 50
gentleman 50
gestes 50
god 50
géniale 50
ham@@ 50
happier 50
humor 50
humour 50
idiot 50
ili@@ 50
impressionnant 50
intéressent 50
inventions 50
ion 50
ko 50
larmes 50
lock 50
magical 50
mammals 50
membrane 50
met@@ 50
musicians 50
mâles 50
médi@@ 50
narrow 50
nerve 50
normaux 50
nutrition 50
outer 50
partant 50
partly 50
photographe 50
photographed 50
pli@@ 50
porté 50
posent 50
poussière 50
primarily 50
quotidienne 50
quées 50
ran@@ 50
replicate 50
rolling 50
régler 50
réunis 50
significative 50
sisters 50
solaires 50
speaker 50
sub-@@ 50
subir 50
supported 50
tar@@ 50
tendency 50
territoire 50
tone 50
tra 50
tre 50
trucks 50
universitaire 50
ures 50
utilis@@ 50
vaches 50
vagina 50
vegetables 50
vieil 50
vol@@ 50
weapon 50
Évidemment 50
ç@@ 50
ène 50
échecs 50
énergies 50
évaluer 50
-year-old 49
1995 49
1997 49
2011 49
Data 49
FDA 49
February 49
Jefferson 49
Ki@@ 49
Lord 49
Luther 49
None 49
Obviously 49
Pr@@ 49
Prenons 49
Unis 49
Whereas 49
X-ray 49
actes 49
adolescent 49
adorent 49
airport 49
amateur 49
annonce 49
attendais 49
attract 49
avancées 49
avocats 49
bat@@ 49
bateaux 49
bouteilles 49
buried 49
caché 49
calcium 49
category 49
cherchons 49
cinquième 49
civilisations 49
closing 49
combiner 49
command 49
commença 49
commerciale 49
compromis 49
confident 49
configuration 49
consommateur 49
constater 49
construisons 49
continuons 49
critiques 49
cultiver 49
da@@ 49
ders 49
diagramme 49
diamètre 49
diminuer 49
din@@ 49
dinosaure 49
don@@ 49
ena 49
engin 49
enlevé 49
entering 49
er-@@ 49
errors 49
ery 49
eut 49
gains 49
gamins 49
garbage 49
geometry 49
grille 49
hamburger 49
hautes 49
indienne 49
individuelle 49
industriel 49
ink 49
insect 49
interviewer 49
intégration 49
inutile 49
iss@@ 49
lampe 49
lawyer 49
luck 49
mani@@ 49
manipulation 49
memories 49
mythe 49
naked 49
needle 49
nettoyer 49
neurone 49
nuts 49
obsession 49
ologue 49
om 49
operations 49
outre 49
ownership 49
pardon 49
personnels 49
physiciens 49
plateforme 49
pleurer 49
positifs 49
promouvoir 49
préférés 49
prévenir 49
publication 49
pul@@ 49
q@@ 49
reconnu 49
recours 49
regime 49
respiration 49
restait 49
revoir 49
ri 49
robe 49
robotique 49
sel 49
semblables 49
senior 49
sentais 49
senti@@ 49
serions 49
sharp 49
shifting 49
silent 49
smoking 49
soldat 49
subtle 49
séparer 49
taper 49
targets 49
threw 49
throwing 49
ths 49
toits 49
traités 49
tromper 49
troops 49
tumors 49
uniques 49
unlikely 49
vapeur 49
ventre 49
visiter 49
washing 49
worms 49
zz@@ 49
â@@ 49
écrite 49
égale 49
émotionnel 49
éti@@ 49
évolue 49
.org 48
4,000 48
44 48
Amsterdam 48
C. 48
Environ 48
Ger@@ 48
Indiens 48
MRI 48
Norman 48
Ross 48
SJ 48
Saturne 48
Soit 48
Stewart 48
Tibet 48
Tr@@ 48
Was 48
Windows 48
Zimbabwe 48
abandonné 48
abilities 48
acides 48
adapted 48
affects 48
affronter 48
aimais 48
ama 48
ampoule 48
amuser 48
ani@@ 48
approcher 48
arr@@ 48
astonishing 48
atelier 48
ati@@ 48
avancé 48
banks 48
banlieue 48
bioluminescence 48
blame 48
camions 48
capturer 48
chapter 48
charity 48
colonne 48
concurrence 48
connaissais 48
connus 48
contacts 48
contre@@ 48
conviction 48
couvert 48
croyance 48
curves 48
demographic 48
des@@ 48
difficulty 48
dig 48
drapeau 48
durables 48
découvre 48
déroule 48
extrêmes 48
familier 48
favorites 48
genetically 48
glasses 48
globally 48
gonna 48
indi@@ 48
insecte 48
invisibles 48
ists 48
joint 48
magasins 48
malnutrition 48
manifestation 48
mensonge 48
monsieur 48
mortes 48
mosquito 48
nerfs 48
néanmoins 48
occasions 48
occidental 48
our@@ 48
painted 48
pat@@ 48
pensiez 48
perdent 48
pers 48
pertes 48
photographer 48
piles 48
pixels 48
pointed 48
pound 48
powers 48
pres@@ 48
proviennent 48
précoce 48
qués 48
radicale 48
rarely 48
reduced 48
reefs 48
responses 48
rouler 48
routine 48
répandre 48
sacrifice 48
sections 48
serving 48
shadow 48
sheet 48
solides 48
stimulation 48
stroke 48
substances 48
thons 48
tier 48
tour@@ 48
transparency 48
transplant 48
ty@@ 48
uc@@ 48
ultraviolet 48
uncle 48
vols 48
weekend 48
winds 48
wor@@ 48
échapper 48
éduquer 48
établi 48
21ème 47
3000 47
450 47
6,000 47
76 47
AIMS 47
Aux 47
BC 47
Beach 47
Ber@@ 47
Black 47
Coke 47
Danny 47
Es@@ 47
Etats 47
Faites 47
Friday 47
Jill 47
Massachusetts 47
Monsieur 47
Moon 47
Nor@@ 47
Pal@@ 47
Put 47
Quels 47
Spanish 47
Super@@ 47
Ter@@ 47
achètent 47
acid 47
ah@@ 47
amateurs 47
an-@@ 47
analyze 47
apparition 47
apparue 47
balles 47
balls 47
bandes 47
bas@@ 47
beneath 47
besides 47
bin 47
bizarres 47
bottles 47
bouts 47
boîtes 47
brut 47
bulb 47
bâton 47
cabinet 47
casque 47
ceiling 47
cellulaire 47
clay 47
clothing 47
colle 47
colored 47
conscients 47
courants 47
covering 47
créez 47
dear 47
deviner 47
dictionary 47
dictionnaire 47
dingue 47
disparaissent 47
diving 47
domain 47
drogue 47
département 47
ecosystems 47
eff@@ 47
egg 47
elephant 47
entraîner 47
esti@@ 47
examine 47
exceptions 47
explains 47
fac 47
faites-vous 47
faudra 47
fiers 47
finissent 47
fondamentaux 47
fortement 47
four-@@ 47
fre@@ 47
gaps 47
gate 47
genoux 47
graves 47
hectares 47
her@@ 47
hyper-@@ 47
hyper@@ 47
hé@@ 47
illes 47
immeubles 47
implant 47
intact 47
internationales 47
intégré 47
labs 47
laissons 47
lawyers 47
letting 47
mathématiciens 47
mentionné 47
nage 47
navigation 47
offices 47
papiers 47
peindre 47
pesticides 47
pipe 47
precious 47
professionnelle 47
programming 47
promotion 47
prédictions 47
puzzles 47
rang 47
realizing 47
recipe 47
recover 47
relief 47
romantique 47
réaliste 47
searching 47
sentences 47
simultaneously 47
sk@@ 47
smallest 47
sortis 47
sous-marin 47
stability 47
sters 47
stones 47
subway 47
suggesting 47
threshold 47
toilet 47
ton@@ 47
transfer 47
treatments 47
verrons 47
viable 47
ving 47
vingt 47
voyais 47
welcome 47
écrivains 47
éteindre 47
--@@ 46
0.@@ 46
1.@@ 46
160 46
1991 46
Academy 46
Air@@ 46
BL 46
CO 46
Empire 46
Gar@@ 46
Gen@@ 46
IM 46
Indeed 46
Islands 46
Koran 46
Kyoto 46
Leone 46
Mat@@ 46
Ooh 46
Open 46
Peace 46
RISD 46
Reagan 46
Russian 46
Sahara 46
Sou@@ 46
Ste@@ 46
Virginia 46
Wil@@ 46
Wilson 46
Within 46
acceptable 46
adopted 46
agency 46
alisation 46
ara 46
ash 46
attentivement 46
automobiles 46
autoroute 46
avatar 46
ba 46
bs 46
bénéfice 46
caractères 46
cer 46
cha@@ 46
cheese 46
ching 46
collectif 46
commentaire 46
commençait 46
communs 46
concentré 46
connecte 46
cosmic 46
croyait 46
créés 46
dec@@ 46
detailed 46
dirigé 46
dozens 46
drawings 46
déclaration 46
ego 46
empowered 46
enabled 46
envisager 46
eons 46
erectus 46
failing 46
fassiez 46
flows 46
fonctionnait 46
formula 46
fromage 46
gecko 46
gradually 46
graisse 46
grimper 46
guns 46
habits 46
honey 46
horloge 46
hormone 46
hypothèses 46
imprimer 46
inc@@ 46
indien 46
informed 46
installé 46
interestingly 46
ist@@ 46
izing 46
jolie 46
ken 46
kills 46
lake 46
lecteurs 46
lin@@ 46
luxe 46
ly@@ 46
maire 46
mammographie 46
mangeons 46
marins 46
mas@@ 46
mechanisms 46
mentors 46
merely 46
moelle 46
moustiquaires 46
myth 46
na@@ 46
observant 46
odds 46
ora 46
owner 46
parlaient 46
partenariat 46
pink 46
pleins 46
plonger 46
poignée 46
posez 46
progressivement 46
promesse 46
proper 46
prédiction 46
radios 46
raisonnable 46
react 46
refer 46
remarquerez 46
resistant 46
ressentez 46
ressort 46
retire 46
review 46
richer 46
ront 46
sha@@ 46
shake 46
shelter 46
silly 46
sl@@ 46
slogan 46
soldier 46
spéciale 46
statue 46
storytelling 46
struggling 46
suck 46
suggérer 46
supposé 46
surprisingly 46
susceptible 46
syn@@ 46
taxes 46
terribly 46
tragique 46
transistor 46
translated 46
tremblement 46
tune 46
ultra-@@ 46
universities 46
urbaine 46
views 46
voudrait 46
voyez-vous 46
échanger 46
échelles 46
écris 46
équations 46
-to-@@ 45
140 45
1900 45
2.0 45
46 45
Alabama 45
Américain 45
Atlantique 45
Bab@@ 45
CEO 45
Can@@ 45
Cape 45
Cl@@ 45
Dick 45
Dylan 45
Except 45
Gi@@ 45
Hawaii 45
Jersey 45
Jobs 45
Kelly 45
Kiribati 45
Linux 45
Ou@@ 45
Parkinson 45
Peut-on 45
Ph.D. 45
Simon 45
Sony 45
Without 45
Zipcar 45
a-t-elle 45
abeille 45
abuse 45
acc@@ 45
accep@@ 45
accessibles 45
accélérer 45
aci@@ 45
album 45
allumer 45
answered 45
arm@@ 45
artificiel 45
ass 45
assumptions 45
belong 45
blement 45
border 45
bored 45
branch 45
brillante 45
broad 45
bru@@ 45
bubbles 45
burden 45
cash 45
cast 45
cement 45
ceux-là 45
chairs 45
chapitre 45
chaînes 45
cherchent 45
chop 45
citer 45
conducteur 45
connues 45
consensus 45
continuous 45
convention 45
costume 45
coton 45
culturelles 45
côtes 45
database 45
demandait 45
demonstration 45
devoirs 45
din 45
disorder 45
diver@@ 45
drops 45
dées 45
désespoir 45
détruit 45
enn@@ 45
enseigné 45
entraînement 45
est@@ 45
exploit 45
extend 45
external 45
fil@@ 45
flu@@ 45
fondamentales 45
fore@@ 45
generating 45
gesture 45
gigantesque 45
gotta 45
grandchildren 45
horizontal 45
iPad 45
imaging 45
inevitable 45
influencer 45
intangible 45
interpretation 45
introduire 45
intérieure 45
issait 45
jellyfish 45
jouant 45
juin 45
jungle 45
laissant 45
lisez 45
marqué 45
mienne 45
migration 45
nerves 45
noter 45
panne 45
parallèle 45
passées 45
patience 45
phénomènes 45
plastiques 45
prenait 45
printed 45
queen 45
rebuild 45
reconstruction 45
regardais 45
reine 45
rejoint 45
rendant 45
rendez 45
reviens 45
récolter 45
rég@@ 45
régulièrement 45
réputation 45
sache 45
salt 45
sec 45
sem@@ 45
semi-@@ 45
sequences 45
sti@@ 45
séparation 45
tais 45
tech 45
tends 45
toes 45
trac@@ 45
triangles 45
trouvée 45
tumeurs 45
urge 45
vo@@ 45
vôtre 45
warning 45
éch@@ 45
écrans 45
égalité 45
émergence 45
étiquette 45
1968 44
2015 44
25@@ 44
Apollo 44
April 44
Bref 44
Bri@@ 44
Dallas 44
Gal@@ 44
Gr@@ 44
Greek 44
Italian 44
Lagos 44
Lee 44
Lo@@ 44
Mozart 44
Nike 44
Passons 44
Pri@@ 44
San@@ 44
She@@ 44
Sk@@ 44
Things 44
Tur@@ 44
Univers 44
Wal-Mart 44
accounts 44
addiction 44
aile 44
algorithme 44
analogie 44
ang 44
annoncé 44
antibiotics 44
applique 44
atifs 44
audi@@ 44
audition 44
bords 44
bound 44
brûler 44
capabilities 44
channels 44
choosing 44
chés 44
coat 44
colline 44
combustibles 44
commentaires 44
comparison 44
comptes 44
confused 44
constaté 44
constituent 44
cotton 44
couples 44
crises 44
curriculum 44
danser 44
dauphins 44
descendu 44
deserve 44
detection 44
devil 44
dirai 44
dispar@@ 44
djihad 44
download 44
défendre 44
earn 44
ecology 44
en-@@ 44
eng@@ 44
ennemis 44
established 44
esthétique 44
expedition 44
expédition 44
expérimenter 44
federal 44
femelle 44
finale 44
flowing 44
fondations 44
formés 44
gangs 44
grandeur 44
hired 44
hunting 44
ik@@ 44
improvisation 44
incertitude 44
indépendance 44
ing-@@ 44
initially 44
interpréter 44
islands 44
kindness 44
lands 44
laver 44
levez 44
lithium 44
managers 44
mathematicians 44
mature 44
miserable 44
moralité 44
moustiques 44
mèmes 44
navire 44
obtiennent 44
occurs 44
ology 44
opera 44
paires 44
papa 44
passes 44
physicists 44
planes 44
ple@@ 44
poet 44
powered 44
pretend 44
printer 44
prouvé 44
rassemblé 44
reform 44
reported 44
ressentent 44
restore 44
restée 44
reviennent 44
roues 44
rush 44
réfugiés 44
satisfaire 44
scanning 44
scans 44
shoe 44
smarter 44
sse 44
static 44
steal 44
storage 44
stri@@ 44
strike 44
surplus 44
susceptibles 44
systématiquement 44
t-on 44
teenagers 44
tically 44
tournant 44
trading 44
trajectory 44
trash 44
tués 44
variables 44
vel@@ 44
vendredi 44
vessel 44
victime 44
voulez-vous 44
widely 44
wider 44
wires 44
wow 44
États 44
émerger 44
étrangers 44
étrangère 44
ê@@ 44
-up 43
20ème 43
57 43
64 43
Alan 43
Anybody 43
Back 43
Columbia 43
Désolé 43
Fin@@ 43
Flickr 43
Higgs 43
Jazeera 43
Joel 43
Ke@@ 43
Little 43
MA 43
MO 43
News 43
PR 43
Philip 43
Society 43
Sorry 43
System 43
Wikipédia 43
acide 43
adventure 43
africaine 43
alisée 43
améliore 43
aqu@@ 43
araignées 43
aspirations 43
attiré 43
bags 43
bend 43
blanches 43
blessures 43
bre@@ 43
cables 43
canopy 43
capteur 43
cart 43
catching 43
chapeau 43
chirurgiens 43
chons 43
civilizations 43
comédie 43
connects 43
constitu@@ 43
constitution 43
continu@@ 43
convert 43
coupé 43
dessiné 43
destin 43
dilemma 43
discovering 43
disque 43
dodo 43
doucement 43
duquel 43
dépendance 43
dét@@ 43
ecological 43
elections 43
elite 43
encre 43
equations 43
fathers 43
faute 43
financement 43
fixe 43
fournissent 43
fra@@ 43
generous 43
ging 43
healthier 43
hi 43
homework 43
hor@@ 43
humanitarian 43
improving 43
impulsion 43
incendie 43
influenced 43
injury 43
isse 43
isées 43
jeté 43
jihad 43
jo@@ 43
located 43
meme 43
menu 43
mers 43
mesuré 43
nectar 43
neuro@@ 43
nutrients 43
ographie 43
openness 43
ouvriers 43
package 43
pan 43
passera 43
perceptions 43
permettra 43
planter 43
posséder 43
pots 43
pouvoirs 43
prevention 43
primates 43
prédateurs 43
préférée 43
publier 43
quent 43
regardait 43
reminded 43
replaced 43
resilience 43
rhythm 43
rings 43
rotation 43
rubber 43
réalisation 43
récent 43
seas 43
sensibilité 43
sexuelle 43
solo 43
som@@ 43
sor@@ 43
souligner 43
staying 43
stocks 43
suffered 43
suggested 43
supermarché 43
taire 43
températures 43
termin@@ 43
terribles 43
tiez 43
traduit 43
tranquille 43
und@@ 43
unhappy 43
viv@@ 43
voting 43
wash 43
witness 43
zo@@ 43
éducatif 43
40,000 42
59 42
Allen 42
Arabic 42
Bou@@ 42
Caltech 42
Council 42
December 42
Ed@@ 42
Fort 42
Ivan 42
Jerry 42
Katrina 42
Lama 42
Pa@@ 42
TEDTalks 42
Virgin 42
Whatever 42
ack 42
activer 42
affecting 42
algorithm 42
algues 42
alli@@ 42
aléatoire 42
ani 42
approaching 42
aptitude 42
array 42
assumption 42
atrazine 42
authentique 42
automne 42
autonomous 42
aver@@ 42
bil@@ 42
brièvement 42
brute 42
bétail 42
canal 42
chats 42
ched 42
chevaux 42
clips 42
collapsed 42
commandes 42
comptent 42
consciously 42
contrat 42
convergence 42
correctly 42
coucher 42
célébrer 42
deals 42
dilemme 42
dominated 42
doublé 42
dough 42
dressed 42
drivers 42
défaut 42
déménagé 42
emporter 42
enables 42
envoient 42
ethnic 42
extérieure 42
facilities 42
fai@@ 42
failures 42
far@@ 42
farming 42
filet 42
financer 42
fits 42
fonctionné 42
gods 42
généré 42
géométrie 42
hon@@ 42
identified 42
imiter 42
incapable 42
incentive 42
inspirés 42
instruction 42
interior 42
inévitable 42
isolated 42
kit 42
laptops 42
lat@@ 42
left-hand 42
licence 42
listened 42
lucratif 42
lées 42
machinery 42
manager 42
manifestations 42
manipuler 42
mapping 42
marry 42
merde 42
mobilité 42
mutuellement 42
mysterious 42
métabolisme 42
métaux 42
météo 42
na 42
nent 42
ner@@ 42
newspapers 42
noyau 42
occidentaux 42
occupation 42
ok@@ 42
opéra 42
ose 42
peaceful 42
performed 42
phases 42
pigeon 42
poches 42
populaires 42
portait 42
prediction 42
prepare 42
preserve 42
priorités 42
précédente 42
psychologues 42
purposes 42
qué 42
ramène 42
rapid 42
realistic 42
reliable 42
remarque 42
reminds 42
reprises 42
rig@@ 42
récit 42
réels 42
répète 42
rétine 42
sant 42
saut 42
sed 42
sessions 42
sexuels 42
shirt 42
shy 42
silencieux 42
sonde 42
souffre 42
spécifiquement 42
stretch 42
suspended 42
séparés 42
sœurs 42
taxi 42
temporal 42
tennis 42
teront 42
tes@@ 42
textes 42
tournent 42
trajet 42
transistors 42
transmis 42
tre@@ 42
vivantes 42
war@@ 42
wealthy 42
wheat 42
worthy 42
échanges 42
élection 42
éloigné 42
éléphant 42
étage 42
1960s 41
1980s 41
1996 41
200,000 41
49 41
AV 41
Afghan 41
Anglais 41
Arizona 41
Business 41
Cassini 41
Char@@ 41
Christ 41
DARPA 41
Ethiopie 41
Fr@@ 41
Francis 41
Greenland 41
Jamais 41
Lake 41
Love 41
Malgré 41
Nu@@ 41
PH 41
Probably 41
Qatar 41
Saint 41
Sam@@ 41
Santé 41
Skype 41
Talk 41
Wait 41
adop@@ 41
adopté 41
alism 41
allez-vous 41
analogy 41
analy@@ 41
appearance 41
apprise 41
approaches 41
asks 41
assignment 41
assistant 41
atives 41
atrice 41
attractive 41
audiences 41
auditorium 41
augmentent 41
autonomie 41
beautifully 41
bert 41
boats 41
briser 41
bu 41
caring 41
chercheur 41
choses-là 41
closest 41
clue 41
compelling 41
conf@@ 41
conservative 41
constitue 41
contente 41
contribué 41
corbeaux 41
cousin 41
couvre 41
criminal 41
créative 41
cylinder 41
delivery 41
devenez 41
divisé 41
donnés 41
drew 41
dumb 41
démographique 41
educate 41
effectué 41
electron 41
elementary 41
enveloppe 41
essay@@ 41
ev@@ 41
experiencing 41
fancy 41
fasciné 41
fastest 41
fe@@ 41
fied 41
filtre 41
firm 41
forcer 41
forgot 41
freely 41
funds 41
gay 41
gou@@ 41
génétiquement 41
harmonie 41
highway 41
horribles 41
household 41
hur@@ 41
hypothesis 41
ien 41
ignored 41
ignorer 41
improbable 41
indice 41
individuel 41
iness 41
ini@@ 41
injustice 41
invested 41
ises 41
isolation 41
joindre 41
judgment 41
kick 41
laughing 41
liberal 41
lobby 41
lourd 41
lungs 41
légère 41
manual 41
marketplace 41
mentionner 41
mettait 41
microbial 41
mince 41
mycelium 41
occasionally 41
ongoing 41
orchestra 41
oubliez 41
parlerai 41
participé 41
particule 41
partnership 41
penguin 41
peoples 41
phenomena 41
planetary 41
plastics 41
pointing 41
ponts 41
pou@@ 41
prisoners 41
probe 41
profoundly 41
protecting 41
ral 41
religieuses 41
remained 41
remaining 41
remarquez 41
retina 41
returned 41
roulant 41
salon 41
sch@@ 41
seeking 41
sexuelles 41
shine 41
significantly 41
simuler 41
sir 41
strings 41
structural 41
suis-je 41
sustain 41
sérieuse 41
tal@@ 41
te-@@ 41
toxiques 41
tragic 41
ulation 41
unable 41
vaccines 41
ventes 41
venture 41
vibration 41
vis@@ 41
volumes 41
volunteer 41
votes 41
wa 41
wh@@ 41
écou@@ 41
électrons 41
épouse 41
érer 41
étages 41
-and-@@ 40
0,000 40
19ème 40
2,5 40
20-@@ 40
56 40
Arctique 40
Ash@@ 40
BMW 40
Blanche 40
CA@@ 40
CNN 40
Cancer 40
Carnegie 40
Chile 40
Costa 40
Cou@@ 40
Cr@@ 40
Cre@@ 40
DG 40
Dis@@ 40
Fl@@ 40
Ladies 40
Leurs 40
NGOs 40
Nairobi 40
Numéro 40
Pra@@ 40
Princeton 40
Prix 40
Pôle 40
Revenons 40
Ses 40
Sol@@ 40
Southern 40
Sp@@ 40
Sunday 40
Talibans 40
Vegas 40
Venezuela 40
Village 40
Watch 40
Way 40
Yves 40
accompli 40
achetez 40
additional 40
agissent 40
allu@@ 40
anecdote 40
apprenez 40
approvisionnement 40
aquarium 40
banjo 40
barres 40
beating 40
builds 40
burned 40
cake 40
capitale 40
capitalism 40
cas@@ 40
cassé 40
ceinture 40
cel@@ 40
chaine 40
chanceux 40
chée 40
column 40
commit 40
communicating 40
compete 40
cons@@ 40
continuum 40
counting 40
covers 40
cruel 40
customer 40
damn 40
describes 40
despair 40
diagnosed 40
diameter 40
diminué 40
directe 40
dispose 40
douloureux 40
dunes 40
défini 40
définit 40
dépasser 40
déplacement 40
earliest 40
ection 40
emp@@ 40
employé 40
en-dessous 40
environnementaux 40
eries 40
excellente 40
fac@@ 40
ford 40
frontal 40
gases 40
gathered 40
ged 40
grandissant 40
grandit 40
grou@@ 40
gui@@ 40
génère 40
hand@@ 40
head@@ 40
headlines 40
historic 40
ignorance 40
implants 40
inclut 40
infectés 40
infirmière 40
intensity 40
interviewed 40
juge 40
ki@@ 40
lo 40
locations 40
log@@ 40
lou@@ 40
loves 40
mac@@ 40
meals 40
mondiales 40
motivated 40
narratives 40
ned 40
nutriments 40
négociations 40
observons 40
off@@ 40
oire 40
oll@@ 40
ologique 40
omb@@ 40
ow@@ 40
paroles 40
pathogènes 40
ped 40
perceived 40
peut-il 40
pie 40
pills 40
plai@@ 40
plate-forme 40
pleinement 40
porc 40
pouce 40
poète 40
predictable 40
procedure 40
propulsion 40
pursuit 40
quest 40
races 40
rai@@ 40
rechercher 40
refuse 40
regrets 40
remembered 40
reproduce 40
respec@@ 40
retrouvent 40
réelles 40
sake 40
sanguin 40
shit 40
significatif 40
silver 40
situe 40
sols 40
sonore 40
sors 40
soup 40
spinning 40
spécialistes 40
squ@@ 40
steak 40
stored 40
supprimer 40
surgeries 40
sy 40
tage 40
tap@@ 40
tation 40
tran@@ 40
traversée 40
ung 40
universelle 40
utilisaient 40
valve 40
visualiser 40
y&apos; 40
youth 40
zed 40
élite 40
étonnantes 40
évoluent 40
Am 39
Anyone 39
Aristotle 39
Armstrong 39
Attendez 39
Both 39
Che@@ 39
Conseil 39
Cuba 39
Cy@@ 39
DP 39
Emma 39
Espagne 39
Groenland 39
Indians 39
Is@@ 39
Its 39
Kar@@ 39
Lawrence 39
Light 39
Maison 39
Maldives 39
New@@ 39
Rose 39
Salut 39
Someone 39
Soyez 39
Suisse 39
TS 39
Tanzania 39
Tanzanie 39
Telescope 39
Vos 39
Warren 39
abstraction 39
abundance 39
accélère 39
acoustique 39
afficher 39
agricoles 39
ail@@ 39
aine 39
ains 39
airs 39
alcool 39
aliste 39
alistes 39
alization 39
aluminium 39
anglaise 39
ans@@ 39
arriva 39
ase 39
asse 39
atomique 39
attitudes 39
author 39
believing 39
berg 39
bill 39
blessure 39
bête 39
cal 39
calculations 39
canopée 39
capitalisme 39
cartoons 39
caves 39
challenged 39
cherchant 39
combustible 39
comedy 39
communi@@ 39
contraintes 39
convertir 39
conçue 39
cop@@ 39
coraux 39
correspondent 39
couloir 39
damaged 39
dangereuses 39
decrease 39
demands 39
destiny 39
determines 39
deviendra 39
devrions-nous 39
distribuer 39
divergence 39
donnera 39
donor 39
doors 39
dossier 39
downtown 39
dri@@ 39
débuts 39
dépasse 39
ee 39
empires 39
enc@@ 39
enjoyed 39
ep@@ 39
ering 39
explosé 39
extraordinarily 39
females 39
fondée 39
fossé 39
foundations 39
frightening 39
frustrated 39
fuite 39
genomes 39
ger@@ 39
grasp 39
gratitude 39
guarantee 39
guider 39
habitats 39
helicopter 39
helium 39
hierarchy 39
hé 39
identique 39
illustrer 39
included 39
index 39
influences 39
intensité 39
interdit 39
internationaux 39
intervenir 39
intimité 39
investi 39
item 39
jugement 39
juice 39
juridique 39
lan@@ 39
landscapes 39
les@@ 39
libération 39
litres 39
locally 39
longs 39
majeures 39
manipul@@ 39
manipulate 39
manuels 39
maîtrise 39
mec 39
mobility 39
naissent 39
obligation 39
occupé 39
oph@@ 39
overwhelmed 39
panels 39
parcouru 39
perdue 39
planification 39
planétaire 39
prenne 39
preparing 39
professionals 39
profitable 39
proposed 39
proximité 39
présentes 39
rac@@ 39
racine 39
radar 39
rappelez-vous 39
rappelé 39
recyclage 39
recycling 39
reducing 39
reflète 39
religieuse 39
rends 39
repenser 39
représenté 39
reveal 39
roche 39
réfléchit 39
répéter 39
selfish 39
sensations 39
shocked 39
sixth 39
skeletal 39
spill 39
spreads 39
sta@@ 39
stepped 39
suggestion 39
supplies 39
sèche 39
sée 39
séparé 39
tenant 39
th-@@ 39
tim@@ 39
tion@@ 39
transit 39
tricks 39
trivial 39
ubiquitous 39
unprecedented 39
valley 39
vastes 39
verse 39
visualisation 39
visualization 39
voyagé 39
waters 39
wrap 39
ws 39
èle 39
épi@@ 39
éteint 39
&apos;clock 38
--- 38
00 38
125 38
1950s 38
1984 38
1985 38
2030 38
3.@@ 38
60,000 38
Acumen 38
Aristote 38
Ca@@ 38
Celle-ci 38
Chili 38
Dar@@ 38
Deep 38
Emily 38
Evan 38
Ground 38
Han@@ 38
Hawking 38
Hy@@ 38
Ireland 38
Journal 38
Jésus 38
KA 38
Kepler 38
March 38
Margaret 38
Na@@ 38
Nicole 38
Panbanisha 38
Papa 38
Pen@@ 38
Portugal 38
Queen 38
RG 38
Redwood 38
Romo 38
SB 38
Sha@@ 38
Sil@@ 38
Spain 38
Stirling 38
Susan 38
ace 38
achievement 38
acquérir 38
aesthetic 38
agence 38
ager 38
aiguille 38
alist 38
alisés 38
alize 38
alliez 38
ampleur 38
annual 38
anxiety 38
apprécie 38
armed 38
assiette 38
associés 38
authors 38
autism 38
aveugles 38
axes 38
azote 38
aérienne 38
bac@@ 38
bacterial 38
barrel 38
beaten 38
bel@@ 38
biom@@ 38
biomass 38
bleues 38
boards 38
boss 38
bougent 38
breakfast 38
bridges 38
briques 38
bénévoles 38
carbonate 38
cellphone 38
chan@@ 38
chemins 38
cigarette 38
classical 38
classiques 38
cochons 38
coma 38
comic 38
commençant 38
composer 38
confortable 38
conservateurs 38
constitué 38
continuing 38
contributed 38
contrôlée 38
corrélation 38
coupable 38
courante 38
crop 38
célèbres 38
dangers 38
debt 38
dil@@ 38
directeurs 38
disparition 38
domestique 38
doux 38
douzaines 38
drogues 38
dépensent 38
dépensons 38
emergence 38
enemies 38
engagés 38
enzymes 38
ered 38
err@@ 38
estimer 38
excuses 38
expose 38
fabriqués 38
farms 38
fatal 38
fausses 38
ferais 38
fermes 38
fixer 38
fli@@ 38
folded 38
formidables 38
fun@@ 38
futures 38
février 38
gadgets 38
glue 38
gosses 38
grateful 38
génomes 38
habituellement 38
hardest 38
hat 38
historically 38
hiérarchie 38
honnêtement 38
ile 38
illa 38
impose 38
imprimante 38
inflation 38
initiale 38
intensive 38
inviter 38
irrigation 38
jouait 38
kin 38
lar@@ 38
leaf 38
levée 38
lowest 38
luxury 38
magnificent 38
mainstream 38
manquer 38
marches 38
measurements 38
med 38
menaces 38
migraine 38
motors 38
méchant 38
nearest 38
non-zero-sum 38
nouveauté 38
occurring 38
offering 38
olive 38
ols 38
ony 38
ope 38
organiques 38
oy@@ 38
ozone 38
parasites 38
patent 38
payés 38
phenomenal 38
plates 38
poils 38
posted 38
poumon 38
propriétaires 38
protégés 38
précises 38
prédit 38
psycho@@ 38
raisonnement 38
readers 38
recession 38
remis 38
remix 38
reserves 38
rope 38
réussissent 38
révélé 38
saviez 38
seemingly 38
selected 38
sensing 38
sensor 38
servant 38
sexes 38
shelf 38
sien 38
signer 38
six-@@ 38
sombres 38
someday 38
staring 38
statistique 38
stays 38
succeeded 38
suivez 38
supermarket 38
termine 38
til@@ 38
tile 38
tionnel 38
tor 38
traditionnels 38
typiquement 38
télécharger 38
urgences 38
valent 38
voted 38
vulnérables 38
wildlife 38
écologiques 38
éloigne 38
élu 38
épargner 38
û@@ 38
) 37
1970s 37
1975 37
58 37
83 37
Although 37
Association 37
Autrement 37
Barack 37
Being 37
Bond 37
Bre@@ 37
Brothers 37
Centre 37
Copenhagen 37
Copenhague 37
Dalai 37
Des@@ 37
Femme 37
Irlande 37
Julia 37
July 37
Keith 37
Khan 37
Matt 37
Mur@@ 37
Mère 37
Nigéria 37
Pepsi 37
Sar@@ 37
Se 37
Security 37
Seulement 37
Suddenly 37
Tra@@ 37
UV 37
Young 37
ably 37
absolu 37
abstrait 37
acids 37
affichage 37
agencies 37
agricole 37
ame 37
américaines 37
angiogenesis 37
app@@ 37
apparait 37
approved 37
aps 37
arrêtent 37
assi@@ 37
astro@@ 37
atomic 37
atta@@ 37
baie 37
banking 37
battent 37
bedroom 37
biologist 37
biologiste 37
breakthrough 37
capit@@ 37
carpet 37
cau@@ 37
cess@@ 37
changeant 37
chent 37
cherchez 37
cibles 37
clavier 37
cocktail 37
commission 37
completed 37
concentrated 37
concentre 37
concerns 37
connectivity 37
considèrent 37
cope 37
corals 37
creuser 37
crew 37
crows 37
ction 37
dirigeant 37
dite 37
divine 37
dolphins 37
dy@@ 37
débuté 37
déclaré 37
démarche 37
e-t-il 37
emmène 37
endangered 37
ene 37
engines 37
ensure 37
entourent 37
entraîne 37
enzyme 37
erg@@ 37
es-@@ 37
estimates 37
ex-@@ 37
exig@@ 37
exposure 37
ez-moi 37
femelles 37
fence 37
firing 37
folding 37
fortunately 37
fœtus 37
genres 37
gentil 37
gentillesse 37
gri@@ 37
habitant 37
habitudes 37
halfway 37
hot@@ 37
hélium 37
ick 37
imagin@@ 37
immenses 37
inclure 37
indépendant 37
inevitably 37
inférieure 37
inhabituel 37
insights 37
instantanément 37
instantly 37
institutional 37
intersection 37
intitule 37
investing 37
investisseurs 37
landing 37
librement 37
limitée 37
livestock 37
ll 37
lottery 37
loving 37
measures 37
mindset 37
minus 37
modifié 37
mé 37
namely 37
naviguer 37
naître 37
neighborhoods 37
nitrogen 37
noble 37
norme 37
notation 37
nourrit 37
observez 37
ong 37
origins 37
ouvrez 37
ov@@ 37
palm 37
pay@@ 37
permanente 37
picks 37
plain 37
pockets 37
posture 37
pray 37
primordial 37
procédure 37
profondeurs 37
projections 37
pros@@ 37
prospérité 37
préparation 37
présentent 37
pursue 37
ramasser 37
rap 37
reasonable 37
refugee 37
rencontrés 37
rendait 37
rendement 37
right-hand 37
rivières 37
ros@@ 37
ré-@@ 37
récif 37
récolte 37
réduite 37
résister 37
résume 37
révéler 37
sacrée 37
saine 37
scaling 37
scenes 37
schémas 37
sheets 37
shots 37
slums 37
soirée 37
sortez 37
souhaitez 37
spec@@ 37
spécialiste 37
ss 37
straightforward 37
streams 37
surgeons 37
symétries 37
synapses 37
tackle 37
tags 37
tam@@ 37
tasse 37
technically 37
telescopes 37
tenté 37
terroristes 37
thèmes 37
tly 37
transforment 37
transforming 37
trouvaient 37
vary 37
victim 37
virtuelle 37
welfare 37
year-olds 37
yl@@ 37
zing 37
Égypte 37
çant 37
équipements 37
1500 36
1989 36
86 36
92 36
Ah@@ 36
Almost 36
August 36
Barry 36
Beethoven 36
Bruno 36
CIA 36
Caroline 36
Coast 36
Galois 36
Gordon 36
Gre@@ 36
Hill 36
History 36
Hudson 36
IV 36
Intel 36
Ko@@ 36
L.A. 36
Les@@ 36
Listen 36
Lorsqu&apos; 36
Mag@@ 36
Mil@@ 36
Mother 36
Nathan 36
Nick 36
Partout 36
Pensez-y 36
Pre@@ 36
Puisque 36
Res@@ 36
Royal 36
Sauf 36
Sri 36
Stone 36
TE@@ 36
Ta@@ 36
Tamiflu 36
Tar@@ 36
Technology 36
Tennessee 36
Val@@ 36
YR 36
ablement 36
absolue 36
accomplished 36
accumulation 36
aggressive 36
aimaient 36
alized 36
all-@@ 36
applying 36
appropriée 36
appuie 36
atom 36
attrape 36
attrapé 36
authentic 36
aviaire 36
badly 36
barrier 36
bes 36
billet 36
binary 36
biomasse 36
biosphère 36
bot@@ 36
brin 36
bénéfique 36
carries 36
cascade 36
certitude 36
chaises 36
changez 36
cheat 36
chimiothérapie 36
cieux 36
cliff 36
collectively 36
collège 36
commodity 36
communiquent 36
competing 36
competitive 36
compose 36
concentrate 36
considérez 36
continu 36
contre-@@ 36
copier 36
courtes 36
coverage 36
coûteux 36
crochet 36
cubes 36
cyber@@ 36
cylindre 36
cérébrales 36
dangereuse 36
deployed 36
destiné 36
detector 36
devinez 36
dispositifs 36
doctorat 36
double-@@ 36
douzaine 36
durs 36
duré 36
dépense 36
emplacement 36
encouraging 36
erions 36
espérant 36
estate 36
euros 36
evolving 36
familial 36
fluctuations 36
font-ils 36
gallery 36
gear 36
gig@@ 36
gloire 36
gn@@ 36
guilty 36
hausse 36
healing 36
hein 36
honestly 36
hook 36
horses 36
hum@@ 36
humble 36
hélicoptère 36
impressions 36
improved 36
infinie 36
institut 36
ize 36
ja 36
janvier 36
jaunes 36
jette 36
jury 36
justement 36
large-scale 36
larges 36
lists 36
logement 36
lointain 36
lés 36
marks 36
ment@@ 36
mid@@ 36
ming 36
moléculaires 36
motive 36
nuits 36
nées 36
objective 36
optimal 36
ouais 36
over-@@ 36
paie 36
partagée 36
partent 36
patron 36
peint 36
peintures 36
permettait 36
photographié 36
plats 36
port@@ 36
poubelle 36
practices 36
prendra 36
processeur 36
producteurs 36
prosperity 36
province 36
préservatifs 36
préserver 36
prê@@ 36
quit 36
raped 36
rassemble 36
reactions 36
recommend 36
refusé 36
regardless 36
respecter 36
rewards 36
rides 36
ritual 36
rituals 36
rituel 36
rituels 36
rotate 36
récession 36
safer 36
scratch 36
self-interest 36
sexuel 36
shes 36
sible 36
smiling 36
squelette 36
strongly 36
stupides 36
sulfure 36
summit 36
supporting 36
surement 36
surrounding 36
surveiller 36
survived 36
switched 36
sy@@ 36
symmetries 36
t-elle 36
tactile 36
tag@@ 36
tagged 36
tales 36
temperatures 36
terrific 36
threats 36
tional 36
tis 36
tolerance 36
tom@@ 36
traversent 36
trigger 36
tz 36
universes 36
utterly 36
vendent 36
voile 36
voyaient 36
ward 36
wedding 36
woke 36
worrying 36
wound 36
ye@@ 36
yn@@ 36
Écoutez 36
âgés 36
émet 36
évaluation 36
-ci 35
110 35
1986 35
40@@ 35
87 35
93 35
Abu 35
Amanda 35
Bertie 35
Bono 35
CAPTCHA 35
Chacune 35
DE@@ 35
Detroit 35
Disons 35
Durant 35
FOXO 35
Hou@@ 35
Keep 35
Laissez 35
Loi 35
Magazine 35
Marine 35
Messieurs 35
Musée 35
Nigerian 35
Op@@ 35
Plutôt 35
Point 35
Professor 35
Radio 35
Roger 35
Roosevelt 35
Seconde 35
Stu@@ 35
Tant 35
Until 35
Williams 35
Zealand 35
accelerating 35
accro@@ 35
acres 35
adapté 35
advances 35
affir@@ 35
agences 35
aluminum 35
amas 35
ander 35
anesthésie 35
apartheid 35
appelés 35
apples 35
appuyer 35
attendons 35
atterrir 35
avril 35
basket 35
battu 35
bias 35
bidonville 35
blo@@ 35
blown 35
boue 35
brands 35
cachée 35
camel 35
caps 35
chait 35
chante 35
chariot 35
choisis 35
cigarettes 35
citoyen 35
ck@@ 35
claims 35
cocaine 35
coincé 35
collecter 35
complications 35
comportent 35
computational 35
concevons 35
confront 35
contributing 35
cou 35
cows 35
crayon 35
croquis 35
créations 35
cs 35
cuts 35
deck 35
demandons 35
devint 35
disparaît 35
dune 35
durer 35
démo@@ 35
détermination 35
economist 35
ee@@ 35
electrons 35
enjoying 35
ent-@@ 35
entrés 35
environs 35
es-tu 35
explications 35
exposés 35
extrémité 35
fe 35
fibers 35
follows 35
fought 35
fusil 35
ga 35
gallon 35
gers 35
heading 35
helpful 35
hill 35
honored 35
ian 35
ide@@ 35
identification 35
imitation 35
impressive 35
independence 35
indication 35
individuels 35
infant 35
inférieur 35
ingly 35
integration 35
investors 35
iront 35
journalists 35
jus 35
lamp 35
lancement 35
leap 35
libéraux 35
loan 35
mall 35
manifestement 35
marijuana 35
marqueurs 35
marée 35
mesh 35
microphone 35
milieux 35
mimic 35
mouche 35
moustique 35
musician 35
musulman 35
mées 35
n-@@ 35
nano-@@ 35
navigate 35
nearby 35
neurosciences 35
nom@@ 35
nowadays 35
nécessité 35
octobre 35
offers 35
onner 35
ord@@ 35
organizing 35
ouvrières 35
packed 35
passionné 35
philanthropy 35
pigmentation 35
pique 35
pirates 35
pizza 35
placebo 35
pleasant 35
pleines 35
polaire 35
pole 35
poudre 35
poèmes 35
predators 35
prisoner 35
prisonnier 35
proven 35
provoqué 35
prédateur 35
psychologique 35
pulls 35
quitte 35
radically 35
recommencer 35
refaire 35
relie 35
repousser 35
reçois 35
rough 35
sectors 35
selves 35
shops 35
sizes 35
sortant 35
soupe 35
strands 35
sun@@ 35
synthétique 35
sé 35
taxe 35
tenez 35
themes 35
therapies 35
thermique 35
thus 35
tickets 35
tolérance 35
tongue 35
touches 35
tourn@@ 35
tower 35
toxique 35
trai@@ 35
transformée 35
trouvés 35
tuent 35
télescopes 35
useless 35
utilisait 35
valait 35
vegetable 35
viseur 35
vou@@ 35
vé 35
wed 35
wooden 35
yourselves 35
Être 35
çà 35
éc@@ 35
économiste 35
édition 35
égoïste 35
,@@ 34
0,@@ 34
1982 34
30s 34
53 34
94 34
AR@@ 34
Agnes 34
Archie 34
Benki 34
Church 34
County 34
DJ 34
Dave 34
Dor@@ 34
EB 34
Eu@@ 34
Européenne 34
Faisons 34
Ho@@ 34
Jackson 34
Je@@ 34
Las 34
Leonardo 34
Library 34
Mahmoud 34
Max 34
Mul@@ 34
PowerPoint 34
Rachel 34
Rob 34
Sergio 34
St. 34
The@@ 34
Theater 34
Through 34
Trans@@ 34
UCLA 34
Venter 34
Witness 34
Yorker 34
accro 34
adjust 34
ajoutez 34
amazingly 34
appelées 34
apportent 34
appren@@ 34
approches 34
arguing 34
arriverait 34
associée 34
astéroïdes 34
attendait 34
authorities 34
autorités 34
bab@@ 34
backs 34
ball@@ 34
bite 34
blank 34
bold 34
bouse 34
broader 34
bronze 34
buts 34
bénéficier 34
cab@@ 34
calm 34
canaux 34
candidate 34
choisissent 34
cien 34
citizen 34
classrooms 34
climatiques 34
colonnes 34
commencement 34
communautaire 34
compatible 34
comporter 34
concerts 34
condoms 34
connectivité 34
considérable 34
constraints 34
construct 34
construites 34
construits 34
contenir 34
cooling 34
cooperative 34
copi@@ 34
cord 34
corners 34
couteau 34
craft 34
crap 34
cream 34
cups 34
dan@@ 34
dawn 34
delicious 34
dessine 34
devenait 34
diarrhée 34
diplomatie 34
diraient 34
disagree 34
disorders 34
dispute 34
dolphin 34
donateurs 34
doubled 34
drag 34
dropping 34
duck 34
décembre 34
estimated 34
excitement 34
exclu@@ 34
exploser 34
exprime 34
factories 34
faisable 34
fallen 34
fardeau 34
fascinante 34
feux 34
fie 34
fondre 34
frequently 34
fri@@ 34
fy 34
graphs 34
guérir 34
hacker 34
harmful 34
herbes 34
hémisphère 34
ical 34
icon 34
iled 34
illustrate 34
inconnue 34
inconnus 34
indiquent 34
indiquer 34
individuelles 34
inquiet 34
insane 34
instincts 34
intime 34
intègre 34
intéressée 34
invasion 34
invasive 34
items 34
ites 34
je@@ 34
jou@@ 34
kidney 34
knife 34
land@@ 34
lecteur 34
lig@@ 34
logy 34
longévité 34
loses 34
lumineux 34
mai 34
mangez 34
matrice 34
melt 34
melting 34
mes@@ 34
metabolism 34
mil@@ 34
mining 34
miracles 34
miroirs 34
missile 34
monitoring 34
montent 34
motivations 34
mour@@ 34
nar@@ 34
neck 34
neutral 34
nous-même 34
onné 34
orders 34
paramètres 34
parie 34
particuliers 34
peer 34
pharmaceutical 34
playful 34
ple 34
poli@@ 34
prenaient 34
privileged 34
privés 34
probabilités 34
progresser 34
préfèrent 34
psychologists 34
publish 34
publishing 34
puces 34
pulse 34
pêcheurs 34
raté 34
reaches 34
reconnaitre 34
remise 34
rencontrent 34
repeated 34
retirement 34
ris 34
royaume 34
récits 34
régulation 34
révélation 34
safely 34
salaires 34
sav@@ 34
scolaires 34
seal 34
sen 34
sends 34
shifts 34
sia 34
simplest 34
soutenu 34
spores 34
spray 34
sses 34
stein 34
ster@@ 34
sting 34
stockage 34
strategic 34
suey 34
sulfide 34
teaches 34
tenais 34
territory 34
timing 34
tofu 34
tombés 34
touching 34
transformations 34
transférer 34
tronc 34
vendus 34
versa 34
viendrait 34
visuelles 34
volts 34
woods 34
yan 34
yield 34
échouer 34
écrits 34
épaules 34
éradiquer 34
étendu 34
étudient 34
‘ 34
10-@@ 33
17th 33
1973 33
1993 33
20e 33
20s 33
3,@@ 33
50@@ 33
= 33
Arts 33
Bas@@ 33
Bor@@ 33
Bruce 33
CP 33
Cambodia 33
Carolina 33
Catholic 33
Christians 33
Court 33
Cro@@ 33
DL 33
Dev@@ 33
Faire 33
Fox 33
Fund 33
HA 33
Haw@@ 33
Hitler 33
IDEO 33
Iranian 33
Islamique 33
Jamie 33
Jimmy 33
Julian 33
Miller 33
Molas 33
Murray 33
NM 33
Projet 33
Rouge 33
SE@@ 33
Sam 33
Savez-vous 33
Shar@@ 33
Shi@@ 33
Sweeney 33
Swiss 33
Ted 33
Water 33
Wi-Fi 33
Yemen 33
a.m. 33
accor@@ 33
actualité 33
actuels 33
agreement 33
aim 33
alarm 33
alcohol 33
alerte 33
algae 33
amélioré 33
anatomy 33
ancestor 33
animations 33
ano 33
ap 33
arrested 33
arrê@@ 33
arti@@ 33
ascenseur 33
ases 33
atique 33
atome 33
attaché 33
attacked 33
attracted 33
attrap@@ 33
aube 33
aurai 33
autisme 33
aviation 33
backyard 33
bad@@ 33
billets 33
bills 33
blu@@ 33
boundary 33
boutique 33
breeding 33
burst 33
béton 33
cascades 33
casse-têtes 33
cellular 33
centr@@ 33
cetera 33
chambres 33
chameau 33
chasseurs 33
chauffeur 33
chemise 33
comparing 33
compliqués 33
composés 33
concentrés 33
conducted 33
confronté 33
consciemment 33
consumed 33
conten@@ 33
continuellement 33
controversial 33
convenient 33
convey 33
copied 33
corporations 33
corresponds 33
coûtent 33
curieuse 33
decision-making 33
defining 33
destroying 33
dge 33
dimanche 33
douleurs 33
drum 33
décide 33
désespérément 33
déterminé 33
eliminate 33
ently 33
esse 33
examens 33
explosions 33
fermier 33
flèche 33
formations 33
forum 33
friction 33
fur@@ 33
gent 33
glis@@ 33
grise 33
gy 33
gâteau 33
gère 33
géants 33
génér@@ 33
habit 33
haine 33
han 33
hanche 33
heavily 33
homeless 33
hopes 33
humidité 33
incidence 33
indiens 33
infiniment 33
ingredient 33
ini 33
interpret 33
intestin 33
inventeur 33
inventor 33
involve 33
jouez 33
juger 33
junk 33
label 33
lectures 33
lifted 33
literacy 33
mait 33
marge 33
marin 33
mathematician 33
mathématicien 33
mati@@ 33
mayor 33
montant 33
mouches 33
mushroom 33
mée 33
més 33
nourrissent 33
ny 33
négocier 33
obese 33
optical 33
paradox 33
paradoxe 33
participent 33
paysans 33
pec@@ 33
pel@@ 33
perdons 33
pertinent 33
philanthropie 33
plaques 33
plateau 33
policiers 33
previously 33
pride 33
profile 33
programmed 33
protégées 33
quo 33
quoique 33
rape 33
rapproche 33
ray 33
rayonnement 33
rays 33
recettes 33
reflected 33
reflection 33
regardaient 33
relève 33
remède 33
remédier 33
residents 33
revanche 33
revenons 33
rs 33
récepteur 33
réfléchissons 33
réformes 33
résolus 33
révèle 33
saute 33
seals 33
semblaient 33
sentons 33
seriez 33
sey 33
shore 33
sie 33
significance 33
simpler 33
simulate 33
sin 33
sized 33
slower 33
soutient 33
spell 33
spirale 33
ssent 33
stack 33
staircase 33
statique 33
steam 33
striking 33
tants 33
tenait 33
tendre 33
terons 33
theoretical 33
thérapies 33
touchent 33
traditionnelles 33
traitons 33
transmitted 33
trices 33
trompe 33
trouvais 33
tuberculose 33
tuyau 33
two-thirds 33
uniforme 33
upside 33
vez 33
voté 33
voy@@ 33
wishes 33
worm 33
yard 33
électrodes 33
éventail 33
1949 32
1976 32
30-@@ 32
50-@@ 32
62 32
73 32
A-@@ 32
AG 32
Allons 32
Andy 32
BP 32
Ban@@ 32
Beck 32
Bra@@ 32
Cambodge 32
Chi@@ 32
Dad 32
Dead 32
Docteur 32
Don@@ 32
Ed 32
Fondation 32
Grace 32
Half 32
Hiroshima 32
Hubble 32
Langley 32
Lors 32
MM 32
Mahatma 32
Marshall 32
Mola 32
Mountain 32
Narrateur 32
Neanderthals 32
Nollywood 32
Office 32
Olympics 32
Pardon 32
Paulo 32
Pays 32
Probablement 32
RS 32
Reed 32
Roots 32
Saddam 32
Shoots 32
Stockholm 32
Sudhir 32
Sure 32
Te@@ 32
Ushahidi 32
Vermeer 32
Virginie 32
Wide 32
Yémen 32
abandon 32
ach 32
acquire 32
acquired 32
activation 32
activists 32
addi@@ 32
affectent 32
affection 32
affi@@ 32
aient-ils 32
alizing 32
allume 32
analyses 32
ancêtre 32
anges 32
annoncer 32
appartements 32
arabes 32
argile 32
atterri 32
attire 32
attribu@@ 32
bacterium 32
bidonvilles 32
bonds 32
cardiac 32
carton 32
cation 32
censés 32
centimètre 32
centrales 32
chamber 32
champignon 32
changeons 32
cliquer 32
combler 32
contrary 32
contraste 32
contribue 32
contrôlent 32
contrôlé 32
converted 32
convictions 32
counted 32
cross-@@ 32
cul 32
currency 32
deaf 32
decent 32
demonstrated 32
descendent 32
desktop 32
dessinée 32
devi@@ 32
dial 32
discuté 32
domicile 32
déclen@@ 32
déli@@ 32
dépit 32
dérange 32
eait 32
elaborate 32
elegant 32
empê@@ 32
ensembles 32
equals 32
exacte 32
excités 32
expanded 32
expecting 32
expliquent 32
expressed 32
extinctions 32
extraits 32
fabriquent 32
fabuleux 32
faisons-nous 32
familiers 32
farther 32
fau@@ 32
fax 32
ferons 32
fever 32
fications 32
financé 32
flavor 32
folds 32
fonctionn@@ 32
fourni 32
fréquences 32
gam@@ 32
gamma 32
gare 32
girlfriend 32
gorgeous 32
gross 32
gue 32
harmony 32
headquarters 32
hopeful 32
humilité 32
illégal 32
indices 32
inspec@@ 32
int 32
intermédiaire 32
intrinsèquement 32
invités 32
inévitablement 32
issons 32
iz@@ 32
jeans 32
jetons 32
ji 32
keyboard 32
kingdom 32
lanes 32
legitimate 32
lentilles 32
levier 32
listes 32
log 32
mag@@ 32
majeurs 32
manner 32
marchant 32
mat 32
matched 32
mentir 32
mez 32
mien 32
mixing 32
mot@@ 32
moutons 32
multiply 32
mus@@ 32
mushrooms 32
musées 32
mènent 32
neutre 32
nights 32
noires 32
nor@@ 32
nul 32
officer 32
ologues 32
ouv@@ 32
parks 32
physicians 32
pill 32
pirate 32
plaisante 32
planned 32
platforms 32
portions 32
premise 32
privées 32
pro-@@ 32
prochains 32
prothèse 32
préférées 32
prévisible 32
prévisions 32
pé 32
quaient 32
quit@@ 32
randomly 32
rapprocher 32
realization 32
researcher 32
revealed 32
romance 32
réagissent 32
réalis@@ 32
régimes 32
sapiens 32
scaled 32
sci@@ 32
separation 32
sequencing 32
serait-ce 32
serait-il 32
shining 32
sho@@ 32
shoulders 32
soccer 32
sondage 32
sooner 32
span 32
spare 32
spe@@ 32
spiral 32
spéciaux 32
stolen 32
stomach 32
strangers 32
sub-Saharan 32
surgical 32
survivent 32
symmetrical 32
sées 32
tab@@ 32
terrifying 32
textile 32
threatened 32
thrilled 32
thé@@ 32
tirée 32
traitent 32
transformative 32
translator 32
transmit 32
unfortunate 32
union 32
vertes 32
vierge 32
violents 32
virtue 32
visually 32
vœu 32
wheels 32
win@@ 32
wore 32
wrapped 32
x-@@ 32
yards 32
zoo 32
écrivent 32
éditeur 32
égal 32
éléphants 32
émerge 32
étique 32
0.000 31
1,500 31
1983 31
1992 31
25,000 31
3ème 31
54 31
68 31
77 31
89 31
Bonne 31
Ceux-ci 31
Ci@@ 31
Coca 31
Dec@@ 31
Dimitri 31
Doha 31
E. 31
ED 31
Egyptian 31
Entre 31
FBI 31
Fe@@ 31
Fre@@ 31
Fu@@ 31
Jason 31
Kids 31
Maryland 31
Milky 31
Ministère 31
Mississippi 31
Monday 31
Neandertal 31
Netherlands 31
Oregon 31
Philippines 31
Pouvons-nous 31
Premier 31
Pur@@ 31
RW 31
Rappelez-vous 31
Rom@@ 31
Révolution 31
SI 31
Singapour 31
Star@@ 31
Still 31
Superman 31
Sécurité 31
Titanic 31
Type 31
U.S 31
Ven@@ 31
Walmart 31
Walter 31
Whenever 31
abundant 31
accueil 31
accéléré 31
ack@@ 31
adap@@ 31
affecter 31
aises 31
ajoutons 31
aks 31
amazed 31
ambi@@ 31
ampoules 31
ams 31
amusante 31
anxiété 31
approprié 31
apprécié 31
aptitudes 31
arra@@ 31
aspiration 31
assembly 31
astuce 31
atteignent 31
autorisé 31
avant-@@ 31
ballet 31
basés 31
beetle 31
behalf 31
belongs 31
blogging 31
bonobos 31
broccoli 31
bush 31
cancéreuses 31
cares 31
charité 31
chauff@@ 31
climbed 31
cochon 31
commençaient 31
congestion 31
connaitre 31
consacrer 31
consent 31
consomme 31
continuously 31
corporation 31
courts 31
cracks 31
cri 31
critères 31
croyaient 31
crude 31
créées 31
cule 31
cy 31
dd@@ 31
deepest 31
denses 31
descriptions 31
dette 31
devenons 31
diagnosis 31
diffuser 31
diner 31
disposons 31
documented 31
domin@@ 31
domination 31
décident 31
découpe 31
détecteurs 31
déteste 31
eant 31
empreintes 31
emprunter 31
encourag@@ 31
encouraged 31
endor@@ 31
entendent 31
enters 31
enthousiastes 31
entry 31
equality 31
ere 31
essayaient 31
essentiels 31
extraction 31
extraordinairement 31
feriez 31
filmer 31
filtres 31
fiés 31
fond@@ 31
forcé 31
formal 31
functioning 31
fying 31
gan@@ 31
gasoline 31
gestures 31
graduated 31
gramme 31
gran@@ 31
grand-chose 31
grant 31
grav@@ 31
grenouilles 31
handicap 31
historiques 31
horror 31
households 31
iconic 31
illi@@ 31
inattendu 31
inst@@ 31
installed 31
integrate 31
intellectuel 31
intended 31
inter-@@ 31
interactif 31
investigation 31
investments 31
ization 31
jets 31
kicked 31
knee 31
lant 31
lap 31
legislation 31
let@@ 31
loads 31
localement 31
longevity 31
lèvres 31
légal 31
manifeste 31
maquette 31
marchandises 31
marrant 31
marrow 31
maître 31
merveille 31
metals 31
miel 31
millénaires 31
missiles 31
mite 31
monnaie 31
mp@@ 31
musicien 31
mycélium 31
nasty 31
native 31
nommer 31
négatifs 31
négative 31
observed 31
omes 31
ouvertes 31
pad 31
par-dessus 31
parait 31
parlions 31
paye 31
peculiar 31
periods 31
personalized 31
pet 31
philosophique 31
pitié 31
plat@@ 31
politically 31
posant 31
posées 31
praying 31
prevalence 31
prey 31
pricing 31
problématique 31
promis 31
proposal 31
protons 31
prélever 31
prêter 31
publications 31
quanti@@ 31
ramené 31
rass@@ 31
recognizing 31
reporter 31
représentations 31
reputation 31
responding 31
ressembl@@ 31
ressortir 31
retiré 31
rez-vous 31
ridge 31
rier 31
rivers 31
roofs 31
réalisée 31
réponds 31
résonance 31
révolutionnaire 31
rêver 31
sauvetage 31
serviette 31
signé 31
sink 31
sixième 31
skeleton 31
socially 31
soigneusement 31
sometime 31
soulève 31
soumis 31
souvenez-vous 31
spacecraft 31
speaks 31
specialized 31
stupéfiant 31
stylo 31
submit 31
suits 31
supports 31
systematically 31
tale 31
tan 31
tar 31
tear 31
tempête 31
terminée 31
thumb 31
tight 31
tissues 31
transfert 31
triple 31
uit 31
ultrasound 31
uranium 31
urg@@ 31
urgent 31
verbe 31
vint 31
voeu 31
voter 31
vulnérable 31
warmer 31
wet 31
witnessed 31
workforce 31
wrist 31
yeast 31
yed 31
âmes 31
ète 31
épreuve 31
éthanol 31
1,5 30
1800 30
1974 30
74 30
78 30
ABC 30
Ag@@ 30
Allons-y 30
Aurora 30
Barbara 30
Batman 30
Best 30
Bon@@ 30
Bot@@ 30
Buddha 30
C.@@ 30
Cli@@ 30
Cochrane 30
Cold 30
Colorado 30
Conn@@ 30
Country 30
D.C. 30
DDT 30
Doug 30
Dre@@ 30
During 30
Education 30
Egypte 30
Enfant 30
Excellent 30
Fille 30
Friedman 30
Graham 30
H5N1 30
Hum@@ 30
IR@@ 30
Indi@@ 30
Indien 30
KS 30
Ku@@ 30
Levez 30
Mari@@ 30
Mas@@ 30
Maslow 30
Michigan 30
Neumann 30
Nevada 30
Oprah 30
Palestine 30
Pan@@ 30
Pos@@ 30
Side 30
Tim@@ 30
Toyota 30
Tuesday 30
Turns 30
ZK 30
abordable 30
accords 30
acquisition 30
activated 30
actively 30
actives 30
activistes 30
actuelles 30
acy 30
airline 30
ait-elle 30
ajuster 30
alliance 30
aléatoires 30
apes 30
appreciation 30
approached 30
approximately 30
aque 30
aries 30
arrivais 30
arrivant 30
asi@@ 30
aspi@@ 30
assisté 30
assu@@ 30
astronomes 30
authenticité 30
authoritarian 30
aï@@ 30
bal 30
banal 30
basant 30
basses 30
beam 30
beef 30
believes 30
belly 30
blew 30
book@@ 30
bow 30
brave 30
candidats 30
cardboard 30
casser 30
ce-@@ 30
cesser 30
cheating 30
chemotherapy 30
cher@@ 30
circuler 30
civic 30
clinics 30
clusters 30
cognitives 30
composée 30
compétence 30
confi@@ 30
confusion 30
connaissaient 30
consistait 30
construisez 30
cos@@ 30
cosmique 30
croyant 30
cru@@ 30
cules 30
culturels 30
daf-2 30
dauphin 30
deciding 30
defend 30
demand@@ 30
demandaient 30
dess@@ 30
destinée 30
dev@@ 30
dia 30
dions 30
diplomacy 30
dirt 30
disappears 30
dominante 30
donnerait 30
doués 30
drunk 30
drôles 30
dé 30
découvrons 30
défi@@ 30
définie 30
déplaçant 30
effondrer 30
electrodes 30
embrasser 30
empowering 30
enceintes 30
enormously 30
entendue 30
entiers 30
enz@@ 30
esclaves 30
existaient 30
existé 30
expérimentation 30
faculté 30
fans 30
feeds 30
fermement 30
fiée 30
flot@@ 30
fonctionnel 30
formée 30
frequencies 30
fusée 30
féminin 30
g-@@ 30
gained 30
gardé 30
gh 30
glimpse 30
grabbed 30
grades 30
gratuits 30
grocery 30
gy@@ 30
générosité 30
géographique 30
harbor 30
hommage 30
horreur 30
human@@ 30
hydro@@ 30
identifié 30
idiots 30
ima 30
imagining 30
impatient 30
indépendamment 30
inqui@@ 30
install 30
instants 30
intimacy 30
intuitions 30
intégrité 30
inv@@ 30
ironie 30
irony 30
isolé 30
issaient 30
issante 30
iting 30
jewelry 30
keys 30
levure 30
libraries 30
libère 30
lifespan 30
linking 30
loose 30
magicien 30
malin 30
markers 30
medication 30
meditation 30
millimeter 30
morales 30
mortel 30
mortelle 30
mud 30
médiatique 30
nodes 30
nus 30
négatives 30
octopus 30
offspring 30
ola 30
ordures 30
organis@@ 30
overwhelming 30
parcs 30
pas@@ 30
passerait 30
pati@@ 30
pencil 30
piège 30
planche 30
plongé 30
polaires 30
portons 30
posait 30
post@@ 30
pratiquer 30
premièrement 30
producteur 30
projeter 30
propager 30
prothèses 30
protocell 30
préservation 30
punishment 30
purple 30
quarks 30
rationnel 30
rav@@ 30
recall 30
rectangle 30
regulation 30
renverser 30
rescued 30
respire 30
restaurer 30
reti@@ 30
rurales 30
réalisent 30
réforme 30
répand 30
résilience 30
sachiez 30
scheme 30
scènes 30
sement 30
seringue 30
sif 30
spirituel 30
spirituelle 30
stimulus 30
stocker 30
stopping 30
stranger 30
suggestions 30
suggéré 30
supernova 30
suprême 30
terai 30
terreur 30
textbook 30
tis@@ 30
tooth 30
topics 30
troisièmement 30
tte 30
uniform 30
upward 30
utilité 30
va-t-il 30
va@@ 30
valves 30
ve-@@ 30
verra 30
victoire 30
vingtaine 30
violation 30
vitamin 30
vén@@ 30
véritables 30
wal@@ 30
weigh 30
western 30
workplace 30
zes 30
zoomer 30
égaux 30
épaisseur 30
+ 29
-based 29
12,000 29
21e 29
39 29
41 29
8,@@ 29
Actuellement 29
Asian 29
Barbie 29
Black@@ 29
Buddhist 29
Cap@@ 29
Connecticut 29
DR 29
Diana 29
Département 29
Eden 29
Essayez 29
Essayons 29
Exxon 29
Food 29
Gary 29
Gra@@ 29
Grey 29
High 29
Iceland 29
Indonésie 29
J.@@ 29
Jac@@ 29
Kamen 29
Kir@@ 29
Lin@@ 29
Luke 29
Maitreya 29
Meanwhile 29
Medical 29
Men 29
Minnesota 29
Mission 29
Musulmans 29
Norway 29
Nouvelle 29
Océan 29
Organization 29
Palestinian 29
Part 29
Pays-Bas 29
Photoshop 29
Pol@@ 29
Pretty 29
Prince 29
Rem@@ 29
Rift 29
Satan 29
Saudi 29
Service 29
Seven 29
Simple 29
Singapore 29
Sobule 29
Spe@@ 29
Studio 29
Sw@@ 29
Tasmanie 29
Vol@@ 29
Warner 29
Whit@@ 29
Win@@ 29
Yale 29
abandoned 29
abilité 29
abroad 29
absorb 29
absurde 29
abus 29
achat 29
acknowledge 29
activement 29
affirmer 29
aged 29
agu@@ 29
ald 29
alise 29
allure 29
amenés 29
analog 29
anatomie 29
angiogenèse 29
anniversary 29
anonymous 29
applies 29
appliqué 29
armées 29
associate 29
associer 29
ater 29
ath 29
athée 29
automatique 29
bag@@ 29
bancaire 29
baseline 29
basique 29
basiques 29
basking 29
bibliothèques 29
binaire 29
blessés 29
blowing 29
boites 29
bowl 29
bribe 29
carottes 29
carreaux 29
cattle 29
characteristic 29
charged 29
chase 29
chasser 29
chauffer 29
checks 29
cle 29
cloche 29
cobra 29
cognitif 29
coller 29
colon@@ 29
color@@ 29
columns 29
commander 29
comments 29
communes 29
comparez 29
compliquées 29
compound 29
conductor 29
conn@@ 29
connectée 29
considération 29
consom@@ 29
constructive 29
construisant 29
contained 29
correlation 29
crashes 29
creator 29
crossed 29
delivering 29
derived 29
dessin@@ 29
diapos 29
diffuse 29
dig@@ 29
digging 29
dirigent 29
disabled 29
dom@@ 29
donors 29
doubler 29
dragonflies 29
dre 29
découvrez 29
délicieux 29
effondre 29
eg@@ 29
emment 29
emphasize 29
entendons 29
entendrez 29
enterprise 29
enthousiaste 29
entrons 29
envergure 29
espagnol 29
eternal 29
excessive 29
exponentially 29
fal@@ 29
falaise 29
fiche 29
fluide 29
foncé 29
fron@@ 29
futurs 29
galerie 29
geeks 29
generates 29
grandparents 29
géante 29
généreux 29
hand-@@ 29
heating 29
historiquement 29
holy 29
ica 29
icône 29
igh@@ 29
illumination 29
implemented 29
impôts 29
inci@@ 29
individu@@ 29
indépendants 29
infos 29
inquiets 29
insi@@ 29
inspi@@ 29
integrity 29
intellect 29
intégrée 29
investigate 29
isez 29
isolés 29
jouons 29
lab@@ 29
labeled 29
lan 29
leopard 29
lib@@ 29
libellules 29
magician 29
managing 29
mapped 29
matrix 29
messy 29
mette 29
mono@@ 29
mons 29
monsoon 29
mood 29
motiver 29
mystérieux 29
méri@@ 29
méritent 29
ners 29
neur@@ 29
no-@@ 29
noisy 29
non-nulle 29
non@@ 29
notamment 29
nou@@ 29
obligations 29
oli@@ 29
ologists 29
onique 29
optimisme 29
orale 29
outbreak 29
panel 29
partition 29
passante 29
passionnant 29
penseurs 29
pit 29
plancton 29
planting 29
poems 29
poignet 29
politician 29
polluants 29
pompiers 29
portez 29
posters 29
pot@@ 29
poulets 29
pouring 29
prendrait 29
preniez 29
presenting 29
pressions 29
prior 29
priorité 29
productif 29
programmers 29
projected 29
promoting 29
prosthetic 29
proved 29
précieuses 29
préoccuper 29
présentations 29
psychologiques 29
publiée 29
quons 29
ram@@ 29
receiving 29
recevez 29
regardiez 29
remplie 29
rencontrez 29
renforcer 29
rep@@ 29
richest 29
royal 29
règne 29
résidents 29
scream 29
sec@@ 29
secular 29
semblant 29
sha 29
shelves 29
shorter 29
silicon 29
sin@@ 29
sketch 29
smells 29
souhai@@ 29
spiders 29
spontanément 29
spéciales 29
strand 29
strip 29
subjective 29
suitcase 29
suivants 29
surf 29
surprises 29
symbolique 29
techniciens 29
tensions 29
teraient 29
terrains 29
terrestres 29
terrified 29
testé 29
the-@@ 29
thermal 29
théorique 29
tirent 29
tirez 29
tiss@@ 29
tomato 29
toss 29
towns 29
toxines 29
trouv@@ 29
tuiles 29
ui@@ 29
urbaines 29
vendeur 29
verriez 29
vibrating 29
vir@@ 29
visité 29
vitamine 29
von 29
wheelchair 29
winner 29
youngest 29
za 29
éclaté 29
écra@@ 29
écrivais 29
électeurs 29
élevées 29
émergent 29
étrangères 29
évoque 29
12@@ 28
1918 28
1967 28
6000 28
AS 28
Alfred 28
Alright 28
Arkansas 28
As@@ 28
Bal@@ 28
Bali 28
Balkans 28
Bl@@ 28
Bombay 28
CL 28
CO@@ 28
Cameron 28
Club 28
Cu@@ 28
E8 28
Ear@@ 28
GPHIN 28
Gol@@ 28
Han 28
Heart 28
I.@@ 28
ID 28
IP 28
Indonesia 28
Isaac 28
Israeli 28
Jews 28
Jonas 28
Kanzi 28
LA 28
LEDs 28
Lady 28
Madame 28
Miami 28
Ministre 28
Neil 28
Netra 28
November 28
Ob@@ 28
Oliver 28
Olympic 28
PIPA 28
Parlons 28
Pat@@ 28
Ram@@ 28
Rec@@ 28
Rica 28
Riverside 28
Ronald 28
Rosling 28
Roy 28
Rus@@ 28
S. 28
SO@@ 28
SOPA 28
SP 28
Sarajevo 28
Sept 28
Show 28
Sin@@ 28
Sinon 28
Souvenez-vous 28
Souvent 28
Soviétique 28
Sputnik 28
Stanley 28
Starbucks 28
Susie 28
Switzerland 28
Tarahumara 28
Try 28
Uruguay 28
Virtual 28
Voie 28
Wars 28
Word 28
ab 28
accelerate 28
accélération 28
acks 28
addressing 28
admiration 28
admire 28
adoré 28
agisse 28
ait-il 28
ali 28
alis@@ 28
ambulance 28
amitié 28
analysé 28
analyzed 28
anesthesia 28
animés 28
annon@@ 28
antenne 28
anth@@ 28
apprises 28
arc 28
archive 28
ard@@ 28
arri@@ 28
arrêtait 28
asleep 28
asser@@ 28
associations 28
assoir 28
assumed 28
astronomers 28
astronomy 28
ation@@ 28
attach 28
attendu 28
autonomes 28
autor@@ 28
avançons 28
avouer 28
barriers 28
bassin 28
biologically 28
biosphere 28
biotechnologie 28
biscuits 28
bli@@ 28
bloquer 28
bombsight 28
borrow 28
bother 28
brevet 28
brins 28
brisé 28
britanniques 28
calculating 28
calculus 28
calculé 28
cali@@ 28
campagnes 28
capitaine 28
checking 28
chickens 28
chimiste 28
cleaning 28
clef 28
cluster 28
collecte 28
combinaisons 28
compl@@ 28
comprenait 28
concentrations 28
conceptual 28
concernés 28
conclu@@ 28
condamné 28
confus 28
connaissions 28
consciente 28
conseiller 28
contempl@@ 28
contemporain 28
contourner 28
convient 28
couch 28
counts 28
crier 28
critically 28
cruciale 28
cuivre 28
culaire 28
cus 28
dant 28
descendez 28
devise 28
diarrhea 28
dishes 28
divise 28
débattre 28
débit 28
décor@@ 28
dédié 28
définissent 28
dépendent 28
détestent 28
ec 28
ect@@ 28
electromagnetic 28
elephants 28
elevator 28
embar@@ 28
enfer 28
ens@@ 28
entrance 28
entraîné 28
entrepris 28
equilibrium 28
eradication 28
ethanol 28
ethniques 28
exc@@ 28
excitante 28
exploi@@ 28
extr@@ 28
ey@@ 28
fantasy 28
favori 28
filling 28
financières 28
fixé 28
flag@@ 28
forage 28
fractal 28
freezing 28
frog 28
fungi 28
gaspill@@ 28
generosity 28
gne 28
gorge 28
gouvernementales 28
graffiti 28
greffe 28
guérison 28
habite 28
habituelle 28
hemisphere 28
humility 28
hybrid 28
hypertension 28
hési@@ 28
implement 28
impulsions 28
industriels 28
indépendante 28
inequality 28
ington 28
initiatives 28
injec@@ 28
injuste 28
interconnected 28
interrupteur 28
iraient 28
isons 28
issement 28
jam 28
laiss@@ 28
lancée 28
lentille 28
lethal 28
lic 28
lisent 28
livrer 28
long@@ 28
low-cost 28
maintient 28
manqué 28
marathon 28
mariée 28
mating 28
minim@@ 28
miques 28
misère 28
mit 28
mix@@ 28
mm 28
modeler 28
modifications 28
moraux 28
moule 28
mousson 28
mouton 28
mystères 28
mâchoire 28
mème 28
médicales 28
nait 28
nationaux 28
negotiate 28
networking 28
nicely 28
non-lethal 28
non-violence 28
nonprofit 28
né@@ 28
obscure 28
operates 28
oral 28
ordered 28
organise 28
originaire 28
originale 28
overnight 28
panique 28
parenting 28
particulières 28
peers 28
pipeline 28
planté 28
pleased 28
pliage 28
plomb 28
pointes 28
pol@@ 28
pollu@@ 28
posi@@ 28
possédons 28
postes 28
potent 28
practicing 28
predator 28
pren@@ 28
prie 28
prince 28
processor 28
producers 28
produites 28
prof 28
professors 28
profil 28
promised 28
protest 28
protocellule 28
pun@@ 28
pénétrer 28
pôle 28
ques@@ 28
rails 28
ralenti 28
rassemblent 28
rati@@ 28
recueillir 28
regional 28
regularly 28
relativité 28
remarqu@@ 28
renewable 28
rentable 28
rentrent 28
replacement 28
reserve 28
restes 28
revenues 28
risky 28
risqué 28
robotics 28
récentes 28
répandu 28
répon@@ 28
réside 28
réveiller 28
rê@@ 28
sac@@ 28
sai@@ 28
sauté 28
sensitivity 28
serves 28
settled 28
shipping 28
shocking 28
sign@@ 28
slope 28
sophistiqué 28
sous-sol 28
souviennent 28
sperme 28
sponsor 28
star@@ 28
sticking 28
stimul@@ 28
stop@@ 28
storyteller 28
strikes 28
stu@@ 28
styles 28
subventions 28
suc@@ 28
surviving 28
symbolic 28
symétrique 28
séquencer 28
tabac 28
teenage 28
textbooks 28
tez-vous 28
thereby 28
thèse 28
tir 28
top@@ 28
train@@ 28
tranches 28
transplantation 28
trips 28
tuned 28
tus 28
tuées 28
ty-@@ 28
té@@ 28
uer 28
universitaires 28
unseen 28
vaccination 28
verb 28
vic@@ 28
violente 28
virtuels 28
visiting 28
vivais 28
vécue 28
vérités 28
websites 28
whoever 28
ye 28
âgé 28
èmes 28
éclairé 28
écoutent 28
égard 28
éloignés 28
émergé 28
éro@@ 28
étr@@ 28
évoquer 28
ô@@ 28
100@@ 27
1947 27
1962 27
1978 27
2.@@ 27
84 27
Arabie 27
Autre 27
Bouddha 27
CT 27
Canadian 27
Cer@@ 27
Cham@@ 27
Civil 27
Digital 27
Dubai 27
E.@@ 27
Ensemble 27
Fa@@ 27
Gehry 27
Golden 27
Gro@@ 27
Général 27
Hal@@ 27
Having 27
Hor@@ 27
Independent 27
Islande 27
Justice 27
Ka@@ 27
Kal@@ 27
Len 27
Lim@@ 27
Machine 27
May@@ 27
Mount 27
Music 27
NA@@ 27
Namibie 27
Natural 27
Norvège 27
Ouah 27
Pennsylvania 27
Petit 27
Première 27
Rand 27
Récemment 27
Save 27
Sor@@ 27
Sun@@ 27
Therefore 27
Tor@@ 27
Ur@@ 27
Viens 27
Von 27
Wired 27
aa@@ 27
aboutir 27
accrocher 27
accumulate 27
accumuler 27
achieving 27
activé 27
admi@@ 27
adopt 27
africaines 27
afterward 27
ala 27
alarme 27
allées 27
anneaux 27
antennes 27
anticipate 27
anticorps 27
ape 27
appeal 27
appr@@ 27
ari 27
arrangement 27
arrêtés 27
artifacts 27
artistiques 27
assister 27
astronomie 27
atoire 27
attacking 27
atti@@ 27
attributs 27
aut@@ 27
aversion 27
balad@@ 27
ballons 27
band@@ 27
bandwidth 27
belt 27
blesser 27
bosses 27
brick 27
bugs 27
calcule 27
canard 27
capitaux 27
capsule 27
cass@@ 27
catastrophic 27
centimes 27
cha 27
chains 27
chanteurs 27
chargé 27
chaussure 27
chrétiens 27
circular 27
cliché 27
climbers 27
collections 27
compounds 27
compute 27
concer@@ 27
conservateur 27
cont@@ 27
copper 27
copying 27
courageux 27
couv@@ 27
crocodile 27
croyez-moi 27
cuir 27
cuisson 27
cérémonie 27
dar@@ 27
dare 27
dating 27
debris 27
descendants 27
desperate 27
deuxièmement 27
dimensional 27
diplômés 27
disappearing 27
discu@@ 27
disk 27
displays 27
distinguish 27
documentaire 27
dramatique 27
durabilité 27
duty 27
débris 27
déci@@ 27
délicat 27
démarre 27
démocratiques 27
déplacé 27
dési@@ 27
entités 27
entrant 27
entrepreneurial 27
eri@@ 27
espoirs 27
ess 27
essor 27
eue 27
européenne 27
exam 27
excitation 27
expli@@ 27
exploded 27
fails 27
fais@@ 27
fassions 27
feraient 27
fertile 27
fichier 27
fierté 27
filmé 27
filters 27
float 27
folk 27
folles 27
footage 27
forgive 27
fossile 27
founding 27
franchir 27
frogs 27
frontier 27
fédéral 27
gardens 27
geek 27
generic 27
gentils 27
goat 27
graphe 27
gratuite 27
gravitational 27
guard 27
guards 27
génomique 27
hairs 27
happiest 27
haï@@ 27
heh 27
helmet 27
helpless 27
hills 27
hometown 27
human-@@ 27
iPods 27
idéale 27
ile@@ 27
imaginiez 27
immersion 27
impressed 27
impulse 27
incar@@ 27
incluant 27
indicates 27
indiennes 27
infectious 27
influencé 27
inger 27
injuries 27
innover 27
insuline 27
inten@@ 27
intrigue 27
intégrés 27
irrational 27
jar 27
juillet 27
jumps 27
latitude 27
laughed 27
lave 27
lente 27
lic@@ 27
limitation 27
lined 27
lourds 27
léopard 27
mankind 27
marchera 27
mariages 27
marron 27
mask 27
mentales 27
mere 27
mesdames 27
micr@@ 27
minority 27
minéraux 27
mixture 27
mmm 27
modeste 27
modification 27
mol@@ 27
momentum 27
moto 27
méditation 27
méduse 27
mélanger 27
naive 27
nant 27
nat@@ 27
nonetheless 27
normales 27
nurture 27
observing 27
oma 27
ong@@ 27
opérer 27
or-@@ 27
ordres 27
oriented 27
orteils 27
osseuse 27
ota 27
oxyde 27
palette 27
panic 27
partenariats 27
partez 27
passaient 27
passerelle 27
perturb@@ 27
pharmaceutique 27
philosopher 27
photographes 27
pics 27
plankton 27
politiquement 27
pond 27
portaient 27
ports 27
possession 27
pourrait-il 27
predicting 27
processed 27
profonds 27
programmeurs 27
proportions 27
précieuse 27
précédemment 27
préférence 27
psychologist 27
publicités 27
purchase 27
pénible 27
péri@@ 27
qua@@ 27
racontent 27
rappel 27
rappelez 27
reasoning 27
regulations 27
rejected 27
relatives 27
rendons 27
renouvelable 27
reporting 27
reposer 27
représentés 27
repérer 27
request 27
resolve 27
responsabilités 27
ress@@ 27
ressemblera 27
retrouv@@ 27
rie 27
riots 27
rows 27
réuni 27
réussit 27
select 27
semblerait 27
semblé 27
sexually 27
shifted 27
shortly 27
sian 27
sil@@ 27
sms 27
souffrir 27
sous-marins 27
spike 27
spor@@ 27
squid 27
subit 27
submersible 27
substantial 27
suffisante 27
supportive 27
surround 27
sw@@ 27
séduisant 27
t-shirt 27
tanks 27
tations 27
teenager 27
tentent 27
thy 27
tized 27
touchée 27
transform@@ 27
transformant 27
trou@@ 27
truths 27
tuyaux 27
ultrasons 27
understands 27
ventilation 27
verbal 27
virale 27
visualize 27
visuels 27
voudraient 27
vous-mêmes 27
vélos 27
ware 27
well-known 27
wells 27
wiped 27
âgée 27
ètes 27
écri@@ 27
électron 27
émeutes 27
énergétiques 27
épar@@ 27
étroitement 27
évidentes 27
évolutionnaire 27
( 26
.... 26
1.5 26
11th 26
13@@ 26
15,000 26
150,000 26
18ème 26
2ème 26
4000 26
51 26
8,000 26
82 26
Absolutely 26
Arabe 26
Army 26
BBC 26
Beijing 26
Bir@@ 26
Bollywood 26
Bosnia 26
Bosnie 26
Botswana 26
Building 26
Buy 26
Camp 26
Caraïbes 26
Caribbean 26
Celle 26
Chez 26
Cohen 26
Cooper 26
Défense 26
Eames 26
Essex 26
Evidemment 26
Gaza 26
Guardian 26
Harlem 26
Herbie 26
Hospital 26
Hussein 26
Interestingly 26
Istanbul 26
Ja@@ 26
Jennifer 26
Jerusalem 26
Jesse 26
Joey 26
Julie 26
Kur@@ 26
Lactée 26
Lanka 26
Madagascar 26
Marie 26
Mathematica 26
Mme 26
Mont 26
Moses 26
Mr 26
Namibia 26
Nicholas 26
Notice 26
Ol@@ 26
Out 26
PS 26
Pennsylvanie 26
Pin@@ 26
Pou@@ 26
Professeur 26
Py@@ 26
Rather 26
Regarde 26
Rel@@ 26
Renaissance 26
Republican 26
SE 26
Samuel 26
Social 26
Spring 26
Stuxnet 26
Suppose 26
T. 26
TD 26
TM 26
Tasmanian 26
Tower 26
Transition 26
Tre@@ 26
Tso 26
Walker 26
Wat@@ 26
accepte 26
accountability 26
accuracy 26
acquise 26
actu@@ 26
ada 26
affirme 26
alists 26
alités 26
alliés 26
ampli@@ 26
animale 26
annu@@ 26
anticiper 26
août 26
apartments 26
apo@@ 26
appelez 26
appli@@ 26
arch@@ 26
architecturale 26
arrivées 26
aspire 26
asset 26
ata 26
attempts 26
attributes 26
ature 26
aussitôt 26
authenticity 26
autonomy 26
awe 26
banned 26
bare 26
barrage 26
basculer 26
basement 26
batt@@ 26
battements 26
bie 26
bijoux 26
blessé 26
bly 26
bonobo 26
bosse 26
brevets 26
brush 26
brûle 26
by-@@ 26
bâtir 26
cane 26
canon 26
canvas 26
cape 26
cared 26
celebration 26
cen@@ 26
ceremony 26
certainty 26
cessé 26
champagne 26
charter 26
chasing 26
chaudes 26
chauds 26
chemist 26
choisissons 26
cholera 26
choléra 26
chorale 26
chunk 26
chèque 26
chères 26
citations 26
cla@@ 26
collabor@@ 26
combiné 26
combustion 26
commerci@@ 26
commerciales 26
compar@@ 26
comportementale 26
composant 26
composante 26
composed 26
compression 26
compromise 26
conduct 26
conduits 26
confronter 26
consentement 26
considering 26
continuité 26
convicted 26
conçues 26
corriger 26
couru 26
créatives 26
crête 26
cumulative 26
cée 26
dale 26
danseurs 26
dealt 26
demandes 26
demi-heure 26
dengue 26
denial 26
describing 26
desperately 26
detected 26
devoted 26
diamonds 26
diminution 26
dirent 26
disability 26
disasters 26
distraction 26
diversi@@ 26
dommages 26
dreaming 26
duc@@ 26
dues 26
dépendants 26
désaccord 26
désirs 26
désordre 26
ea 26
easiest 26
eats 26
effac@@ 26
embarrassed 26
embarrassing 26
emotionally 26
encyclopédie 26
enregistrements 26
ent-elles 26
entières 26
entrées 26
environnementales 26
envoyez 26
envoyée 26
envoyés 26
eradicate 26
establish 26
ethic 26
ex 26
excite 26
exposer 26
exécu@@ 26
exécuter 26
ez-les 26
famously 26
fault 26
feminist 26
fix@@ 26
flexibility 26
flexibilité 26
flights 26
flotte 26
flèches 26
fonctionnelle 26
fondateur 26
formées 26
fournisseurs 26
frightened 26
féminine 26
gardez 26
genuine 26
graine 26
grammes 26
gratification 26
gre@@ 26
grossesse 26
hallucin@@ 26
hated 26
headline 26
hiding 26
hoped 26
hos@@ 26
hou@@ 26
hs 26
huh 26
humeur 26
hunt 26
hydr@@ 26
illent 26
illustre 26
immer@@ 26
inattendues 26
indigenous 26
industri@@ 26
inherently 26
initi@@ 26
inquiétude 26
inscri@@ 26
intriguing 26
involving 26
irait 26
isoler 26
jardins 26
jouaient 26
kidding 26
lame 26
lav@@ 26
lers 26
life-@@ 26
limiter 26
lobes 26
lonely 26
lundi 26
légers 26
maintes 26
marier 26
massif 26
massives 26
matique 26
membranes 26
merveilles 26
microscopic 26
midst 26
migraines 26
millennia 26
millimètre 26
minorité 26
mirrors 26
modeling 26
modest 26
moi@@ 26
montage 26
mul@@ 26
museums 26
mélodie 26
métaphores 26
nevertheless 26
noix 26
not@@ 26
nurturing 26
occupy 26
occupés 26
ond@@ 26
onic 26
ons-@@ 26
optimism 26
opère 26
ord 26
org@@ 26
oublions 26
oven 26
owners 26
oxy@@ 26
palais 26
pants 26
parallèles 26
paralysé 26
pass@@ 26
pathways 26
perdues 26
perfec@@ 26
perfection 26
permettrait 26
pharmaceutiques 26
pilules 26
pit@@ 26
plaindre 26
poin@@ 26
pore 26
practically 26
prairie 26
prairies 26
preparation 26
prescription 26
press@@ 26
pressing 26
pressures 26
preventing 26
prim@@ 26
primaires 26
prit 26
produise 26
promener 26
propaganda 26
propagande 26
protège 26
protégée 26
préfrontal 26
présume 26
py@@ 26
pê@@ 26
quar@@ 26
ras 26
rassemblement 26
recognizes 26
recycled 26
reg@@ 26
regenerate 26
relativity 26
remarkably 26
remet 26
renouvelables 26
rentr@@ 26
resolved 26
ressemblerait 26
ressentons 26
restant 26
restez 26
reten@@ 26
riding 26
ries 26
rine 26
rit 26
rolled 26
rond 26
roses 26
russe 26
réalités 26
récupéré 26
réfléch@@ 26
régénérer 26
réjou@@ 26
répétition 26
réveill@@ 26
satisfait 26
screaming 26
screening 26
screens 26
sells 26
sermon 26
seventh 26
sez 26
situ@@ 26
situé 26
sle@@ 26
soeurs 26
soirs 26
souffrances 26
soumettre 26
speeds 26
sphères 26
stadium 26
stake 26
statistical 26
stealing 26
stock@@ 26
storms 26
stra@@ 26
sub-saharienne 26
synchron@@ 26
sélec@@ 26
sépare 26
séries 26
tails 26
techniquement 26
temporary 26
tenons 26
terroriste 26
texts 26
thinkers 26
tionn@@ 26
tomate 26
tombez 26
transported 26
trom@@ 26
tropical 26
trusted 26
tw@@ 26
twins 26
téléphonique 26
unconscious 26
ups 26
vant 26
vapor@@ 26
ved 26
viol 26
vis-à-vis 26
visibles 26
vitre 26
vocabulaire 26
vocabulary 26
voudriez 26
voudrions 26
wasted 26
wer 26
wins 26
yer 26
élémentaire 26
épais 26
ération 26
étudions 26
17ème 25
18th 25
1930 25
1965 25
1979 25
1981 25
200@@ 25
4.@@ 25
5.000 25
71 25
750 25
79 25
AS@@ 25
AT@@ 25
Accenture 25
Africain 25
Aimee 25
Ali 25
Arabia 25
Ask 25
Avenue 25
Bol@@ 25
Brigades 25
Browne 25
Bureau 25
C-@@ 25
Carter 25
Compassion 25
Computer 25
Conservation 25
Consider 25
Danemark 25
Denmark 25
Duke 25
EEG 25
ET 25
Emmanuel 25
Face 25
Fran@@ 25
GB 25
Gallery 25
Gillian 25
Glenn 25
Greg 25
Hmm 25
Homer 25
Incroyable 25
Interviewer 25
JC 25
Maria 25
Midwest 25
Monologues 25
Negroponte 25
Néanmoins 25
OCDE 25
OECD 25
Organisation 25
Oscar 25
Parfait 25
Picasso 25
Presque 25
RNA 25
Republic 25
Rockett 25
Ron 25
SA 25
SM 25
Sally 25
Sex 25
Sher@@ 25
Similarly 25
Skycar 25
Sommes-nous 25
St 25
Step 25
Sudan 25
TBP 25
Tal@@ 25
Tas@@ 25
Tou@@ 25
Town 25
Uni@@ 25
Venez 25
Vinci 25
Wa@@ 25
Whole 25
Wo@@ 25
_ 25
abi@@ 25
abor@@ 25
abouti@@ 25
accompanied 25
accu@@ 25
adorable 25
affecté 25
aig@@ 25
aill@@ 25
aimerait 25
alentours 25
alimenter 25
allies 25
amino 25
anie 25
antidote 25
apparent 25
aquatic 25
are@@ 25
arena 25
as-tu 25
ashamed 25
assemblage 25
assets 25
assuming 25
asteroids 25
ately 25
atheist 25
atrices 25
attachement 25
attaqué 25
atteints 25
auditoire 25
autoroutes 25
balanced 25
bathroom 25
behold 25
bell 25
beneficial 25
bing 25
ble@@ 25
blindness 25
bling 25
bluefin 25
bomb@@ 25
boots 25
bot 25
bottom-up 25
bounce 25
boutons 25
bre 25
breed 25
broadcast 25
bruyant 25
brûlé 25
bulbs 25
bury 25
bust 25
buttons 25
cachés 25
calcul@@ 25
calculation 25
calendrier 25
caoutchouc 25
captain 25
cardi@@ 25
causé 25
cellulose 25
chal@@ 25
chass@@ 25
chau@@ 25
chimpanzee 25
chimps 25
choisissez 25
choisit 25
chouette 25
chron@@ 25
chronic 25
chuté 25
class@@ 25
clic 25
coach 25
coincés 25
commençais 25
commons 25
composent 25
condom 25
confined 25
confronted 25
considérablement 25
contenter 25
contenus 25
contribuent 25
cookie 25
coquille 25
correcte 25
counter 25
crab 25
crayons 25
criminals 25
criminels 25
croissante 25
croître 25
crème 25
cé@@ 25
cécité 25
dait 25
deception 25
default 25
descente 25
devastating 25
deviens 25
devra 25
digne 25
direc@@ 25
discussing 25
disparus 25
disponibilité 25
distribué 25
disturbing 25
dome 25
domestiques 25
donnaient 25
débar@@ 25
débats 25
définis 25
dérouler 25
détru@@ 25
développons 25
e-là 25
earned 25
ect 25
eighth 25
encountered 25
endeavor 25
endrons 25
engag@@ 25
ennuis 25
enter@@ 25
enthusiasm 25
entities 25
entrain@@ 25
environnementale 25
essai@@ 25
exhibit 25
exotic 25
explor@@ 25
explose 25
externe 25
ez-@@ 25
fait-on 25
fascination 25
fat@@ 25
fate 25
ferions 25
fetus 25
fies 25
finite 25
fondu 25
fonte 25
forcing 25
gagnant 25
galleries 25
garantir 25
gardiens 25
gaspillage 25
genou 25
gentle 25
geography 25
grassroots 25
greatly 25
guise 25
gâ@@ 25
gé 25
gén@@ 25
générateur 25
géré 25
habitable 25
highlight 25
honnêteté 25
hood 25
hôte 25
iens 25
ign@@ 25
iling 25
imaginons 25
immobilier 25
inclu@@ 25
indicate 25
individuellement 25
indépendantes 25
inexpensive 25
infecté 25
infectées 25
ino 25
interrog@@ 25
intimate 25
iné 25
issus 25
ja@@ 25
jargon 25
jaw 25
juif 25
justes 25
kindergarten 25
lai@@ 25
lasts 25
libéré 25
lighter 25
limbs 25
luckily 25
lâcher 25
magiques 25
manufacture 25
mardi 25
maîtriser 25
mentally 25
menée 25
merveilleusement 25
mind-wandering 25
miniature 25
modéliser 25
mysteries 25
mythology 25
nais 25
natale 25
neocortex 25
new@@ 25
node 25
nomme 25
nonsense 25
néocortex 25
obligés 25
offshore 25
oies 25
oll 25
ologist 25
operator 25
opposée 25
orbital 25
ote 25
oublie 25
packaging 25
passages 25
paste 25
patch 25
penche 25
pencher 25
philosophe 25
philosophical 25
photo@@ 25
photons 25
pies 25
pilule 25
planted 25
pointer 25
pollutants 25
pons 25
poule 25
pper 25
prefrontal 25
pregnancy 25
presents 25
primate 25
priorities 25
procurer 25
promesses 25
propositions 25
protégé 25
pt 25
publi@@ 25
pursuing 25
quasi 25
radiations 25
radius 25
rains 25
raisin 25
rapporter 25
recovered 25
redéfinir 25
reforms 25
remporté 25
rencontres 25
rend@@ 25
renvoie 25
repeatedly 25
replacing 25
representing 25
respected 25
responded 25
restera 25
rethink 25
revi@@ 25
reviendrai 25
revolutions 25
rot@@ 25
répar@@ 25
répliquer 25
répondit 25
réveille 25
révolutions 25
rêvé 25
rôles 25
sains 25
scanners 25
scénarios 25
secondly 25
sensé 25
serpents 25
sex@@ 25
sheer 25
siff@@ 25
singers 25
slum 25
souffert 25
spectateur 25
spectateurs 25
spontaneously 25
st-@@ 25
stairs 25
stamp 25
stand-up 25
statements 25
steady 25
sted 25
strains 25
sucks 25
suivons 25
summary 25
sés 25
tapez 25
tend@@ 25
tendent 25
ther 25
tic@@ 25
transi@@ 25
travailleur 25
tricky 25
troupeau 25
twist 25
ug@@ 25
unis 25
ura 25
usées 25
uti@@ 25
vac@@ 25
vement 25
verser 25
veu@@ 25
vif 25
weighs 25
wives 25
Êtes-vous 25
éclair 25
écoutant 25
égards 25
éra@@ 25
éradication 25
étroite 25
étudiante 25
évasion 25
100.000 24
1940 24
1957 24
1969 24
1988 24
2012 24
2D 24
30@@ 24
650 24
ARN 24
Austin 24
Beatles 24
Bilbao 24
Billy 24
Biosphere 24
Blair 24
Bonnet 24
CEOs 24
Cat@@ 24
Chef 24
Chin@@ 24
Clark 24
Coll@@ 24
Company 24
Corporation 24
Darwinian 24
Development 24
Didn 24
Diplomat 24
Dix 24
Donnell 24
Dou@@ 24
Economist 24
Eduardo 24
Elec@@ 24
Free 24
Freud 24
Georgetown 24
Going 24
Goldman 24
Guatemala 24
Hawaï 24
Helvetica 24
Hier 24
Hil@@ 24
Honduras 24
Impossible 24
Industrial 24
Information 24
Interface 24
Janvier 24
Korean 24
Lar@@ 24
Leo 24
Lou@@ 24
Mah@@ 24
Mao 24
Map 24
Mau@@ 24
Met@@ 24
Mis@@ 24
NA 24
Natalie 24
Native 24
Ohio 24
Paix 24
Pascal 24
Philippe 24
Pink 24
Potter 24
Q 24
RI@@ 24
Ren@@ 24
Rice 24
Road 24
Russell 24
ST 24
Sao 24
Saturday 24
Sciences 24
Sen@@ 24
Sho@@ 24
Sioux 24
Soudan 24
South@@ 24
TEDster 24
TR 24
Thailand 24
Troy 24
Trust 24
Uh 24
V-Day 24
VC 24
Vir@@ 24
Voyez-vous 24
Wisconsin 24
Wol@@ 24
Wor@@ 24
Yor@@ 24
abord@@ 24
absorption 24
accomplish 24
accou@@ 24
acoustic 24
activist 24
adaptés 24
addressed 24
admis 24
ador@@ 24
affirmation 24
agrandir 24
aigu@@ 24
aimant 24
aines 24
ais-je 24
allumé 24
alpha 24
alt@@ 24
aminés 24
ancy 24
anneau 24
approuvé 24
arche 24
argued 24
arrière-plan 24
arrêtaient 24
arrêtez 24
artificiels 24
artwork 24
assembled 24
assises 24
autorisés 24
autrui 24
avant-garde 24
awa 24
awake 24
award 24
awkward 24
beds 24
bioluminescent 24
bis@@ 24
blagues 24
bloody 24
borne 24
bottes 24
bouill@@ 24
brutal 24
bun@@ 24
buses 24
bâti@@ 24
cabane 24
candidates 24
carrot 24
cartographier 24
causer 24
celebrity 24
certified 24
chagrin 24
champion 24
chatou@@ 24
cherchait 24
chèvre 24
chômage 24
cinquante 24
circuitry 24
civiles 24
civique 24
classement 24
collaborate 24
collaborateurs 24
collaborer 24
collectivement 24
collines 24
collisions 24
colorful 24
comb@@ 24
compact 24
compost 24
concentr@@ 24
concentrent 24
conclu 24
conduisent 24
connectent 24
considérée 24
continuera 24
contributions 24
convincing 24
coralliens 24
courent 24
crevettes 24
criteria 24
cyber 24
cyber-@@ 24
célébrité 24
dancers 24
dates 24
deadly 24
declared 24
degraded 24
del@@ 24
demanda 24
demo 24
deserves 24
diplômé 24
diriez-vous 24
disconnected 24
disiez 24
disques 24
distribute 24
divisions 24
divorce 24
documentary 24
dormi 24
down@@ 24
déclar@@ 24
déclarations 24
déclenche 24
décoller 24
déprimé 24
dérang@@ 24
désertification 24
e-mail 24
editor 24
emerges 24
emmen@@ 24
emporte 24
empower 24
encontre 24
encyclopedia 24
endront 24
entendues 24
entrainer 24
envelope 24
envoyait 24
ero@@ 24
escalade 24
ese 24
estimations 24
eth@@ 24
eté 24
européens 24
excellence 24
exceptionnel 24
exer@@ 24
exige 24
expectation 24
expense 24
explanations 24
explored 24
exploré 24
fabricant 24
fabricants 24
fabriquons 24
familiale 24
fatigue 24
favorable 24
favoris 24
festival 24
filmed 24
finishing 24
first-@@ 24
fixing 24
fière 24
fièvre 24
floors 24
full-@@ 24
fût 24
galeries 24
glisser 24
grandement 24
grenouille 24
habitent 24
handed 24
handful 24
happily 24
heal 24
hear@@ 24
hippie 24
hockey 24
hooked 24
hélice 24
im 24
imaginaire 24
imi 24
impatients 24
impliquent 24
impliquée 24
imprimé 24
improvis@@ 24
incidents 24
inciter 24
infrared 24
inherent 24
injured 24
inscrit 24
institute 24
insulin 24
intégrante 24
inutiles 24
inventée 24
juggling 24
jumeaux 24
justify 24
juvenile 24
kable 24
knock 24
learns 24
likelihood 24
limités 24
liv@@ 24
logging 24
long-@@ 24
losses 24
maintien 24
mammaire 24
mammography 24
mant 24
marchez 24
margin@@ 24
masculin 24
masque 24
matches 24
mation 24
mentalement 24
mentaux 24
mesurée 24
meurs 24
mic 24
midi 24
mild 24
milit@@ 24
misery 24
modules 24
mond 24
montrait 24
morph@@ 24
motivate 24
narration 24
nationales 24
nd 24
nerf 24
nord-est 24
norms 24
nutri@@ 24
oeufs 24
offrent 24
oise 24
oni@@ 24
opèrent 24
opérateur 24
organisée 24
organisés 24
orgasm 24
orgasme 24
oring 24
ouragan 24
ouvrent 24
overhead 24
paient 24
paraly@@ 24
paralysis 24
parameters 24
parfaits 24
partnerships 24
passionnés 24
pasteur 24
paths 24
pathway 24
patiente 24
perdant 24
permette 24
persuade 24
peuvent-ils 24
photographers 24
photographier 24
piscine 24
planifier 24
plateformes 24
pleure 24
polar@@ 24
poses 24
possé@@ 24
post-conflict 24
potatoes 24
potentielle 24
pp@@ 24
prenions 24
priority 24
procéder 24
produisant 24
produisons 24
profi@@ 24
projeté 24
promising 24
propag@@ 24
propage 24
proscenium 24
protocellules 24
préfér@@ 24
présentée 24
préservatif 24
prêtes 24
pée 24
périphérie 24
quait 24
quet 24
racontons 24
rail 24
rapporté 24
rassemblés 24
reader 24
real-time 24
realities 24
recher@@ 24
recru@@ 24
refroidir 24
refroidissement 24
regards 24
relax 24
rement 24
renaissance 24
reproduisent 24
représentant 24
reptiles 24
ressemblaient 24
ressenti@@ 24
restés 24
retournée 24
retrouvez 24
returns 24
rey 24
rises 24
rockets 24
roles 24
russes 24
réalisons 24
réception 24
répartition 24
répertoire 24
réservoir 24
rétablir 24
réuss@@ 24
san@@ 24
sandwiches 24
scanned 24
scripts 24
seawater 24
secondary 24
sequenced 24
short-term 24
sida 24
siens 24
sier 24
simulations 24
skeptical 24
slowing 24
sm@@ 24
solitude 24
soulever 24
souple 24
spinal 24
spontaneous 24
standpoint 24
statues 24
stressed 24
stunt 24
sty@@ 24
stéréotypes 24
summarize 24
supérieurs 24
sushi 24
systematic 24
séduisante 24
talented 24
tattoo 24
tel@@ 24
terais 24
terrorist 24
timide 24
tine 24
tion-@@ 24
titles 24
trapped 24
travels 24
tremendously 24
trillions 24
trouvera 24
truc@@ 24
tunnels 24
tured 24
ums 24
uniquely 24
upright 24
urban@@ 24
urine 24
utter 24
valise 24
vation 24
vendeurs 24
vertu 24
vibrations 24
vibrer 24
viewed 24
violon 24
virtuellement 24
volcanic 24
waited 24
wan@@ 24
wonderfully 24
ym@@ 24
échou@@ 24
économiquement 24
écrivait 24
éditeurs 24
élaborer 24
élémentaires 24
épisode 24
épouser 24
équité 24
équivaut 24
érons 24
étiquettes 24
,000-@@ 23
170 23
1850 23
190@@ 23
1930s 23
300,000 23
4,@@ 23
66 23
7,000 23
81 23
Alhambra 23
Ann 23
Anonymous 23
Around 23
Av@@ 23
B. 23
Bat@@ 23
Bro@@ 23
Comm@@ 23
Contrairement 23
Cri@@ 23
Cru@@ 23
Davis 23
Desert 23
Développement 23
E-@@ 23
Ell@@ 23
Er@@ 23
Especially 23
Français 23
Fred 23
Fri@@ 23
Ga@@ 23
Grove 23
Hillary 23
Himalaya 23
Hun@@ 23
III 23
J. 23
Jacques 23
Juan 23
Juifs 23
Jérusalem 23
Kerry 23
Kiva 23
Live 23
Looking 23
Lor@@ 23
Luckily 23
Macintosh 23
Marcus 23
Mexican 23
Nation 23
Netflix 23
OMS 23
On@@ 23
Père 23
RHex 23
Remarquez 23
Rock@@ 23
Rockefeller 23
Roi 23
Rule 23
Sand@@ 23
Schwarzschild 23
Scotland 23
Secretary 23
Son@@ 23
Soudain 23
Start 23
Supposons 23
Système 23
Taiwan 23
Tam@@ 23
Tech 23
Tel 23
Victoria 23
Wouldn 23
Youtube 23
abandonn@@ 23
accompag@@ 23
accroché 23
act@@ 23
adaptive 23
adaptée 23
affreux 23
aggregate 23
agran@@ 23
aidera 23
aides 23
aidés 23
alimente 23
alisées 23
allongé 23
ambitieux 23
ambitious 23
amus@@ 23
améliorations 23
anes 23
animé 23
answering 23
apparues 23
appel@@ 23
approuv@@ 23
arise 23
arrivaient 23
artères 23
assass@@ 23
associ@@ 23
astrolabe 23
atteinte 23
audace 23
aya 23
badge 23
banlieues 23
bilan 23
bilité 23
biotechnology 23
bled 23
blessed 23
blog@@ 23
bonnement 23
breakdown 23
brou@@ 23
brouillard 23
browser 23
burg 23
butt 23
cache 23
cad@@ 23
cadeaux 23
cadres 23
cale 23
calendar 23
canapé 23
candidat 23
candy 23
capacities 23
capturé 23
catholique 23
celebrated 23
cerebral 23
chaotic 23
chargée 23
checked 23
chi 23
choir 23
chronique 23
chèvres 23
clo@@ 23
cloth 23
coalition 23
coc@@ 23
cockpit 23
comman@@ 23
conceive 23
concepteur 23
condi@@ 23
confuse 23
connaisse 23
conserve 23
container 23
conte 23
continually 23
controversy 23
contrôles 23
convaincus 23
conventionnelle 23
conventions 23
conver@@ 23
couler 23
counter-@@ 23
countless 23
countryside 23
cues 23
culpabilité 23
culturally 23
cœurs 23
delay 23
delight 23
delighted 23
deploy 23
desertification 23
dessinées 23
diagnose 23
discrimination 23
dispu@@ 23
dité 23
donna 23
doué 23
dreamed 23
dur@@ 23
décor 23
décro@@ 23
définitivement 23
déployer 23
déposer 23
dépôt 23
développées 23
ear@@ 23
economically 23
eda 23
edit 23
embouteillages 23
enabling 23
endrais 23
engrais 23
enseignent 23
entendais 23
entité 23
entretenir 23
enver@@ 23
environnemental 23
equity 23
ethics 23
eus 23
exag@@ 23
excès 23
exis@@ 23
exprimé 23
expérimenté 23
exécution 23
familières 23
façade 23
ferez 23
fermée 23
fis@@ 23
fishermen 23
flood 23
flor@@ 23
flown 23
fluides 23
foc@@ 23
fossils 23
founder 23
frames 23
freak 23
fulfilling 23
fusées 23
féli@@ 23
féministe 23
gigantic 23
globalement 23
glucose 23
goodness 23
grands-parents 23
grasses 23
grottes 23
habituel 23
hamburgers 23
hatred 23
heureuses 23
high-speed 23
honesty 23
hugely 23
humankind 23
humili@@ 23
hun@@ 23
hung 23
ial 23
ich 23
ici@@ 23
idé@@ 23
immédiat 23
immédiate 23
imp@@ 23
impliquées 23
inclus 23
infinitely 23
inform 23
informal 23
informer 23
ingrédient 23
innovate 23
innovateurs 23
interviewé 23
intrig@@ 23
inégalités 23
istan 23
italien 23
jokes 23
journalisme 23
joyeux 23
judgments 23
kilometer 23
labels 23
lately 23
laughter 23
laundry 23
lean 23
lightning 23
limestone 23
loans 23
lé@@ 23
lésions 23
manqu@@ 23
medications 23
medicines 23
meg@@ 23
micros@@ 23
mignon 23
minerals 23
ministres 23
mique 23
montr@@ 23
moth 23
moutarde 23
musicales 23
mutual 23
még@@ 23
nanotechnology 23
nerveuse 23
nette 23
novelty 23
nucleus 23
numéros 23
obsédé 23
occupent 23
odor 23
oie 23
ona 23
operated 23
operational 23
ors@@ 23
oth@@ 23
owe 23
owns 23
paquets 23
paralysie 23
parked 23
passagers 23
passionne 23
pathogens 23
patte 23
percu@@ 23
perdus 23
pes@@ 23
pill@@ 23
pilotes 23
placés 23
plantation 23
pleut 23
plie 23
pluies 23
plume 23
posons 23
potato 23
poursuit 23
pouvant 23
powder 23
prayer 23
preserved 23
prière 23
procedures 23
procure 23
prof@@ 23
prom@@ 23
promets 23
promises 23
prostitution 23
proton 23
précédentes 23
préoccupe 23
psychologue 23
qualified 23
quietly 23
racing 23
racontée 23
rainfall 23
rapporte 23
reasonably 23
reconnaissant 23
reduces 23
refined 23
refugees 23
refused 23
rehabilitation 23
releases 23
relié 23
rembour@@ 23
remembering 23
remplis 23
representative 23
repris 23
resist 23
retournons 23
retrouvés 23
rex 23
rin@@ 23
robuste 23
rocher 23
roches 23
rupture 23
récepteurs 23
réinventer 23
sages 23
sanguine 23
sar@@ 23
savoir-faire 23
scientifically 23
scientifiquement 23
sensorielles 23
sentait 23
shaking 23
sincèrement 23
singer 23
sis 23
slowed 23
sm 23
sman 23
snakes 23
soap 23
solitaire 23
sophistiquées 23
specialist 23
spectacles 23
spr@@ 23
stat@@ 23
ste 23
stratégique 23
stunts 23
sty 23
submersibles 23
supermarchés 23
supérieures 23
surfing 23
surprendre 23
surveys 23
synapse 23
tambour 23
targeted 23
tastes 23
temps-là 23
tentatives 23
terminal 23
thesis 23
tionné 23
tips 23
tori@@ 23
tortues 23
traitée 23
tranche 23
transmettent 23
trap 23
trembl@@ 23
trente 23
tri 23
tropicale 23
tropicales 23
typing 23
uck 23
urbains 23
urent 23
ué 23
vacation 23
vain 23
verront 23
viewing 23
viol@@ 23
vitale 23
vivid 23
voi@@ 23
vy 23
wage 23
wandering 23
warfare 23
washed 23
wel@@ 23
winners 23
wo@@ 23
work@@ 23
worship 23
zer 23
École 23
çaient 23
échafaudage 23
écraser 23
écrites 23
élan 23
élevage 23
élites 23
émergentes 23
ép@@ 23
érant 23
étroit 23
év@@ 23
évolu@@ 23
ï@@ 23
# 22
* 22
1-@@ 22
1987 22
360 22
88 22
AC 22
AI 22
Absolument 22
According 22
Anthony 22
Architecture 22
Ari@@ 22
Auschwitz 22
Bern@@ 22
Bienvenue 22
Bowl 22
Brilliant 22
Budapest 22
Celsius 22
Chuck 22
Cleveland 22
Commerce 22
Dame 22
Darfour 22
Darfur 22
Defense 22
Direc@@ 22
Douglas 22
Ecoutez 22
Edinburgh 22
Eventually 22
Exactement 22
FedEx 22
Film 22
Financial 22
Fine 22
Fortunately 22
Fortune 22
Franklin 22
Galileo 22
Galvao 22
Giussani 22
Gor@@ 22
Greeks 22
Hai@@ 22
Ham@@ 22
Hel@@ 22
Hopkins 22
Humans 22
I. 22
Illinois 22
Innovation 22
Ir@@ 22
JE 22
JPL 22
Jabbar 22
Jon 22
Jordan 22
Karl 22
Kentucky 22
Kh@@ 22
Kismet 22
LHC 22
Lab@@ 22
Labs 22
League 22
Liberia 22
M.@@ 22
MBA 22
Manchester 22
Marines 22
Milieu 22
Min 22
Mos@@ 22
Najmuddin 22
Nano 22
Nashville 22
Navy 22
Net@@ 22
PA 22
Palm 22
Pas@@ 22
Pat 22
Plusieurs 22
Police 22
Prot@@ 22
RD 22
Rab@@ 22
Ralph 22
Recherche 22
Ric@@ 22
Robicsek 22
Roman 22
Russians 22
SA@@ 22
SARS 22
Sachs 22
Say 22
Sibérie 22
Solar 22
Som@@ 22
Spoutnik 22
Sue 22
Sul@@ 22
TEDGlobal 22
Together 22
Tom@@ 22
Top 22
Troisièmement 22
Using 22
Whoa 22
Woody 22
WorldWide 22
Worldchanging 22
Year 22
accompagné 22
achetons 22
acute 22
adage 22
adds 22
ader 22
adress@@ 22
advocate 22
ake 22
alities 22
altered 22
ama@@ 22
amen@@ 22
améliorent 22
anci@@ 22
ands 22
anytime 22
api@@ 22
apparaitre 22
appartiennent 22
apparus 22
apping 22
appreciated 22
appréci@@ 22
arose 22
arrangements 22
arrive-t-il 22
arrows 22
arrêtée 22
asses 22
assessment 22
assey@@ 22
ast 22
atteintes 22
aventures 22
balloons 22
banc 22
basées 22
bath 22
bay 22
beetles 22
beside 22
bine 22
bla 22
blows 22
bombar@@ 22
bougie 22
boule@@ 22
brillantes 22
brille 22
briquettes 22
bullet 22
calculated 22
calottes 22
candle 22
cartilage 22
casse 22
catalyseur 22
census 22
centre-ville 22
chants 22
chaotique 22
chées 22
cia 22
circul@@ 22
cités 22
civils 22
clarity 22
cles 22
coastal 22
cocaïne 22
comité 22
commis 22
commodities 22
commonly 22
complètes 22
composite 22
compréhensible 22
comptabilité 22
compté 22
comté 22
confrontation 22
connectées 22
consacré 22
construi@@ 22
consultation 22
contenant 22
continuait 22
contracter 22
copine 22
costumes 22
counter@@ 22
crainte 22
crank 22
croix 22
crushed 22
decides 22
deficit 22
descendant 22
diagnostics 22
dictionaries 22
differential 22
disconnect 22
dissi@@ 22
distorted 22
dixième 22
doctrine 22
dommage 22
doubl@@ 22
draws 22
duration 22
décri@@ 22
dégradation 22
dépendre 22
dérou@@ 22
détec@@ 22
dôme 22
e-t-on 22
eastern 22
eigh@@ 22
eight-@@ 22
ein@@ 22
ek 22
ela 22
elbow 22
elders 22
eless 22
eline 22
ella 22
emb@@ 22
eme 22
enberg 22
enhance 22
entrepreneurship 22
entretien 22
ero 22
erotic 22
esses 22
essi@@ 22
estomac 22
euh 22
existant 22
existantes 22
expositions 22
exquisite 22
fabuleuse 22
faisiez 22
falaises 22
fame 22
favoriser 22
fermés 22
fertilizer 22
filets 22
filtr@@ 22
findings 22
finie 22
fisheries 22
flesh 22
fleuve 22
flop 22
focal 22
folie 22
formons 22
fran@@ 22
franchise 22
fus 22
fus@@ 22
fuzzy 22
gagnez 22
gallons 22
gaze 22
gentiment 22
geographic 22
glob@@ 22
goats 22
gouvern@@ 22
govern 22
grams 22
grief 22
guidance 22
générique 22
habit@@ 22
heights 22
heritage 22
heroic 22
hint 22
hn 22
hotter 22
hunters 22
hybride 22
hypo@@ 22
icônes 22
iers 22
ight 22
illage 22
imite 22
impaired 22
imperative 22
improvements 22
improvise 22
inauguration 22
ined 22
infect 22
influ@@ 22
inform@@ 22
infra@@ 22
inhabituelle 22
inhal@@ 22
innocence 22
ino@@ 22
instable 22
instances 22
intellectuels 22
internes 22
invente 22
inversion 22
investi@@ 22
ironique 22
ita 22
ited 22
ième 22
ières 22
janitor 22
jetez 22
joining 22
jumping 22
justi@@ 22
ket 22
kiss 22
knees 22
lampes 22
latine 22
lau@@ 22
laying 22
lest 22
lining 22
lips 22
literal 22
localisation 22
louder 22
maill@@ 22
mantra 22
march 22
marines 22
marked 22
mars 22
marshmallow 22
mass@@ 22
matching 22
maximale 22
metaphors 22
microbienne 22
mini-@@ 22
ministère 22
mod@@ 22
modélisation 22
mold 22
monstre 22
mont 22
motivés 22
mouths 22
multitude 22
murder 22
mustard 22
mutant 22
mythes 22
mythologie 22
méchants 22
navigateur 22
noticing 22
nôtres 22
objec@@ 22
oblig@@ 22
obsolete 22
offensive 22
ography 22
oit 22
ombres 22
omni@@ 22
one-third 22
ons-les 22
ops 22
oranges 22
oscope 22
oti@@ 22
oublierai 22
panier 22
parfaites 22
parl@@ 22
parliament 22
pens@@ 22
personnalités 22
philosophes 22
phot@@ 22
photographies 22
physi@@ 22
physiology 22
pingouin 22
plac@@ 22
plumes 22
porcs 22
portés 22
possédait 22
pourrai 22
poursuite 22
prenais 22
presidential 22
pristine 22
problematic 22
procédures 22
produira 22
professionnelles 22
programmés 22
progressive 22
prononcé 22
pumps 22
pér@@ 22
pêcher 22
quantitative 22
rages 22
rainforest 22
rainforests 22
randomness 22
rapidité 22
rappellent 22
rationnelle 22
ravi 22
receptor 22
recherchons 22
reconnaissante 22
reconnaissent 22
reconnaît 22
reflective 22
reflet 22
regardions 22
reject 22
remarquablement 22
remontent 22
remplace 22
remplacement 22
rendra 22
rentrée 22
reporters 22
responsibilities 22
ressentais 22
restriction 22
retournés 22
retrouvée 22
reven@@ 22
revenez 22
revolutionary 22
rhythms 22
rolls 22
ruban 22
ruins 22
rurale 22
réconfort 22
réfléchissant 22
régulière 22
réplique 22
sacrifices 22
saisons 22
salary 22
salée 22
samedi 22
satisfied 22
savez-vous 22
school@@ 22
secrète 22
seins 22
serviettes 22
sexualité 22
sexuellement 22
shells 22
sifs 22
similarly 22
single-@@ 22
sit@@ 22
sives 22
sketches 22
skip 22
slice 22
slight 22
socialement 22
solemn 22
sonn@@ 22
spheres 22
squelettique 22
stades 22
stare 22
strengths 22
stretched 22
studios 22
successes 22
sucré 22
suivis 22
supposons 22
surprenante 22
surroundings 22
survivors 22
sustained 22
sweat 22
swing 22
sympas 22
synagogue 22
synthesis 22
séquoia 22
séquoias 22
tac@@ 22
taches 22
tantes 22
teen 22
temples 22
tern@@ 22
testicules 22
thers 22
throat 22
tol@@ 22
tonne 22
tot@@ 22
tourisme 22
tournés 22
towers 22
trailer 22
transaction 22
transactions 22
tribal 22
tricher 22
tristesse 22
trottoir 22
téléphoniques 22
ump 22
un-@@ 22
under-@@ 22
usages 22
utilisable 22
variantes 22
varieties 22
vasculaire 22
verticale 22
vesti@@ 22
violer 22
visiteurs 22
vivions 22
vocation 22
voters 22
vraisemblablement 22
wiring 22
wit@@ 22
with@@ 22
yoga 22
ys@@ 22
Église 22
ède 22
écho 22
édi@@ 22
élévation 22
émerveillement 22
épilepsie 22
érations 22
étendues 22
éternelle 22
éthiques 22
éveillé 22
œuf 22
1.000 21
1.2 21
10.000 21
1858 21
2100 21
24@@ 21
40s 21
91 21
A.@@ 21
AA 21
Alexandre 21
Ang@@ 21
Argentina 21
Argentine 21
Ay@@ 21
Bos@@ 21
Brain 21
Brazilian 21
Buff@@ 21
CE@@ 21
CERN 21
Casey 21
Christopher 21
Comté 21
Creek 21
Cur@@ 21
Dan@@ 21
Dawkins 21
Deuxième 21
Diego 21
Dites 21
Doctor 21
Doesn 21
Edward 21
Eleanor 21
Evolution 21
Fahrenheit 21
Falcon 21
HC 21
Happy 21
Hay@@ 21
Hillis 21
Hold 21
Honey 21
Hopefully 21
Huck 21
IT 21
Ice 21
Japonais 21
Jean 21
Kate 21
Kay 21
Kiki 21
Kingdom 21
Ky@@ 21
LOLcats 21
Land@@ 21
Lindbergh 21
Ly@@ 21
Malawi 21
Maps 21
Matthieu 21
Mellon 21
Mid@@ 21
Mister 21
Move 21
Moïse 21
NBC 21
NGO 21
Nice 21
Noir 21
Octobre 21
PE@@ 21
Play@@ 21
Pour@@ 21
Prime 21
Pékin 21
Rezero 21
Russes 21
SRAS 21
Saoudite 21
Sel@@ 21
Sergey 21
Serra 21
Siberia 21
Sim@@ 21
Simpson 21
Somalie 21
Sous 21
Such 21
Surtout 21
TEDsters 21
Taylor 21
Thanksgiving 21
Tul@@ 21
USC 21
Vel@@ 21
Venus 21
Vivian 21
Water@@ 21
Welcome 21
X-@@ 21
Zo@@ 21
abri@@ 21
ac 21
académique 21
accomplissement 21
accounting 21
accroître 21
accueillir 21
accurately 21
acidification 21
acqu@@ 21
activate 21
adapte 21
adhérer 21
adresser 21
aiguilles 21
ail 21
ally-@@ 21
ambiguity 21
amusantes 21
analyzing 21
animer 21
anéanti@@ 21
apogée 21
appartenance 21
appropriately 21
aquatique 21
aring 21
arrest 21
arrière-@@ 21
arth@@ 21
assemblée 21
assimil@@ 21
associées 21
assurément 21
asthma 21
asthme 21
atheists 21
atic 21
ationnelle 21
atiques 21
attach@@ 21
attacher 21
attachment 21
attendaient 21
atterrissage 21
attribute 21
auditory 21
austr@@ 21
auto-organisation 21
availability 21
backed 21
baissé 21
bananas 21
barrels 21
bent 21
biases 21
bind 21
bla@@ 21
blade 21
blast 21
blocked 21
boo@@ 21
bougez 21
brancher 21
brass@@ 21
breasts 21
brocoli 21
bumps 21
bâtons 21
bé@@ 21
bêtes 21
cabine 21
cachées 21
carburants 21
charcoal 21
charte 21
chimpanzé 21
chérie 21
ciment 21
cine 21
cir@@ 21
civilian 21
clapping 21
clou@@ 21
cognition 21
coined 21
collar 21
collec@@ 21
com 21
commen@@ 21
commencer@@ 21
commencions 21
communique 21
compos@@ 21
compositeur 21
comprenne 21
compressed 21
comprise 21
concentrons 21
concernent 21
concierge 21
conditionné 21
conducting 21
consac@@ 21
constituer 21
constrained 21
consuming 21
continuity 21
contradictions 21
contribu@@ 21
cot@@ 21
coude 21
courrier 21
cracked 21
cristall@@ 21
croissant 21
croît 21
culte 21
curseur 21
cé 21
cés 21
dames 21
defeat 21
dem@@ 21
demandés 21
demeure 21
dentaire 21
descendus 21
desires 21
destructive 21
dictionnaires 21
differ 21
digitale 21
directed 21
dirigeons 21
disappointed 21
discussed 21
dist@@ 21
distinctes 21
distingu@@ 21
dividing 21
divor@@ 21
dness 21
documenting 21
doi@@ 21
dominance 21
donnais 21
doubles 21
doubling 21
dre@@ 21
drift 21
drowning 21
dt 21
dump 21
débrouiller 21
découle 21
découper 21
découvrent 21
décédé 21
déficit 21
déforestation 21
dépendant 21
déplacements 21
développements 21
développeurs 21
eau@@ 21
eck 21
embauché 21
employ 21
engendre 21
entity 21
environmentally 21
envy 21
episode 21
equ@@ 21
equipped 21
essentielles 21
ession 21
estimé 21
eur@@ 21
exemplaires 21
export 21
exten@@ 21
faciliter 21
façonner 21
façonné 21
fertility 21
fiables 21
finances 21
firms 21
fission 21
fiées 21
flottant 21
flourish 21
focalisés 21
fol@@ 21
fondement 21
footprints 21
forbid 21
foreground 21
formats 21
foster 21
frac@@ 21
fragment 21
friendship 21
frustrating 21
fréquent 21
full-time 21
fusionner 21
galvan@@ 21
gardent 21
gars-là 21
gation 21
geese 21
gelé 21
gently 21
germs 21
gifts 21
gin 21
globalized 21
glori@@ 21
glory 21
golfe 21
goûter 21
grace 21
gribouillage 21
grim 21
gro@@ 21
grotte 21
gues 21
guilt 21
génèrent 21
géographie 21
hammer 21
har 21
harness 21
harvesting 21
heated 21
hectare 21
historian 21
hol@@ 21
hoo 21
hopeless 21
hut 21
icons 21
iles 21
illé 21
immigration 21
imprimerie 21
imprévisible 21
impératif 21
incapables 21
incertain 21
incidentally 21
informé 21
innovators 21
inquiétez 21
insister 21
insisté 21
instantanée 21
integrating 21
intensifs 21
intentional 21
introducing 21
intuitif 21
inventing 21
inviting 21
invo@@ 21
inégalité 21
it-@@ 21
ith 21
japonaise 21
jet@@ 21
jouais 21
jure 21
justifier 21
kil@@ 21
laboratories 21
lac@@ 21
laps 21
lasers 21
launching 21
ling@@ 21
linge 21
lisse 21
logically 21
longest 21
lows 21
légale 21
maintaining 21
malheur 21
manquait 21
manteau 21
manufacturer 21
mar 21
marker 21
marquer 21
marvelous 21
marées 21
matériels 21
mazoutés 21
meaningless 21
melody 21
mentalité 21
mi-@@ 21
millénaire 21
modifie 21
montrons 21
mosque 21
mosquitoes 21
métiers 21
nail 21
nau@@ 21
navig@@ 21
needles 21
negotiating 21
nement 21
nightmare 21
nitrique 21
norm@@ 21
numerous 21
nut 21
nylon 21
obtained 21
obti@@ 21
océanique 21
omics 21
one@@ 21
oning 21
onstage 21
ook 21
oppression 21
optimistes 21
orchestres 21
orer 21
outs 21
oxide 21
p.m. 21
pai@@ 21
paraissent 21
parent@@ 21
partageant 21
participating 21
parvenus 21
pathologies 21
peintre 21
permanently 21
permettez 21
personalities 21
pest 21
peu@@ 21
philosophers 21
pins 21
pionniers 21
plages 21
poles 21
pompes 21
pourcents 21
pourrions-nous 21
precision 21
prints 21
procédés 21
proie 21
propagation 21
proprement 21
protocole 21
prototyping 21
provo@@ 21
prévision 21
psych@@ 21
pubs 21
pulses 21
pèlerins 21
pénurie 21
quasi-@@ 21
questioning 21
quinze 21
racon@@ 21
rag@@ 21
rattraper 21
ravis 21
recensement 21
recommande 21
recréer 21
recycle 21
recycler 21
redefine 21
refait 21
reflects 21
refuser 21
regimes 21
regulate 21
reins 21
rel 21
relevance 21
remplacé 21
researching 21
resilient 21
retreat 21
revenant 21
richesses 21
riv@@ 21
rochers 21
routinely 21
ruche 21
réalisés 21
réchauffe 21
récup@@ 21
récur@@ 21
répandue 21
répété 21
rési@@ 21
réunissent 21
révél@@ 21
scaffolding 21
scarce 21
science-fiction 21
se-@@ 21
self-organizing 21
serveur 21
sh 21
siez 21
signaler 21
signing 21
simultanément 21
skilled 21
slept 21
smo@@ 21
soign@@ 21
sonores 21
sor 21
sorties 21
souche 21
soucier 21
souten@@ 21
spi@@ 21
sponsors 21
squeeze 21
staggering 21
starvation 21
state-of-the-art 21
stated 21
sterile 21
sticky 21
stimulate 21
streaming 21
strict 21
sufficient 21
suggèrent 21
suppression 21
sur-@@ 21
surveill@@ 21
suspicious 21
séch@@ 21
sécheresse 21
séquençage 21
sévère 21
tal 21
tering 21
terrifiant 21
terrorists 21
teux 21
thread 21
tiquement 21
tively 21
tourist 21
toxins 21
transmet 21
transportent 21
travaill@@ 21
troubled 21
trouvées 21
tré@@ 21
tt@@ 21
tude 21
tunas 21
two-dimensional 21
uis 21
ute 21
utérus 21
vari@@ 21
variabilité 21
veille 21
velocity 21
veste 21
vine 21
visiblement 21
wn 21
wonders 21
worldview 21
worthwhile 21
yp@@ 21
âges 21
çait 21
ènes 21
échang@@ 21
écrivez 21
électro@@ 21
électromagnétique 21
épouvantable 21
éra 21
étagère 21
étés 21
éventuellement 21
1908 20
195@@ 20
1966 20
250,000 20
80,000 20
Action 20
Admin 20
Ali@@ 20
All@@ 20
Amazon@@ 20
Anything 20
Aujourd 20
BR 20
Betty 20
Boyle 20
Canal 20
Cargill 20
Channel 20
Charlotte 20
Cir@@ 20
Clay 20
Creative 20
Crick 20
DA 20
Den@@ 20
Drake 20
Désormais 20
Edison 20
Eight 20
Emer@@ 20
Enceladus 20
Energy 20
Est-il 20
Et@@ 20
Europa 20
Evelyn 20
Excuse 20
FMI 20
FS 20
Fol@@ 20
Furby 20
G. 20
Gapminder 20
Georgia 20
Ghraib 20
Gilbert 20
Gould 20
Group 20
Harbor 20
Has 20
Heal@@ 20
Help 20
Himalayas 20
Hindi 20
Home 20
Hyderabad 20
IQ 20
Imag@@ 20
Incredible 20
Indiana 20
Jeux 20
Judy 20
Jus@@ 20
Kaluza 20
Kathryn 20
Kerala 20
Kim 20
Kin@@ 20
Kit@@ 20
Klein 20
Kofi 20
LC 20
LI@@ 20
Lakota 20
Lam@@ 20
Large 20
Linus 20
Lots 20
Lucifer 20
Lucy 20
Lui 20
Lynn 20
Marduk 20
Marx 20
Matthew 20
Medicine 20
Milan 20
Missouri 20
Moins 20
Moreover 20
Mozambique 20
NK 20
NO@@ 20
Nancy 20
Nationale 20
Neanderthal 20
Normalement 20
Not@@ 20
OM@@ 20
Oakland 20
Page 20
Pants 20
Patient 20
Pierre 20
Play 20
Port-au-Prince 20
Prego 20
QI 20
Question 20
RCA 20
Red@@ 20
Regar@@ 20
Reine 20
Robin 20
SF 20
Scot@@ 20
Shah 20
Simplement 20
Slo@@ 20
Snow 20
Splashy 20
Supreme 20
Swahili 20
Swedish 20
Sys 20
Tai@@ 20
Tech@@ 20
Terri@@ 20
Too 20
Truth 20
Tulu 20
Tw@@ 20
U.K 20
Unlike 20
Viagra 20
Voulez-vous 20
Warcraft 20
X-rays 20
Yo 20
Yu@@ 20
Ze@@ 20
aah 20
abattre 20
abordé 20
abstraite 20
absurd 20
abus@@ 20
acceleration 20
accepting 20
accidentally 20
accountable 20
accumulent 20
acre 20
adhésif 20
affai@@ 20
agi@@ 20
agissons 20
aidez 20
aillent 20
ais@@ 20
aisse 20
ajou@@ 20
ajoutant 20
alert 20
alg@@ 20
alike 20
amende 20
analogies 20
anecdotes 20
angels 20
ank 20
anonyme 20
antenna 20
antibodies 20
anticipation 20
antique 20
apper 20
appliances 20
appliquée 20
appuyant 20
arrang@@ 20
ascension 20
assur@@ 20
astronomical 20
astronomique 20
athletes 20
aton 20
atory 20
attache 20
attentif 20
auc@@ 20
aur@@ 20
ave 20
baiss@@ 20
bamboo 20
bambou 20
bananes 20
banquiers 20
barbe 20
barbecue 20
baril 20
battus 20
beaches 20
bench 20
bi 20
billboard 20
bres 20
brill@@ 20
briller 20
buff@@ 20
bump 20
buys 20
cafe 20
camarades 20
carreau 20
carrières 20
cathedral 20
centimeter 20
chalk 20
chanté 20
cheminées 20
cherchaient 20
chess 20
chloro@@ 20
choisi@@ 20
choqué 20
chroniques 20
civiques 20
clarté 20
climat@@ 20
collaborators 20
combining 20
comm@@ 20
commentary 20
communal 20
comparant 20
comparons 20
comparti@@ 20
compatissant 20
concentrée 20
conceptu@@ 20
configurations 20
conservatives 20
consideration 20
consists 20
conspiracy 20
consultants 20
cooked 20
cooperate 20
coordinate 20
coordonnées 20
cop 20
copié 20
correc@@ 20
coulisses 20
couvrent 20
coïncidence 20
coûterait 20
coûteuse 20
coûté 20
crabe 20
creu@@ 20
crowded 20
cultivate 20
custom 20
céré@@ 20
cérébraux 20
dancer 20
daylight 20
declining 20
defines 20
del 20
denti@@ 20
dependence 20
depressing 20
depths 20
developmental 20
developments 20
develops 20
devons-nous 20
devrons 20
dialoguer 20
diapositives 20
diriez 20
disruptive 20
distributeur 20
divin 20
divis@@ 20
dog@@ 20
donnerai 20
dossiers 20
douche 20
durent 20
dures 20
déb@@ 20
déf@@ 20
définitive 20
démontre 20
déséquilibre 20
dî@@ 20
ea@@ 20
eais 20
earning 20
eds 20
educating 20
effor@@ 20
elderly 20
elec@@ 20
eling 20
emballage 20
embaucher 20
embodied 20
emi@@ 20
employed 20
empois@@ 20
emprun@@ 20
encouragement 20
endre 20
enfermé 20
ening 20
enseignements 20
entend@@ 20
entendus 20
envahir 20
envoyons 20
eradicated 20
eras 20
ethnique 20
expérimental 20
externes 20
extra-terrestres 20
faille 20
fascinantes 20
faune 20
faut-il 20
favorise 20
feminine 20
fiant 20
fient 20
filaments 20
financially 20
financièrement 20
fired 20
flammes 20
flexibles 20
flottent 20
followers 20
fracture 20
frag@@ 20
free-@@ 20
free@@ 20
frot@@ 20
fréquemment 20
gagn@@ 20
gardes 20
gin@@ 20
gnant 20
gobelets 20
gravit@@ 20
griffes 20
guitar 20
généraux 20
géologique 20
habillé 20
haches 20
hacking 20
hears 20
heck 20
heur@@ 20
holiday 20
hotels 20
iPhones 20
idi@@ 20
ignorant 20
ignorent 20
il-@@ 20
illnesses 20
imaginary 20
impli@@ 20
import@@ 20
imposer 20
impossibles 20
impressionnante 20
incapacité 20
incendies 20
incitations 20
independently 20
indigènes 20
indiqué 20
individually 20
industrialized 20
infectieuses 20
inging 20
injecter 20
inondations 20
inputs 20
inquiétant 20
inspirée 20
installe 20
interagit 20
intermédiaires 20
interviewing 20
intimement 20
intrinsically 20
intrus 20
intéressait 20
invade 20
investissons 20
involvement 20
jalousie 20
kings 20
labyrinthe 20
lah 20
lancez 20
las@@ 20
lasting 20
lec@@ 20
lenses 20
liber@@ 20
lied 20
lim@@ 20
litre 20
lle 20
loaded 20
logistique 20
lourde 20
low-income 20
low@@ 20
lue 20
lèvent 20
létales 20
maient 20
manquent 20
mante 20
mantis 20
marchais 20
marteau 20
massage 20
matiques 20
mensonges 20
mentent 20
mesurons 20
metabolic 20
metric 20
mi 20
midnight 20
million-@@ 20
minimal 20
moms 20
monster 20
mosquée 20
motivé 20
mousse 20
multinational 20
murdered 20
navires 20
negotiation 20
negotiations 20
neuro-@@ 20
nions 20
nit@@ 20
norm 20
nourri 20
numb 20
numériser 20
nœuds 20
observent 20
obsédés 20
of-@@ 20
oiled 20
oires 20
ois@@ 20
oles 20
oms 20
ongles 20
opaque 20
oping 20
optiques 20
ore@@ 20
osh 20
ost 20
oth 20
otte 20
ough 20
outdoor 20
ov 20
oyster 20
packing 20
painter 20
parade 20
parlement 20
passionnante 20
payez 20
percep@@ 20
periodic 20
persuader 20
phil@@ 20
physiologie 20
pieuvre 20
pigeons 20
pilots 20
pipes 20
pity 20
placement 20
plaisanterie 20
plani@@ 20
plas@@ 20
plis 20
plong@@ 20
plonge 20
poign@@ 20
poll 20
poorer 20
pop-up 20
portées 20
posts 20
potassium 20
pourriez-vous 20
poussant 20
prestige 20
preventable 20
produisait 20
projecteur 20
protocells 20
préférences 20
préoccupations 20
préserv@@ 20
prêtre 20
punition 20
purement 20
q 20
quantities 20
quotidiennes 20
raises 20
ralentit 20
ranging 20
recev@@ 20
recipes 20
recouvert 20
recycl@@ 20
refus@@ 20
regar@@ 20
register 20
relates 20
reliés 20
renoncer 20
repartir 20
repertoire 20
reportage 20
représentait 20
représentants 20
respi@@ 20
respiratory 20
ressor@@ 20
retenu 20
retired 20
retrait 20
rois 20
rop@@ 20
roupies 20
réagit 20
réalisateur 20
références 20
rétro@@ 20
réveillé 20
s-là 20
salmon 20
savane 20
schooling 20
scope 20
screw 20
seasons 20
sermons 20
server 20
serveurs 20
sh-@@ 20
shower 20
shrink 20
shrinking 20
sique 20
sively 20
slaves 20
smiles 20
soda 20
soi-disant 20
sophistiqués 20
souci@@ 20
souvient 20
spades 20
spectaculaires 20
spills 20
spine 20
spite 20
spl@@ 20
spo@@ 20
squared 20
squares 20
ssant 20
stent 20
stimulant 20
strictly 20
stro@@ 20
struggled 20
submitted 20
sulfur 20
supposés 20
survivants 20
suspects 20
synthesize 20
séance 20
séparées 20
taboo 20
tabou 20
telephones 20
tendu 20
terez 20
terri@@ 20
th-century 20
thirdly 20
tick 20
tien 20
tightly 20
tionally 20
tionnée 20
tisme 20
tizing 20
tomb@@ 20
tops 20
transcend 20
trauma 20
tribunal 20
trunk 20
témoignage 20
ular 20
ulated 20
una 20
unpredictable 20
unstable 20
urbanisation 20
vaincre 20
vais-je 20
valable 20
variability 20
vase 20
vecteur 20
veill@@ 20
victory 20
viewer 20
vin@@ 20
vions 20
vive 20
voisinage 20
voiturette 20
voluntary 20
vont-ils 20
voyiez 20
végétation 20
végétaux 20
wards 20
wasting 20
watches 20
water@@ 20
whistling 20
willingness 20
âtre 20
écar@@ 20
échouent 20
écoule 20
édifice 20
élargir 20
ément 20
émettre 20
épinière 20
épuis@@ 20
équateur 20
éruption 20
était-ce 20
étonné 20
-year-olds 19
1.3 19
40-@@ 19
400,000 19
AC@@ 19
Adams 19
African-American 19
Agence 19
Ages 19
Allah 19
Anim@@ 19
Asi@@ 19
Aspen 19
Assez 19
Austr@@ 19
Avoir 19
B-@@ 19
BMI 19
BS 19
Babylone 19
Better 19
Beverly 19
Boltzmann 19
Brit@@ 19
Ce@@ 19
Centrale 19
Certes 19
Cin@@ 19
Clearly 19
Colom@@ 19
Conference 19
Copernic 19
Cup 19
Derartu 19
Dic@@ 19
Divergence 19
Droits 19
Early 19
Encelade 19
Esther 19
Ezra 19
Good@@ 19
Gowanus 19
Grecs 19
Hamlet 19
Harris 19
Huh 19
Huit 19
IMF 19
Igbo 19
Ile 19
JO 19
Jeep 19
Lib@@ 19
MA@@ 19
MP3 19
Map@@ 19
Marc 19
Market 19
Maya 19
Mediterranean 19
Mitchell 19
Mus@@ 19
Nar@@ 19
Nazis 19
Nepal 19
PC@@ 19
Parks 19
Paula 19
Peru 19
Pâques 19
Pérou 19
RO@@ 19
RSW 19
Recently 19
Rich@@ 19
Rit@@ 19
Rock 19
SP@@ 19
Scientists 19
Scottish 19
Septembre 19
Sida 19
Small 19
Somalia 19
Sousa 19
Station 19
Stories 19
Stri@@ 19
Sub@@ 19
Syria 19
Syrie 19
Tata 19
Tit@@ 19
Viking 19
Vou@@ 19
Vénus 19
West@@ 19
Zéro 19
abandonnés 19
abat@@ 19
abdomen 19
aborde 19
absorbed 19
absorber 19
acceptance 19
acceptation 19
accidental 19
accorde 19
accoupler 19
accroissement 19
accused 19
achar@@ 19
aching 19
addicted 19
administr@@ 19
adorais 19
aerial 19
affairs 19
affec@@ 19
affectés 19
affron@@ 19
agnostic 19
agrég@@ 19
ailles 19
aimants 19
airement 19
algebra 19
alia 19
aliment@@ 19
alimentée 19
alongside 19
alphabétisation 19
altruisme 19
amb@@ 19
amenée 19
ampu@@ 19
amusement 19
annuel 19
antibiotic 19
anxious 19
[...]
