#version: 0.2
t h
i n
a n
th e</w>
e r
o s
a p
a t</w>
o u
in g</w>
t o</w>
ap os
& apos
a r
i s</w>
&apos ;
o f</w>
e n
a l
r e
t i
an d</w>
o n
o r
e d</w>
th e
i n</w>
th at</w>
o n</w>
e s</w>
o u</w>
i t
s t
w h
i t</w>
e r</w>
y ou</w>
l y</w>
a n</w>
v e</w>
o m
a c
l i
a s</w>
n d</w>
a t
r o
&apos; s</w>
e c
l e</w>
w e</w>
er e</w>
s e</w>
n o
o r</w>
A nd</w>
i c
q u
e n</w>
o t
e l
h a
T h
th is</w>
s t</w>
d i
a b
l o
a l</w>
i l
s i
ou t</w>
qu ot
quot ;</w>
& quot;</w>
u r
v er
l e
l d</w>
m a
- -</w>
b e
r i
m e</w>
ti on</w>
ar e</w>
u t</w>
o p
k e</w>
d e
w as</w>
a y</w>
al ly</w>
en t</w>
s e
g o
f or</w>
ha ve</w>
s h
n e
g h
c h
the y</w>
u n
w it
ou r</w>
r a
on e</w>
al l</w>
c om
wit h</w>
w or
c an</w>
b e</w>
a s
S o</w>
o w</w>
o l
wh at</w>
&apos; t</w>
p e
t s</w>
ab out</w>
p ro
th in
r e</w>
a u
s o</w>
g e
no w</w>
e x
c e</w>
gh t</w>
s a
ou ld</w>
the r</w>
s om
a g
no t</w>
i r
e s
d o</w>
c on
u c
ver y</w>
th ere</w>
th ing</w>
u l
d o
p l
t r
&apos; re</w>
t o
t er
d s</w>
m e
p er
I t</w>
a r</w>
op le</w>
li ke</w>
s p
u st</w>
or e</w>
pe ople</w>
ro m</w>
m y</w>
v i
t u
f rom</w>
a m
it y</w>
k ing</w>
t a
e ar
ti on
b ec
an t</w>
v er</w>
c i
s u
au se</w>
j ust</w>
b ut</w>
f f
W e</w>
g s</w>
B ut</w>
at e</w>
d e</w>
t er</w>
ur e</w>
el l</w>
the se</w>
m o
i f</w>
Th e</w>
k now</w>
b o
go ing</w>
i m
u p</w>
er s</w>
a tion</w>
h e</w>
the m</w>
t ed</w>
ic h</w>
i r</w>
g e</w>
b y</w>
u s</w>
lo o
u m
i s
p o
a d
in d</w>
f or
w ay</w>
u s
thin k</w>
e y</w>
bec ause</w>
se e</w>
h ere</w>
e m
m ore</w>
ha d</w>
ge t</w>
som e
wh ich</w>
wh en</w>
p ar
c ou
p re
re ally</w>
o ther</w>
W h
i d</w>
h ow</w>
w n</w>
o d</w>
g i
&apos; ve</w>
t h</w>
w ould</w>
y our</w>
t w
wh o</w>
h i
w ere</w>
tu ally</w>
r ou
l a
Th is</w>
g h</w>
il l</w>
&apos; m</w>
ti me</w>
t ing</w>
os e</w>
an y</w>
the ir</w>
the n</w>
Y ou</w>
f i
f e
in e</w>
com p
wh ere</w>
e v
en ce</w>
e t</w>
y s</w>
l l</w>
c re
ap p
d on</w>
t e
ac tually</w>
wor ld</w>
y ear
tion s</w>
k s</w>
ti c
h as</w>
som e</w>
thin gs</w>
f u
c o
in to</w>
a d</w>
os t</w>
ou nd</w>
ab le</w>
b u
ac k</w>
b i
g o</w>
ac e</w>
year s</w>
st r
un d
w ill</w>
d ay</w>
l it
w ant</w>
al l
uc h</w>
st ar
s el
N ow</w>
h e
h app
en t
Th ey</w>
t le</w>
d ing</w>
c ould</w>
d y</w>
ma ke</w>
g re
g u
di ff
p or
sa id</w>
be en</w>
s s</w>
some thing</w>
y ing</w>
en ts</w>
ri ght</w>
m i
p h
v es</w>
ag e</w>
t al
ir st</w>
st e
f e</w>
in ter
lit tle</w>
v ing</w>
c l
k ed</w>
go t</w>
t ure</w>
ec t</w>
m ost</w>
w a
s c
i es</w>
on g</w>
m uch</w>
w e
st or
at ed</w>
diff er
wor k</w>
pro b
tw o</w>
f irst</w>
ch an
t y</w>
ou s</w>
th an</w>
n o</w>
s o
i z
ti ve</w>
th ou
ou r
0 0</w>
b ack</w>
g y</w>
c a
p le</w>
loo k</w>
Th at</w>
s ay</w>
p os
p a
it e</w>
es s</w>
th ose</w>
s y
m ent</w>
f o
en ti
al so</w>
f ac
c h</w>
w i
ou n
k ind</w>
o ver</w>
en d</w>
si on</w>
b le</w>
st u
c e
bo dy</w>
re e</w>
e l</w>
an s</w>
on s</w>
ne w</w>
lo t</w>
li fe</w>
g en
f f</w>
ic e</w>
il li
i de
m on
Wh at</w>
si g
ver y
d n</w>
ar d</w>
t ri
sh e</w>
m s</w>
t ra
fu l</w>
d ed</w>
h is</w>
on ly</w>
ta ke</w>
f a
t ec
ne ed</w>
d uc
com e</w>
bu il
Th ere</w>
di d</w>
om e</w>
&apos; ll</w>
h um
ti c</w>
t ur
e st
at er</w>
ar ound</w>
it s</w>
h er</w>
ch o
I n</w>
th rou
m any</w>
cou n
ev en</w>
m ar
do wn</w>
g r
ec on
n ing</w>
differ ent</w>
f r
go od</w>
ac h</w>
ol l
el l
ic al</w>
e very
com m
k e
an d
f in
con t
tr y</w>
b r
d u
und er
throu gh</w>
p ut</w>
m in
il l
I n
o k</w>
ti m
p r
u se</w>
a in</w>
c all
por t
W ell</w>
happ en
al s</w>
w s</w>
do ing</w>
si de</w>
sa me</w>
s or
re d</w>
y e
ec i
prob le
s en
b er</w>
s er
I f</w>
be ing</w>
n i
d er</w>
u t
w er</w>
g ra
s ti
v ed</w>
e very</w>
re c
s ur
H e</w>
tec h
c ar
stor y</w>
at ing</w>
ar y</w>
sh o
an y
in g
ma g
o b
s ol
i c</w>
lo gy</w>
call ed</w>
di s
an ce</w>
at e
ti es</w>
ch il
an k</w>
s on</w>
r u
d re
m at
an s
sel f</w>
pl an
u e</w>
a m</w>
a f
le ar
wa ys</w>
illi on</w>
per c
p i
&apos; d</w>
th ree</w>
si m
ma de</w>
v el
s ci
C h
le a
t ly</w>
ac h
o l</w>
n ed</w>
w r
b l
tech no
t ell</w>
perc ent</w>
w ell</w>
st s</w>
n a
d er
p ri
b ra
ye ar</w>
g a
f ore</w>
or s</w>
de sig
in t</w>
wh y</w>
fac t</w>
re s</w>
under st
ex per
un i
tion al</w>
cou r
im port
tal k</w>
o ld</w>
in v
t re
li c
qu es
p ic
at es</w>
v en</w>
ide a</w>
f ind</w>
gre at</w>
so ci
chan ge</w>
la st</w>
ste m</w>
hum an</w>
le t</w>
di dn</w>
g er</w>
w ent</w>
sh i
0 00</w>
b as
w om
es s
to day</w>
k es</w>
lo w</w>
c es</w>
h el
o wn</w>
k i
t en
thou ght</w>
f t</w>
s m
t ter</w>
bi g</w>
o le</w>
cour se</w>
m er
o ff</w>
b it</w>
us ed</w>
wi th
w ing</w>
ar s</w>
star ted</w>
in gs</w>
af ter</w>
be li
gi ve</w>
sh ould</w>
p u
p s</w>
g in
an other</w>
ag o</w>
h ear
v ir
pl ace</w>
, 000</w>
g rou
i l</w>
o m</w>
import ant</w>
ex am
w an
ic ally</w>
ic a</w>
v e
tim es</w>
f l
sh ow</w>
pre s
be fore</w>
inter est
k no
il ity</w>
ne x
e se</w>
star t</w>
ter s</w>
proble m</w>
st a
b ot
c an
ar i
w ater</w>
ge ther</w>
par t</w>
g ro
be tter</w>
ag ain</w>
ne ver</w>
le ss</w>
mi ght</w>
to gether</w>
e ver</w>
B ec
al iz
ca me</w>
do es</w>
me an</w>
sor t</w>
c ol
sy stem</w>
c or
Bec ause</w>
hi m</w>
si ble</w>
e en</w>
d d
nex t</w>
c er
comp le
e ach</w>
d ic
e st</w>
i mag
j o
1 9
d a
sti ll</w>
t e</w>
an ds</w>
m an</w>
techno logy</w>
s es</w>
s cho
i ght</w>
li ght</w>
str uc
re ad
e p</w>
me m
po int</w>
pro duc
r os
fe w</w>
e ve</w>
al i
f am
ex p
loo king</w>
bra in</w>
it ed</w>
e w</w>
Th ank</w>
in s</w>
j ect</w>
n at
a tions</w>
w ar
de vel
b re
lo c
&apos ;</w>
d one</w>
sp ec
n um
l es</w>
c ess</w>
m an
wh ole</w>
tw een</w>
comp u
f ound</w>
or g
A mer
u m</w>
in cre
ma tion</w>
y be</w>
be tween</w>
o t</w>
l ong</w>
A fr
to o</w>
c ul
ac t</w>
es n</w>
s econ
ab ly</w>
d at
e ff
Wh en</w>
t en</w>
dre n</w>
n s</w>
do esn</w>
d eci
exam ple</w>
ou s
O n
re s
pl a
gen er
ques tion</w>
c ur
underst and</w>
n ec
gr ap
di a</w>
t ting</w>
s k
ce p
m illion</w>
r y</w>
chil dren</w>
l ar
is h</w>
& #
&# 9
1 0</w>
re as
c all</w>
ou gh</w>
wan ted</w>
lo ve</w>
H ow</w>
s pe
in for
f ul
re al</w>
s ing</w>
wor king</w>
th er
al ways</w>
m u
f ace</w>
tr ying</w>
per son</w>
f ri
a way</w>
tic al</w>
beli eve</w>
l ine</w>
su p
sel ves</w>
2 0
chan g
s ed</w>
comm un
or y</w>
ic i
ul ar</w>
ec ts</w>
S t
y p
e a
c ap
li ve</w>
d oll
tr ans
us ing</w>
u tion</w>
en er
o c
er i
dat a</w>
f our</w>
fe el</w>
ma y</w>
y s
ro om</w>
su b
w al
ar e
in ess</w>
ell s</w>
ne ss</w>
econ om
wom en</w>
li m
devel op
pl ay</w>
to ok</w>
in t
fam i
org an
sp ace</w>
z e</w>
o od</w>
he al
l an
al ity</w>
or i
for m</w>
thin king</w>
stu ff</w>
scho ol</w>
every thing</w>
desig n</w>
m en
si c</w>
par tic
com es</w>
re sp
ot s</w>
h al
a se</w>
po wer</w>
ki ds</w>
On e</w>
ou t
ge tting</w>
l dn</w>
cre ate</w>
sen se</w>
coun try</w>
ti v
infor mation</w>
exper i
mon ey</w>
ma ybe</w>
as k</w>
v al
fo od</w>
s it
el ec
h op
m om
ma king</w>
me ans</w>
g l
Th ese</w>
ne e
buil ding</w>
al e</w>
se e
an im
qu ite</w>
se ar
e p
hel p</w>
st er</w>
uni ver
po li
ic s</w>
th s</w>
H ere</w>
prob ably</w>
en ough</w>
secon d</w>
fi ve</w>
c r
happen ed</w>
en g
b us
interest ing</w>
m or
e t
d ri
on es</w>
ener gy</w>
te ly</w>
sm all</w>
s ing
pre t
m y
w er
w on
com ing</w>
an g
ab ility</w>
read y</w>
Afr ica</w>
w at
pl ac
ch ar
ros s</w>
f ol
num ber</w>
em s</w>
u p
v el</w>
tal king</w>
pu b
fu ture</w>
ent ly</w>
d ge</w>
pos sible</w>
lo b
o p</w>
be au
w ed</w>
re ad</w>
2 0</w>
qu i
pi ec
bre a
lo gi
be st</w>
le ft</w>
cont ro
ul t</w>
re e
bec ome</w>
o ff
c oll
b or
tic s</w>
s h</w>
s ec
l in
we e
si ve</w>
M y</w>
ev ol
pret ty</w>
h ard</w>
S he</w>
doll ars</w>
d ec
su m
stu d
sa ys</w>
tri es</w>
5 0</w>
any thing</w>
s ure</w>
m is
e y
d in
to p</w>
se t</w>
at h</w>
ta in</w>
ous ly</w>
k en</w>
hi gh
with out</w>
h ome</w>
shi p</w>
l and</w>
c ra
bo ok</w>
U n
resp on
go es</w>
c en
N o</w>
h ar
it ing</w>
c ri
vir on
p en
s on
mo ve</w>
wh e
n er</w>
go ver
i le</w>
w ard</w>
si ons</w>
hal f</w>
di vi
ar t</w>
p as
for m
t or</w>
k et</w>
v en
se en</w>
o f
min ut
happ en</w>
A n
pub li
sa w</w>
st ri
d ra
ir d</w>
em ent</w>
ou se</w>
ate ly</w>
en viron
b ro
v a
E ar
ca se</w>
th ers</w>
z ing</w>
cl u
sci ence</w>
sim ple</w>
buil d</w>
ro p
ac ross</w>
el se</w>
O K</w>
re la
p op
lo g
h and</w>
bi o
r an
b ac
Wh y</w>
con nec
re aliz
happen s</w>
to ld</w>
s uch</w>
he ad</w>
i g
ic an</w>
L et</w>
ph ys
it al</w>
wor ks</w>
s uc
thou gh</w>
ha ving</w>
gover n
m en</w>
in ce</w>
el s</w>
bas ically</w>
h u
ent al</w>
in ed</w>
g lob
i d
k in
da ys</w>
li ving</w>
en c
c are</w>
pic ture</w>
ide as</w>
coun tries</w>
c le
Ch in
om e
mem ber</w>
be g
soci al</w>
y oun
sci enti
mom ent</w>
ma kes</w>
m ind</w>
o o
proble ms</w>
c ar</w>
Ear th</w>
plan et</w>
M a
li ves</w>
k ay</w>
m il
en e
compu ter</w>
n or
b ad</w>
e duc
dis co
l ed</w>
experi ence</w>
ap s</w>
ne t</w>
sa ying</w>
el e
d es</w>
sp eci
im p
ic es</w>
p er</w>
f il
p ed</w>
thou s
T E
sear ch</w>
fr on
vi de
en ds</w>
cont in
c am
as ked</w>
lan gu
pro cess</w>
o ver
A ll</w>
m ach
er y</w>
in side</w>
c ells</w>
l ater</w>
m ents</w>
tur n</w>
at ter
reas on</w>
a ma
ol s</w>
c ha
ur al</w>
chil d</w>
di rec
c u
l on
i st
hi gh</w>
wh ile</w>
is m</w>
b a
pro ject</w>
c er</w>
g ir
b illion</w>
0 ,000</w>
In ter
tu res</w>
t em
lear n</w>
v ol
incre di
f ar</w>
sh ed</w>
bot h</w>
fo re
with in</w>
b er
won der
si on
loo ks</w>
beau ti
o grap
gu y</w>
F or</w>
di se
sing le</w>
hear d</w>
. .
ic k</w>
al most</w>
ph ot
pro gra
.. .</w>
hi story</w>
y et</w>
en ces</w>
A s</w>
spe a
pa ti
s ity</w>
mo ther</w>
fami ly</w>
f er
ge ts</w>
ex pl
no thing</w>
e ty</w>
c ent
st re
v o
on ce</w>
our s</w>
st an
si x</w>
piec e</w>
loo ked</w>
wr ong</w>
ul ation</w>
nat ure</w>
bus iness</w>
cou ple</w>
ta tion</w>
f un
A l
E n
i gh
t yp
br ing</w>
mat ter</w>
imag ine</w>
e d
ap e</w>
al ready</w>
N ew</w>
0 s</w>
univer se</w>
ex c
cl as
c op
ti s
plac es</w>
pos i
l ing</w>
i a</w>
heal th</w>
fi g
li gh
ge st</w>
b ly</w>
a ff
beauti ful</w>
ic k
hop e</w>
al lo
youn g</w>
mon ths</w>
or t</w>
tr u
tiv ity</w>
os p
d ent</w>
op er
ur y</w>
c ity</w>
di es</w>
commun ity</w>
tr ue</w>
In dia</w>
whe ther</w>
v ice</w>
ke ep</w>
G od</w>
of ten</w>
every body</w>
ans wer</w>
w as
ti l</w>
fi c</w>
f lo
ur ing</w>
t able</w>
spec ies</w>
glob al</w>
t un
dd le</w>
n am
mu sic</w>
mat eri
be gin
vi ew</w>
re member</w>
sc ri
grou p</w>
b ri
h y
ta king</w>
o ce
ste ad</w>
p ly</w>
vide o</w>
or der</w>
le vel</w>
Un ited</w>
U .
ch all
ar ch
du ce</w>
wor ds</w>
w in
ta in
a st</w>
und er</w>
h ouse</w>
per son
sh ar
op en</w>
ti ce</w>
er ing</w>
divi du
my self</w>
ec ted</w>
can cer</w>
organ iz
kin ds</w>
h und
ac tion</w>
in dividu
ag es</w>
h er
b ur
3 0</w>
some one</w>
langu age</w>
t -
contro l</w>
a me</w>
some body</w>
3 ;</w>
1 ;</w>
&#9 3;</w>
&#9 1;</w>
buil t</w>
ap pro
it self</w>
cep t</w>
ama zing</w>
ve ly</w>
f ra
po wer
fo c
un til</w>
j ects</w>
ti ci
t on</w>
do c
as es</w>
p ul
ful ly</w>
our selves</w>
f ic
t in
g n
exper im
d r
mo de
happen ing</w>
n er
ap pe
20 0
ni ght</w>
ma ge</w>
comple tely</w>
ou th</w>
L i
c ess
ac tly</w>
wom an</w>
ac y</w>
le ad
l s</w>
en s</w>
R e
at or</w>
Th en</w>
tur ns</w>
m ust</w>
ru n</w>
is n</w>
elec tr
wor d</w>
deci ded</w>
St ates</w>
was n</w>
grou nd</w>
stor ies</w>
sol u
re li
hear t</w>
pro f
h an
fron t</w>
O h</w>
is su
p ing</w>
gu ys</w>
c lim
ex actly</w>
be ha
jo b</w>
f -
the m
s ince</w>
ar ti
li st
fig ure</w>
bi g
at t
por t</w>
publi c</w>
partic ular</w>
1 00</w>
b ers</w>
tu al</w>
lit er
hu ge</w>
en gin
t ot
Amer ica</w>
re co
minut es</w>
d -
mode l</w>
o s</w>
comp any</w>
ch ing</w>
na me</w>
ch e
c au
at ure</w>
happ y</w>
h or
a tive</w>
s ound</w>
lear ned</w>
do m</w>
in du
b ab
a ir</w>
Inter net</w>
f ish</w>
P e
me as
he ar</w>
beha vi
t ors</w>
ra ther</w>
lar ge</w>
c le</w>
anim als</w>
O kay</w>
ver ed</w>
re search</w>
i se</w>
govern ment</w>
educ ation</w>
al ong</w>
war ds</w>
e -
w on</w>
tr an
k ers</w>
in ing</w>
h aps</w>
struc ture</w>
st op</w>
w ar</w>
sti tu
ro w</w>
ap er</w>
ga me</w>
d ar
A r
st ems</w>
an c
l ots</w>
k er</w>
environ ment</w>
am oun
log ical</w>
h ours</w>
cou ldn</w>
a in
k new</w>
pl es</w>
ac c
TE D</w>
ul es</w>
st ra
cl os
f el
en ing</w>
them selves</w>
o il</w>
i st</w>
enti al</w>
dise ase</w>
p atter
bec ame</w>
d ro
engin e
an t
wonder ful</w>
differ ence</w>
op port
y ed</w>
p t</w>
c ir
m ic
Amer ican</w>
v ari
si ze</w>
sh are</w>
lea st</w>
stu dy</w>
st ate</w>
some times</w>
re st</w>
mo ving</w>
wor ked</w>
at s</w>
t om
stud ents</w>
nat ural</w>
diff ic
y -
mar ket</w>
str y</w>
on -
ear ly</w>
soci ety</w>
ph one</w>
kno wn</w>
cre ated</w>
cent ury</w>
p ur
ne t
I s
r un
fi el
out side</w>
c ell</w>
li es</w>
ag ain
ou ldn</w>
in es</w>
ter ms</w>
or din
om es</w>
ne ws</w>
fe el
again st</w>
th ird</w>
ta ken</w>
ch em
are a</w>
in no
ch ed</w>
ga ve</w>
fri ends</w>
tic ally</w>
te st</w>
bas ed</w>
ate ver</w>
ar ly</w>
ques tions</w>
f ar
d ence</w>
sc ale</w>
pa st</w>
E u
pr in
phot ograp
di g
as y</w>
f ree</w>
m ing</w>
g ing</w>
e i
in i
Chin a</w>
sh ing</w>
every one</w>
Y or
tur ned</w>
ell ing</w>
O r</w>
v ation</w>
se qu
begin ning</w>
un ch</w>
p ot
enti re</w>
ta kes</w>
st ance</w>
c al
W or
sel f-
bo o
thous ands</w>
sy stems</w>
o thers</w>
in stead</w>
e qu
pro vi
1 5</w>
cl ose</w>
t ou
sp i
ver age</w>
te ach
b ed</w>
na tional</w>
lear ning</w>
illi ons</w>
b ility</w>
st er
ob vi
f und
cer tain</w>
u es</w>
see ing</w>
per f
me di
sy m
k ey</w>
in k</w>
de pen
d ly</w>
cur r
cul ture</w>
oce an</w>
con si
pop ulation</w>
mach ine</w>
se ven</w>
fin ally</w>
a w
i ous</w>
vi sion</w>
rela tion
per haps</w>
nee ds</w>
d ru
ad v
u r</w>
lea ve</w>
g ed</w>
th y</w>
e mo
di ence</w>
d en
an ts</w>
a ir
m ol
inv ol
fa ther</w>
de al</w>
ill ed</w>
b ir
e ly</w>
arch it
wh atever</w>
re l
de fin
d uring</w>
par ts</w>
pos ed</w>
diffic ult</w>
amoun t</w>
oun ds</w>
h o
commun ic
ey es</w>
Yor k</w>
re g
bl ack</w>
as tic</w>
N or
pos si
h ol
b ar
A f
nor m
can not</w>
c ost</w>
s cre
ill s</w>
di ed</w>
g one</w>
N A</w>
D o</w>
i mage</w>
gro w</w>
ex t</w>
con f
kno w
wal k</w>
u g
su g
mo v
ma j
e ight</w>
C on
rec or
ri s
a x
o -
chang ed</w>
mi ddle</w>
in c
fe et</w>
e asy</w>
s ite</w>
qu ick
bu y</w>
un ity</w>
tr ac
li sh</w>
I s</w>
interest ed</w>
enc y</w>
em p
ea h</w>
de mo
m ental</w>
gi ven</w>
er a</w>
to m</w>
s our
m er</w>
col le
y our
n ers</w>
be h
sur face</w>
sit u
for ce</w>
beg an</w>
Y eah</w>
lea se</w>
comp an
g le</w>
w ers</w>
s qu
b el
at ten
pre sen
e vi
d en</w>
your self</w>
per i
iz e</w>
char ac
an ding</w>
m es
d ers</w>
sp end</w>
nee ded</w>
tri ed</w>
c y
wee k</w>
s li
j our
u res</w>
reli gi
a ds</w>
quick ly</w>
ex tre
sur vi
re gi
us h</w>
us es</w>
r ic
con ver
ut ting</w>
ti vely</w>
par t
mol ec
for ward</w>
lon ger</w>
in f
pres ent</w>
z ed</w>
know le
boo ks</w>
b an
fl u
f ly</w>
ec tive</w>
comm on</w>
D NA</w>
re si
pre dic
g en</w>
ful l</w>
fri end</w>
sim ply</w>
res our
l ab
f ur
cle ar</w>
b loo
rou ght</w>
g am
evol ution</w>
e at</w>
c os
s it</w>
realiz ed</w>
pr ac
g es</w>
ver sity</w>
on d</w>
year -
econom ic</w>
beh ind</w>
in clu
S ome</w>
power ful</w>
S u
R ight</w>
st ed</w>
h ands</w>
comp as
ci ties</w>
bor n</w>
Pe ople</w>
wr ite</w>
gh ts</w>
mo d
me t
incredi ble</w>
ste p</w>
progra m</w>
fil m</w>
c at
sit ting</w>
sho ws</w>
po in
logi es</w>
bac k
an ci
J o
p le
li g
ei ther</w>
comple x</w>
s il
con di
su al</w>
par ents</w>
gre en</w>
de scri
ce i
behavi or</w>
m ul
vi ol
A t</w>
h on
opport unity</w>
fol lo
S .</w>
wee ks</w>
ro c
r en
j u
ch es</w>
L o
J ust</w>
ro bo
feel ing</w>
tur al</w>
star ting</w>
mo vi
fu n</w>
an ti
4 0</w>
wr it
st ing</w>
po or</w>
hum ans</w>
b rought</w>
t elling</w>
o d
chang es</w>
sp ent</w>
me t</w>
l ost</w>
sol ution</w>
loc al</w>
gro wing</w>
gro w
em er
ci vi
a verage</w>
L a
for tun
fiel d</w>
anim al</w>
Y es</w>
in ation</w>
hum an
fun c
compan ies</w>
om s</w>
te am</w>
econom y</w>
sur pri
fa il
e f</w>
cer tain
c ut</w>
M ar
ro te</w>
o x
mil es</w>
di e</w>
En g
uni ties</w>
s s
me dia</w>
in ten
fel t</w>
de ath</w>
w rote</w>
b ene
su dd
ordin ary</w>
N ot</w>
pre ci
knowle dge</w>
es p
v ill
st age</w>
spea k</w>
ill ing</w>
develop ed</w>
re ality</w>
ra di
k y</w>
it h</w>
a tional</w>
ut e</w>
tra di
sp ir
p aper</w>
solu tely</w>
p ose</w>
gi ving</w>
fa v
e e</w>
c ro
U. S.</w>
ul ts</w>
techno logies</w>
wat ch</w>
the ory</w>
me an
m us
liter ally</w>
h old</w>
Wor ld</w>
D e
y er</w>
inv en
n ice</w>
le g
val ue</w>
mo der
mic ro
cen ter</w>
si a</w>
pro duce</w>
n on-
grow th</w>
ec tion</w>
M o
rop e</w>
m ot
he ad
fa st</w>
B e
s is</w>
pati ent</w>
enti ally</w>
mes sa
de f
bl ue</w>
N o
p ay</w>
ne y</w>
gir l</w>
c li
bot tom</w>
poli tical</w>
p sy
T o</w>
w ouldn</w>
car e
b al
are as</w>
va il
uc k</w>
m os
ab o
mar ke
m ed</w>
e ts</w>
di men
Eng lish</w>
C A</w>
th re
s ha
n al</w>
en ge</w>
G re
run ning</w>
pla ying</w>
gen e
a h</w>
lo w
gr and
em ents</w>
au gh
al low</w>
N e
wh ite</w>
qu e</w>
hund re
sh ort</w>
loc k</w>
individu al</w>
con sum
clim ate</w>
st e</w>
materi al</w>
li ke
imag es</w>
sim il
scienti sts</w>
kno ws</w>
est er
d ical</w>
b s</w>
t ele
reco gn
mor ning</w>
de li
com pe
atten tion</w>
underst anding</w>
se a</w>
ing ly</w>
fer ence</w>
chall enge</w>
an al
S ome
f ree
disco vered</w>
C an</w>
mo ved</w>
fi ed</w>
ab solutely</w>
to ols</w>
sh ape</w>
se ems</w>
m ine</w>
l os
gi ves</w>
E very
su per
p tion</w>
ma p</w>
at ors</w>
a z
tal ked</w>
il s</w>
er ed</w>
B i
relation ship</w>
i sts</w>
el lig
A u
ne igh
ma s
h and
al one</w>
O n</w>
t op
develop ing</w>
beg in</w>
1 2</w>
ter ri
foc us</w>
bloo d</w>
au dience</w>
the ma
chang ing</w>
bo ard</w>
a vail
T o
H a
pr om
me dic
sol ve</w>
person al</w>
mov ement</w>
l ate</w>
compu ters</w>
com b
th ank</w>
dar k</w>
co ol</w>
situ ation</w>
phys ical</w>
op en
h osp
au th
uc le
st ro
sho wed</w>
res ult</w>
en ded</w>
car b
bo x</w>
produc t</w>
n y</w>
incredi bly</w>
g ar
mi c</w>
gir ls</w>
for ms</w>
z er
mul ti
in s
bene f
u al</w>
sm all
ri ed</w>
realiz e</w>
p oll
ou ght</w>
ha ven</w>
gu ess</w>
ex tra
G oo
pre ss</w>
h ood</w>
d om
any one</w>
ac hi
year- old</w>
vi e
v ices</w>
gener ation</w>
st and</w>
me ly</w>
invol ved</w>
fund am
er ci
Eu rope</w>
z y</w>
r .</w>
int ellig
al es</w>
r ules</w>
in stitu
i al</w>
hundre ds</w>
con v
s mar
id enti
g al
bec omes</w>
r ate</w>
in spi
en d
ea si
de ep</w>
P ar
O ur</w>
typ e</w>
see m</w>
per form
de vice</w>
d ou
cre ating</w>
L e
A c
bab y</w>
t ro
p an
or ies</w>
num bers</w>
maj or</w>
ma in</w>
li ved</w>
bac ter
as s</w>
w ish</w>
s le
m a</w>
de gre
r it
p utting</w>
n ucle
experim ent</w>
avail able</w>
ur ity</w>
norm al</w>
m illions</w>
indu stry</w>
W i
S outh</w>
6 0</w>
19 9
sup port</w>
rec ently</w>
ma thema
col or</w>
ar en</w>
pati ents</w>
h our</w>
desig ned</w>
st and
pri v
like ly</w>
im pro
compas sion</w>
ul arly</w>
ne ur
happ iness</w>
any body</w>
su ff
s tic
reas ons</w>
all s</w>
nec ess
me et</w>
e qui
con sci
sa ve</w>
re vol
plan ts</w>
k id</w>
d ings</w>
con cer
ch i
P ro
so on</w>
sion al</w>
ic ans</w>
connec ted</w>
pic tures</w>
as king</w>
to wards</w>
suc cess
li ties</w>
int ro
fav or
big ger</w>
2 5</w>
wor th</w>
t ar
ori gin
on to</w>
so f
read ing</w>
perf ect</w>
patter n</w>
de ad</w>
b lo
ac cess</w>
sy n
pl ant</w>
li z
h un
U ni
tri bu
tin y</w>
su sta
posi tion</w>
pa in
minut e</w>
f re
esp eci
especi ally</w>
am s</w>
ac k
y es</w>
wr iting</w>
no body</w>
h y</w>
grou ps</w>
ec ture</w>
di st
re ly</w>
te ach</w>
se ver
clas s</w>
ni fic
m oun
la b</w>
ig n</w>
expl ain</w>
eff ect</w>
do or</w>
sour ce</w>
re qui
obvi ously</w>
iz ed</w>
con struc
chan ce</w>
robo t</w>
certain ly</w>
ag ed</w>
ac e
a de</w>
f all</w>
ev en
car s</w>
Chin ese</w>
scho ols</w>
ob ject</w>
issu e</w>
dig ital</w>
b an</w>
Lo ok</w>
to wn</w>
tici p
star ts</w>
r an</w>
Ma ybe</w>
u se
dri ve</w>
chall eng
O f</w>
y ond</w>
t es</w>
ro ad</w>
fe ar</w>
f y</w>
be yond</w>
resour ces</w>
on y</w>
l and
imp act</w>
brea k</w>
0 -
s un
pro tec
la w</w>
en ter
develop ment</w>
ac tive</w>
v ot
n u
moder n</w>
b all</w>
o re
lin es</w>
en ly</w>
wal king</w>
um p</w>
um ent</w>
ter m</w>
speci al</w>
spe ed</w>
simil ar</w>
ris k</w>
8 0</w>
y ers</w>
sho wing</w>
s ent</w>
net work</w>
b es</w>
ab or
wan ts</w>
qu ality</w>
incre as
cho ice</w>
at ures</w>
ac her</w>
C o
a k</w>
C om
th o
t on
o es</w>
gu e</w>
contin u
Goo gle</w>
w all</w>
sur g
pres sion</w>
peri od</w>
meas ure</w>
i an</w>
ex ist
en ding</w>
an ge</w>
B o
w ind</w>
tre at
off ice</w>
h it</w>
gi c</w>
ec han
cou ra
beli ev
ar ed</w>
a v
M i
H I
tran sp
s end</w>
prin ci
pot ential</w>
ver sion</w>
r om
hund red</w>
g ot
w in</w>
su ally</w>
materi als</w>
f oun
ba sic</w>
scienti fic</w>
p ol
it ary</w>
f le
exc iting</w>
F irst</w>
t an
mis sion</w>
lic ated</w>
ex tr
conf lic
a vi
vill age</w>
th ro
ta il</w>
sk in</w>
ro r</w>
en sive</w>
tem per
movi e</w>
mon th</w>
gal ax
tru th</w>
posi tive</w>
eff ici
ch ec
ag ing</w>
5 00</w>
se par
sa tion</w>
pro jects</w>
plan e</w>
i tion</w>
co de</w>
appro ach</w>
ac tivity</w>
ac i
J ap
B y</w>
tw are</w>
sever al</w>
sec urity</w>
r ap
pro per
pro cess
messa ge</w>
ma ss</w>
issu es</w>
gam es</w>
fur ther</w>
devel op</w>
de ed</w>
carb on</w>
1 1</w>
tot ally</w>
str ong</w>
st ore</w>
sp read</w>
or ity</w>
nam ed</w>
n ine</w>
li fe
exam ples</w>
evi dence</w>
b ul
W here</w>
E x
ver s</w>
l ose</w>
g as</w>
ey e</w>
di an</w>
st op
r is</w>
psy cho
partic ularly</w>
nucle ar</w>
is ms</w>
extra ordinary</w>
b unch</w>
P h
C ar
B u
w n
t ect</w>
inter est</w>
gre ss</w>
fol low</w>
extre mely</w>
cen tr
ac coun
ti ves</w>
stre et</w>
str on
sof tware</w>
ser ve</w>
se x</w>
per spec
osp here</w>
high -
every where</w>
vo ice</w>
o h</w>
com par
com for
al le
scre en</w>
r ing</w>
ob jects</w>
m echan
E ast</w>
D on</w>
D i
wor l
sor ts</w>
pro te
is tic</w>
S h
2 00</w>
inno vation</w>
M on
thous and</w>
st at
sol ar</w>
s ounds</w>
poin ts</w>
ox y
on line</w>
f em
ear li
cam era</w>
te acher</w>
list en</w>
im medi
fo ot</w>
fi re</w>
di sc
Afr ican</w>
1 8
stan ding</w>
ser ious</w>
sc en
re le
o w
in st
g ain</w>
b om
W est</w>
M ost</w>
Jo h
y m
ther e
t end</w>
s w
mor al</w>
an e</w>
aliz ed</w>
susta in
st ers</w>
f ant
allo wed</w>
w ood</w>
re ach</w>
pa in</w>
no tice</w>
me dical</w>
jo y</w>
i m</w>
gra du
go al</w>
big gest</w>
wi fe</w>
we b
ur s</w>
tre es</w>
po lic
pic k</w>
li st</w>
ar m</w>
Wh o</w>
T w
vel s</w>
suc cess</w>
st ay</w>
sig nific
s sed</w>
r ich</w>
or d</w>
f er</w>
G e
Ch ris</w>
t ree</w>
favor ite</w>
even tually</w>
bio logy</w>
ate st</w>
ari ly</w>
Wh ich</w>
su n</w>
sh ap
s ell</w>
lo wer</w>
de m
con cept</w>
comp licated</w>
cal cul
c ause</w>
S i
stud ent</w>
stri bu
g ri
al ing</w>
gre w</w>
gener al</w>
fa ster</w>
di stribu
H ar
teach ers</w>
sp o
prof es
piec es</w>
li ar</w>
in te
gen es</w>
fi gu
en ter</w>
de ter
de p
d y
cr acy</w>
E very</w>
jour ney</w>
ad d</w>
T a
sup posed</w>
le ad</w>
high er</w>
fortun ately</w>
comm unities</w>
a sh
E ven</w>
wa it</w>
pl an</w>
p age</w>
medic ine</w>
lead ers</w>
inv est
exp ect</w>
c lear
c ed</w>
wat ching</w>
sudd enly</w>
some how</w>
sig n</w>
indu stri
cont ent</w>
W e
An y
some where</w>
pr ice</w>
or m
ess entially</w>
di ag
de ep
buil dings</w>
bacter ia</w>
H o
vi sual</w>
star s</w>
ran ge</w>
i ve</w>
as c
n ect</w>
ic ity</w>
contin ue</w>
bo y</w>
am ong</w>
1 8</w>
sho wn</w>
shi ps</w>
perspec tive</w>
n ar
mod els</w>
cra zy</w>
tou ch</w>
smar t</w>
ser ies</w>
produc ts</w>
p lic
ob s</w>
k illed</w>
ad es</w>
vir us</w>
re mar
ph en
me ant</w>
in flu
er ous</w>
sh e
sa fe</w>
respon se</w>
im possible</w>
ar ds</w>
sk y</w>
po ver
f la
d ang
con nect</w>
be ings</w>
tion ary</w>
s ou
produc tion</w>
ph il
p lease</w>
individu als</w>
e th
Af ter</w>
A re</w>
w ell
to ol</w>
ti z
t ells</w>
secon ds</w>
s al
ra is
om ing</w>
ma in
lar gest</w>
lar ger</w>
ir s</w>
heal thy</w>
fundam ental</w>
exc ited</w>
ear s</w>
cre a
condi tions</w>
bra ins</w>
as se
tim ate</w>
res ults</w>
o kay</w>
hosp ital</w>
h im
au ght</w>
abo ve</w>
HI V</w>
sh es</w>
hi c</w>
exp ensive</w>
archit ecture</w>
M ic
Ch ri
wi se</w>
tr ou
small er</w>
om en
ni a</w>
mil itary</w>
compe ti
t aught</w>
ne w
h ot</w>
do wn
cl es</w>
c ases</w>
P o
z z
ver se</w>
u sually</w>
success ful</w>
pr os
beau ty</w>
writ ten</w>
wor se</w>
pover ty</w>
k able</w>
ec ting</w>
d a</w>
ar tic
an g</w>
a st
B ri
th ree
sec re
ri se</w>
phen omen
min ds</w>
m it</w>
m ers</w>
list ening</w>
ing ing</w>
demo cracy</w>
ad dre
throu gh
ra tion</w>
on e-
logi sts</w>
l am
g er
for th</w>
fam ous</w>
cre ative</w>
bi le</w>
an tly</w>
allo ws</w>
ali ve</w>
Af gh
sho t</w>
ple as
phys ics</w>
got ten</w>
fac es</w>
cl in
T V</w>
Nor th</w>
tra ining</w>
si bility</w>
mach ines</w>
k ill</w>
f ine</w>
cri sis</w>
ar ri
an ks</w>
S e
R o
w il
to -
re cei
par ticip
mi sta
mean ing</w>
fo ot
ex cept</w>
bo dies</w>
S te
S o
A I
three -
sli de</w>
ser vice</w>
ke pt</w>
ha b
ep ing</w>
engine ering</w>
di sa
s mo
recogn ize</w>
pul l</w>
patter ns</w>
op h
m ir
ligh ts</w>
gene tic</w>
g ers</w>
cont ext</w>
ab les</w>
Amer icans</w>
A no
1 0
tru ly</w>
sub ject</w>
s we
s ong</w>
ol der</w>
in deed</w>
earli er</w>
disc us
b le
ti tu
temper ature</w>
ro le</w>
revol ution</w>
fant astic</w>
en orm
direc tion</w>
deci sions</w>
d ow</w>
d augh
con tribu
bri dge</w>
Ano ther</w>
r on
organiz ation</w>
ici al</w>
dru gs</w>
coll abor
wa ste</w>
viol ence</w>
up on</w>
ther n</w>
str ate
di versity</w>
colle ag
won der</w>
st y
mat h</w>
m ent
it es</w>
e ting</w>
e m</w>
ca tions</w>
Th ose</w>
C ol
B ra
tradi tional</w>
t ory</w>
sk ills</w>
sequ ence</w>
i ly</w>
g ent
fin ding</w>
f our
b ing</w>
af ter
ad ap
h ic
colle ge</w>
ach ed</w>
G er
5 ,000</w>
ye ah</w>
wal ked</w>
t or
pe ace</w>
o logy</w>
mi le</w>
le gs</w>
in come</w>
gre ater</w>
cho ose</w>
bot s</w>
any where</w>
ac tual</w>
P er
well -
there fore</w>
regi on</w>
re fl
par a
in a</w>
him self</w>
ex ist</w>
dre am</w>
doll ar</w>
d on
cri tical</w>
any way</w>
wi de</w>
vi sible</w>
tri c</w>
stu dies</w>
l er</w>
follo wing</w>
dru g</w>
dra w</w>
d ance</w>
solu tions</w>
inven ted</w>
incre ase</w>
emp lo
electr icity</w>
dy nam
tele vision</w>
sug ge
fami liar</w>
dang erous</w>
S a
we a
underst ood</w>
tu m
l ands</w>
j obs</w>
do g</w>
any more</w>
an n
t a</w>
su s</w>
s -
n ur
in str
doc tor</w>
d ation</w>
clas s
W ester
M e
I mag
tr ust</w>
th i
t y
se em
s low</w>
ro bots</w>
re presen
inclu ding</w>
dis appe
contro l
connec tion</w>
comple x
co o
C am
v al</w>
ur ban</w>
sig n
ob ser
ma tic</w>
evol ved</w>
de ser
curr ent</w>
clear ly</w>
c ele
S econ
Li ke</w>
tre at</w>
sta tis
organ isms</w>
n os
n it
le vels</w>
ini ti
at ory</w>
M ars</w>
J u
web site</w>
ve hic
treat ment</w>
teach ing</w>
ta ins</w>
str ange</w>
recor d</w>
in stance</w>
ill u
h ou
g -
fl ying</w>
et c</w>
de b
cop e</w>
au tom
a id</w>
sp ac
rel ated</w>
qu ar
pr int</w>
photograp h
men d
m al
immedi ately</w>
i shed</w>
h ole</w>
flo or</w>
b and</w>
W ar</w>
TE D
L on
tra in</w>
st om
pla yed</w>
pl astic</w>
ot h</w>
fin anci
f asc
direc tly</w>
app li
ac tions</w>
we ver</w>
ul ate</w>
tra vel</w>
sum mer</w>
r ay</w>
pr ene
ou d</w>
o ds</w>
conflic t</w>
con ven
con ference</w>
con clu
tre mend
through out</w>
re -
ph ones</w>
l uc
fa ir
dri ving</w>
civi liz
charac ter</w>
c la
aw are</w>
ac ity</w>
wer en</w>
speci fic</w>
phys ici
man u
ge ment</w>
f low</w>
dec ade</w>
crea tivity</w>
bec oming</w>
ac ting</w>
H e
vari ous</w>
typ es</w>
provi de</w>
cos ts</w>
c lo
S p
C ity</w>
re duc
func tion</w>
fin al</w>
ex pla
eng th</w>
depen dent</w>
bu t
al th</w>
ac ks</w>
Tw o</w>
y a</w>
tr ack</w>
ther ap
ri ghts</w>
logi st</w>
il ing</w>
g ni
enc ed</w>
der ed</w>
ci tiz
Uni versity</w>
C an
r ace</w>
me ters</w>
li c</w>
l ap
inter national</w>
in si
ent re
a head</w>
W ith</w>
D ar
we ap
terri ble</w>
survi ve</w>
surg ery</w>
photograp h</w>
pas sion</w>
p e</w>
obvi ous</w>
entre prene
ear th</w>
desig ners</w>
deci sion</w>
de si
conver sation</w>
an i
al ter
W om
M us
remar kable</w>
produc ed</w>
pro tect</w>
me eting</w>
j us
eri a</w>
di o</w>
al though</w>
Y our</w>
val ues</w>
use ful</w>
p at
ne u
man i
ist an</w>
foc used</w>
f it</w>
en ess</w>
disco ver</w>
co ld</w>
cep tion</w>
c ell
and a</w>
anc y</w>
V i
su e</w>
se x
sa m
polic y</w>
neigh bor
m it
il ed</w>
gl ass</w>
f ir
exp lo
cho ices</w>
Imag ine</w>
I ra
9 0</w>
19 8
w is
stic k</w>
l u
he at</w>
fasc in
en se</w>
eff ective</w>
chem ical</w>
c ros
aliz ation</w>
ac ci
Wester n</w>
R ic
Lon don</w>
Ch ar
AI D
un e</w>
trans l
s at</w>
ra ise</w>
prac tice</w>
oxy gen</w>
no tic
en coura
ec h
de mon
d ness</w>
complex ity</w>
N ational</w>
u le</w>
tech n
sustain able</w>
origin al</w>
ma gic</w>
form ed</w>
din os
comple te</w>
comm erci
co ver</w>
b ought</w>
ap h
7 0</w>
squ are</w>
rou nd</w>
ric ul
pro gress</w>
possi bly</w>
m osphere</w>
ar g
zer o</w>
wh ose</w>
t ask</w>
pa id</w>
mas sive</w>
leg al</w>
land sc
h ur
fami lies</w>
fa shi
di tion</w>
de sp
cle an</w>
at mosphere</w>
as soci
P a
Afgh an
spea king</w>
s al</w>
religi on</w>
pres sure</w>
ne ar</w>
it ation</w>
free dom</w>
fore st</w>
for ces</w>
fe ed</w>
environ mental</w>
enorm ous</w>
e ties</w>
char ge</w>
bab ies</w>
We b</w>
Afghan istan</w>
AID S</w>
ta tions</w>
mos tly</w>
human ity</w>
consi der</w>
cau ses</w>
as p
Th e
wa iting</w>
v acc
un g</w>
tw o-
rou n
poli tics</w>
perform ance</w>
p ath</w>
os y
fr u
d rop
cul tural</w>
comm it
car ry</w>
ag ricul
In dian</w>
1 0,000</w>
st ates</w>
sle ep</w>
sh or
ru le</w>
qu ick</w>
priv ate</w>
mo tiv
m el
lo ad</w>
in fra
hi stor
er e
e ding</w>
cap acity</w>
bo ys</w>
bel ow</w>
an ger</w>
F ran
we ight</w>
the tic</w>
str ug
net works</w>
marke ts</w>
ligh tly</w>
intellig ence</w>
hy dro
h ot
fu el</w>
e ating</w>
dro p</w>
deci de</w>
de stro
comp on
bio logical</w>
as h</w>
al ism</w>
ab i
Mi ddle</w>
C ali
w illing</w>
st ation</w>
p ped</w>
no tion</w>
molec ules</w>
le ss
gre atest</w>
financi al</w>
fi ght</w>
expl or
co ff
ci es</w>
3 00</w>
x i
pres sed</w>
op s</w>
l a</w>
bir ds</w>
a ster
H ey</w>
Cali for
tw ice</w>
tion ed</w>
ti vi
s ent
re pe
pre par
on ic</w>
ex ten
e ma
bir th</w>
and -
T ur
M an</w>
D r.</w>
sup ply</w>
sor s</w>
sol di
sc ul
pur pose</w>
p ush</w>
me ter</w>
govern ments</w>
ev ent</w>
challeng es</w>
am p
ac ts</w>
R us
w el
v ic
tremend ous</w>
t ex
stre am</w>
s wit
intro duc
degre es</w>
de s
d ate</w>
ap art</w>
Joh n</w>
Califor nia</w>
A b
wor k
signific ant</w>
le t
k il
e ar</w>
b oun
ari a</w>
al -
Th ink</w>
y el
uni que</w>
trou ble</w>
tech ni
stra ight</w>
st o
re ma
progra ms</w>
mo bile</w>
inte gr
gen ome</w>
experim ents</w>
es ti
emo tional</w>
clos er</w>
bal ance</w>
arti st</w>
am a</w>
T i
1 6</w>
wor ry</w>
phil os
ne ga
for get</w>
extr a</w>
Q u
we st</w>
um ents</w>
t al</w>
possi bility</w>
lo ved</w>
le y</w>
f ab
easi ly</w>
dise ases</w>
ali ties</w>
To day</w>
wor kers</w>
sta ur
re staur
re por
poli ce</w>
in tu
ha ir</w>
f os
e g
doc tors</w>
cro w
cor rec
br inging</w>
b ird</w>
ari an</w>
Mus li
K en
J e
n one</w>
manu fac
institu tions</w>
fl u</w>
cor por
tur ning</w>
tri al</w>
struc tures</w>
shar ing</w>
ous ness</w>
lon g-
inspi red</w>
for mation</w>
dom in
de ta
daugh ter</w>
cor ner</w>
communic ation</w>
bas is</w>
b atter
avi d</w>
M c
G u
- year-old</w>
shar ed</w>
pop ular</w>
plan ets</w>
mu se
l ack</w>
fun ny</w>
ec tively</w>
d ying</w>
coll ap
chec k</w>
c y</w>
F rom</w>
A d
tim ately</w>
stan tly</w>
ser vices</w>
s lightly</w>
ro oms</w>
ro l
respon sibility</w>
pre v
partic les</w>
i de</w>
grap h</w>
far mers</w>
cre atures</w>
cap ital</w>
an z
ad y</w>
S A</w>
Li fe</w>
F or
so ld</w>
si des</w>
shi ft</w>
sequ ences</w>
roc k</w>
neur ons</w>
n ation</w>
mo m</w>
eff ects</w>
e th</w>
differ ences</w>
c ru
bu d
br illi
ans wers</w>
ali st</w>
achi eve</w>
B er
2 ,000</w>
wor st</w>
t ext</w>
stand ard</w>
stan ces</w>
seem ed</w>
s at
rou gh
pri mar
moun tain</w>
li ber
infra structure</w>
hear ing</w>
ha m
gen e</w>
f ro
de tec
as sum
arti sts</w>
Ira q</w>
D avid</w>
B ro
we b</w>
ver ing</w>
v ity</w>
tot al</w>
st ant</w>
r ying</w>
pas s</w>
neigh b
mem ory</w>
hop e
fair ly</w>
el ements</w>
cre ates</w>
communic ate</w>
c ot
b its</w>
att ack</w>
anc ed</w>
an k
C O
1 ,000</w>
x ed</w>
v ul
tran si
ti sh</w>
sym me
necess arily</w>
li e</w>
fre qu
defin ition</w>
care er</w>
app ed</w>
am bi
N ig
A gain</w>
vol un
tra vel
pa ir</w>
ou l
le -
j a
gre s
grap h
go l
g ate</w>
expl ore</w>
de st</w>
cele br
anci ent</w>
addre ss</w>
achi ev
ach ing</w>
ac tivi
Gre at</w>
1 4</w>
u tionary</w>
ste in</w>
st ar</w>
se s
s l
religi ous</w>
low -
ing ton</w>
in ci
f ying</w>
em br
bo at</w>
T al
tu red</w>
str ic
p al
notic ed</w>
ne l</w>
fi gh
effici ent</w>
de vices</w>
colleag ues</w>
b loc
a -
M any</w>
Eu ro
A t
19 7
win dow</w>
th row</w>
stop ped</w>
scienti st</w>
re sear
pu zz
organ ic</w>
j ec
h us
dec ades</w>
cam pa
bre ad</w>
a vo
T u
Jap an</w>
In stead</w>
x es</w>
t ent</w>
sa fe
re duce</w>
publi shed</w>
pre si
p ping</w>
new sp
mis sing</w>
me th
mag az
it ely</w>
in ess
for d</w>
fi x</w>
fe els</w>
coff ee</w>
chil d
b at
19 6
z o
tra de</w>
stor s</w>
st one</w>
s ick</w>
progra m
pas sed</w>
hel ped</w>
he ads</w>
fin ished</w>
fic ation</w>
eff ort</w>
ec h</w>
at tem
anal y
an ce
M ex
A sia</w>
u sual</w>
ti l
su me</w>
soci eties</w>
ri c</w>
ra in</w>
low ly</w>
imag ination</w>
gra de</w>
dimen sional</w>
comfor table</w>
b one</w>
M r.</w>
I T</w>
Ge or
vi sit</w>
ti n</w>
sty le</w>
sor ry</w>
sho c
ra id</w>
op pos
la ws</w>
iz ation</w>
hel ping</w>
figu red</w>
d ad</w>
c um
b ase</w>
ar t
ap preci
Ric hard</w>
F ren
ul ous</w>
st ree
stree ts</w>
sp ending</w>
scul p
o ther
m ale</w>
la un
jus tice</w>
inter act</w>
ent ally</w>
ear ing</w>
differ ently</w>
cy cle</w>
con ser
centr al</w>
cap it
O r
H is</w>
Ac tually</w>
vul ner
tra ined</w>
stud ying</w>
rec ent</w>
ph o
kno wing</w>
ke ts</w>
high ly</w>
f all
competi tion</w>
bl ed</w>
as ed</w>
F i
val ent</w>
titu de</w>
sup por
secre t</w>
s ch
oper ation</w>
necess ary</w>
g in</w>
degre e</w>
con duc
an ces</w>
al g
Fren ch</w>
F in
yel low</w>
sur roun
s la
re turn</w>
pl at
nu tri
molec ule</w>
mo thers</w>
met aph
industri al</w>
cau ght</w>
bl ing</w>
be es</w>
b illions</w>
P au
F r
2 4</w>
val u
tis sue</w>
tici ans</w>
t ons</w>
su sp
st -
sol ved</w>
si an</w>
resp ect</w>
quot e</w>
par ty</w>
nega tive</w>
le s
gent le
d ents</w>
con fi
bus iness
bro ken</w>
asse m
aliz e</w>
af raid</w>
ach es</w>
ac ked</w>
ac cep
V ery</w>
Secon d</w>
N A
Euro pe
Bi g</w>
4 00</w>
yp e</w>
typ ical</w>
tu m</w>
sh el
s lowly</w>
ne s
meas u
ma m
kil ome
el er
bro ad
brea k
R i
A p
1 ,
z en</w>
suff ering</w>
radi o</w>
open ed</w>
n on
mo ves</w>
in dic
in -
hol ding</w>
hel d</w>
galax ies</w>
fashi on</w>
f s</w>
ester day</w>
ea p</w>
di stance</w>
cu stom
con cep
bi lities</w>
benef its</w>
G ood</w>
B ar
tur ing</w>
te en
s pl
re mot
perf ec
mom ents</w>
min i
intellig ent</w>
in j
fem ale</w>
descri be</w>
commerci al</w>
call s</w>
back ground</w>
app ly</w>
M an
un k</w>
sudd en</w>
ste ps</w>
spec tr
organiz ations</w>
lead ing</w>
landsc ape</w>
int ell
engine ers</w>
e dge</w>
br ings</w>
be at</w>
app ing</w>
adv ant
ad op
CO 2</w>
1 .
ys is</w>
y l
war ming</w>
os s</w>
opport unities</w>
oc cur
no ise</w>
ne arly</w>
na tive</w>
l ying</w>
j ump</w>
i on</w>
hor ri
h om
f light</w>
er t</w>
cha ir</w>
car to
benef it</w>
ar r
ag re
statis tics</w>
sion ate</w>
ser i
sen si
s ul
re plic
n an
los s</w>
la w
im es</w>
h a</w>
fore ver</w>
fo ld</w>
el lit
di sp
deter min
col ors</w>
ch eap</w>
cat ch</w>
br and</w>
be d
b la
R a
O b
ver sus</w>
stitu te</w>
respon sible</w>
pres ents</w>
plac ed</w>
p ages</w>
me at</w>
langu ages</w>
identi ty</w>
i ds</w>
gu n</w>
gen cy</w>
f illed</w>
exp ec
ev ents</w>
enti rely</w>
c ore</w>
al o
Su n</w>
Every body</w>
- up</w>
v es
tra ff
tal ks</w>
st uck</w>
sp on
si x
se ly</w>
sa ving</w>
ri d</w>
phenomen on</w>
pen gu
pe dia</w>
pain ting</w>
or row</w>
mem bers</w>
hel ps</w>
ec osy
disco very</w>
de a
cra tic</w>
ci ence</w>
bu b
br an
ate g
ag ree</w>
ad ver
W ash
B rit
wis dom</w>
wa ve</w>
t ac
so li
sit es</w>
sat ellit
relation ships</w>
ori th
mo on</w>
m outh</w>
it able</w>
il e
fin ger</w>
el ess</w>
desi re</w>
cop y</w>
concer ned</w>
c ateg
ar ies</w>
acc eler
vir tual</w>
su m</w>
sho es</w>
respon d</w>
oper ating</w>
muse um</w>
luc ky</w>
import antly</w>
ex tin
eng ine</w>
dimen sions</w>
da mage</w>
cap able</w>
c lic
b lock</w>
arti f
ap ers</w>
alg orith
Wash ington</w>
Th anks</w>
E in
va st</w>
uc ks</w>
tre ated</w>
su it</w>
separ ate</w>
part ment</w>
oppos ite</w>
neighbor hood</w>
n a</w>
le tter</w>
it ch
galax y</w>
ex hi
evol utionary</w>
every day</w>
en joy</w>
coun t</w>
civiliz ation</w>
cir cle</w>
charac ter
Ta ke</w>
Some times</w>
A n</w>
w alls</w>
va tive</w>
ul timately</w>
ti le</w>
tal ity</w>
struc tion</w>
so il</w>
r in
r a</w>
pri son</w>
oce ans</w>
lea ds</w>
ke e
jo in</w>
i ed</w>
fail ed</w>
f ill</w>
equi valent</w>
easi er</w>
dd en</w>
cre ation</w>
citiz ens</w>
bl ind</w>
artic le</w>
ad ults</w>
a urs</w>
S we
S ee</w>
On ce</w>
G o</w>
Ein stein</w>
Au dience</w>
1 7</w>
1 3</w>
we ar</w>
vir uses</w>
um in
si ster</w>
s y</w>
rele v
re port</w>
rais ed</w>
perfec tly</w>
oc k</w>
m ouse</w>
le ts</w>
jour n
gener ate</w>
f ically</w>
elec tric</w>
diag nos
compar ed</w>
w earing</w>
volun te
un fortunately</w>
ro ll</w>
ri es</w>
pre vi
p ha
op ini
om y</w>
j um
influ ence</w>
ge ly</w>
figh ting</w>
fail ure</w>
extin c
eng age</w>
en ted</w>
dri ven</w>
desig ning</w>
cor ding</w>
chem i
brea st</w>
appro pri
am es</w>
ac cur
D id</w>
C oun
Bri tish</w>
wh om</w>
th -
te x</w>
sp ot</w>
s m</w>
no te</w>
li br
impro ve</w>
ex erci
engine er</w>
en ed</w>
brilli ant</w>
begin s</w>
air plane</w>
R ob
P ri
M IT</w>
H um
weap ons</w>
therap y</w>
sig nal</w>
resear ch
ran dom</w>
princi ple</w>
par k</w>
mathema tics</w>
l ay</w>
experi ences</w>
el es
dra wing</w>
child hood</w>
c ard</w>
bro ther</w>
an ese</w>
S an</w>
M ore</w>
M il
Every thing</w>
we ird</w>
u b
thin ks</w>
ter ed</w>
ten s</w>
sim ul
s ac
ra m
pu ts</w>
plan ning</w>
off er</w>
magaz ine</w>
m al</w>
lea ving</w>
ke eping</w>
gra m</w>
fiel ds</w>
fac tory</w>
f li
emo tions</w>
cri me</w>
cre d
consci ousness</w>
consci ous</w>
believ ed</w>
aff ect</w>
Is ra
E g
B os
ve ge
ve -
um s</w>
the ater</w>
spac es</w>
pro tot
pro found</w>
l au
ke t
ins ects</w>
hope fully</w>
fascin ating</w>
ex ists</w>
distribu tion</w>
def ine</w>
de mic</w>
comp os
chemi stry</w>
ang le</w>
am p</w>
aff ord</w>
a th
P al
y esterday</w>
v it
tion ally</w>
sh ouldn</w>
se t
produc ing</w>
p rou
l as
ic als</w>
ep ide
en ever</w>
em is
cor tex</w>
bl es</w>
beli ef</w>
ag s</w>
Pa ki
Europe an</w>
Any way</w>
trans form</w>
tec h</w>
tan e
survi val</w>
spir it</w>
soldi ers</w>
se at</w>
r ac
princi ples</w>
p ounds</w>
p li
other wise</w>
norm ally</w>
n e</w>
mo tion</w>
ju d
inter pre
in fin
i or</w>
fore ign</w>
ess or</w>
chem icals</w>
b on
an a</w>
E ach</w>
th in</w>
sp here</w>
sign als</w>
sho p</w>
sh oul
se as
sc an
r ural</w>
qu es</w>
predic t</w>
mus cle</w>
met al</w>
iz ing</w>
intell ec
gi ant</w>
ex plan
desp ite</w>
deser t</w>
conv inc
cont em
cont act</w>
condi tion</w>
civi l</w>
cir cu
b ar</w>
worl d
wor ried</w>
wil d</w>
vot e</w>
tri p</w>
sur ge
stu died</w>
p ra
p ment</w>
op tim
movi es</w>
man aged</w>
lin k</w>
inv ited</w>
h ome
h ell</w>
grand mother</w>
gr y</w>
gl am
fe ed
do ws</w>
demon str
construc tion</w>
co gni
ar ms</w>
ar gue</w>
advant age</w>
accoun t</w>
ac king</w>
W ould</w>
M al
wa ke</w>
vi su
vehic le</w>
u ary</w>
tr act</w>
t ough</w>
suc ce
sa v
re present</w>
prote in</w>
prev ent</w>
power ed</w>
p it
o be
nam es</w>
mat ch</w>
m illi
les son</w>
invest ment</w>
hol es</w>
du e</w>
co vered</w>
arg ument</w>
Th ree</w>
A m
vic ti
to x
sym bo
re al
ra tional</w>
prof it</w>
oo ds</w>
oc cu
ner v
mic ros
lead er</w>
gro wn</w>
g all
electr ical</w>
dinos aurs</w>
descri bed</w>
contin ent</w>
con tra
be t</w>
b ank</w>
artif icial</w>
appe ar</w>
anc ing</w>
ad ult</w>
abi lities</w>
O ver</w>
Mex ic
C ome</w>
5 0,000</w>
pre -
po c
pic ked</w>
organiz ed</w>
o logical</w>
my st
mor tality</w>
mon it
mat ters</w>
is land</w>
h ate</w>
gradu ate</w>
direc t</w>
clos ed</w>
ali a</w>
ag ers</w>
S ha
Jap anese</w>
B as
x im
ur ch</w>
th ir
shi f
seri ously</w>
s tim
resi dent</w>
profes sional</w>
pla yers</w>
pl us</w>
men tioned</w>
mar ried</w>
mal aria</w>
mag ne
loc ation</w>
lim ited</w>
li f
kilome ters</w>
k a</w>
har der</w>
go ti
gl and</w>
g lo
four th</w>
follo wed</w>
f at</w>
emplo ye
din ner</w>
dem and</w>
deli ver</w>
con stantly</w>
business es</w>
av y</w>
arri ved</w>
Mexic o</w>
I tal
Bra z
we alth</w>
tom orrow</w>
thre at</w>
rough ly</w>
ri gh
pho to</w>
philos op
maj ority</w>
los ing</w>
let ters</w>
lab or</w>
inno v
in visible</w>
in dependent</w>
hus band</w>
gener ations</w>
feel ings</w>
en tr
ema il</w>
al ed</w>
S tre
L in
K .</w>
Ho wever</w>
Ch il
y wood</w>
te eth</w>
sug ar</w>
stu p
shap es</w>
scen e</w>
s wi
s and
qu a
proper ty</w>
pleas ure</w>
per cei
or al</w>
ne goti
multi ple</w>
mi d
metaph or</w>
ke ys</w>
ha s
ga ther
f lies</w>
ere as</w>
dynam ic</w>
d el
curr ently</w>
co al</w>
campa ign</w>
bre ath</w>
at ur
ar ts</w>
ad ed</w>
ab str
Ha ve</w>
Eg yp
v ard</w>
univer sal</w>
un less</w>
tum or</w>
transp or
to ward</w>
the sis</w>
st an</w>
spe ech</w>
res h</w>
prou d</w>
possi bilities</w>
pa ying</w>
l unch</w>
ha dn</w>
emp ty</w>
deep ly</w>
con sequences</w>
coll ective</w>
cir cum
c lock</w>
be ar</w>
agricul ture</w>
ad dition</w>
T imes</w>
P lease</w>
D o
D P</w>
B a
Au str
4 5</w>
sw im
surpri sing</w>
sol ute</w>
shar ks</w>
ri age</w>
restaur ant</w>
re sc
re ci
nat ur
lic ation</w>
lea ves</w>
la yer</w>
ki d
j e
im m
fa ir</w>
equi pment</w>
de aling</w>
cor ru
class room</w>
at ch</w>
ad a</w>
a stron
z es</w>
ter r
si ght</w>
pre gn
pla yer</w>
it ting</w>
high est</w>
h i</w>
fol ks</w>
extre me</w>
dr ink</w>
desig ner</w>
deb ate</w>
d um
cor al</w>
comp are</w>
co ast</w>
c k
avo id</w>
at en</w>
associ ated</w>
are ly</w>
an tic</w>
Nig eria</w>
En gland</w>
Brit ain</w>
An der
1 50</w>
surpri se</w>
sug gest</w>
strate gy</w>
stra tion</w>
st ood</w>
sel ling</w>
s and</w>
ri ver</w>
re presents</w>
r ates</w>
ic ken</w>
i e</w>
gl ing</w>
f al
er as</w>
e ds</w>
dre ams</w>
cra ft</w>
cau sed</w>
b right</w>
ag er</w>
Geor ge</w>
10 0,000</w>
wea ther</w>
te sting</w>
resour ce</w>
re ve
o v
nerv ous</w>
na tions</w>
n ose</w>
le g</w>
laun ched</w>
inv est</w>
inter vie
evi l</w>
enter tain
defin ed</w>
consum ption</w>
coll ect</w>
charac ters</w>
batter y</w>
S er
NA SA</w>
B ill</w>
6 00</w>
2 1
1 7
wa ves</w>
univer sity</w>
transp ar
traff ic</w>
stup id</w>
spo ke</w>
sent ence</w>
rap id
process es</w>
mista kes</w>
increas ing</w>
in ner</w>
ha m</w>
g ation</w>
fin ish</w>
en jo
deta ils</w>
bot tle</w>
ann oun
ab solute</w>
Wom en</w>
9 9</w>
tar get</w>
t les</w>
str ing</w>
spectr um</w>
si vely</w>
re ward</w>
prom ot
presi dent</w>
pl ate</w>
phot os</w>
pe t</w>
nar ra
mar k</w>
introduc ed</w>
hydro gen</w>
has n</w>
g on
fra me</w>
fi shing</w>
f ell</w>
emer ging</w>
el ine</w>
d ots</w>
cur ious</w>
cha in</w>
as ks</w>
W al
The ir</w>
Ken ya</w>
Ander son</w>
sp ring</w>
s or</w>
remot e</w>
photograph s</w>
organ ism</w>
on g
ma tically</w>
logi c</w>
gra vity</w>
g ment</w>
fac ts</w>
f resh</w>
exper ts</w>
exerci se</w>
ex pression</w>
er ship</w>
de tail</w>
de -
cul tures</w>
col on
alter native</w>
ali sts</w>
ac cording</w>
Wi ki
P aci
Har vard</w>
Char les</w>
A l</w>
20 th</w>
wi re</w>
w ine</w>
v ement</w>
ul ations</w>
the me</w>
techn ical</w>
ste el</w>
shap ed</w>
sec tor</w>
sec tion</w>
se tting</w>
sa ved</w>
s outh</w>
s au
ro b
relev ant</w>
prom ise</w>
p p
or ts</w>
op ening</w>
op e</w>
ne ath</w>
molec ular</w>
lab or
k illing</w>
import ance</w>
h os
for ced</w>
ess ential</w>
econom ics</w>
disa ster</w>
defin itely</w>
connec tions</w>
call ing</w>
b allo
aw ful</w>
ar m
anti -
anal ysis</w>
aff ected</w>
S tu
P resident</w>
N .</w>
In stitute</w>
H u
G al
3 ,000</w>
war m</w>
ul l</w>
st able</w>
sil k</w>
safe ty</w>
s lo
rec y
radi ation</w>
produc tive</w>
nor th</w>
medi um</w>
long- term</w>
li ked</w>
le x
is on</w>
exist ence</w>
er ies</w>
equ al</w>
dou b
d ry</w>
care fully</w>
bud get</w>
b us</w>
ap par
ac cept</w>
ac a
Y ou
T wit
Pau l</w>
K e
3 D</w>
valu able</w>
si l</w>
re fu
rapid ly</w>
pro ce
pa y
org ans</w>
newsp aper</w>
l augh
inv esti
inter face</w>
ici an</w>
hon est</w>
grap hic</w>
form ing</w>
fac ing</w>
emis sions</w>
eff ectively</w>
ech no
dist inc
dis play</w>
di r
da ily</w>
control led</w>
cha m
bu ying</w>
au d
a war
a gement</w>
Paci fic</w>
O l
N a
w ings</w>
vari ety</w>
reg ular</w>
re spec
pro ve</w>
primar y</w>
prac tical</w>
pic ally</w>
oc ca
mean ing
intu i
inter action</w>
intellec tual</w>
inf ected</w>
enc ing</w>
dou ble</w>
cur ve</w>
compu ting</w>
clin ical</w>
cle an
cam eras</w>
b ic
appropri ate</w>
an -
V ir
E m
Dar win</w>
Chri sti
3 5</w>
under neath</w>
um ber</w>
thou ghts</w>
ter -
satellit e</w>
re ven
per s</w>
min ist
it i</w>
intro duce</w>
hy po
hou ses</w>
fi sh
fac tor</w>
fa ith</w>
est ab
en coun
em bar
e u
de st
consi dered</w>
ch rom
car ds</w>
at oms</w>
ang ing</w>
adver ti
You Tu
W ow</w>
K ore
H i
F ace
vol u
vide os</w>
v ac
ur ies</w>
swi m</w>
sup pose</w>
sour ces</w>
se ts</w>
sa d</w>
ro t
ri de</w>
requi res</w>
qu id</w>
person ally</w>
os ity</w>
on ed</w>
oll ywood</w>
min im
marke ting</w>
m ate</w>
m as</w>
le m
inven tion</w>
in gre
ingre di
in d
hy per
hor se</w>
he avy</w>
har d
gr an
gener ally</w>
ge -
fl at</w>
fel low</w>
feed back</w>
en cies</w>
dis ci
cogni tive</w>
cl oud</w>
c ing</w>
c ent</w>
al y
U. N.</w>
S cho
Mic ha
M S</w>
G o
C enter</w>
19 5
z one</w>
win ter</w>
viol ent</w>
trans formation</w>
tion ing</w>
stat us</w>
speci fically</w>
s oph
protec tion</w>
plan es</w>
part ner</w>
p en</w>
mo di
man age</w>
lead ership</w>
la m</w>
instr ument</w>
hi dden</w>
environ ments</w>
en e</w>
YouTu be</w>
U. K.</w>
K i
F ri
D oes</w>
vacc ine</w>
t ol
swit ch</w>
strug gle</w>
st y</w>
rela tively</w>
re action</w>
pro p
priv ile
pri son
po e
perc ent
p ack
o tic</w>
ne ar
life time</w>
l ady</w>
inter ven
in king</w>
ici ans</w>
ic ks</w>
her o</w>
he a
gi es</w>
ga p</w>
fra me
experi enced</w>
exp an
employe es</w>
em pa
de struction</w>
bro ke</w>
autom a
an o</w>
an gi
Is lam
I ran</w>
Face book</w>
0 0,000</w>
worl ds</w>
tra ge
ti ll</w>
t eles
swim ming</w>
st un
spir it
shar k</w>
sensi tive</w>
rop y</w>
r are</w>
r and
protec ted</w>
prote ins</w>
process ing</w>
por ary</w>
plat form</w>
pl om
oper ate</w>
on ing</w>
ner ship</w>
mov ements</w>
mot or</w>
k itch
interest s</w>
il es</w>
h its</w>
gri d</w>
g ence</w>
ex change</w>
ent ary</w>
el ed</w>
dri ver</w>
doc um
cre ature</w>
compon ents</w>
cli p</w>
car rying</w>
bl u
bir th
bi om
at trac
as si
ar ity</w>
ac tiv
Wiki pedia</w>
Stre et</w>
S y
Micha el</w>
M u
L ast</w>
world wide</w>
v est
tr ick</w>
ti e</w>
sun light</w>
sig ned</w>
ses sion</w>
rel ate</w>
re ver
presen tation</w>
prepar ed</w>
pre ven
or ing</w>
mista ke</w>
micro bes</w>
ma ster</w>
increas ingly</w>
identi fy</w>
hosp it
far m</w>
er -
e igh
disci pl
dis h</w>
cred it</w>
coo king</w>
conv ince</w>
comp li
comb ination</w>
co m</w>
chrom os
bi a</w>
and er</w>
anal o
ad ded</w>
Paki stan</w>
Is lam</w>
Fran ci
E l
C E
B en
At lan
wat ched</w>
us ers</w>
ul f</w>
ul ated</w>
u nex
surpri sed</w>
stor y
sm ell</w>
sh all</w>
sc o</w>
s sing</w>
pul led</w>
para dig
org an</w>
or ous</w>
no on</w>
mi x</w>
li ver</w>
jo ke</w>
is tic
go ld</w>
ex press</w>
epide mic</w>
emo tion</w>
effici ency</w>
e li
di et</w>
convinc ed</w>
ci l</w>
ca st</w>
bor ing</w>
am ing</w>
acci dent</w>
Twit ter</w>
stre ss</w>
soph istic
situ ations</w>
sen ding</w>
ris ks</w>
ra in
previ ous</w>
por tion</w>
per ception</w>
pe ak</w>
men tion</w>
me d
mar riage</w>
lap top</w>
hou se
hab it
gre en
foun dation</w>
fin gers</w>
fall ing</w>
es tim
encoura ge</w>
el et
di sor
ch icken</w>
c ow</w>
b it
as ses</w>
ap es</w>
an tum</w>
S cot
Franci sco</w>
C a
A s
A ra
wonder ing</w>
stu dio</w>
ri dic
recei ved</w>
pengu ins</w>
ox ide</w>
or d
ol ds</w>
of -
occur red</w>
neighb ors</w>
natur ally</w>
mir ror</w>
li quid</w>
inv ent</w>
in ev
ig n
hol ds</w>
h omes</w>
gra in</w>
go ods</w>
fos sil</w>
fa il</w>
exp ected</w>
clim b</w>
c utting</w>
bom b</w>
be l</w>
adv anced</w>
X -
Ph one</w>
Chri st
0 0
wh enever</w>
vo ices</w>
vi a</w>
ti tle</w>
techni ques</w>
sub -
ser ved</w>
sel ection</w>
sam ple</w>
s co
research ers</w>
re lease</w>
pres ence</w>
pa int</w>
p ack</w>
opini on</w>
neu ro
m es</w>
m aps</w>
kee ps</w>
gentle men</w>
flo wers</w>
fe wer</w>
er ror</w>
entreprene urs</w>
entertain ment</w>
ent ure</w>
ec u
consum er</w>
clic k</w>
cen ters</w>
cam p</w>
asp ect</w>
archit ect</w>
I I</w>
- like</w>
wh el
un usual</w>
un it</w>
ty pically</w>
tis tic</w>
three- dimensional</w>
techno logical</w>
stre t
sol ving</w>
sh ir
set t
sel s</w>
sa tis
qui et</w>
ph an
meth od</w>
men ted</w>
mathema tical</w>
mar ine</w>
man agement</w>
l in</w>
kitch en</w>
it arian</w>
echno logy</w>
do gs</w>
d le</w>
con centr
b y
appli ed</w>
ap art
P re
Ger many</w>
G DP</w>
F e
zer o-
ul tra
ul timate</w>
th r
t ables</w>
sta ff</w>
sk ill</w>
sing ing</w>
s mile</w>
ru b
ro of</w>
rela tive</w>
r hy
qu antum</w>
pla y
percent age</w>
over whel
od d</w>
o rest</w>
o gen
neur os
n ic
moun tains</w>
gh t
figu res</w>
explan ation</w>
exp on
exhi bi
drop ped</w>
d ol
cap ture</w>
bur ning</w>
au l
ar ing</w>
ance stors</w>
ad mit</w>
Musli m</w>
K ing</w>
F l
A R
7 5</w>
w ars</w>
vi s
v ag
us er</w>
unex p
travel ing</w>
tradi tion</w>
the -
str ength</w>
soli d</w>
sig ns</w>
sho ot</w>
sa ge</w>
run s</w>
requi re</w>
re ti
re less</w>
p y
no r</w>
ma kers</w>
in put</w>
imp anz
hon or</w>
frame work</w>
fil ms</w>
fac tors</w>
f alls</w>
ex pres
ent y</w>
di a
depen ds</w>
dep lo
de dic
dar k
crow d</w>
correc t</w>
comfor t</w>
bur n</w>
bo xes</w>
bloc ks</w>
b in
au ton
attem pt</w>
Scho ol</w>
S im
J ames</w>
Ch ic
Braz il</w>
B l
B ank</w>
2 000</w>
1 6
transi tion</w>
tem ber</w>
t ape</w>
spl it</w>
se l</w>
s na
ro ads</w>
re ached</w>
ra dical</w>
psycho logy</w>
poli ticians</w>
pla ys</w>
p in
open -
om ic</w>
ne st</w>
l at
l -
hop ing</w>
go s</w>
gi ft</w>
fle xi
fi f
fe eding</w>
expla ined</w>
exist ing</w>
ex act</w>
er al</w>
ep tember</w>
el ement</w>
el d</w>
discus sion</w>
confi dence</w>
c el
after noon</w>
ac le</w>
ab sor
Tal k</w>
S eptember</w>
N i
Chic ago</w>
21 st</w>
vulner able</w>
vi l</w>
v an</w>
tou ched</w>
te sts</w>
te a</w>
re verse</w>
re ference</w>
prac tic
poli o</w>
p tions</w>
mi x
ma ker</w>
log ically</w>
libr ary</w>
less ons</w>
inc enti
hand le</w>
g el
expl os
eg gs</w>
ecosy stem</w>
deep er</w>
dec line</w>
continu ed</w>
collap se</w>
che str
alle y</w>
a do
H er
F oun
F ive</w>
F a
C ould</w>
Bas ically</w>
Al so</w>
y r
v a</w>
tri als</w>
tic a</w>
ti al</w>
the s</w>
ta ste</w>
sp in
sen ses</w>
se es</w>
sc r
re place</w>
re gre
pro of</w>
pos t-
pa int
on i
o id</w>
measu red</w>
l ength</w>
imp le
hor iz
fortun ate</w>
evol ve</w>
er ever</w>
er ad
eng aged</w>
el ev
c ross</w>
awar eness</w>
as s
activi ties</w>
abstr act</w>
V o
S atur
P i
volu me</w>
v ey</w>
un known</w>
tane ously</w>
ro ots</w>
proper ties</w>
prom is
pre dat
poll en</w>
poin ted</w>
particip ate</w>
mil k</w>
is ol
i ther</w>
gar den</w>
es cap
demo cratic</w>
c up
c ents</w>
bic y
ber g</w>
ac qui
a k
Ste ve</w>
L ar
Can ada</w>
B ab
Austr alia</w>
Ab out</w>
6 0s</w>
w l</w>
un clear</w>
sym p
sha me</w>
sex ual</w>
religi ons</w>
regi ons</w>
re solution</w>
r ors</w>
poll ution</w>
poe try</w>
pa tho
p apers</w>
no tes</w>
neu tr
mon keys</w>
messa ges</w>
lin ked</w>
in her
graph ics</w>
gra tion</w>
erad ic
equ ation</w>
en ting</w>
dra matic</w>
d ancing</w>
comb ine</w>
circum stances</w>
ch impanz
behavi ors</w>
ax is</w>
aster n</w>
amoun ts</w>
a y
V alley</w>
Th om
No body</w>
Ne w
H er</w>
G ulf</w>
D on
C or
- and-
ves sels</w>
v an
up per</w>
un like</w>
ul a</w>
t- hand</w>
sk elet
rema ins</w>
recy cl
prof essor</w>
po em</w>
philosop hy</w>
ograp hic</w>
mani pul
li um</w>
le f
instr uments</w>
g ang</w>
fundam entally</w>
fi ve-
fe atures</w>
es timate</w>
en z
el ing</w>
direc tor</w>
de pression</w>
corpor ate</w>
conclu sion</w>
c as
blo g</w>
b log
att acks</w>
Y et</w>
Uni on</w>
St an
Pro ject</w>
N at
Fr ance</w>
D u
B ush</w>
200 8</w>
2 .
zo om</w>
writ er</w>
wh erever</w>
well- being</w>
w o
ter nal</w>
surge on</w>
sophistic ated</w>
recor ded</w>
qu anti
pro to
per man
pas sionate</w>
part ners</w>
paradig m</w>
p ure</w>
liter ature</w>
inst all
increas ed</w>
inclu de</w>
in struc
horri ble</w>
ho wever</w>
fin ance</w>
ell o</w>
di gn
di c</w>
den se</w>
dea ths</w>
cri min
consi st
concep ts</w>
clos ely</w>
cir cul
challeng ing</w>
ch urch</w>
certain ty</w>
ad ly</w>
ad dic
ab led</w>
Wom an</w>
S ince</w>
O x
Isra el</w>
G ir
G ener
Bos ton</w>
Ara b</w>
Ar ab
A ri
wh ales</w>
vill ages</w>
tr illion</w>
th al</w>
te e</w>
shoul der</w>
s ki
re main</w>
puzz le</w>
pro j
por tra
om o</w>
manufac turing</w>
institu tion</w>
ing -
id en
happ i
gr and</w>
go als</w>
g an
fle w</w>
ev ening</w>
em ber</w>
electr onic</w>
elec tro
ear th
di plom
cre te</w>
cr uc
c k</w>
brea the</w>
b ones</w>
ar gu
appreci ate</w>
accur ate</w>
acc es
Some thing</w>
J er
G i
D en
Bu dd
Ap ple</w>
Afr icans</w>
ve st</w>
tu be</w>
ta ined</w>
ta g</w>
symme try</w>
swe et</w>
sou l</w>
son gs</w>
some what</w>
se ssed</w>
recor ds</w>
re mind</w>
qu it
presen ted</w>
pr ices</w>
plic ity</w>
out come</w>
o ci
multi -
mon key</w>
mis s</w>
mi d-
loc ked</w>
lau gh</w>
la unch</w>
in sur
ill er</w>
i Phone</w>
gu ar
grou n
gr ay</w>
f ed</w>
ele ph
e ye
dri ves</w>
doub t</w>
der ing</w>
den sity</w>
commit ment</w>
comb ined</w>
co ordin
cl ou
ch ron
Thom as</w>
S ch
G ol
D ay</w>
whe el</w>
vehic les</w>
u de</w>
tri g
tr end</w>
tol er
ter y</w>
se v
s ons</w>
ru p
rel ation</w>
re min
pri ze</w>
po x</w>
phys ically</w>
par king</w>
op tions</w>
no vel</w>
ne ts</w>
it an</w>
is tics</w>
in ts</w>
hur t</w>
grap hy</w>
gener ated</w>
ge ome
fu nd</w>
fore sts</w>
fi re
fac ed</w>
explor ation</w>
embar ra
depen dence</w>
cop y
connec ting</w>
compon ent</w>
bus y</w>
ba g</w>
b low</w>
automa tically</w>
archit ects</w>
appli cations</w>
ank ly</w>
am i</w>
ac tor</w>
O s</w>
J an
D H</w>
C l
C al
B ay</w>
A h</w>
2 1</w>
y st
wi red</w>
wal ks</w>
u ne
tis m</w>
th anks</w>
te sted</w>
stron ger</w>
stat ement</w>
spirit ual</w>
se ed</w>
ri sing</w>
requi red</w>
pot entially</w>
pl ans</w>
pi le</w>
ph ra
perform ing</w>
or bit</w>
occu r</w>
na vi
mus ical</w>
min d
meaning ful</w>
lim its</w>
lar gely</w>
inno vative</w>
infin ite</w>
in ations</w>
iden tical</w>
hot el</w>
hospit als</w>
fr ankly</w>
el a</w>
ed it
direc tions</w>
diag ra
di ab
deter mine</w>
car ried</w>
birth day</w>
bi ke</w>
be e
bat tle</w>
b o</w>
b en
ad vice</w>
ac tors</w>
ac ted</w>
Un fortunately</w>
S ec
S cience</w>
Per haps</w>
P en
P A</w>
Mic ros
Joh n
Ger man</w>
C hi
Bi ble</w>
B ur
B F</w>
A ma
A B</w>
20 ,000</w>
wi reless</w>
wat er
trans late</w>
sum mar
sta tions</w>
spi der</w>
sculp ture</w>
rhy th
ra p</w>
qu est</w>
pregn ant</w>
po p</w>
pi re</w>
per form</w>
ot a</w>
on e
me tho
m im
l un
k i</w>
ir ing</w>
incre ases</w>
ex tent</w>
en able</w>
di v
conven tional</w>
col um
cho col
celebr ate</w>
cau sing</w>
c tic</w>
brea thing</w>
brea king</w>
behavi oral</w>
ballo on</w>
auth ority</w>
an th
amp ;</w>
Swe den</w>
St ate</w>
S ou
R w
Par is</w>
P or
Musli ms</w>
M at
B ang</w>
& amp;</w>
youn ger</w>
wonder ed</w>
wh ale</w>
victi ms</w>
top s</w>
top ic</w>
sp reading</w>
sen sors</w>
seas on</w>
se ven
sand w
rele ased</w>
ra w</w>
ous ing</w>
ograp hy</w>
l en
jo ined</w>
inspi ration</w>
insi ght</w>
her oes</w>
h all
gre at
fal se</w>
f at
exhibi tion</w>
es the
dol ph
do zen</w>
divi ded</w>
distribu ted</w>
dign ity</w>
dep end</w>
conven i
con stant</w>
co -
clo thes</w>
bri ef</w>
b ucks</w>
appe ars</w>
agre ed</w>
acc um
ab und
Rus sia</w>
Re member</w>
Re ally</w>
P r
O c
N umber</w>
M R
L u
L os</w>
J os
D is
Christ mas</w>
An y</w>
9 5</w>
- to-
w are</w>
un believ
transpor tation</w>
thi op
tele phone</w>
techni que</w>
t at
sub jects</w>
sp a
so ft</w>
s can</w>
re move</w>
re ment</w>
quar ter</w>
pro gres
po orest</w>
pi ano</w>
op tion</w>
ol ing</w>
mi gr
mem ber
inten se</w>
in o</w>
i um</w>
g un
fund ing</w>
fri gh
estab li
ene my</w>
emer gency</w>
em bed
elec tion</w>
econom ists</w>
de tect</w>
d ency</w>
d ary</w>
collabor ation</w>
clas sic</w>
c es
bub ble</w>
b al</w>
arch y</w>
ar my</w>
am i
Wh ite</w>
R os
N ever</w>
M oun
M os
Fin ally</w>
E thiop
D an</w>
C i
C .</w>
B r
. com</w>
year- olds</w>
y ard</w>
wer ed</w>
wan ting</w>
v oc
ton ight</w>
t i</w>
symp tom
st or</w>
st ands</w>
small pox</w>
sk y
sim plicity</w>
sev ere</w>
sa tions</w>
ph y
partic le</w>
pain ful</w>
on ics</w>
no w
nit ure</w>
meas uring</w>
m ur
lo vely</w>
li an</w>
intui tive</w>
incenti ves</w>
hi li
heal th
gen i
form er</w>
f are</w>
et ings</w>
econom ies</w>
dom es
divi de</w>
des k</w>
cra sh</w>
coll ected</w>
be ach</w>
as sume</w>
algorith ms</w>
ad minist
V ide
Sa har
S ar
Ol ym
M is
M ini
G ra
7 0s</w>
200 5</w>
200 4</w>
1 5
y n</w>
we ak</w>
vir tu
under water</w>
tre ating</w>
trac king</w>
ti ous</w>
stand ards</w>
spec tac
see ds</w>
sc ary</w>
rou gh</w>
ri er</w>
re ser
prob ability</w>
pe ace
over all</w>
ot ing</w>
or chestr
om in
o ft</w>
mu sh
mit ted</w>
mechan ism</w>
loo p</w>
l ung</w>
imp li
ici de</w>
fa ke</w>
exper t</w>
emp ha
embr ace</w>
ec tural</w>
e e
disappe ar</w>
cor n</w>
char t</w>
ch os
ch ap
be e</w>
ap pl
alle l</w>
ac les</w>
a ys</w>
Wh ile</w>
Vide o</w>
Rob ert</w>
Micros oft</w>
H y
G han
Foun dation</w>
D ec
B ang
Ar t</w>
19 th</w>
y o</w>
ti les</w>
the less</w>
t ag
spo ken</w>
spir ing</w>
smo ke</w>
sec ure</w>
se y</w>
se ats</w>
sam ples</w>
ri st</w>
re pair</w>
re comm
ram id</w>
pur cha
pre ce
out put</w>
organiz e</w>
op posed</w>
met abo
m ess
lin ks</w>
ligh ting</w>
li zed</w>
li ft</w>
labor atory</w>
inf ec
imm une</w>
gol f</w>
fund ed</w>
func tions</w>
for ma
fi le</w>
fe ature</w>
f loo
et es</w>
e fs</w>
dynam ics</w>
di oxide</w>
desig ns</w>
de partment</w>
de gra
cur i
consum ers</w>
con stra
cla im</w>
bl in
bar re
au r</w>
arr ator</w>
a we
a i</w>
O ther</w>
No thing</w>
N arrator</w>
M ay</w>
La tin</w>
Ha iti</w>
F our</w>
E astern</w>
B on
200 7</w>
1 4
1 2
wh at
wee k
we igh
tu s</w>
trans formed</w>
to y</w>
tion -
sur faces</w>
stric t</w>
spea kers</w>
sp ar
sil ence</w>
ser ving</w>
sc ared</w>
sav ings</w>
ro ot</w>
recor ding</w>
re moved</w>
rand om
rais ing</w>
protot ype</w>
proper ly</w>
poc ket</w>
pi g</w>
par allel</w>
paint ings</w>
oc k
ob sessed</w>
myst ery</w>
m ess</w>
lo red</w>
le sc
la yers</w>
ir on</w>
in y</w>
in gu
impli cations</w>
illu str
health care</w>
gra ss</w>
g or
fur niture</w>
frequ ency</w>
flo ating</w>
et ary</w>
equ ally</w>
en a</w>
embed ded</w>
earth qua
dr inking</w>
disappe ared</w>
des per
depen ding</w>
corru ption</w>
control ling</w>
co ok</w>
chi p</w>
care ful</w>
c at</w>
b ars</w>
am ed</w>
allo wing</w>
al d</w>
adverti sing</w>
W il
U g
T e
S W</w>
On ly</w>
J une</w>
J es
H ollywood</w>
Gre en
G ree
Every one</w>
Com m
Be fore</w>
An gel
8 0s</w>
win dows</w>
tr uck</w>
to il
ten ed</w>
so -
scri pt</w>
ri m
resi li
pu shing</w>
produc tivity</w>
pol y
pl enty</w>
ph arm
ori ties</w>
off ered</w>
ob st
no where</w>
lic on</w>
las er</w>
la dies</w>
l atest</w>
inter view</w>
in tr
in spiring</w>
in ch</w>
il le</w>
hel p
ha i</w>
gni tion</w>
gl asses</w>
gen der</w>
gam i</w>
exp and</w>
exist ed</w>
ex posed</w>
empa thy</w>
eli min
educ ational</w>
dre w</w>
do ors</w>
dat ab
cor respon
contro ver
con crete</w>
ch est</w>
bri e
b ow</w>
at r
ani mation</w>
am in</w>
Vi et
T ra
Is land</w>
G et</w>
Con gress</w>
B al
B C</w>
An tar
1 9</w>
tox ic</w>
surroun ded</w>
sto res</w>
sli des</w>
si zed</w>
sh op
sh ment</w>
s an
recogn ized</w>
reco gnition</w>
quar ters</w>
par ent</w>
p es</w>
on ym
oc cup
o logists</w>
me etings</w>
j un
hun ger</w>
hi de</w>
gro ws</w>
gra b</w>
glo be</w>
func tional</w>
fri en
explor ing</w>
dra matically</w>
di ble</w>
d anger</w>
con cei
ci enti
c ut
ber t</w>
at tribu
archit ectural</w>
ar tistic</w>
app le</w>
air craft</w>
adap t</w>
acces sible</w>
R B</w>
Ob ama</w>
M arti
L E
Islam ic</w>
Bo y</w>
wh o
vot ed</w>
ul ty</w>
th u
tal s</w>
t ar</w>
t all</w>
sugge sts</w>
sta yed</w>
sor y</w>
si ties</w>
s tion</w>
s now</w>
s ket
rom antic</w>
resc ue</w>
reas on
re member
re fer
ra d
py ramid</w>
provi des</w>
pos es</w>
po wers</w>
pl as
pha se</w>
pas sing</w>
p ts</w>
over come</w>
ori al</w>
ol dest</w>
me -
main tain</w>
lim b</w>
li ze</w>
inter nal</w>
inter active</w>
inst inc
in fl
h ousing</w>
fu els</w>
frien dly</w>
four -
fac ial</w>
er o</w>
e es</w>
dimen sion</w>
di ver
d ding</w>
coun ter
con stitu
ch ose</w>
cent uries</w>
bro thers</w>
ar re
appe ared</w>
an ticip
after wards</w>
aff ord
W ill</w>
W a
T or
S m
R ed</w>
N G
MR I</w>
Kore a</w>
Ghan a</w>
Egyp t</w>
D .</w>
6 5</w>
3 2</w>
3 .
2 7</w>
y o
wi de
vir tually</w>
vi br
va st
use um</w>
thre at
t our</w>
sur vey</w>
su rely</w>
struc k</w>
so- called</w>
shir t</w>
sc ar
sc ales</w>
roc ks</w>
roc ket</w>
re aching</w>
pol ar</w>
ori gami</w>
neighb or</w>
ne ither</w>
narra tive</w>
n els</w>
leg acy</w>
le gi
ingredi ents</w>
ill en
il legal</w>
ide al</w>
ic ked</w>
h all</w>
gen u
g la
enter ed</w>
educ ated</w>
dra wn</w>
diab etes</w>
destro yed</w>
contra st</w>
coll ection</w>
co ck
chan nel</w>
c ure</w>
c ry</w>
but ton</w>
blu e
ast oni
asp ects</w>
app lication</w>
anti bio
Ug anda</w>
Stan ford</w>
Rw anda</w>
Ox ford</w>
No bel</w>
M useum</w>
H un
G ive</w>
z ar
volunte ers</w>
vac u
unexp ected</w>
ul ating</w>
trage dy</w>
tici an</w>
t asks</w>
symptom s</w>
symbo l</w>
sustain ability</w>
ster n</w>
ster e
sp ots</w>
sk ull</w>
she ep</w>
se m
s n
resi stance</w>
represen ted</w>
repe at</w>
reg ar
refl ect</w>
reco very</w>
re tin
qu e
psycho logical</w>
provi ding</w>
provi ded</w>
preci sely</w>
preci se</w>
pic king</w>
p un
mon y</w>
mis sed</w>
mem or
ma d</w>
lin ear</w>
la id</w>
l ens</w>
ki lo
ja il</w>
he ight</w>
hal f-
gu il
fru str
fro zen</w>
fif th</w>
extinc t</w>
cri tici
con trac
con tains</w>
con tain</w>
col li
chocol ate</w>
brea ks</w>
bor ders</w>
be have</w>
back wards</w>
ba se
ado lesc
Ti me</w>
R ed
N ext</w>
N ature</w>
L uc
B ron
2 2</w>
y i
wh ist
wh ereas</w>
ti mi
thro wn</w>
terr or
t ary</w>
sion ally</w>
s tic</w>
re plac
ra ys</w>
r ene
pul ling</w>
prin ting</w>
pl u
par aly
p il
obe sity</w>
o logist</w>
mus cles</w>
mor ality</w>
magne tic</w>
l ot
k o</w>
hon est
green house</w>
gran ted</w>
ful l-
flo wer</w>
fi xed</w>
fi ber</w>
fem in
fac ility</w>
ex pe
ell ed</w>
dra g
dir ty</w>
di verse</w>
di ans</w>
dark ness</w>
copy right</w>
conclu de</w>
con sume</w>
con sequence</w>
com e
cli ents</w>
cle ver</w>
chos en</w>
can di
c ement</w>
brie fly</w>
b um
at a</w>
apart ment</w>
a side</w>
a is
Pal est
P ole</w>
Is n</w>
z a</w>
wor ker</w>
ur ation</w>
tr ends</w>
thro po
te ams</w>
succe ed</w>
sh rim
separ ated</w>
s ales</w>
robo tic</w>
refu ge
predic table</w>
posi tions</w>
pop ulations</w>
p ump</w>
p ost</w>
ou ri
ori gin</w>
on al</w>
me al</w>
inter acting</w>
initi al</w>
im provi
her self</w>
hea ven</w>
h att
guar an
gr ab
govern ance</w>
glam orous</w>
gen oci
dre ss</w>
dist ant</w>
di ving</w>
destro y</w>
dedic ated</w>
d ges</w>
contem porary</w>
construc ted</w>
clin ic</w>
character istics</w>
bicy cle</w>
astron om
and er
an gry</w>
a tic</w>
So vi
Par k</w>
Jan uary</w>
H i</w>
Gir l</w>
D el
- of-
w oo
vir al</w>
un its</w>
tun a</w>
til ity</w>
ti red</w>
ti ed</w>
ti ble</w>
th ick</w>
ta il
t ab
sti ci
sp ort</w>
shoc k</w>
s er</w>
ridic ulous</w>
re r</w>
r ings</w>
produc es</w>
pre fer</w>
physici st</w>
ph er
person ality</w>
p ound</w>
p lot</w>
oun ded</w>
monit or</w>
lo aded</w>
li kes</w>
lan ded</w>
j i
integr ated</w>
inspi re</w>
imag ined</w>
i re</w>
i P
han g</w>
grand father</w>
gra s
foot ball</w>
far mer</w>
fab ulous</w>
f ears</w>
f an</w>
extr act</w>
ev el
equ ality</w>
eng aging</w>
dr ill</w>
dinos aur</w>
demonstr ate</w>
da mag
d ust</w>
cro ps</w>
coura ge</w>
coll ecting</w>
clas ses</w>
circu it</w>
cam p
calcul ate</w>
blo gs</w>
be er</w>
att ached</w>
an at
all -
al u
agricul tural</w>
ag end
achiev ed</w>
a to</w>
W illi
Some body</w>
S ol
R u
Pri ze</w>
O ce
Ital y</w>
He alth</w>
H ouse</w>
Gre en</w>
Gener al</w>
C ha
B e</w>
Atlan tic</w>
Angel es</w>
200 9</w>
y ment</w>
uc k
tex t
terror ism</w>
t led</w>
t ancy</w>
sur ve
st ock</w>
se where</w>
scen ari
s che
ro gen</w>
qu alities</w>
privile ge</w>
ow ned</w>
or ange</w>
op ens</w>
om ics</w>
micros cope</w>
mani fe
k ne
hi re</w>
hatt an</w>
har m</w>
h ost</w>
ge ous</w>
foot print</w>
escap e</w>
es is</w>
er o
en tation</w>
ea st</w>
dro ve</w>
dist ur
diagra m</w>
di ve</w>
di str
cos mo
contin ues</w>
conflic ts</w>
con tain
con cent
colleag ue</w>
c o</w>
c in</w>
c able</w>
br a</w>
b ags</w>
aul t</w>
angi ogen
T re
T ell</w>
Sp ace</w>
So ci
R ome</w>
R ec
Man hattan</w>
Ma ke</w>
M and
M ag
G r
G en
Ethiop ia</w>
2 6</w>
2 50</w>
00 0-
. D.</w>
wi d
vol can
unbeliev able</w>
trans forma
sy ste
sta irs</w>
so c
smo oth</w>
sing ly</w>
sh y</w>
sh ut</w>
rob ust</w>
ree f</w>
re ments</w>
predic tions</w>
pos t
por ts</w>
pi gs</w>
phra se</w>
photograp hy</w>
phan tom</w>
nor thern</w>
ne at</w>
mini ster</w>
mat es</w>
mam m
ma xim
loc ated</w>
l oud</w>
ju dge</w>
invol ves</w>
inv ent
industri es</w>
h itting</w>
h at
glob alization</w>
g ent</w>
fu sion</w>
fav or</w>
ell er</w>
el sewhere</w>
earthqua ke</w>
d ot
d am</w>
cros sing</w>
cr ying</w>
concer n</w>
communic ations</w>
cho os
categ ories</w>
c ats</w>
boun dar
bel on
b y-
aliz ing</w>
al t</w>
adv oc
a the
W at
Vo ice</w>
T ex
T en</w>
Se a</w>
S k
Nor thern</w>
M or
M om</w>
M e</w>
L ong</w>
Inter national</w>
Bron x</w>
Ama z
A lex
9 0s</w>
7 00</w>
4 ,000</w>
3 0s</w>
3 0,000</w>
zero- sum</w>
y n
whe el
wh i
ver tical</w>
ver ies</w>
ug ly</w>
travel ed</w>
to ber</w>
the ories</w>
ta x
sta tic</w>
shrim p</w>
sh ell</w>
sau ce</w>
s in</w>
rol ling</w>
ri f
re ads</w>
pl er</w>
pi lot</w>
perman ent</w>
pan demic</w>
organiz ing</w>
optim istic</w>
obser vation</w>
o red</w>
nur ses</w>
min d-
mechan ical</w>
lic ense</w>
le verage</w>
le thal</w>
ke p
inclu des</w>
in ches</w>
ic ul
ho li
hear ts</w>
head ed</w>
he lic
h oo
g ments</w>
foc using</w>
flu id</w>
fil ter</w>
f ts</w>
eri an</w>
emer ge</w>
ele g
dist ingu
de sc
cr yst
contribu te</w>
com pla
col ony</w>
cla im
c ute</w>
c up</w>
boundar ies</w>
b and
auton om
appar ently</w>
ang les</w>
Wh e
T om</w>
Si x</w>
R evolution</w>
Oc tober</w>
Mo ore</w>
K or
K B</w>
I m
D ut
200 1</w>
2 3</w>
19 4
writ ers</w>
w and
vulner ability</w>
vari ation</w>
vacu um</w>
up set</w>
tun e</w>
ti ze</w>
ti p</w>
the ore
teles cope</w>
syn thetic</w>
strate gies</w>
stic ks</w>
st res
sp in</w>
sle eping</w>
sla very</w>
se as</w>
ri g
reduc tion</w>
real m</w>
pri mi
po ol</w>
pl ed</w>
percei ve</w>
per si
p h</w>
p ace</w>
op y</w>
mi xed</w>
meth ane</w>
main ly</w>
m ice</w>
ke y
j ective</w>
intu ition</w>
insur ance</w>
instruc tions</w>
hun gry</w>
habit at</w>
h anging</w>
gra ss
geni us</w>
fu r</w>
fron tal</w>
fr ac
fascin ated</w>
fab ric</w>
explos ion</w>
eri ous</w>
encoun ter</w>
en ga
ed ges</w>
do t</w>
d oms</w>
d less</w>
cy cles</w>
conser vation</w>
cir cles</w>
b alls</w>
awe some</w>
as m</w>
agend a</w>
W all</w>
T r
T ali
P hili
N ations</w>
M in
Ho ward</w>
G ore</w>
Chil d</w>
C ap
win ning</w>
what so
whatso ever</w>
we al
v or</w>
tri bes</w>
tri be</w>
transl ation</w>
trans mission</w>
t ori
sym b
symb ols</w>
super -
su icide</w>
stra igh
spectac ular</w>
spea ker</w>
shop ping</w>
sen sory</w>
res on
ra ti
pu shed</w>
prin ts</w>
predic ted</w>
pre mi
per su
pa th
p on
off icial</w>
ni ght
neur on</w>
ne ural</w>
m ales</w>
m .</w>
lim it</w>
li on</w>
k ni
inter actions</w>
her o
gu id
g ly</w>
foun ded</w>
for gotten</w>
fol ding</w>
fig uring</w>
fic tion</w>
f it
expla ining</w>
ex clu
es sion</w>
e k</w>
e ded</w>
doc ument</w>
disa gre
di lem
di alo
der i
dep th</w>
de pressed</w>
d entally</w>
custom ers</w>
cr ack</w>
conver sations</w>
chimpanz ees</w>
che aper</w>
cat ast
catast rop
capit a</w>
ca ve</w>
c us</w>
bro wn</w>
b age</w>
auth or
ag gres
ac compli
W in
V -
S up
Oce an</w>
H ello</w>
D s</w>
D emo
C ra
C A
200 6</w>
. m.</w>
yr us</w>
y ours</w>
vie ws</w>
v ital</w>
under ground</w>
tradi tions</w>
to cin</w>
thir ds</w>
th um
t sun
t ank</w>
syn the
suff er</w>
sim ulation</w>
shar p</w>
sha ke</w>
sandw ich</w>
ro ws</w>
ro of
represen tation</w>
repor ts</w>
re f
r ice</w>
r ent</w>
pres sing</w>
poli cies</w>
pl ain</w>
p ir
ori da</w>
oo h</w>
n in
micro -
metho ds</w>
m m</w>
life style</w>
l ecture</w>
l ec
it ations</w>
ing dom</w>
infor med</w>
in k
impro vement</w>
illu sion</w>
ill ness</w>
ign ore</w>
i red</w>
helic op
hard ware</w>
har vest</w>
har m
har dly</w>
h oods</w>
h ey</w>
gol den</w>
gla d</w>
gl ed</w>
genoci de</w>
ge st
fa thers</w>
ent ropy</w>
engine ered</w>
emer ged</w>
el em
domin ant</w>
der al</w>
consci ously</w>
compu tation</w>
compas sionate</w>
com mod
clim bing</w>
char ges</w>
cha os</w>
cer ti
carto on</w>
cap tured</w>
c ers</w>
c enti
bl ack
bi zar
b arely</w>
ate ful</w>
aster oid</w>
as sign
artic les</w>
ag ency</w>
aca demic</w>
a stro
V er
Tex as</w>
Sovi et</w>
Sh ould</w>
Satur n</w>
G lob
Fl orida</w>
C re
200 3</w>
wor thy</w>
ur i
un certainty</w>
tra jec
tr ick
ti zed</w>
ten sion</w>
ta x</w>
ta tive</w>
ta p</w>
stor m</w>
sto red</w>
st ages</w>
sou thern</w>
si de
she et</w>
sac red</w>
recei ve</w>
ra ft</w>
r ats</w>
pub lic
protot yp
program ming</w>
pro pos
primi tive</w>
physici an</w>
per mission</w>
pe st</w>
p are</w>
origin ally</w>
ol a</w>
nutri tion</w>
mis er
ment ally</w>
mechan ics</w>
leg is
l ers</w>
l ation</w>
k iller</w>
journ alist</w>
iz es</w>
inv a
innov ations</w>
imag ery</w>
im mer
h em
f ted</w>
f its</w>
exten ded</w>
expon ential</w>
enga gement</w>
em en</w>
elec ted</w>
eff orts</w>
do z
disco veries</w>
determin ed</w>
deli vered</w>
d ung</w>
curi osity</w>
cros s-
contro ls</w>
construc t</w>
con tract</w>
co vering</w>
co operation</w>
clou ds</w>
c ab
bo om</w>
bizar re</w>
bio logists</w>
bio diversity</w>
beli efs</w>
b ound</w>
ath le
announ ced</w>
afford able</w>
ad ding</w>
Tali ban</w>
S pan
S or
S ame</w>
S E
Re search</w>
P an
Ne ander
Marti n</w>
La w</w>
Jes us</w>
Hum an</w>
H omo</w>
H el
De partment</w>
Con go</w>
Cam bridge</w>
2 ,
y an</w>
vis ited</w>
vi sit
v able</w>
under lying</w>
un comfortable</w>
trac ks</w>
to ys</w>
thu si
thi er</w>
ter ror</w>
ten ing</w>
t ears</w>
success fully</w>
stop s</w>
sim pli
sho oting</w>
sh ore</w>
sh ops</w>
see k</w>
s its</w>
reven ue</w>
restaur ants</w>
regre t</w>
promot e</w>
pre fer
plu g</w>
pic s</w>
pi one
paraly zed</w>
oxy tocin</w>
ow ner</w>
out comes</w>
ot echnology</w>
nur se</w>
n -
mam mo
ma il</w>
lo ws</w>
lin ed</w>
life -
jum ped</w>
j ug
j ac
immedi ate</w>
im pres
histor ical</w>
gra ms</w>
gl aci
gi g
gene tics</w>
ge l</w>
g ut</w>
fun g
fli p</w>
fin ds</w>
fi res</w>
f illing</w>
expec tations</w>
expec tancy</w>
exp anding</w>
exc ell
ex pos
eth ical</w>
entr al</w>
en thusi
ec k</w>
domes tic</w>
discus s</w>
daugh ters</w>
d ele
d am
cr ic
chi ef</w>
cap ability</w>
c tica</w>
bur gh</w>
bor der</w>
bi c</w>
au di
an thropo
air planes</w>
adv ance</w>
ad ing</w>
ad di
accep ted</w>
Whe ther</w>
Tur key</w>
S und
S S</w>
Ob vi
N ic
Mini ster</w>
L it
Je wish</w>
I ran
G P
D A</w>
C he
C entral</w>
Antar ctica</w>
5 0s</w>
20 10</w>
199 0s</w>
y fish</w>
weap on</w>
vege tables</w>
vag ina</w>
v ille</w>
ut ter
umin es
transpar ent</w>
tr ucks</w>
tr ical</w>
ten dency</w>
tem p
t one</w>
t ack
surpri singly</w>
suppor ted</w>
suc k</w>
si sters</w>
sch ol
sc ore</w>
replic ate</w>
rela tions</w>
re d
primar ily</w>
photograph ed</w>
philos oph
par tly</w>
par ties</w>
p um
ou ter</w>
ong st</w>
oc curr
ner ve</w>
nar row</w>
mus icians</w>
men tation</w>
mem es</w>
mamm als</w>
mag ical</w>
j ell
inv ite</w>
inten ded</w>
in tri
ici ous</w>
hum or</w>
hi er
happi er</w>
go d</w>
gi ble</w>
gentle man</w>
gather ing</w>
ga ther</w>
fo ods</w>
fla g</w>
fin ed</w>
experim ental</w>
electr onics</w>
ear n</w>
e aten</w>
descri ption</w>
def ense</w>
da y
d ys
d ates</w>
cy lin
cy ber
conf ir
commit ted</w>
ch er</w>
cer e
bom bs</w>
be gun</w>
be ars</w>
bac ks</w>
at ar</w>
assem bly</w>
ap p</w>
am ongst</w>
am ent</w>
ali en</w>
ag gre
ace u
a ur
a p</w>
Th ird</w>
T er
St age</w>
Secon dly</w>
P la
M ad
M ac
Dut ch</w>
Chil dren</w>
Ar ctic</w>
8 00</w>
y or</w>
wor ms</w>
wa shing</w>
w ns</w>
vie wer</w>
un likely</w>
tum ors</w>
tsun ami</w>
tro ops</w>
tic ity</w>
thro wing</w>
thre w</w>
ter rit
ten ds</w>
tar gets</w>
susp ect</w>
sup er</w>
sub tle</w>
stri al</w>
st ine</w>
sp orts</w>
sil ent</w>
shif ting</w>
sh ine</w>
sh a</w>
sen ior</w>
sci ences</w>
rene w
regi me</w>
r ul
profes sion
pr ic
plan ted</w>
ow nership</w>
or b
oper ations</w>
off ic
nu ts</w>
nee dle</w>
na ked</w>
mo de</w>
mem ories</w>
me l</w>
law yer</w>
l uck</w>
ins ect</w>
imp acts</w>
h ill</w>
grand children</w>
geome try</w>
gener ating</w>
gar bage</w>
ey n
er rors</w>
entreprene ur
enter ing</w>
disp os
di stor
di al</w>
da tions</w>
d or</w>
conv ic
consist ent</w>
confi dent</w>
comm and</w>
com mon
collabor ative</w>
clos ing</w>
cha irs</w>
categ ory</w>
bur ied</w>
bro w
br uary</w>
b or</w>
autom o
at tract</w>
ap or
ant a</w>
ang ers</w>
air port</w>
ag ent</w>
ab y
X- ray</w>
Wh ereas</w>
S al
P ol
Obvi ously</w>
N one</w>
H al
G and
Fe bruary</w>
F re
E d
D an
0 .
win ds</w>
wand ering</w>
ver s
un cle</w>
transpar ency</w>
trans plant</w>
ti ps</w>
ti an</w>
ter ey</w>
t ate</w>
syn dr
sub si
stro ke</w>
str eng
six -
sha dow</w>
sh it</w>
s kep
respon ses</w>
reli able</w>
ree fs</w>
reduc ed</w>
re cep
r arely</w>
qui to</w>
pre h
pit ch</w>
phy si
photograp her</w>
phil anth
pen e
pain ted</w>
or a</w>
op timi
onym ous</w>
neuros cience</w>
mos quito</w>
mas ses</w>
marke t
m ac
li a</w>
la p</w>
ki ly</w>
k ins</w>
is es</w>
in cen
im it
il it
ig no
ic on</w>
i ans</w>
gon na</w>
glob ally</w>
glam our</w>
gene tically</w>
fr action</w>
flexi ble</w>
fin ger
fer ti
eyn man</w>
ex cep
diffic ulty</w>
di um</w>
di g</w>
demo graphic</w>
d life</w>
cur ves</w>
cour t</w>
con fron
cli ent</w>
char ity</w>
chap ter</w>
bra in
bom b
bla me</w>
ban ks</w>
ba th
ba i</w>
b a</w>
az z</w>
astoni shing</w>
an esthe
al titude</w>
aff ects</w>
adap ted</w>
acci dents</w>
W as</w>
T as
Sh ang
P l
Mon terey</w>
Mar k</w>
J H</w>
F eynman</w>
Bu il
19 60</w>
1 20</w>
. C.</w>
, 000-
wel come</w>
v y</w>
treat ments</w>
trans fer</w>
toil et</w>
tic ket</w>
ti se</w>
thre sho
thresho ld</w>
th ri
sugge sting</w>
sub way</w>
st ones</w>
st ain</w>
st ability</w>
sm alle
smalle st</w>
simul taneously</w>
sent ences</w>
sear ching</w>
sco res</w>
s wa
reco ver</w>
reci pe</w>
realiz ing</w>
r ab
puzz les</w>
preci ous</w>
pharm aceu
per pe
p uni
p lo
off ices</w>
n am</w>
motiv ation</w>
le tting</w>
law yers</w>
lab s</w>
l ou
k es
in ary</w>
hall uc
gu ide</w>
g as
g aps</w>
fri ger
expla ins</w>
expan sion</w>
eleph ant</w>
eg g</w>
ecosy stems</w>
dom ain</w>
disco vering</w>
dic tionary</w>
di am
dec re
de ar</w>
d ough</w>
co lored</w>
clo thing</w>
cl ay</w>
chromos ome</w>
ce iling</w>
bul b</w>
br ush</w>
bot tles</w>
bo ards</w>
bi al</w>
bene ath</w>
be sides</w>
au dio</w>
at titude</w>
arri ve</w>
analy ze</w>
an ia</w>
ambi gu
ag ue</w>
ac id</w>
a- half</w>
Viet nam</w>
Span ish</w>
Shang hai</w>
S ur
S en
R om
P ut</w>
M er
H on
Glob al</w>
Fri day</w>
Fr ank</w>
Del hi</w>
D es
Co ke</w>
Christi an</w>
A bra
6 ,000</w>
1 0-
wa i
w oods</w>
v ations</w>
univer sities</w>
un -
u ed</w>
transp ort</w>
transl ated</w>
terri bly</w>
terr ori
tem por
syndr ome</w>
sub stan
strug gling</w>
story telling</w>
st ot
soldi er</w>
sil ly</w>
shel ter</w>
ric her</w>
ric h
resi stant</w>
real istic</w>
re view</w>
re tro
re friger
re fer</w>
re con
re act</w>
r i</w>
r at</w>
pu p
pros per
pro por
pro per</w>
pri me</w>
poin ting</w>
po le</w>
pleas ant</w>
pl ates</w>
p se</w>
p ink</w>
ordin arily</w>
od ds</w>
o th
ni c</w>
my th</w>
min es</w>
mer ely</w>
mechan isms</w>
mach in
m ut
m illen
la ke</w>
k ills</w>
it er</w>
interest ingly</w>
im men
igh ts</w>
hon ey</w>
histor ic</w>
hi p</w>
h an</w>
gun s</w>
gradu ally</w>
gr as</w>
gi le</w>
g ur
g mented</w>
fra gile</w>
fortun e</w>
form ula</w>
flo ws</w>
fail ing</w>
f in</w>
extinc tion</w>
en abled</w>
em powered</w>
em power
el ly</w>
dra wings</w>
doz ens</w>
dis ap
deta iled</w>
cruc ial</w>
cos mic</w>
cop es</w>
contra dic
consi der
comp rom
comm is
coll ec
col or
clu b</w>
che ese</w>
blo wn</w>
b att
ar a</w>
ar -
appe ar
al istic</w>
adop ted</w>
administ ration</w>
Wi thin</w>
Wi th
Su d
Sahar an</w>
S ir</w>
S anta</w>
Rus sian</w>
R I
Palest ini
P M</w>
Kor an</w>
J ack</w>
Is lands</w>
In deed</w>
Ha wai
C D</w>
Ari stot
8 5</w>
2 9</w>
2 8</w>
wer ing</w>
war ning</w>
vi sions</w>
ur ge</w>
u ti
tr a</w>
to es</w>
ti fication</w>
tal ent</w>
ta tional</w>
t ories</w>
squ ee
sp an</w>
see king</w>
sal t</w>
sac rif
rou te</w>
re j
re build</w>
r on</w>
qu een</w>
qu ali
prin ted</w>
pre scri
pos ter</w>
o ids</w>
o de</w>
ner ves</w>
n ings</w>
lu x
lo go</w>
k is
jell yfish</w>
intri gu
interpre tation</w>
inte gration</w>
inno cent</w>
ing er</w>
inev itable</w>
imag ing</w>
im er</w>
ha bit</w>
got ta</w>
gh et
gest ure</w>
g ated</w>
fre sh
fil m
ex ternal</w>
ex tend</w>
entreprene ur</w>
enter pri
ent -
dro ps</w>
disor der</w>
demon stration</w>
datab ase</w>
curr icul
cul ar</w>
continu ous</w>
ch im
c ence</w>
c ash</w>
c and
c a</w>
bur den</w>
bub bles</w>
bro ad</w>
bran ch</w>
boo k
bo red</w>
bel ong</w>
assum ptions</w>
as pi
ans wered</w>
ad ays</w>
ab use</w>
a ster</w>
Z ero</w>
Z e
With out</w>
T ony</w>
T anz
S qu
Ri ver</w>
R ay</w>
Ph .D.</w>
J im</w>
H en
F u
Ex cept</w>
Col le
CE O</w>
A .</w>
y al</w>
wide ly</w>
wi res</w>
wi der</w>
vie wed</w>
ves sel</w>
u bi
u ally</w>
trajec tory</w>
tra sh</w>
teen agers</w>
t y-
stri ke</w>
stor age</w>
ste al</w>
smar ter</w>
sho e</w>
shel f</w>
se a
scenari o</w>
scan ning</w>
s lic
ro wing</w>
repor ted</w>
re stric
re store</w>
re form</w>
rap ed</w>
r ush</w>
prin ter</w>
pri l</w>
pret end</w>
po et</w>
physici sts</w>
per cep
pe op
pe er</w>
p lies</w>
os h</w>
oper a</w>
on ia</w>
occur s</w>
miser able</w>
mathema ticians</w>
mat ure</w>
m on</w>
li ce</w>
l o</w>
kin dness</w>
ki e</w>
je wel
is lands</w>
initi ally</w>
imp ul
i di
hun ting</w>
hi red</w>
h il
g a</w>
flo wing</w>
fe deral</w>
fe a
fa ste
expe dition</w>
estim ated</w>
establi shed</w>
est s</w>
en de
electr om
ec ology</w>
e pi
down load</w>
diagnos ed</w>
detec tion</w>
de vil</w>
de sh</w>
de serve</w>
de fe
dd le-
d op
curricul um</w>
cric ket</w>
cot ton</w>
conf used</w>
con tr
compar ison</w>
com ment</w>
co at</w>
ci ous</w>
choos ing</w>
chi ps</w>
chan nels</w>
cap abilities</w>
ca p</w>
br u
bi ol
auth or</w>
ap a
antibio tics</w>
al a</w>
accoun ts</w>
a ks</w>
U p</w>
Th ings</w>
Su per
S he
Qu een</w>
P it
Or gan
L G</w>
Ital ian</w>
Gree k</w>
For ce</w>
Colle ge</w>
Bo b</w>
B re
Amaz on</w>
Ad am</w>
Ac t</w>
A pril</w>
wit ness</w>
win d
was h</w>
vot ing</w>
v enti
un happy</w>
t ability</w>
sugge sted</w>
suff ered</w>
str an
stim ul
sti l
sta ying</w>
st ag
smo king</w>
sen sation</w>
se min
sc aff
rub ber</w>
rhyth m</w>
revol u
resili ence</w>
remin ded</w>
re qu
re placed</w>
prop ag
pro portion</w>
preven tion</w>
para do
par ach
pack age</w>
pa irs</w>
p per</w>
p el
open ness</w>
obst acles</w>
nutri ents</w>
min ing</w>
mag nific
li sts</w>
ji had</w>
inj ury</w>
initi ative</w>
influ enced</w>
inf ection</w>
inev it
in di
in ated</w>
impro ving</w>
ic e
human itarian</w>
home work</w>
heal thier</w>
h op</w>
h ac
gener ous</w>
gar age</w>
g al</w>
fron ti
exper tise</w>
ex trac
es thetic</w>
equ ations</w>
en i
en han
elec tions</w>
el ite</w>
ed a</w>
ec ological</w>
discipl ine</w>
dilem ma</w>
d os
conver t</w>
contin ents</w>
connec ts</w>
con sul
civiliz ations</w>
ci g
chan ces</w>
cat ching</w>
car t</w>
can opy</w>
bu g</w>
bra tion</w>
biol umines
b in</w>
b eria</w>
b end</w>
aud it
at omic</w>
an ni
an ic</w>
adv enture</w>
ad vi
ac ous
V en
TED Talk</w>
Sy stem</w>
Sor ry</w>
Pe ter</w>
La b</w>
L ou
L oo
K ar
John son</w>
H ong</w>
F ord</w>
De sign</w>
Bl ue</w>
Bang la
B el
B ack</w>
Any body</w>
200 2</w>
20 s</w>
x ing</w>
wid th</w>
whe at</w>
weal thy</w>
wat ts</w>
vi vi
ut es</w>
ur able</w>
ub a</w>
u sion</w>
tr action</w>
tim acy</w>
ther mal</w>
sy l
susp ended</w>
stret ch</w>
st es</w>
sp her
sion -
sh ots</w>
s ins</w>
rou s</w>
ro t</w>
rit u
re minds</w>
rap id</w>
pur poses</w>
proce d
predic tion</w>
prece den
pre serve</w>
pre pare</w>
perform ed</w>
peace ful</w>
par as
open- source</w>
on a</w>
o k
newsp apers</w>
myst erious</w>
minim um</w>
mar ry</w>
machin ery</w>
m ou
m apping</w>
list ened</w>
lin ing</w>
ligh t
lef t-hand</w>
lap tops</w>
l i</w>
isol ated</w>
inter ior</w>
incen tive</w>
in i</w>
ig nor
identi fied</w>
i lities</w>
go ds</w>
gar d
fl ouri
far ming</w>
fail ures</w>
fac ilities</w>
ex ecu
ex ception</w>
eth nic</w>
ess ence</w>
en ables</w>
dri vers</w>
dre ssed</w>
domin ated</w>
de als</w>
correc tly</w>
controver si
collap sed</w>
chromos omes</w>
can cers</w>
cam ps</w>
c tion</w>
bran ches</w>
b ably</w>
autonom ous</w>
at tle</w>
assum ption</w>
ar ray</w>
appro aching</w>
an xi
an gu
algorith m</w>
al ty</w>
al co
aff ecting</w>
a de
Wh atever</w>
T ru
S top</w>
M A</w>
L ist
L .
K os
Isra el
Dec ember</w>
D evel
Coun cil</w>
Arab ic</w>
A ir</w>
A ir
4 0,000</w>
3 3</w>
3 0-
z ones</w>
w ling</w>
volunte er</w>
vacc ines</w>
v enture</w>
un able</w>
tra its</w>
tra gic</w>
tr ace</w>
ter ing</w>
t age</w>
sub stance</w>
su stain</w>
su its</w>
struc tural</w>
str ings</w>
sta ir
signific antly</w>
sig nature</w>
si zes</w>
she ets</w>
se -
retin a</w>
rema ining</w>
rema ined</w>
reli ef</w>
reason able</w>
re turned</w>
re al-
ra il
protec ting</w>
prof oun
profoun dly</w>
pro jec
pro be</w>
prison ers</w>
preceden ted</w>
po is
plas tics</w>
plan etary</w>
pi e</w>
phenomen a</w>
peop les</w>
pengu in</w>
pas sive</w>
particip ation</w>
part nership</w>
orchestr a</w>
on going</w>
occa sionally</w>
o y
nes ses</w>
micro bial</w>
market place</w>
mar ks</w>
mar gin
man ual</w>
m and
lun gs</w>
liter acy</w>
lim itations</w>
liber al</w>
laugh ing</w>
l it</w>
kes pe
k ick</w>
jud gment</w>
ju ven
invest ed</w>
in o
im pression</w>
igno red</w>
hypo thesis</w>
hy bri
house hold</w>
high way</w>
hi p
he imer</w>
he avi
han ded</w>
go od
gir l
fun ds</w>
fru it</w>
free ly</w>
for got</w>
fol ds</w>
fir m</w>
faste st</w>
f ancy</w>
experi encing</w>
ex ha
ev alu
elem entary</w>
electrom ag
electr on</w>
educ ate</w>
dum b</w>
dig it</w>
dialo gue</w>
deli very</w>
defin ing</w>
dea f</w>
cylin der</w>
crimin al</w>
cor d</w>
conveni ent</w>
conser vative</w>
concer t</w>
comp elling</w>
com preh
colon ies</w>
clos est</w>
cl ue</w>
car ing</w>
bu re
bo ats</w>
beauti fully</w>
audi ences</w>
attrac tive</w>
assign ment</w>
ar do</w>
appro aches</w>
appear ance</w>
analo gy</w>
an ten
ama z
ad mi
Wa it</w>
Vir gin
V ic
Sha kespe
Pro bably</w>
Mc Don
M ur
L ad
Green land</w>
E ver
Devel op
D V
Col um
Car ol
Cam bo
B en</w>
Abra ham</w>
20 0,000</w>
198 0s</w>
196 0s</w>
19 0
y outh</w>
wor e</w>
titu des</w>
tion ality</w>
t ap
surg eries</w>
sub ur
straigh t
st ly</w>
spin ning</w>
sou p</w>
sil ver</w>
si ans</w>
sa ke</w>
ri ers</w>
remember ed</w>
re sem
re produce</w>
r o</w>
pur suit</w>
pu tation</w>
prof its</w>
proced ure</w>
pli ed</w>
pl um
percei ved</w>
pe ts</w>
p ills</w>
op e
ograp h
nit ude</w>
narra tives</w>
motiv ated</w>
mot or
mir acle</w>
me als</w>
mag nitude</w>
lo ves</w>
lo cations</w>
lo an</w>
intervie wed</w>
inten sity</w>
inst ant</w>
il er</w>
horiz on</w>
hear t
head lines</w>
gather ed</w>
g ases</w>
fu se</w>
fi es</w>
excell ent</w>
enti c</w>
eigh t-
earli est</w>
e go</w>
distinc t</w>
dia meter</w>
di stances</w>
desp air</w>
descri bes</w>
deli ber
dam n</w>
d us</w>
custom er</w>
cu ts</w>
coun ting</w>
concent ration</w>
compe te</w>
communic ating</w>
comm it</w>
colum n</w>
co vers</w>
co oper
car di
capit alism</w>
camp us</w>
ca ke</w>
bure au
bur ned</w>
buil ds</w>
blo wing</w>
be ating</w>
auth entic</w>
arr he
an no
addi tional</w>
accep table</w>
Wor l
W ol
W ay</w>
W atch</w>
Virgin ia</w>
U S
T I</w>
Sund ay</w>
Sou thern</w>
S ing
NG Os</w>
Mo on</w>
La dies</w>
K ev
K a
Hen ry</w>
G ates</w>
Fi f
F ar
Chi le</w>
C our
B or
5 5</w>
4 7</w>
20 -
199 0</w>
1 1
z heimer</w>
worl d-
wat ers</w>
w rap</w>
visu alization</w>
ve ter
val ley</w>
un precedented</w>
ubi quit
ubiquit ous</w>
tu bes</w>
tra ins</w>
tr icks</w>
to wer</w>
the ast</w>
th west</w>
t less</w>
sup plies</w>
ste pped</w>
sp reads</w>
sp ill</w>
skelet al</w>
six th</w>
shoc ked</w>
sh er</w>
sh -
sel fish</w>
scan ner</w>
s enti
s .</w>
reve al</w>
reg ard</w>
reduc ing</w>
recycl ing</w>
re p
re land</w>
psy ch
profession als</w>
pro ven</w>
pro posed</w>
prepar ing</w>
po int
ph a</w>
pene tr
pan els</w>
p ause</w>
overwhel med</w>
my ce
mo bility</w>
metabo li
manipul ate</w>
loc ks</w>
loc ally</w>
less ly</w>
le ep</w>
lar ge-
landsc apes</w>
ju ice</w>
j et</w>
it em</w>
infec tions</w>
inclu ded</w>
i g</w>
hier archy</w>
helicop ter</w>
he lium</w>
hal f
h h
guaran tee</w>
gu ess
great -
gras p</w>
gra vit
gen s</w>
gen omes</w>
ge stion</w>
g li
frustr ated</w>
frigh tening</w>
foun dations</w>
fir st-
fem ales</w>
favor ites</w>
fa i
extra ordinarily</w>
exten sion</w>
exc it
enjo yed</w>
end ang
en em
embr ac
down town</w>
don or</w>
do od
di gi
determin es</w>
dest iny</w>
dem ands</w>
decre ase</w>
damag ed</w>
d ated</w>
cre dible</w>
cr it
come dy</w>
col n</w>
challeng ed</w>
carto ons</w>
calcul ations</w>
believ ing</w>
batter ies</w>
b ill</w>
assem ble</w>
ans as</w>
amp li
am ate
ad dy</w>
abund ance</w>
a u</w>
Tanz ania</w>
Tal ks</w>
T itan</w>
St ar
Some one</w>
Sm ith</w>
Shakespe are</w>
S am
Pe ace</w>
P ra
M as
Lin coln</w>
L a</w>
Kos ov
In dus</w>
In dians</w>
I ts</w>
H im
Gr and</w>
Cl int
B oth</w>
Aristot le</w>
Any one</w>
Al zheimer</w>
A ug
A m</w>
A ge</w>
wil dlife</w>
vest ock</w>
ver sions</w>
v ors</w>
tran sc
te en</w>
super market</w>
succe eded</w>
ster ed</w>
star ing</w>
sta ys</w>
some day</w>
sim ple
signific ance</w>
shor t-
sen sor</w>
sen sing</w>
sel ected</w>
seem ingly</w>
ri x</w>
ri dge</w>
reser ves</w>
rec ession</w>
read ers</w>
rati o</w>
pros tate</w>
pro position</w>
pro pose</w>
pos ted</w>
po ison</w>
pi pe</w>
phenomen al</w>
ph ony</w>
pat ent</w>
p it</w>
osy n
off ering</w>
occurr ing</w>
non- zero-sum</w>
no -
neutr al</w>
near est</w>
mot ors</w>
measu rements</w>
main stream</w>
magnific ent</w>
m ill</w>
lux ury</w>
lo west</w>
lo ads</w>
lea f</w>
knowle d
kee pers</w>
k in</w>
in ate</w>
i ties</w>
horiz on
histor ically</w>
hi st</w>
har dest</w>
h at</w>
gr ateful</w>
gl ue</w>
fol ded</w>
fl uc
far ms</w>
expres sions</w>
exp lic
ent y-
enem ies</w>
emer gence</w>
ec raft</w>
doc uments</w>
dia c</w>
deci sion-
dec or
deb t</w>
de my</w>
d i</w>
cro p</w>
cour ses</w>
contribu ted</w>
continu ing</w>
cont am
com ic</w>
col i</w>
class ical</w>
cell ular</w>
cell phone</w>
cal ories</w>
ca sting</w>
bur st</w>
bri dges</w>
break fast</w>
br is</w>
biom ass</w>
bi e</w>
be aten</w>
barre l</w>
bacter ial</w>
b un
b oss</w>
b illi
auth ors</w>
au tism</w>
are t
ar med</w>
appro xim
anxi ety</w>
ann ual</w>
am ine</w>
achiev ement</w>
ac tively</w>
ab s
a esthetic</w>
W ar
T es
St ar</w>
Scot t</w>
S pain</w>
S il
S el
Red wood</w>
R oc
R es
P E
Me an
Mar ch</w>
K ong</w>
J A</w>
I reland</w>
I .
F o
E con
Dar win
D ou
Clint on</w>
Bangla desh</w>
B lack</w>
Alex ander</w>
6 0,000</w>
4 8</w>
195 0s</w>
&apos; clock</w>
y e</w>
wel fare</w>
victi m</w>
v ary</w>
trans forming</w>
tis su
teles copes</w>
techn ically</w>
te l</w>
tack le</w>
t an</w>
t ags</w>
surge ons</w>
sul fi
sub mer
stre ams</w>
straight forward</w>
sl ums</w>
sex y</w>
scen es</w>
sc aling</w>
s wal
s ale</w>
righ t-hand</w>
refuge e</w>
rec ur
ra tions</w>
pur sue</w>
pr ay</w>
pot ent</w>
portra it</w>
poc kets</w>
pl ing</w>
pic ks</w>
pas ses</w>
particip ants</w>
pal m</w>
p ted</w>
p ap
origin s</w>
open ha
openha gen</w>
nit rogen</w>
neighbor hoods</w>
ne ys</w>
ne ssed</w>
ne o
na mely</w>
mix ing</w>
mind set</w>
min us</w>
mi ddle-
meas ures</w>
me me</w>
me ga
lot tery</w>
lo ving</w>
lin gu
li vestock</w>
le st</w>
lan ding</w>
la tions</w>
ke -
k el
j azz</w>
invest ing</w>
inv e
interpre t</w>
inter net</w>
institu tional</w>
install ation</w>
insi ghts</w>
inevit ably</w>
in stantly</w>
human -
hu a</w>
high- tech</w>
hem i
har vest
half way</w>
h ol</w>
gi e</w>
g y
g lim
fl ash</w>
fir ing</w>
f ence</w>
ey ed</w>
expos ure</w>
ev apor
estim ates</w>
engin es</w>
endang ered</w>
en sure</w>
el abor
ear ning</w>
dru m</w>
dolph ins</w>
di strict</w>
di arrhe
de x</w>
de vast
dd enly</w>
cro ws</w>
cre w</w>
cor als</w>
connec tivity</w>
concer ns</w>
concentr ated</w>
comple ted</w>
co ol
co des</w>
clu bs</w>
che mo
car pet</w>
campa ig
break through</w>
bio logist</w>
bed room</w>
be an</w>
ban king</w>
automo bile</w>
ari ans</w>
appro ved</w>
angiogen esis</w>
ag encies</w>
adop tion</w>
ade qu
aci ds</w>
abs ence</w>
ab s</w>
a im
Su ddenly</w>
Ste ph
St even</w>
Si licon</w>
Sec urity</w>
S cienti
Pro f
Po int</w>
P ic
P T
Nor den</w>
Mand ela</w>
M um
Lit tle</w>
Lar ry</w>
Ju ly</w>
I cel
I M
H all</w>
Ge ographic</w>
G ene</w>
F er
D E
C yrus</w>
C openhagen</w>
Ber lin</w>
Ben j
Be ing</w>
B ot
B ell</w>
B M</w>
B G</w>
Al though</w>
A M</w>
7 2</w>
197 0s</w>
- based</w>
wor rying</w>
wo ke</w>
we stern</w>
we dding</w>
w ound</w>
utter ly</w>
univer ses</w>
un t</w>
un ic
u ps</w>
trig ger</w>
tra ding</w>
toler ance</w>
tiv eness</w>
ti ally</w>
thre ats</w>
tex ture</w>
terri fic</w>
temper atures</w>
tag ged</w>
symme tries</w>
swit ched</w>
survi ved</w>
surroun ding</w>
suppor ting</w>
sum mit</w>
stron gly</w>
story t
stor ms</w>
stere ot
st um
st abi
sm iling</w>
self- interest</w>
sec tions</w>
scr atch</w>
sc al
sa fer</w>
rot ate</w>
ritu als</w>
rit ual</w>
ri a</w>
regar dless</w>
recomm end</w>
re wards</w>
re stor
re actions</w>
qu it</w>
pur su
psy chi
psychi at
prosper ity</w>
process or</w>
practic es</w>
plan ting</w>
pas sen
over -
on er</w>
ob jective</w>
mu tation</w>
me tic</w>
man agers</w>
ma inten
mainten ance</w>
lon ge
lo g</w>
lif esp
le an</w>
large- scale</w>
kno c
jus ti
inven ting</w>
intervie ws</w>
interven tions</w>
integr ate</w>
in hi
impro ved</w>
ill a</w>
hor ses</w>
honest ly</w>
ho ok</w>
heal ing</w>
guil ty</w>
ge ar</w>
gall ery</w>
fo ie</w>
fluc tu
ff s</w>
evol ving</w>
est ate</w>
encoura ging</w>
differ enti
detec tor</w>
deplo yed</w>
dec ep
de pos
de e
curr ency</w>
concentr ate</w>
competi tive</w>
compe ting</w>
commod ity</w>
com ics</w>
coll ectively</w>
co verage</w>
co inci
cli ff</w>
cig aret
che at</w>
car ries</w>
ca ine</w>
c in
bot tom
bla h</w>
bin ary</w>
bar rier</w>
ban g</w>
b adly</w>
at om</w>
at oes</w>
arg uments</w>
appl ying</w>
any on</w>
ang es</w>
an ch
al umin
al and</w>
aggres sive</w>
accompli shed</w>
a er
Worl d
Tra de</w>
TED Talks</w>
T ri
T im</w>
T echnology</w>
Squ are</w>
S pr
S D</w>
M other</w>
List en</w>
L. A.</w>
L ord</w>
K er
H A</w>
Gand hi</w>
Ever est</w>
E l</w>
Co ast</w>
Ca tho
Aug ust</w>
Al most</w>
2 4
z i
y ourselves</w>
woo den</w>
ver theless</w>
vege table</w>
vari ations</w>
us eless</w>
ur ban
ty pe
tri vi
tou gh
ton gue</w>
ti me-
therap ies</w>
them es</w>
th us</w>
tain ing</w>
t z</w>
t ty</w>
t s
suff ici
stri p</w>
str ands</w>
ss ment</w>
so le
sk i</w>
sec tors</w>
sch iz
sc ans</w>
s ni
reg ul
rec k
rad ically</w>
pul ls</w>
prison er</w>
predat ors</w>
pre y</w>
pi x
philanth ropy</w>
p ecu
p ad</w>
p acked</w>
our ing</w>
oun ding</w>
ot ed</w>
on a
ol en</w>
off ers</w>
now adays</w>
near by</w>
navi gate</w>
myce lium</w>
mus ician</w>
mim ic</w>
mi gration</w>
mi gra
mes h</w>
ment or</w>
m all</w>
ligh ted</w>
lea p</w>
lam p</w>
l yn</w>
journ alists</w>
j an
is ed</w>
inve stors</w>
inf ant</w>
in dependence</w>
impres sive</w>
im pa
ick ens</w>
ic king</w>
i li
i ded</w>
hypo the
hos tile</w>
hon ored</w>
help ful</w>
head ing</w>
g ging</w>
g ged</w>
follo ws</w>
fi bers</w>
f ought</w>
ex ec
enjo ying</w>
en ligh
electr ons</w>
econom ist</w>
dra gon
divi sion</w>
dec k</w>
d ential</w>
d an
cop ies</w>
contribu ting</w>
con front</w>
compu tational</w>
co ws</w>
co caine</w>
claim s</w>
char ged</w>
cham pi
cer em
cap s</w>
ca mel</w>
by e</w>
br ands</w>
bi as</w>
at ers</w>
ap ples</w>
alumin um</w>
all y-
ag an</w>
adv ances</w>
activ ated</w>
acceler ating</w>
Ze aland</w>
Y oun
Un til</w>
Se attle</w>
SE TI</w>
S wis
Prof essor</w>
P C</w>
Olym p
Nig erian</w>
New ton</w>
McDon ald</w>
M ary</w>
Lo ve</w>
Li br
Ke ep</w>
Inter est
H ind
H aw
G over
D oc
C u
C ri
Bri an</w>
A le
A K</w>
3 7</w>
3 6</w>
3 50</w>
yi eld</w>
w age</w>
ver -
val ence</w>
ut ter</w>
tun nel</w>
trans mit
tou ching</w>
th ic</w>
territ ory</w>
ter rain</w>
teach es</w>
tane ous</w>
t is</w>
syn ap
sulfi de</w>
strate gic</w>
st le</w>
sp ray</w>
sp ra
simple st</w>
si r</w>
si der</w>
shif ts</w>
sen ds</w>
se al</w>
scri min
safe ly</w>
sacrif ice</w>
s si
s ses</w>
s i</w>
rol led</w>
reti rement</w>
repe ated</w>
re aches</w>
ra ge</w>
pul se</w>
publi shing</w>
publi sh</w>
psycho logists</w>
privile ged</w>
po w
po t</w>
play ful</w>
pharmaceu tical</w>
or ders</w>
occa sion</w>
o let</w>
nec k</w>
mu tations</w>
monit oring</w>
metaboli sm</w>
mel ting</w>
mel t</w>
maxim um</w>
los es</w>
li ons</w>
li hood</w>
kni fe</w>
kid ney</w>
k ton</w>
it y-
it ems</w>
ins ane</w>
in e
illustr ate</w>
head -
harm ful</w>
hand -
graph s</w>
ge on</w>
ge o
ga ined</w>
frequ ently</w>
fall en</w>
fac tories</w>
fab ric
f ing</w>
explo it</w>
excit ement</w>
eri al</w>
eni x</w>
en s
em bo
electromag ne
el son</w>
duc k</w>
drop ping</w>
dra g</w>
dou bled</w>
dolph in</w>
disor ders</w>
disagre e</w>
deli cious</w>
dec lar
de pri
da wn</w>
cu ps</w>
cre am</w>
cra p</w>
cor ners</w>
cop ic</w>
cooper ative</w>
constra ints</w>
con doms</w>
co oling</w>
clean ing</w>
class rooms</w>
clas si
citiz en</w>
candi date</w>
cal m</w>
c on</w>
broad er</w>
bo ld</w>
bl ank</w>
bel t</w>
b ite</w>
b ands</w>
auth orities</w>
argu ing</w>
app y</w>
ap o
amaz ingly</w>
ad just</w>
a di
a c</w>
W right</w>
U N
Th rough</w>
Tas man
T ar
St .</w>
P ho
O pen</w>
Mo z
Mi ke</w>
M y
Libr ary</w>
Jos hua</w>
J ac
Hawai i</w>
G ar
D a
Coun ty</w>
Com pu
Ch urch</w>
Can a
Bro wn</w>
Benj amin</w>
A ca
20 20</w>
-of- the-
, 500</w>
wor m</w>
wi shes</w>
wh is
w ow</w>
up side</w>
u ality</w>
two- thirds</w>
trans mitted</w>
to wns</w>
theore tical</w>
tem porary</w>
su it
stri king</w>
ste am</w>
stair case</w>
st ack</w>
sp or
sp ell</w>
sion ed</w>
sing le-
sim ulate</w>
sim pler</w>
ser vation</w>
secre ts</w>
se als</w>
s lower</w>
resi dents</w>
refl ection</w>
refl ected</w>
rec ru
r ape</w>
qu is
program med</w>
pro li
pro file</w>
pri de</w>
previ ously</w>
pres su
pp y</w>
pic k
parado x</w>
parach ute</w>
p ac
or g</w>
opini ons</w>
op tical</w>
ol ly</w>
ol ine</w>
off ici
off -
oc top
obe se</w>
n ap
my tho
mush room</w>
mos quit
mis sions</w>
mathema tician</w>
man ager</w>
ma yor</w>
m one</w>
liter ate</w>
lif ted</w>
le an
lab el</w>
k yo</w>
j unk</w>
it e
invol ve</w>
invent or</w>
ingredi ent</w>
ic h
iP od</w>
i shing</w>
i gh</w>
hor mone</w>
hor mon
hop es</w>
hom eless</w>
heavi ly</w>
gl ori
ga e</w>
g ating</w>
fro g</w>
ferti liz
f ear
ex quis
ex ag
ende av
en vel
elimin ate</w>
ei j
dro w
don e
destro ying</w>
decision- making</w>
de vi
de sk
d ental</w>
d al</w>
cul tiv
cr um
correspon ds</w>
corpor ations</w>
cop ied</w>
conv ey</w>
controversi al</w>
contribu tion</w>
consum ed</w>
conduc ted</w>
con fig
compar ing</w>
clo pedia</w>
cat aly
ca the
but ter
bur g</w>
bre eding</w>
boun dary</w>
ble -
back yard</w>
b ills</w>
b i</w>
attrac ted</w>
att acked</w>
as cular</w>
arre sted</w>
ance stor</w>
anat omy</w>
ali g
alco hol</w>
al gae</w>
al arm</w>
agre ement</w>
ad der</w>
ac tic</w>
ab and
a king</w>
a im</w>
a .m.</w>
Y emen</w>
V e
To kyo</w>
T ran
T om
Swis s</w>
Steph en</w>
S yl
P ub
O E
N et
N elson</w>
Mon tan
Me dic
L ea
Kosov o</w>
Kev in</w>
Ken ne
K u
Iran ian</w>
In du
In done
H ear
GP S</w>
F ur
Cour t</w>
Christi ans</w>
Ch o
Catho lic</w>
Carol ina</w>
Cambo dia</w>
Bro ok
B eij
Afgh an</w>
2 5
199 9</w>
17 th</w>
0 th</w>
y nam
y ards</w>
wr apped</w>
whe els</w>
w re
w is</w>
virtu e</w>
vi sually</w>
vi olet</w>
ver i
va tives</w>
un fortunate</w>
ultra violet</w>
tun ed</w>
transl ator</w>
transforma tive</w>
trans mit</w>
tor ture</w>
ti a</w>
threat ened</w>
thr illed</w>
th or
th als</w>
terri fying</w>
ter min
ta ils</w>
symme trical</w>
surg ical</w>
sub- Saharan</w>
su spec
stu res</w>
str angers</w>
stom ach</w>
st olen</w>
st oc
spir al</w>
sp are</w>
soc cer</w>
so oner</w>
shoul ders</w>
shi pping</w>
sh r
sh ining</w>
ses sions</w>
ser v
sequ encing</w>
separ ation</w>
se gment</w>
schiz oph
schizoph ren
sc aled</w>
satellit es</w>
reve aled</w>
research er</w>
realiz ation</w>
re n</w>
random ly</w>
r h
profes sion</w>
premi se</w>
plat forms</w>
plan ned</w>
physici ans</w>
pe tro
par ks</w>
pa ys</w>
pa ste</w>
p our</w>
p ill</w>
p al</w>
os is</w>
op ard</w>
ol d-
offic er</w>
ob li
ni um</w>
ni ghts</w>
mush rooms</w>
multi ply</w>
moder n
mo bi
mel o
mat ched</w>
man ner</w>
legi timate</w>
lan es</w>
l y-
key board</w>
k ingdom</w>
jan it
j an</w>
it er
is y</w>
introduc tion</w>
inten sive</w>
hyper -
hope ful</w>
head quarters</w>
har mony</w>
hab its</w>
groun ds</w>
gro cer
gr oss</w>
gor geous</w>
girl friend</w>
g les</w>
g ering</w>
g ad
fri end
fla vor</w>
fish er
fe ver</w>
far ther</w>
fac tion</w>
expan ded</w>
exp ecting</w>
ex pressed</w>
equ als</w>
en ticity</w>
eleg ant</w>
elabor ate</w>
el ds</w>
dis rup
desk top</w>
demonstr ated</w>
def en
dec ent</w>
d ose</w>
d enti
cri mes</w>
coun ted</w>
conver ted</w>
contr ary</w>
cham ber</w>
car diac</w>
cal end
ca ves</w>
bacter ium</w>
b ol
ash a</w>
ari um</w>
ari th
apa gos</w>
ani el</w>
an- American</w>
ali ens</w>
al pha
ag ents</w>
activi sts</w>
acqui red</w>
acqui re</w>
a eda</w>
Vic tori
T y
Sing ap
Sec re
S wit
S ure</w>
S ho
S aud
Q aeda</w>
Pho enix</w>
Ph il
Olym pics</w>
Neander thals</w>
Mum bai</w>
Mil o</w>
M id
M ed
Le on
Le go</w>
La ke</w>
L A</w>
K o
Jo e</w>
J eff
Hal f</w>
Gal apagos</w>
G or
D al
D ad</w>
C er
C ape</w>
B ru
B M
Atlan ta</w>
An n
9 7</w>
5 0-
20 50</w>
199 8</w>
1 3
z zy</w>
ye ast</w>
work force</w>
wit nessed</w>
wea k
war mer</w>
w rist</w>
w ill
w et</w>
vie wing</w>
ver bal</w>
ven ess</w>
uni qu
ultra sound</w>
tur ally</w>
trivi al</w>
top -
tissu es</w>
ti ght</w>
thum b</w>
ther lands</w>
tem ple</w>
te ar</w>
tar ge
syste matically</w>
sub mit</w>
struc tive</w>
speci alized</w>
spea ks</w>
spac ecraft</w>
spa ghet
some time</w>
soci ally</w>
skelet on</w>
s ink</w>
roof s</w>
ri vers</w>
respon ding</w>
recogn izing</w>
re putation</w>
re production</w>
propos al</w>
proj ection</w>
pric ing</w>
pre valence</w>
pra ying</w>
poli tically</w>
person alized</w>
peri ods</w>
pecu liar</w>
pe stici
part ner
or -
obser ved</w>
obser vations</w>
ob serve</w>
na sty</w>
n is</w>
me tric</w>
me tals</w>
mar row</w>
longe vity</w>
lo be</w>
li ament</w>
legis lation</w>
le ment</w>
l or
kne e</w>
k icked</w>
jo int</w>
invest ments</w>
install ed</w>
ins ul
inci dent</w>
in duc
ic onic</w>
house holds</w>
horizon tal</w>
hor ror</w>
ham bur
gradu ated</w>
gr ant</w>
gi a</w>
ge stures</w>
gas oline</w>
g mentation</w>
func tioning</w>
ful ness</w>
form al</w>
f ting</w>
er ra</w>
er ec
encoura ged</w>
enc y
en try</w>
en ters</w>
dou ble-
dop amine</w>
docum ented</w>
dis per
dis gu
diagnos is</w>
di ves</w>
dee pest</w>
d un
d les</w>
d board</w>
d ating</w>
cruc i
cru de</w>
cr acks</w>
continu ously</w>
cont ex
con sent</w>
con gestion</w>
com modi
co in</w>
clim bed</w>
circu its</w>
ch it
car es</w>
c coli</w>
bus h</w>
bro ccoli</w>
bo ar
belon gs</w>
bee tle</w>
be half</w>
base ball</w>
b ad
aw k
as ing</w>
ari ties</w>
ar ran
anni vers
ama zed</w>
addic tion</w>
ac compan
abund ant</w>
a ver
Wh o
Wh enever</w>
W on
W K</w>
U. S</w>
U SA</w>
T en
Syl via</w>
S us
S till</w>
Pit ts
Ph ot
P R</w>
O k
O ff
No v
Ne therlands</w>
N az
N ami
Mon day</w>
Mil ky</w>
Me dia</w>
Lad en</w>
LE D</w>
K ids</w>
K A</w>
J up
J our
J ones</w>
En viron
Egyp tian</w>
E s
B ir
B J</w>
Ar gent
Al l
Aca demy</w>
2 5,000</w>
199 4</w>
19 50</w>
1, 500</w>
z ler</w>
y le</w>
work place</w>
wor th
we igh</w>
war t</w>
war ri
vit amin</w>
vari able</w>
up ward</w>
uni form</w>
uc ked</w>
u ts</w>
tri angle</w>
tran scen
top ics</w>
to oth</w>
ti tles</w>
th ood</w>
text book</w>
tempor al</w>
t ome</w>
str anger</w>
stop ping</w>
st em
spaghet ti</w>
sche me</w>
s ne
rop ol
resc ued</w>
reg ulation</w>
rec all</w>
re infor
re hab
ra z
pur ple</w>
puni shment</w>
proto cell</w>
progres sion</w>
pen cil</w>
p ting</w>
overwhel ming</w>
ori um</w>
or ph
on to
on ds</w>
off spring</w>
off s</w>
octop us</w>
no des</w>
mu d</w>
mos pher
milli meter</w>
medic ation</w>
med itation</w>
mar kers</w>
lo ose</w>
lin king</w>
lifesp an</w>
libr aries</w>
k ably</w>
jour nal</w>
jewel ry</w>
ir ony</w>
intro ver
interven tion</w>
inter rup
int act</w>
inst all</w>
in timacy</w>
imag ining</w>
im plant</w>
im per
har bor</w>
ha med</w>
grocer y</w>
grab bed</w>
gra des</w>
glim pse</w>
gener ative</w>
ga ins</w>
fru stration</w>
frequ encies</w>
fe eds</w>
fat al</w>
fam ine</w>
exc use</w>
es day</w>
enorm ously</w>
empower ing</w>
ema ils</w>
electro des</w>
ec tor</w>
e Bay</w>
dr unk</w>
div or
disappe ars</w>
dir t</w>
diplom acy</w>
dic t
dest ination</w>
den ial</w>
def end</w>
deci ding</w>
de pic
d ently</w>
crimin als</w>
conduc t</w>
compos ition</w>
comp a
colli sion</w>
co ast
clu sters</w>
clin ics</w>
civi c</w>
chemo therapy</w>
che e
che ating</w>
car dboard</w>
can v
c ables</w>
bud gets</w>
bra ve</w>
bo y
ble w</w>
believ es</w>
bel ly</w>
be ef</w>
be am</w>
b ill
b id</w>
b ell</w>
b ay</w>
author itarian</w>
au to
as th
ar i</w>
ar es</w>
approxim ately</w>
appro ached</w>
appreci ation</w>
ap hor
al li
air line</w>
adolesc ence</w>
ab ul
Wat son</w>
V ol
V al
U C
Tur ns</w>
Tu esday</w>
Tes zler</w>
Sim il
S om
Ro bo
R ou
Pub lic</w>
P rin
Montan a</w>
Le wis</w>
K ur
Jup iter</w>
I BM</w>
Hun g
H or
G ro
G a
E duc
E .
Dis ney</w>
D uring</w>
D aniel</w>
Cra ig</w>
Coun try</w>
C oll
C old</w>
C T</w>
Budd ha</w>
Brook lyn</w>
B ul
Ale x</w>
Al as
A T
z u
youn gest</w>
win ner</w>
wheel chair</w>
week end</w>
wa vel
w a</w>
voc abul
vibr ating</w>
ut ni
u red</w>
tra it</w>
tom ato</w>
ther ed</w>
th ur</w>
terri fied</w>
tail -
t oss</w>
t os
t ant</w>
suit case</w>
str and</w>
st ock
st eri
speci ally</w>
sp id
spid ers</w>
sm ells</w>
sket ch</w>
si licon</w>
shor ter</w>
shel ves</w>
sec ular</w>
scre am</w>
satis faction</w>
s ang</w>
ric he
riche st</w>
recon ci
recei ving</w>
qu ad
pros thetic</w>
promot ing</w>
proj ected</w>
program mers</w>
prof itable</w>
pro ved</w>
pri or</w>
presen ting</w>
pre me</w>
pow der</w>
poll ut
poli tician</w>
pol ar
po ems</w>
pe an
pas sage</w>
pan el</w>
p ouring</w>
p ity</w>
p is
out break</w>
ou ts</w>
om ed</w>
ob o</w>
no isy</w>
na tives</w>
na tion
mon soon</w>
mo od</w>
min g
mess y</w>
med it
mat rix</w>
man aging</w>
mag ician</w>
m apped</w>
lob by</w>
li zing</w>
le opard</w>
lab eled</w>
j o</w>
it age</w>
investi gate</w>
inten tion</w>
integr ity</w>
in ks</w>
in fr
imple mented</w>
ice berg</w>
i p
hy dr
hormon es</w>
ho ly</w>
hi a</w>
he ating</w>
halluc inations</w>
grand parents</w>
gener ates</w>
gen ous</w>
fic ations</w>
expon entially</w>
eth an
et te</w>
er up
er als</w>
enterpri se</w>
en ab
empha size</w>
ec e</w>
e ternal</w>
dragon flies</w>
don ors</w>
dis abled</w>
dig ging</w>
deri ved</w>
deli vering</w>
da y-
cros sed</w>
cre ator</w>
cra shes</w>
cou sins</w>
cor relation</w>
connec tome</w>
conduc tor</w>
con tained</w>
con qu
comp ound</w>
comm ents</w>
colum ns</w>
co her
chec ks</w>
character istic</w>
cha se</w>
cat tle</w>
carto on
bu m</w>
bri be</w>
bo wl</w>
blog ging</w>
bas king</w>
bas eline</w>
associ ate</w>
ar ro
app lies</w>
annivers ary</w>
analo g</w>
an onymous</w>
al ysis</w>
ad ul
ac res</w>
ac re</w>
ac knowledge</w>
absor b</w>
aband oned</w>
ab road</w>
T ha
T eles
Sp utni
Soci ety</w>
Singap ore</w>
Saud i</w>
S pi
S pe
S even</w>
Pre tty</w>
Por tu
Pitts burgh</w>
Palestini an</w>
P art</w>
P C
Organ ization</w>
O ri
O oh</w>
Nor way</w>
Nat asha</w>
Mean while</w>
M en</w>
M ach
Kenne dy</w>
J us
Icel and</w>
Him al
H am
Gover n
F ore
E ric</w>
D R</w>
D AR
Char lie</w>
C ur
C anyon</w>
Budd hist</w>
B us
B at
B P</w>
B I</w>
Ar thur</w>
Al bert</w>
A sian</w>
5 8</w>
1 2,000</w>
zer land</w>
z er</w>
yl on</w>
who ever</w>
web sites</w>
we l</w>
visit ing</w>
ver b</w>
ven ue</w>
vel ing</w>
van ia</w>
un seen</w>
tw e
tri ps</w>
tra de-
to ol
tic k</w>
tic k
ti zing</w>
ti gh
there by</w>
th ful</w>
text books</w>
teen age</w>
tan gible</w>
tal e</w>
ta xes</w>
t es
symbo lic</w>
syl vania</w>
survi ving</w>
stri kes</w>
storyt eller</w>
stic king</w>
squ ir
spa tial</w>
slo pe</w>
shoc king</w>
sett led</w>
ser ves</w>
sensi tivity</w>
se di
ru pt</w>
rou tin
robo tics</w>
ri sts</w>
ri sky</w>
reven ues</w>
replac ement</w>
renew able</w>
regi onal</w>
reg ularly</w>
re serve</w>
qui e
promis ed</w>
profes sors</w>
produc ers</w>
pro vo
pro test</w>
pro ph
predat or</w>
practic ing</w>
pol es</w>
pleas ed</w>
pe ers</w>
paras ite</w>
par enting</w>
p ill
over night</w>
ou tw
ot ted</w>
or dered</w>
oper ates</w>
ol era</w>
non- lethal</w>
non profit</w>
nic ely</w>
net working</w>
negoti ate</w>
mom en
mem br
ma r</w>
m plo
m ating</w>
m -
low- cost</w>
liz ab
li bri
libri um</w>
lec tures</w>
la y
k it</w>
j am</w>
ir y</w>
inter connected</w>
int angi
in ser
in ity</w>
in equality</w>
imple ment</w>
immen se</w>
hybri d</w>
hum ility</w>
hemi sphere</w>
har d-
gener osity</w>
fung i</w>
free zing</w>
form at</w>
fant asy</w>
fac ilit
f is
ethan ol</w>
es cal
eradic ation</w>
equi librium</w>
equ ity</w>
ep is
entr ance</w>
elev ator</w>
eleph ants</w>
electromagne tic</w>
dos es</w>
discus sions</w>
diarrhe a</w>
di shes</w>
demo cra
dec om
de man
de fl
d or
cu b
cri tically</w>
coun ts</w>
cou ch</w>
cos t-
coo k
concep tual</w>
clu ster</w>
cho p</w>
chec king</w>
ch ickens</w>
calcul us</w>
calcul ating</w>
ca -
bri gh
bor row</w>
bomb sight</w>
bo ther</w>
bio logically</w>
bio -
bi osphere</w>
bar riers</w>
b ath</w>
att ach</w>
ate dly</w>
ate -
at ter</w>
astronom ers</w>
astron omy</w>
assum ed</w>
as leep</w>
ar ter
anesthe sia</w>
anc ers</w>
analy zed</w>
an ity</w>
al ties</w>
al i</w>
addre ssing</w>
adap tation</w>
acceler ate</w>
ac he</w>
a ge-
Z im
Willi am</w>
Wi de</w>
Th ere
T ry</w>
T -
Swit zerland</w>
Sputni k</w>
Si erra</w>
S P</w>
S O
R over</w>
R ick</w>
Po wer
P ur
P lan
Olymp ic</w>
Nov ember</w>
L ight</w>
John ny</w>
Je ws</w>
Je ff</w>
Israel i</w>
Indone sia</w>
Hi story</w>
Hear t</w>
HI V-
H ans</w>
Fran k
F DA</w>
El ec
E lizab
D ra
C ro
C os
B ol
Ar chi
Al right</w>
A h
A -
9 8</w>
3 4</w>
3 1</w>
z e
wi ped</w>
well- known</w>
w ells</w>
visu alize</w>
ve il</w>
v ant
us s</w>
uni on</w>
underst ands</w>
under -
u ter
u l</w>
tru ths</w>
trans it</w>
tr y
tim ing</w>
th- century</w>
teen ager</w>
te st
te dly</w>
tan ks</w>
t ine</w>
sur round</w>
suppor tive</w>
substan tial</w>
sti g
stereot yp
star d</w>
squ id</w>
spi ke</w>
sil s</w>
si tion</w>
shor tly</w>
shif ted</w>
sex ually</w>
sen sus</w>
sel ect</w>
se mi
ri ots</w>
respon si
repor ting</w>
rej ected</w>
reg ulations</w>
refu se</w>
reas oning</w>
re war
re solve</w>
re quest</w>
r ose</w>
purcha se</w>
psycho logist</w>
pros titu
process ed</w>
pro v
pro ces
predic ting</w>
pos ing</w>
portra its</w>
plan kton</w>
philosop her</w>
pe di
pan ic</w>
p in</w>
ot e</w>
ori ented</w>
obser ving</w>
o o</w>
nur ture</w>
non e
none theless</w>
nin e-
na ive</w>
n ut</w>
n sylvania</w>
n om
momen tum</w>
mix ture</w>
min ority</w>
milli on-
me ta
mas k</w>
man kind</w>
ma st
ma id</w>
m ite</w>
m ere</w>
laugh ed</w>
kin son</w>
kel ey</w>
ke st</w>
k ings</w>
k er
k -
jum ps</w>
j i</w>
j ar</w>
ir rational</w>
inj uries</w>
infec tious</w>
indic ates</w>
in able</w>
impul se</w>
im pressed</w>
illu sions</w>
i ons</w>
home town</w>
help less</w>
hel met</w>
head- tail-
he h</w>
happi est</w>
ha irs</w>
h ills</w>
gu it
gu ards</w>
gu ard</w>
gravit ational</w>
go at</w>
gener ic</w>
gard ens</w>
fronti er</w>
fro gs</w>
foun ding</w>
for give</w>
foot age</w>
flo at</w>
fil ters</w>
fail s</w>
explo ded</w>
exag ger
ex am</w>
ev al</w>
er ce</w>
ep h</w>
entrepreneur ial</w>
ene zu
du ty</w>
distingu ish</w>
distinc tion</w>
disappe aring</w>
dis plays</w>
dis k</w>
desper ate</w>
de ple
de bris</w>
d are</w>
coun ter-
cop ying</w>
cop per</w>
coordin ation</w>
comp ute</w>
comp ounds</w>
co di
clim bers</w>
cli ps</w>
circul ation</w>
circul ar</w>
circu it
cha ins</w>
ch al
cathe dr
catastrop hic</w>
cal ci
bu gs</w>
br ick</w>
band width</w>
atter ed</w>
att acking</w>
at an</w>
assi stance</w>
arti facts</w>
ari b
ar cha
ar bit
appe al</w>
anticip ate</w>
anim ate</w>
and- a-half</w>
an i</w>
ambi tion</w>
alpha bet</w>
ag on</w>
after ward</w>
adop t</w>
adequ ate</w>
ad ju
aci ties</w>
achiev ing</w>
accum ulate</w>
Y el
V enezu
Un der
U l
There fore</w>
Teles cope</w>
Ste wart</w>
S imp
R it
Pen nsylvania</w>
Paki stan
P os
O t
Ne ws</w>
Nat ural</w>
Moun t</w>
Ma h
Ma c</w>
M el
Le ban
La k
Jos eph</w>
J en
J a
Himal ay
Har ry</w>
Ha ving</w>
Gol den</w>
G l
F al
Col a</w>
Ci vil</w>
Cana dian</w>
Can cer</w>
C lar
C ham
C O</w>
Bra d</w>
Ber keley</w>
B il
A poll
A my</w>
9 6</w>
4 2</w>
4 0
19 80</w>
x y</w>
x -
wa sted</w>
w ins</w>
vocabul ary</w>
vo y
vi able</w>
ver e
vel ty</w>
us al
usal em</w>
une mplo
und ry</w>
un ks</w>
un ited</w>
un conscious</w>
tw ins</w>
tu rer</w>
tru sted</w>
transpor ted</w>
trac es</w>
tiz ation</w>
thin kers</w>
tex ts</w>
te dness</w>
t esti
syn chron
sup ple
sty les</w>
ste aling</w>
statis tical</w>
sta ke</w>
sta dium</w>
spher es</w>
spe eds</w>
sp rin
sp r
so vere
sm an</w>
si le</w>
shi eld</w>
seven th</w>
sel ls</w>
scre ens</w>
scre ening</w>
scre aming</w>
rou tine</w>
ri ding</w>
ren der</w>
remar kably</w>
rela tivity</w>
recycl ed</w>
recogn izes</w>
re solved</w>
re over</w>
re generate</w>
publi can</w>
prototyp es</w>
propag anda</w>
preven ting</w>
pressu res</w>
prepar ation</w>
prac tically</w>
pr osp
pl ug
path ways</w>
p ants</w>
p an</w>
p -
ow ners</w>
ous y</w>
optim ism</w>
om a</w>
occup y</w>
occu pi
ob sc
o ven</w>
nur turing</w>
no tions</w>
neuros cienti
nes the
ne vertheless</w>
n ate</w>
muse ums</w>
mor tal</w>
mon o
mode st</w>
mod eling</w>
mir rors</w>
millen nia</w>
mid st</w>
micros copic</w>
mi es</w>
man eu
ma ss
lon ely</w>
ligh t-
lic en
kid ding</w>
ju red</w>
it -
invol ving</w>
inva sive</w>
intrigu ing</w>
intr ic
inher ently</w>
indi genous</w>
in hab
in car
hun t</w>
hu h</w>
hop ed</w>
hol ders</w>
hi ding</w>
head line</w>
h ob
h ated</w>
gu es</w>
gra ins</w>
gr at
genu ine</w>
ge able</w>
gar ten</w>
g ec
g ay</w>
g an</w>
frigh tened</w>
fore station</w>
fo am</w>
flexi bility</w>
fi red</w>
femin ist</w>
fam ously</w>
f t
f lights</w>
f ers</w>
f ault</w>
exam ine</w>
eth ic</w>
estab lish</w>
es tiv
eradic ate</w>
emo tionally</w>
embarra ssing</w>
embarra ssed</w>
em pire</w>
easi est</w>
e ats</w>
dre aming</w>
disa sters</w>
dis ability</w>
diam onds</w>
diagnos tic</w>
di se</w>
detec ted</w>
desper ately</w>
descri bing</w>
der garten</w>
dec reas
de voted</w>
de pres
de lic
de fic
de alt</w>
coun try
convic ted</w>
consum ing</w>
consi dering</w>
comprom ise</w>
compos ed</w>
co ded</w>
chem ist</w>
che ap
char ter</w>
cha sing</w>
ch ur
ch unk</w>
ch olera</w>
ch ers</w>
ch er
cerem ony</w>
cele bration</w>
catastrop he</w>
car ed</w>
canv as</w>
cab in
ca- Cola</w>
bum ps</w>
base ment</w>
ban ned</w>
bal con
b yp
auton omy</w>
auth enticity</w>
aur us</w>
attribu tes</w>
attem pts</w>
at titudes</w>
at ro
at mospher
as set</w>
arib bean</w>
apart ments</w>
ang ed</w>
an as</w>
am ie</w>
al tru
air s</w>
accur acy</w>
accoun tability</w>
ac comp
ab sur
a we</w>
a qu
a a
Zim bab
W ater</w>
Vir gin</w>
Tasman ian</w>
T .
Sup pose</w>
Spr ing</w>
Soci al</w>
Sar ah</w>
S ta
Re publican</w>
Ra ther</w>
R S</w>
O ut</w>
No tice</w>
Nami bia</w>
N in
Mos es</w>
M ul
Leon ardo</w>
L yn
L ama</w>
Jer usalem</w>
Jeff er
J ane</w>
Interest ingly</w>
I M</w>
F i</w>
Em pire</w>
E D</w>
Demo cr
De an</w>
Dal ai</w>
DV D</w>
Co ca-Cola</w>
Cam p</w>
C aribbean</w>
Bus iness</w>
Bro thers</w>
Bos nia</w>
Beij ing</w>
Ar my</w>
Ar chit
Alas ka</w>
Ab solutely</w>
AR S</w>
A sh
A lice</w>
A gn
8 ,000</w>
3 8</w>
19 45</w>
11 th</w>
1. 5</w>
1 50,000</w>
1 5,000</w>
1 30</w>
- in-
wi ves</w>
weigh s</w>
wat t</w>
war e
vi sion
ven s</w>
vel oc
v is</w>
ul ed</w>
u n</w>
u a</w>
tw ist</w>
trick y</w>
tou ches</w>
to oth
sym pa
summar y</w>
sugge stion</w>
suc ks</w>
stra ins</w>
ster ies</w>
ste ady</w>
stat ements</w>
st amp</w>
spon taneously</w>
sol o</w>
so red</w>
so lem
sl um</w>
sk illed</w>
sing ers</w>
she er</w>
semi -
secon dly</w>
sc ar</w>
s ma
s ab
rop ical</w>
ric ane</w>
revolu tions</w>
respon ded</w>
respec ted</w>
res ul
represen ting</w>
replac ing</w>
repe atedly</w>
reco vered</w>
re think</w>
re strial</w>
re hear
re forms</w>
radi us</w>
ra ins</w>
qua tic</w>
pursu ing</w>
pri orities</w>
pregn ancy</w>
pre frontal</w>
pr on
pollut ants</w>
plac e
philosoph ical</w>
pe de
pede stri
pat ch</w>
pack aging</w>
oun ce</w>
os ex
os c
or phan
oper ator</w>
op ing</w>
ob jec
non sense</w>
no de</w>
neo cortex</w>
ne gl
mytho logy</w>
my steries</w>
mind- wandering</w>
micro phone</w>
membr ane</w>
me g
mar t</w>
manufac ture</w>
magaz ines</w>
ma ke
m ys
luc kily</w>
lim bs</w>
ligh ter</w>
lic k
li me
la sts</w>
la sting</w>
kin dergarten</w>
kid n
ja w</w>
it ly</w>
inter faces</w>
ing ness</w>
indic ate</w>
in timate</w>
in struction</w>
in expensive</w>
in dex</w>
imm un
il ep
il and</w>
ic ry</w>
hon ey
high light</w>
hac kers</w>
h ut
h s</w>
great ly</w>
grass roots</w>
gr ace</w>
glaci ers</w>
glaci er</w>
gent le</w>
ge ography</w>
gall on</w>
gall eries</w>
g age</w>
free -
fra m</w>
for cing</w>
fin ite</w>
fe tus</w>
f ate</w>
exhi bit</w>
ex otic</w>
est er</w>
erec tus</w>
ep ilep
ep er</w>
enti ties</w>
enthusi asm</w>
endeav or</w>
encoun tered</w>
en ey</w>
embr y
el u
eigh th</w>
ed -
ear ned</w>
du le</w>
distur bing</w>
discus sing</w>
dic tion
devast ating</w>
dem ics</w>
defin i
def ault</w>
decep tion</w>
de structive</w>
d ome</w>
d dy</w>
cu be</w>
cru el</w>
cra b</w>
coun ter</w>
cosmo s</w>
corpor ation</w>
confron ted</w>
con fined</w>
con dom</w>
con ce
compa tible</w>
comm ons</w>
cl ing</w>
chron ic</w>
chimpanz ee</w>
chim ps</w>
ch le
cat alo
cap tain</w>
calcul ation</w>
calci um</w>
but tons</w>
bul bs</w>
bu ff
broad cast</w>
bre ed</w>
boun ce</w>
bottom -up</w>
bon ds</w>
bo s</w>
bo ots</w>
blue fin</w>
blin dness</w>
bi an</w>
ber a</w>
benef icial</w>
ben ch</w>
beh old</w>
bath room</w>
bas ket</w>
bal anced</w>
b ust</w>
b ury</w>
b are</w>
az e
ax es</w>
athe ist</w>
aster oids</w>
assum ing</w>
asse ts</w>
as hamed</w>
ar ena</w>
ap i
am ino</w>
ali ke</w>
ali gn
al ore</w>
al lies</w>
accompan ied</w>
ac ious</w>
a quatic</w>
Wol fram</w>
Wh it
W it
W el
W al-
U S</w>
Tur k
Tor onto</w>
Sud an</w>
Ste p</w>
Simil arly</w>
Ri o</w>
Re public</w>
R NA</w>
Pr ince</w>
PT C
P y
P op
P ep
OE CD</w>
M et
M T</w>
M P
L ee</w>
Ki bera</w>
K en</w>
K ansas</w>
K -
Jeffer son</w>
J ay</w>
Ira q
Inter viewer</w>
H om
H ill
H igh
F il
F O
F G</w>
Elizab eth</w>
Den mark</w>
Con sider</w>
Com passion</w>
Colum bia</w>
Car l</w>
CA PTC
C oper
Bl ack
Bang alore</w>
B .</w>
As k</w>
Arab ia</w>
An drew</w>
Al pha</w>
5 2</w>
4 3</w>
4 .
18 th</w>
x ious</w>
wonder fully</w>
wit z</w>
wa ited</w>
volcan ic</w>
v ements</w>
use t
uset ts</w>
up right</w>
univer s
uniqu ely</w>
underst and
um es</w>
tremend ously</w>
transi stor</w>
tra vels</w>
tr apped</w>
to s</w>
threat ening</w>
th ly</w>
terrori st</w>
ter n
tec ton
tat too</w>
tat to
tal ented</w>
t ful</w>
t elec
syste matic</w>
summar ize</w>
stun t</w>
stres sed</w>
stra tions</w>
ster dam</w>
stand point</w>
st on</w>
st ent</w>
spon taneous</w>
spin al</w>
spe ech
spac e-
small -
slo wing</w>
sl augh
skep tical</w>
short- term</w>
shor t
sh rin
ser en
sequ enced</w>
secon dary</w>
sea water</w>
scan ned</w>
s anc
s a</w>
roc kets</w>
ro wed</w>
ro les</w>
ri ses</w>
ren dered</w>
rela x</w>
rel ates</w>
real- time</w>
read er</w>
re vel
re turns</w>
re per
re alities</w>
promis ing</w>
pri ority</w>
pot atoes</w>
post- conflict</w>
poll u
poll in
pix els</w>
pi p
photograph ers</w>
persu ade</w>
perspec tives</w>
path way</w>
partner ships</w>
para meters</w>
par alysis</w>
pa ths</w>
p y</w>
p ulation</w>
p ou
p iles</w>
over head</w>
os cope</w>
org asm</w>
op o
op a
ol ding</w>
ol as</w>
o d-
nor ms</w>
nan ome
n omin
mul tin
motiv ate</w>
mom ent
mis ery</w>
mil d</w>
migra ine</w>
met aphor
mat ches</w>
mar vel
mar ath
mani pulation</w>
mammo graphy</w>
m ly</w>
m ites</w>
los ses</w>
log ging</w>
lo y
like lihood</w>
li der</w>
lear ns</w>
le ver
le ap
kno ck</w>
k o
juven ile</w>
justi fy</w>
jug gling</w>
jo y
isol ation</w>
ir atory</w>
inv itation</w>
inten tions</w>
intangi ble</w>
insul in</w>
institu te</w>
inher ent</w>
infr ared</w>
influ ences</w>
in jured</w>
in er
illu stration</w>
ill umin
id ity</w>
hum ble</w>
hoo ked</w>
he l</w>
he al</w>
happ ily</w>
hand ful</w>
ha ble</w>
gradu ates</w>
gra m
govern mental</w>
ga ining</w>
fru its</w>
flo ors</w>
fin ishing</w>
fil med</w>
fi xing</w>
far -
f uc
explo red</w>
explan ations</w>
expec tation</w>
exp ose</w>
exp ense</w>
excep tions</w>
ex por
ex ce
ex -
er gy</w>
envel ope</w>
ency clopedia</w>
en -
emer ges</w>
em power</w>
em ia</w>
em a</w>
el li
edit or</w>
docum entary</w>
do w
distribu te</w>
discipl ines</w>
dis connected</w>
di scrimin
deser ves</w>
dem o</w>
degra ded</w>
declar ed</w>
de v
de adly</w>
d ged</w>
d ancers</w>
cu st
crit eria</w>
cr ac
cou sin</w>
convinc ing</w>
conven tion</w>
contradic tion</w>
cont ag
con science</w>
con fer
con ception</w>
color ful</w>
collabor ate</w>
cock ro
co c
circuit ry</w>
che f</w>
ch in</w>
certi fied</w>
celebr ity</w>
carb on
car rot</w>
candi dates</w>
can e</w>
ca v
bus es</w>
br al</w>
bor ne</w>
bloo dy</w>
biolumines cence</w>
be et
be ds</w>
b uc
b on</w>
b il
b at</w>
awk ward</w>
at ories</w>
assem bled</w>
ass ach
assach usetts</w>
art work</w>
argu ed</w>
amate ur</w>
alter natives</w>
ali an</w>
al ge
ag nos
addre ssed</w>
activi st</w>
acous tic</w>
accomp lish</w>
ac es</w>
a ward</w>
a wake</w>
a ked</w>
Zimbab we</w>
Z ip
Youn g</w>
Win dows</w>
Wil son</w>
Venezu ela</w>
U V</w>
Ti bet</w>
Tha iland</w>
Ta i
T it
St one</w>
Satur day</w>
S um
S J</w>
RI SD</w>
R oss</w>
Phili p</w>
P u
P ot
Nor man</w>
N ep
N ative</w>
N N</w>
M assachusetts</w>
M art</w>
M O</w>
Lu ther</w>
Lou is</w>
Le one</w>
Kore an</w>
K le
J obs</w>
J ill</w>
Indu strial</w>
H ea
Go ing</w>
Fu nd</w>
F ree</w>
Di dn</w>
Develop ment</w>
De ad</w>
Darwin ian</w>
D ig
D ata</w>
CE Os</w>
C I
Be au
B hut
B each</w>
B L</w>
Am sterdam</w>
Agn es</w>
Afr ic
AI MS</w>
A us
7 6</w>
20 11</w>
199 7</w>
0 0s</w>
. org</w>
yo to</w>
yl an</w>
wor ship</w>
win ners</w>
war fare</w>
wa ste
wa shed</w>
w rec
vol ution</w>
vivi d</w>
ven tures</w>
vac ation</w>
v ents</w>
v ent</w>
ur a</w>
um en</w>
um a</w>
ul tural</w>
ul ative</w>
ul arity</w>
typ ing</w>
tra p</w>
ten ment</w>
targe ted</w>
tal ents</w>
ta stes</w>
t arian</w>
t ably</w>
surve ys</w>
surve ill
surveill ance</w>
sur plus</w>
sur fing</w>
suc ces
su red</w>
stun ts</w>
stoc ks</w>
stim ulation</w>
stand ar
speci alist</w>
so ap</w>
sna kes</w>
slo wed</w>
sing er</w>
sha king</w>
sculp tures</w>
scri pts</w>
scienti fically</w>
s per
s log
ropol itan</w>
ri bat
ribat i</w>
resi st</w>
represen tative</w>
remember ing</w>
rele ases</w>
rehab il
rehabil itation</w>
refuge es</w>
ref used</w>
reduc es</w>
reason ably</w>
re fined</w>
re d-
rad ar</w>
rac ing</w>
ra inf
rainf all</w>
quie tly</w>
quali fied</w>
promis es</w>
proce du
procedu res</w>
pre served</w>
pra yer</w>
pot ato</w>
port able</w>
pip eline</w>
pi res</w>
pi geon</w>
ph al
percep tions</w>
pati ence</w>
patho gens</w>
pat ri
par ked</w>
ow ns</w>
oper ational</w>
oper ated</w>
od or</w>
occupi ed</w>
ob sole
o we</w>
o ch
nucle us</w>
no velty</w>
nesthe sia</w>
nan otechnology</w>
mu tual</w>
mu til
mot h</w>
min erals</w>
medic ines</w>
medic ations</w>
m i</w>
lo s</w>
lo ans</w>
lime stone</w>
light ning</w>
lic al</w>
laugh ter</w>
lab els</w>
la undry</w>
l ately</w>
kilome ter</w>
jud gments</w>
jo kes</w>
innov ate</w>
infor mal</w>
infor m</w>
infin itely</w>
in cub
il a</w>
iP ad</w>
i lian</w>
i ding</w>
hun g</w>
human kind</w>
hu gely</w>
honest y</w>
ho o</w>
high- speed</w>
hat red</w>
hambur ger</w>
ha r</w>
gr u
good ness</w>
gig antic</w>
ge e
ful filling</w>
fre ak</w>
fra mes</w>
foun der</w>
fos sils</w>
floo d</w>
flo wn</w>
fisher men</w>
fil es</w>
f an
exha u
ev o
eth ics</w>
er nal</w>
enab ling</w>
en sion</w>
ed it</w>
econom ically</w>
ec ho
e ver-
e ing</w>
dre amed</w>
doc tr
do or
div ine</w>
diag nose</w>
develop ers</w>
deser tification</w>
der ly</w>
deplo y</w>
del ay</w>
deep -
de lighted</w>
de light</w>
de al
de ad
d ity</w>
cut t
cul turally</w>
country side</w>
coun tless</w>
cor ri
controver sy</w>
continu ally</w>
contain er</w>
config uration</w>
condi tioning</w>
concei ve</w>
con spir
con sensus</w>
clos ure</w>
cl oth</w>
cho ir</w>
chec ked</w>
cha otic</w>
cere bral</w>
celebr ated</w>
categ or
cap acities</w>
can dy</w>
calend ar</w>
but t</w>
brow ser</w>
break down</w>
brea th
ble ssed</w>
bi otechnology</w>
ber ry</w>
bel ts</w>
be a
bas sa
b ond</w>
b ery</w>
b all
av atar</w>
att ach
at traction</w>
as sure</w>
ari se</w>
arch i
apo logi
ans wering</w>
an don</w>
ambi tious</w>
all as</w>
aggre gate</w>
adap tive</w>
ac tu
ab ama</w>
Zip car</w>
Wal- Mart</w>
W ouldn</w>
V an</w>
U p
The ater</w>
T ro
Su b
St art</w>
Sim on</w>
Secre tary</w>
Scot land</w>
Sahar a</w>
S ad
S B</w>
S A
Re agan</w>
R ule</w>
Par kinson</w>
P le
P at
P H</w>
Moun tain</w>
Mo der
Mex ican</w>
Mar cus</w>
Ma thema
M ot
Luc kily</w>
Loo king</w>
Lin u
Ki ribati</w>
K yoto</w>
J as
H ill</w>
Gol d
F em
Educ ation</w>
E ven
E specially</w>
Des ert</w>
Dan ny</w>
D ylan</w>
D et
C y
C r
B S</w>
B A</w>
Ar m
Al abama</w>
A round</w>
9 00</w>
7 ,000</w>
3 00,000</w>
2. 0</w>
199 5</w>
199 1</w>
19 30s</w>
1 80</w>
- year-olds</w>
- 2</w>
y ota</w>
x on</w>
w iring</w>
w ing
vot ers</w>
vi sc
vi an</w>
vari eties</w>
um or</w>
ul ture</w>
u pri
tun ately</w>
tu p</w>
tri bal</w>
tri angles</w>
trans fer
tra iler</w>
to wers</w>
tion- state</w>
tion ist</w>
thro at</w>
thou se</w>
thi um</w>
th ank
th a</w>
ten se</w>
ten nis</w>
t ling</w>
syn thesis</w>
swe at</w>
susta ining</w>
susta ined</w>
survi vors</w>
surroun dings</w>
success es</w>
sub scri
stret ched</w>
streng ths</w>
stat ue</w>
st ate
st are</w>
solem n</w>
so le</w>
sli ce</w>
sla ve</w>
ski p</w>
sket ches</w>
simil arly</w>
si es</w>
sh ells</w>
secon d-
se at
scr at
schol ar
scho ol
satis fied</w>
sal ary</w>
s wing</w>
s no
s light</w>
s in
s ance</w>
ru pe
ru ins</w>
rol ls</w>
ro ad
righ t-
rhyth ms</w>
revol utionary</w>
responsi bilities</w>
refl ective</w>
reci pi
recep tor</w>
re vi
re mix</w>
re ject</w>
random ness</w>
rain forests</w>
rain forest</w>
ra tion
qu al</w>
pum ps</w>
proli fer
proble matic</w>
prob able</w>
princi pal</w>
pri stine</w>
presi dential</w>
pre sum
physi ology</w>
phot osyn
phot o
peri ph
peri o
par liament</w>
pap er
pal e
ot on
ore r</w>
optim al</w>
one- third</w>
on ey</w>
obst acle</w>
obsole te</w>
ob iles</w>
o live</w>
notic ing</w>
no te
n ick
mur der</w>
mu stard</w>
mou ths</w>
mo ld</w>
mini str
mi st</w>
mi gh
metaph ors</w>
ment ary</w>
mat ching</w>
mar ked</w>
mar ch</w>
mal nutrition</w>
ma ster
lou der</w>
loc au
locau st</w>
lo wing</w>
liter al</w>
list ed</w>
lif ting</w>
lick r</w>
li ps</w>
lef t-
la ying</w>
la ir</w>
kne es</w>
kis s</w>
jum ping</w>
jo ining</w>
janit or</w>
investi gation</w>
investi ga
interrup ted</w>
inter section</w>
inter n
instr um
instinc t</w>
inj ection</w>
inf ect</w>
in stances</w>
in ability</w>
improvi se</w>
impro vements</w>
imper ative</w>
impa ired</w>
im migr
ile o</w>
hyper bo
hun ters</w>
hum ili
hot ter</w>
hero ic</w>
her itage</w>
he ights</w>
ha z
h int</w>
h ind</w>
h en</w>
h ec
h ance</w>
h -
guid ance</w>
gri ef</w>
gover n</w>
go d
go ats</w>
ger -
ge ographic</w>
gall ons</w>
ga ze</w>
g ates</w>
fu zzy</w>
fle sh</w>
fl at
fish eries</w>
fin dings</w>
fertiliz er</w>
fa st-
fa me</w>
f ense</w>
exquis ite</w>
evol u
eri als</w>
er otic</w>
entrepreneur ship</w>
ent able</w>
eng ths</w>
en hance</w>
el ders</w>
el bow</w>
eff ec
ec dot
ea stern</w>
e po
dra ws</w>
do g
do do</w>
distor ted</w>
dis connect</w>
din burgh</w>
differ ential</w>
diction aries</w>
di zed</w>
der ness</w>
defic it</w>
deci des</w>
de l</w>
d uration</w>
cur sor</w>
cru shed</w>
cri p
cr ank</w>
continu um</w>
compas s</w>
common ly</w>
commodi ties</w>
coast al</w>
cle ver
cl arity</w>
certi fic
cen sus</w>
cand le</w>
calcul ated</w>
c age</w>
bul let</w>
bul l
br ut
blo ws</w>
beet les</w>
be side</w>
ballo ons</w>
aze era</w>
avi an</w>
at us</w>
associ ation</w>
asse ssment</w>
ari al</w>
arbit r
ar rows</w>
ar range</w>
ar ose</w>
appreci ated</w>
ap ar
any time</w>
an ecdot
ambigu ous</w>
alter ed</w>
ais sance</w>
aff ir
advoc ate</w>
ad ds</w>
acceler ated</w>
ac ute</w>
Z o
Y ear</w>
Who a</w>
W oo
U sing</w>
To gether</w>
T am
Swe eney</w>
Sol ar</w>
S ti
S ony</w>
S in
S how</w>
S ay</w>
S an
S ARS</w>
Rus sians</w>
Rom an</w>
Qu e
Pa ti
P sy
Ni ke</w>
N 1</w>
Moz art</w>
Med ical</w>
Linu x</w>
Li beria</w>
Le ague</w>
La gos</w>
K in
K elly</w>
K am
Ju li
Jer sey</w>
Jer ry</w>
J azeera</w>
Hum ans</w>
Hi gh</w>
H osp
H ig
H ad
Gree ks</w>
Goo d
Gal ileo</w>
G all
Fre u
For tunately</w>
FO X
F lickr</w>
Even tually</w>
E mi
E dinburgh</w>
De fense</w>
De ep</w>
Dar fur</w>
DAR PA</w>
D ur
D ick</w>
D allas</w>
C s</w>
Bul g
Au stri
Apoll o</w>
Ac cording</w>
A ur
A id</w>
A S
A C
20 15</w>
196 8</w>
- hour</w>
z ona</w>
y me</w>
wr ink
wr ence</w>
worth while</w>
world view</w>
won ders</w>
voy age</w>
vot es</w>
vi sibility</w>
veloc ity</w>
two- dimensional</w>
tur ers</w>
tun as</w>
trou bled</w>
tro ver
transi stors</w>
tr ay</w>
tox ins</w>
tou rist</w>
tion ists</w>
tic kets</w>
ti tion</w>
th read</w>
terrori sts</w>
ter ior</w>
t ropical</w>
t ants</w>
t ance</w>
sy stem
susp icious</w>
suffici ent</w>
sub sequ
stim ulate</w>
stic ky</w>
steri le</w>
ste ak</w>
state -of-the-
state-of-the- art</w>
star vation</w>
stag gering</w>
st en</w>
st ated</w>
squee ze</w>
sol ar-
sn ap
sle pt</w>
sk ir
sig ning</w>
si de-
shir ts</w>
sh ut
sh ou
sh are
self- organizing</w>
sch ed
scar ce</w>
scaff olding</w>
sc ent</w>
s now
s ants</w>
routin ely</w>
roc ke
ro s</w>
ri ot</w>
ri des</w>
reti re</w>
resili ent</w>
resear ching</w>
repor ter</w>
reper to
relev ance</w>
rela tives</w>
regre ts</w>
reg ulate</w>
reg imes</w>
refl ects</w>
recy cle</w>
rec la
re treat</w>
re define</w>
raz ine</w>
ques tioning</w>
pul ses</w>
prototyp ing</w>
projec tions</w>
pro -
pri sons</w>
preci sion</w>
point ment</w>
place bo</w>
philosoph ers</w>
ph any</w>
person alities</w>
perman ently</w>
per va
particip ating</w>
par ag
p ond</w>
p iz
p .m.</w>
over s</w>
oun d
ori entation</w>
ope fully</w>
op i
on stage</w>
ob tained</w>
ob lig
num erous</w>
night m
nightm are</w>
negoti ating</w>
nee dles</w>
nec tar</w>
nan o-
na me
na ils</w>
na il</w>
n ell</w>
mosquit oes</w>
mos que</w>
mor t
min ded</w>
mi a</w>
men u</w>
melo dy</w>
medi ate</w>
meaning less</w>
me tr
marvel ous</w>
mar ker</w>
manufac turer</w>
main taining</w>
m un
m its</w>
m in</w>
lon gest</w>
lo wed</w>
lo a
li thium</w>
li p</w>
laun ching</w>
labor atories</w>
jun gle</w>
inv iting</w>
introduc ing</w>
inten tional</w>
integr ating</w>
ins ically</w>
innov ators</w>
indic ation</w>
inci dentally</w>
in sic</w>
in depen
in as</w>
ill age</w>
ic ons</w>
hop eless</w>
histor ian</w>
hi ve</w>
he li
he ated</w>
harvest ing</w>
har ness</w>
ham mer</w>
habit ats</w>
h ut</w>
guil t</w>
gri m</w>
gra ve</w>
glob alized</w>
gl ory</w>
gi o</w>
gi fts</w>
ger ms</w>
gec ko</w>
ge ese</w>
gal actic</w>
g ered</w>
g ently</w>
g ate
full- time</w>
frustr ating</w>
friend ship</w>
frac tal</w>
fos ter</w>
fore ground</w>
for bid</w>
foot prints</w>
fol k</w>
flouri sh</w>
fir ms</w>
fer tility</w>
f lic
f itting</w>
ex port</w>
et al</w>
equi pped</w>
epis ode</w>
ep y</w>
enz yme</w>
environ mentally</w>
enti ty</w>
en vy</w>
emplo y</w>
em an</w>
ell a</w>
ed ly</w>
drow ning</w>
dri ft</w>
dou bling</w>
docum enting</w>
do -
divi ding</w>
discus sed</w>
disap pointed</w>
direc ted</w>
diff er</w>
di tions</w>
desi res</w>
defe at</w>
dec entr
d ump</w>
d ors</w>
cro codi
cr yp
cr an
cr acked</w>
coun sel
continu ity</w>
construc ting</w>
constra ined</w>
conduc ting</w>
conclu sions</w>
compu ter-
compar able</w>
comb at</w>
com pressed</w>
com a</w>
coll ar</w>
co l</w>
co ined</w>
cl apping</w>
civi lian</w>
citiz en
chle ar</w>
char coal</w>
cen tered</w>
carb on-
c use</w>
c us
c is</w>
brea sts</w>
bo ot</w>
bo o</w>
bloc ked</w>
bloc k
bla de</w>
biom at
bi ot
bi ases</w>
barre ls</w>
ban i
ban anas</w>
bac ked</w>
b last</w>
b ind</w>
b ent</w>
b ble</w>
b am
avail ability</w>
audit ory</w>
attribu te</w>
attach ment</w>
atr ina</w>
athe ists</w>
at razine</w>
asth ma</w>
assi stant</w>
ass ini</w>
as is</w>
ar rest</w>
appropri ately</w>
angiogen ic</w>
and ments</w>
anat om
analy zing</w>
ambigu ity</w>
ad ministr
activ ate</w>
accur ately</w>
accoun ting</w>
ac u
ab andon</w>
a tively</w>
a do</w>
Wel come</w>
W ars</w>
Ven us</w>
V illage</w>
Th ir
Th ank
TED sters</w>
T S</w>
T .</w>
Sti r
St y
Sim ple</w>
Si beria</w>
S uch</w>
S her
S har
S MS</w>
Ro yal</w>
Ra dio</w>
R en
R ac
R O
Prin ce
Pri me</w>
Off ice</w>
NG O</w>
N ice</w>
Mo ve</w>
Mar ine</w>
M M</w>
Li b
La wrence</w>
L oc
L ady</w>
K ingdom</w>
K h
K atrina</w>
Jo el</w>
J on
J im
In t
I van</w>
I ce</w>
I P
I .</w>
Hig gs</w>
H opefully</w>
H old</w>
H appy</w>
H C</w>
Fran cis</w>
Fal con</w>
F ul
F ood</w>
E volution</w>
E E
Doc tor</w>
Do esn</w>
Di ff
Det ro
D r
Con nec
Chri st</w>
Cal tech</w>
C lear
C assini</w>
C D
Braz ilian</w>
Be li
B run
Ari zona</w>
Argent ina</w>
Amer ic
All en</w>
Al an</w>
Al -
A i
A ch
A V</w>
9 9
6 4</w>
5 9</w>
5 7</w>
4 4</w>
4 0s</w>
3 9</w>
19 70</w>
1. 2</w>
1 40</w>
1 25</w>
1 -
- Fi</w>
ym es</w>
y land</w>
will ingness</w>
whist ling</w>
wat ches</w>
wa sting</w>
w an</w>
volun tary</w>
vic tory</w>
vari ability</w>
val ve</w>
v o</w>
v et</w>
v ali
un ting</w>
un stable</w>
un predictable</w>
un lea
ul ously</w>
u sage</w>
tur bul
tri um
tre as
transc end</w>
tra uma</w>
tr unk</w>
tigh tly</w>
ti ful</w>
thir dly</w>
th ick
th and</w>
tele phones</w>
t le
t abo
tabo o</w>
synthe size</w>
sur rec
suppor ts</w>
sul fur</w>
sub mitted</w>
su sc
strug gled</w>
stric tly</w>
st ence</w>
st am
squ ares</w>
squ ared</w>
sp ite</w>
sp ine</w>
sp ills</w>
sp ades</w>
sour cing</w>
sm iles</w>
slog an</w>
sli p
sla ves</w>
sion ately</w>
shrin king</w>
shr ink</w>
sho wer</w>
sh i</w>
ser ver</w>
seas ons</w>
se iz
scre w</w>
scho oling</w>
sc ope</w>
sal mon</w>
sa il
s lu
s en</w>
ru ption</w>
rop a</w>
rom ance</w>
rob i</w>
ri gation</w>
ri fu
reti red</w>
resp iratory</w>
replic ating</w>
reperto ire</w>
reli ev
regi ster</w>
reci pes</w>
re y</w>
re viewed</w>
re surrec
ran e
rane an</w>
rais es</w>
r anging</w>
quanti ties</w>
proto cells</w>
proces sors</w>
prev entable</w>
prescri ption</w>
pol l</w>
po orer</w>
pl ying</w>
pil ots</w>
pi pes</w>
pestici des</w>
perio dic</w>
per for
pe er-
pe ar
pas sions</w>
pain ter</w>
p acking</w>
oy ster</w>
out door</w>
ous ed</w>
ou tra
ou gh
orb ital</w>
one- on-
on ically</w>
obser ver</w>
ob session</w>
ob ses
o iled</w>
o bos</w>
num b</w>
nor m</w>
negoti ations</w>
negoti ation</w>
ne gie</w>
mur dered</w>
multin ational</w>
mul tic
mon ster</w>
mom s</w>
minim al</w>
mil it
mid night</w>
metho do
metabo lic</w>
man tis</w>
man -
ma tics</w>
low- income</w>
li ve
li ed</w>
len ses</w>
lea k</w>
le vel
la h</w>
k r
k n
k ill
k ery</w>
je ans</w>
j a</w>
it ude</w>
invol vement</w>
inven tions</w>
inv ade</w>
intr insically</w>
intervie wing</w>
ine a</w>
industri alized</w>
individu ally</w>
indepen dently</w>
in ver
in ti
in puts</w>
in justice</w>
imag inary</w>
im posed</w>
im icry</w>
ill nesses</w>
ill es</w>
ic tion</w>
i robi</w>
i k
hot els</w>
holi day</w>
hol der</w>
hear s</w>
ha ir
h eck</w>
h acking</w>
guit ar</w>
gra titude</w>
gra ff
gi an</w>
fra gments</w>
follo wers</w>
fluctu ations</w>
fle x</w>
fla sh
financi ally</w>
fin e-
femin ine</w>
f u</w>
estiv al</w>
eradic ated</w>
en rich
emplo yed</w>
embo died</w>
em en
el derly</w>
educ ating</w>
disrup tive</w>
develop s</w>
develop ments</w>
develop mental</w>
dep ths</w>
defin es</w>
dec lining</w>
de vo
de pressing</w>
dd led</w>
day light</w>
dan cer</w>
d econ
cust om</w>
cultiv ate</w>
cu es</w>
crow ded</w>
cou ples</w>
coordin ate</w>
coo ked</w>
conver gence</w>
conv ul
cont ents</w>
conspir acy</w>
consider ation</w>
consi sts</w>
conser vatives</w>
concei ved</w>
compos er</w>
commun al</w>
comm entary</w>
comb ining</w>
collabor ators</w>
cock tail</w>
co p</w>
co operate</w>
cigaret te</w>
chal k</w>
ch y</w>
ch ess</w>
centi meter</w>
cel ad
celad us</w>
cathedr al</w>
ca fe</w>
bu ys</w>
br on
bloo d
black -
bl ings</w>
bill board</w>
be ans</w>
be aches</w>
ban jo</w>
bam boo</w>
b ump</w>
b read
autom obiles</w>
au ts</w>
athle tes</w>
astronom ical</w>
ari ot</w>
are foot</w>
appli ances</w>
anti bodies</w>
anten na</w>
ang els</w>
all er</w>
al ert</w>
admi re</w>
accoun table</w>
acci dentally</w>
accep ting</w>
acceler ation</w>
acc ent</w>
ac knowled
absur d</w>
ab ad</w>
a wa
a esthe
Y ves</w>
X- rays</w>
Wi -Fi</w>
Ve gas</w>
Un like</w>
U. K</w>
Tru th</w>
To wer</w>
To o</w>
T ul
Swe dish</w>
Su preme</w>
Sk ype</w>
Si x
R ock
R al
Prince ton</w>
P lay</w>
P as
O per
Neander thal</w>
Na irobi</w>
Mu sic</w>
Mo reover</w>
Medic ine</w>
Mar gar
Mal dives</w>
M edit
M .</w>
Lar ge</w>
Lak ota</w>
L ots</w>
L es
L ang
Jour nal</w>
In no
In credible</w>
I Q</w>
Hosp ital</w>
Himalay as</w>
Hel p</w>
H ir
H as</w>
Geor gia</w>
F ort</w>
Ex cuse</w>
Eu ropa</w>
En ergy</w>
En celadus</w>
E r
E ight</w>
Di rec
Detro it</w>
D re
D G</w>
Cos ta</w>
Com p
Car negie</w>
CAPTC HA</w>
C NN</w>
C -
BM W</w>
B est</w>
As soci
Any thing</w>
Ab u</w>
8 3</w>
8 0,000</w>
4 50</w>
2 50,000</w>
-and- a-half</w>
writ es</w>
wom b</w>
wi pe</w>
wh ere
warri or</w>
war ms</w>
war m
w ounded</w>
w ander</w>
w ages</w>
vol umes</w>
viol in</w>
vi bra
val id</w>
va e</w>
ut op
ur gency</w>
uni mag
une qual</w>
un intended</w>
un fair</w>
un acceptable</w>
um -
tw eight</w>
tri ple</w>
tre ss</w>
tor tured</w>
top- down</w>
tic als</w>
ti pping</w>
ti ger</w>
through s</w>
thro ws</w>
thr ust</w>
thir d-
tex tile</w>
temp tation</w>
tatto os</w>
tal es</w>
tag ging</w>
ta ke-
t ch</w>
synthe si
syn c</w>
sym phony</w>
swa p</w>
sugge s
stum bled</w>
stere o</w>
ste pping</w>
stabi lize</w>
st a</w>
spon sor</w>
spec im
sou ls</w>
sol ves</w>
smar t
sli p</w>
sk ies</w>
si blings</w>
shi pped</w>
sh u
seri ousness</w>
sen sible</w>
self- assembly</w>
schizophren ia</w>
sandw ich
san itary</w>
s ounded</w>
s api
rot ating</w>
rop ic</w>
ri e</w>
reson ance</w>
ren dering</w>
rela xed</w>
refer red</w>
red und
rec t
re tr
re l</w>
re actor</w>
r he
public ly</w>
pu rely</w>
propor tion
pri ori
pri mor
pri est</w>
prev ents</w>
presen tations</w>
pos ters</w>
polic ing</w>
po or
po ets</w>
plan tation</w>
pir ate</w>
perva sive</w>
perpe tu
per -
penetr ate</w>
pe el</w>
pe aks</w>
pay load</w>
passen ger</w>
par tial</w>
p ies</w>
p ad
ou trage
or ado</w>
optimi ze</w>
op er</w>
ong side</w>
one-on- one</w>
on ies</w>
offici als</w>
off shore</w>
occup ation</w>
o zone</w>
no tation</w>
nes see</w>
n i</w>
moun ted</w>
mor ph
modi fied</w>
mo ther
minist ers</w>
ment ors</w>
men ting</w>
mem orial</w>
mel ted</w>
meas urable</w>
mas sively</w>
mar i
manife station</w>
manife st</w>
mammo gram</w>
mam mal</w>
magne ts</w>
ma sters</w>
lon g
li ation</w>
less ness</w>
lap se</w>
l an</w>
kilo grams</w>
ket t</w>
journ alism</w>
jac ket</w>
j ury</w>
ir rigation</w>
inter s</w>
inter ference</w>
int ent</w>
insi sted</w>
infin ity</w>
inclu sive</w>
incar cer
in efficient</w>
improvi sation</w>
imp lication</w>
ide ology</w>
ic y</w>
i ors</w>
hundre d-
hum ming
horri fic</w>
he ter
he el</w>
hand ling</w>
h yp
h n</w>
guaran te
gri p</w>
graff iti</w>
go -
glori ous</w>
gen ic</w>
ge ograph
ge o-
g low</w>
g ill</w>
ful fill</w>
frequ ent</w>
fo ol
flu ore
fla p</w>
fir mly</w>
fi shes</w>
fat ty</w>
fashi oned</w>
exten sive</w>
exten ds</w>
exten ding</w>
experim enting</w>
ex trover
ex it</w>
ex cess</w>
ex cer
evalu ate</w>
er ty</w>
er ranean</w>
er ent</w>
equ ator</w>
epi phany</w>
ent agon</w>
enligh tened</w>
emplo yment</w>
empha sis</w>
emp ir
emis sion</w>
embrac ing</w>
em pires</w>
el ines</w>
effec tiveness</w>
ed iting</w>
ea se</w>
e tho
drag ged</w>
dr inks</w>
dr illing</w>
dood ling</w>
distinc tive</w>
dis on</w>
direc tors</w>
din ing</w>
dig its</w>
diam ond</w>
di l
di ge
determin ation</w>
delic ate</w>
degra dation</w>
dec ei
de forestation</w>
d war
d ur
d son</w>
d af
crow ds</w>
critici zed</w>
cre ators</w>
coura geous</w>
coun ty</w>
conveni ence</w>
contem pl
con ve
con test</w>
con gre
compla ining</w>
coinci dence</w>
coher ent</w>
clu es</w>
cli ffs</w>
cla ws</w>
citizen ship</w>
cho re
chec k
ch ord</w>
ch -
cent rifu
ce -
carbon ate</w>
car pen
car -
campaig ns</w>
cam els</w>
c ali
c al</w>
broad ly</w>
bon us</w>
blue print</w>
bl an
bl adder</w>
billi on-
begin nings</w>
be ar
bassa dor</w>
bas sy</w>
bani sha</w>
b ited</w>
b els</w>
au tistic</w>
atter ing</w>
as so</w>
as signed</w>
arter ies</w>
arre n</w>
ar row</w>
appe aring</w>
app s</w>
ap oc
antibio tic</w>
an xious</w>
an e
am bul
alge bra</w>
al ongside</w>
al bum</w>
agnos tic</w>
aff airs</w>
addic ted</w>
ad el
ach s</w>
acci dental</w>
accep tance</w>
acc used</w>
absor bed</w>
a erial</w>
Wit ness</w>
Willi ams</w>
W is
W arren</w>
V el
V C</w>
U r
U .</w>
Tw enty-
Ten nessee</w>
T ami
Sy ria</w>
Sus an</w>
Stir ling</w>
St ories</w>
Som alia</w>
Sol di
Sm all</w>
Sk y
Scot tish</w>
Scienti sts</w>
S to
S ri</w>
S hi
Rec or
Rec ently</w>
Re public
R on
R omo</w>
R SW</w>
R G</w>
Q atar</w>
Power Point</w>
Portu gal</w>
Po li
Per u</w>
Pep si</w>
Pan banisha</w>
O p
O dys
O L
Nic ole</w>
Nep al</w>
N ick</w>
Medit erranean</w>
Mat t</w>
Margar et</w>
Ma j
L im
L au
L angu
L am
Ke pler</w>
J ack
In di
IM F</w>
I sa
I D</w>
Hy per
Hu h</w>
Haw king</w>
H ur
H ub
H O</w>
G round</w>
G rand
Emi ly</w>
Em ma</w>
Ear ly</w>
E van</w>
Dig ital</w>
Con ference</w>
Compu ter</w>
Clear ly</w>
Ch an
C up</w>
C lu
C lim
Be tter</w>
Be at
Bar ack</w>
Arm strong</w>
Ann oun
Afric an-American</w>
Ac umen</w>
A ges</w>
A L
9 4</w>
9 3</w>
8 6</w>
5 6</w>
4 00,000</w>
4 0-
198 4</w>
1. 3</w>
0 0-
. 5</w>
- foot</w>
zi p</w>
wide spread</w>
wi shed</w>
week ends</w>
we ir
voc al</w>
venti l
vari ables</w>
val ves</w>
v in</w>
v ector</w>
v ar
up date</w>
under graduate</w>
un- So
un-So ok</w>
un lock</w>
un healthy</w>
um an
ultra -
ty po
transl ating</w>
tradi tionally</w>
toler ant</w>
tol l</w>
to wel</w>
ti tled</w>
ti de</w>
ther more</w>
the irs</w>
the id</w>
th an
test os
testos ter
ter ia</w>
ten th</w>
techn icians</w>
te ap
ta d
t aller</w>
synap ses</w>
sy nesthesia</w>
susc ep
super massive</w>
sup pli
sun ny</w>
sub stitute</w>
sub marine</w>
struc tured</w>
stro kes</w>
ste ering</w>
statis tically</w>
star ving</w>
space- time</w>
sna p</w>
smar test</w>
slic es</w>
simul ated</w>
si e</w>
she pher
shap ing</w>
sh allow</w>
seven -
set tle</w>
sear ches</w>
sea food</w>
se am
se aled</w>
scaff old</w>
sc uba</w>
san itation</w>
sa dness</w>
s wee
rupe es</w>
rom an
ro oted</w>
ris m</w>
ri p</w>
ri g</w>
ri ages</w>
revolu tion
replic ation</w>
rele asing</w>
regi stered</w>
re turning</w>
re tain</w>
re tail</w>
re ds</w>
re construct</w>
re bel
rail road</w>
rac es</w>
ra ff
r at
ques tion
qu o</w>
pub erty</w>
pu shes</w>
produc er</w>
priv acy</w>
primor dial</w>
pri mates</w>
pop ulated</w>
pop s</w>
poor ly</w>
poly mer</w>
play ground</w>
plac ing</w>
plac ement</w>
pl otted</w>
piz za</w>
pe pper</w>
pe dal</w>
pay ment</w>
patho logy</w>
par all
p hia</w>
ov ascular</w>
outrage ous</w>
os ion</w>
ori st</w>
orb iting</w>
or n</w>
or able</w>
op tics</w>
o logically</w>
no ble</w>
name se</w>
na tionally</w>
n on</w>
my ths</w>
mor ally</w>
mo tions</w>
mer chan
ment ality</w>
mean time</w>
me ets</w>
me er</w>
mat s</w>
man n</w>
man ages</w>
mag net</w>
m at</w>
loc ate</w>
lo ading</w>
liter ary</w>
ligh tweight</w>
liber als</w>
li fel
le ans</w>
lan e</w>
l ure</w>
kilo gram</w>
k it
ju ana</w>
j ack</w>
issu ed</w>
ir l
invent ors</w>
inv aded</w>
int end</w>
instinc ts</w>
inhab ited</w>
ing- edge</w>
incre mental</w>
in os</w>
in ner
in genu
in er</w>
in ely</w>
immer sed</w>
immen sely</w>
ignor ance</w>
i ma
hur ts</w>
him a</w>
high ways</w>
hi ves</w>
han dy</w>
h r
h alls</w>
gu ided</w>
gre e
grab s</w>
g ery</w>
fung us</w>
ful filled</w>
fra med</w>
fore head</w>
for -
foc uses</w>
fo ol</w>
fo g</w>
finger tips</w>
film makers</w>
ff ed</w>
fel lows</w>
fe es</w>
fa int</w>
f ills</w>
eye bro
explor ers</w>
exhau sted</w>
execu tive</w>
exec ution</w>
exclu sive</w>
exc es
evol ves</w>
evi dent</w>
ev a</w>
etho ven</w>
esp ite</w>
es say</w>
er ally</w>
epide mi
enz ymes</w>
enti tled</w>
end less</w>
employe e</w>
el o
el ites</w>
ed ited</w>
dun es</w>
dra ma</w>
dr on</w>
don ations</w>
don ation</w>
don ated</w>
diver gence</w>
dis semin
dis placed</w>
digi tize</w>
diff usion</w>
di sen
di ous</w>
develop er</w>
descri ptions</w>
depri vation</w>
deman ding</w>
del u
decentr alized</w>
de t
de er</w>
d- up</w>
d une</w>
cy ber</w>
cutt ing-edge</w>
cum ulative</w>
cryst al</w>
critici sm</w>
cra wling</w>
cra shed</w>
coun cil</w>
corru pt</w>
cor respond</w>
cool er</w>
coo kie</w>
cont acts</w>
construc tive</w>
constitu tion</w>
connec tedness</w>
compe tent</w>
commit tee</w>
commis sion</w>
commerci als</w>
comm uni
collap ses</w>
clean er</w>
clean ed</w>
cla p</w>
cl ari
character ized</w>
ch lor
ch e</w>
ch at</w>
cere al</w>
cer am
cas u
cardi ovascular</w>
cabin et</w>
c ad
break throughs</w>
bre w</w>
br icks</w>
boy friend</w>
bo iling</w>
bl ur
bl ink</w>
biolumines cent</w>
bi op
bi ased</w>
be ard</w>
batt le
ban kers</w>
audit orium</w>
au gmented</w>
atten ding</w>
aspi rations</w>
artic ulate</w>
arith metic</w>
arbitr ary</w>
ar tery</w>
ar ming</w>
ar ized</w>
appl ause</w>
appe aling</w>
appar ent</w>
apologi ze</w>
apar theid</w>
anno ying</w>
anim ated</w>
ani um</w>
ance stry</w>
altru ism</w>
alo is</w>
al ter</w>
air ports</w>
agre es</w>
ag on
ag as
ag a</w>
advant ages</w>
adi ly</w>
adel phia</w>
ad vis
ad ventures</w>
aby tes</w>
ab alone</w>
a un
Yel low</w>
Y R</w>
W HO</w>
Viet namese</w>
U se</w>
Tr ust</w>
Tami flu</w>
T uni
T un
Sp eci
Sp ec
Some how</w>
Sch war
Sa ve</w>
S ym
S -
Ro ger</w>
Ro ad</w>
Republic ans</w>
R ose</w>
R ights</w>
Qu ite</w>
Phil adelphia</w>
Per f
Pakistan i</w>
P ap
O .
Nic hol
Na than</w>
Moun tains</w>
Mis s</w>
M R</w>
Leban on</w>
L ank
Ke ith</w>
K y
K han</w>
Ju lia</w>
J C</w>
In tel</w>
Hy un-Sook</w>
Hu dson</w>
Hir os
Had ron</w>
H und
H ou
H it
H em
Gor don</w>
G rou
G old</w>
G alois</w>
Fri ed
FOX O</w>
F ree
F ol
Ex tre
Ear th-
E mer
E ither</w>
E aster</w>
De ath</w>
Dan ish</w>
D own</w>
D imit
D espite</w>
D M
D L</w>
D .C.</w>
Con ven
Comp any</w>
Col om
Col lider</w>
Ci ties</w>
Ch ap
CI A</w>
C uba</w>
C ou
C ir
C au
Buil ding</w>
Bu y</w>
Bu d
Brun o</w>
Bhut an</w>
Ber tie</w>
Be ethoven</w>
Bar ry</w>
B ond</w>
Announ cer</w>
Am anda</w>
A A</w>
9 2</w>
8 7</w>
5 00,000</w>
4 9</w>
20 30</w>
198 9</w>
197 5</w>
1, 100</w>
youn g
y ou
wor n</w>
whi p</w>
weak ness</w>
wavel ength</w>
ware house</w>
war n</w>
wal let</w>
w -
vir ul
vers a</w>
vast ly</w>
vari ed</w>
up loaded</w>
uni fied</w>
under wear</w>
under way</w>
un ite</w>
un folding</w>
uman n</w>
u it</w>
tw ist
tw enti
tu ber
tre a
transl ates</w>
transcen dence</w>
trans duc
trac ked</w>
tra u
tr en
to fu</w>
tin i
tim eline</w>
tici sm</w>
ti stici
three- year-old</w>
thou ght
testoster one</w>
teen th</w>
tax pa
tat or
tain ly</w>
ta h</w>
t ness</w>
t len
t am
sympa thy</w>
swe ar</w>
suscep tible</w>
super no
sugges tions</w>
suc ked</w>
subur bs</w>
submer sible</w>
sub jective</w>
su ms</w>
su le</w>
su ey</w>
stri ps</w>
str at
stimul us</w>
stereotyp es</w>
ste er</w>
statis tic</w>
stand -up</w>
sta tistici
st ap
spo res</w>
sper m</w>
speech es</w>
some place</w>
simpli stic</w>
simil arities</w>
side ways</w>
si ssi
si fied</w>
shou ting</w>
sho re
sh out</w>
sett ings</w>
serv ant</w>
seren di
ser oton
sel ective</w>
schol ars</w>
sche dule</w>
sc rap
sc are</w>
satis fy</w>
sapi ens</w>
sa dly</w>
s- on</w>
s word</w>
rul ed</w>
rig id</w>
rever ber
reve als</w>
reve aling</w>
retr osp
requi rements</w>
replic ator</w>
remot ely</w>
reconci liation</w>
reci pro
re x</w>
re fin
re bel</w>
ran e</w>
rac ial</w>
ra il</w>
r s.</w>
r inging</w>
r ank</w>
r able</w>
que ens</w>
pun c
pub lication</w>
protec tive</w>
proj ecting</w>
program mer</w>
prefer red</w>
prefer ences</w>
pre vail
pre servation</w>
pr one</w>
pp i</w>
pos ture</w>
pop ped</w>
person nel</w>
persi st</w>
percep tual</w>
pean uts</w>
pat ents</w>
passen gers</w>
part ments</w>
para dise</w>
par an
over lap</w>
os evel
osevel t</w>
os copy</w>
orchestr as</w>
op position</w>
om at
oce an
o ved</w>
o tion</w>
num er
non- profit</w>
ni an</w>
new ly</w>
ner d</w>
navi gation</w>
n ouri
mis sile</w>
minim ize</w>
migh ty</w>
middle- class</w>
micro wave</w>
mess ing</w>
measu rement</w>
mass -
mari juana</w>
mar gin</w>
manufac turers</w>
manipul ated</w>
ma tions</w>
m oud</w>
los er</w>
lo ver</w>
list en
lingu istic</w>
liber ation</w>
leg ally</w>
lea ther</w>
le is
lar vae</w>
la zy</w>
l ym
l um
l ousy</w>
je al
jac ent</w>
j uni
j ected</w>
ir rever
ir relevant</w>
intell ect</w>
inst al
instal lations</w>
in spec
in secure</w>
in ject</w>
in hal
in door</w>
in corporate</w>
in corpor
in adequate</w>
impro ves</w>
im plants</w>
im planted</w>
im mortal</w>
im balance</w>
il literate</w>
il -
hum p
hom osex
heli x</w>
heart beat</w>
head aches</w>
hea vens</w>
har sh</w>
hac ker</w>
h ir</w>
h h</w>
h ack</w>
guid elines</w>
gre ed</w>
gras ses</w>
grand mothers</w>
gra ders</w>
glo ves</w>
geome tric</w>
gener ator</w>
gen omics</w>
gan gs</w>
g osh</w>
fun eral</w>
fr iction</w>
floo ds</w>
fl ames</w>
fl ags</w>
fish ery</w>
film maker</w>
fi x
fair ness</w>
f ten</w>
f lock</w>
f ill
extrac ted</w>
explo itation</w>
explo de</w>
explic itly</w>
expe ditions</w>
exp end
excep tional</w>
eth n
est rogen</w>
escap ed</w>
environ ment
enthusi astic</w>
empa th
embry onic</w>
el ess
e ps</w>
e ager</w>
dre ad
dr ank</w>
down stairs</w>
do ve</w>
distr acted</w>
disgu sting</w>
disa d
disad vant
di sh
depen ded</w>
den omin
demo graphics</w>
deliber ately</w>
datab ases</w>
d ging</w>
d able</w>
cur ved</w>
cu bic</w>
cosmo logy</w>
correspon ding</w>
cor tical</w>
contrac ts</w>
contam inated</w>
contain ers</w>
consist ently</w>
conf using</w>
compreh ensive</w>
compla ined</w>
competi tors</w>
commis sioned</w>
com et</w>
co ach</w>
cl oned</w>
ch at
centi meters</w>
cell ul
cell phones</w>
cell o</w>
car ved</w>
car ve</w>
car cin
ca m</w>
bul k</w>
brut al</w>
bron ze</w>
bo thered</w>
bo oms</w>
blog gers</w>
ble eding</w>
bl end</w>
bicy cles</w>
bi kes</w>
belon ging</w>
bel oved</w>
ba ker</w>
az z
automa tic</w>
aur a</w>
attem pting</w>
attem pted</w>
athle te</w>
at able</w>
as ym
as sign</w>
archa e
arch ive</w>
ar in</w>
appar atus</w>
anticip ated</w>
anti angiogenic</w>
anthropo logy</w>
announ cement</w>
ann a</w>
ang ular</w>
an ist</w>
ambi a</w>
ais le</w>
ag ina</w>
aesthe tics</w>
aca demics</w>
ac cess
aby te</w>
abstr action</w>
ab normal</w>
a wards</w>
a tives</w>
Yor ker</w>
Y esterday</w>
Y emen
Wor king</w>
Wh ole</w>
W ed
Vir tual</w>
V enter</w>
Ul timately</w>
UC LA</w>
U sually</w>
Turk ish</w>
Tur n</w>
Tom orrow</w>
TED ster</w>
T ype</w>
T ed</w>
Stu dents</w>
So on</w>
Si de</w>
Sho ots</w>
Ser vice</w>
Ser gio</w>
Sen ate</w>
S tr
Rou ge</w>
Ro ots</w>
Ro osevelt</w>
Ro b</w>
Ri ver
Rac hel</w>
R and
Po wer</w>
Phot os
Per son
P in
O ften</w>
N ot
N ev
N M</w>
Mo vement</w>
Mer maid</w>
Mah moud</w>
Mag az
Ma x</w>
Ma p</w>
M t</w>
M rs.</w>
M ola</w>
M illen
M ari
M T
Li ve</w>
LE Ds</w>
L ess</w>
L earning</w>
L as</w>
K ri
K ab
J ord
J amie</w>
Int ellig
I ri
I de
I DE
IDE O</w>
Ho ly</w>
Hit ler</w>
H us
H an
G ran
G ot</w>
For get</w>
Fo x</w>
Ex actly</w>
Europe ans</w>
En gin
E ve</w>
E le
E B</w>
Da ve</w>
D omin
D I
D .
Clim ate</w>
Cer tainly</w>
C op
C lose</w>
C Ds</w>
Bru ce</w>
Bon o</w>
Bo ok</w>
Ben ki</w>
Bab ylon</w>
Bab y</w>
B s</w>
B an
B ac
Associ ation</w>
Archi e</w>
Ar ts</w>
An dy</w>
A ut
A qu
A gency</w>
A G</w>
8 .
4 6</w>
2. 5</w>
2, 500</w>
199 6</w>
198 5</w>
19 00</w>
15 th</w>
1 60</w>
1 10</w>
-in- law</w>
zo o</w>
zer os</w>
ynam ics</w>
y- based</w>
y able</w>
wrec k</w>
world- class</w>
work shops</w>
wor ries</w>
wa x</w>
w els</w>
volcan oes</w>
volcan o</w>
vol ts</w>
vol a
vo ic
visu alizing</w>
vie wers</w>
valu ed</w>
us able</w>
ur gent</w>
un sustainable</w>
un cles</w>
un a</w>
um onia</w>
um bre
umbre l
ul ties</w>
uc ky</w>
tur b
tru st
trig gers</w>
tribu te</w>
trade- offs</w>
tra tion</w>
tox in</w>
tor na
toil ets</w>
to bac
tobac co</w>
tim ber</w>
ti tion
ti re</w>
the ft</w>
techn ician</w>
ta tives</w>
ta sted</w>
t asking</w>
t apped</w>
swit ches</w>
swa m</w>
surpri ses</w>
suff ers</w>
subsi dies</w>
sub urban</w>
su mer
stron gest</w>
stri ve</w>
stran gely</w>
stra w</w>
stan ts</w>
st rous</w>
st ole</w>
st ell
spar k</w>
sp ouse</w>
sp ines</w>
sp er</w>
sp ends</w>
sp aw
sp ace
so ils</w>
sna ke</w>
small- scale</w>
sli me</w>
six -year-old</w>
sissi ppi</w>
simil arity</w>
si e
shor tage</w>
sho w
shar es</w>
sha hi
sett lement</w>
separ ating</w>
sel ler</w>
secre tly</w>
se duc
scholar ship</w>
scar city</w>
sc ram
sc ars</w>
sc ape</w>
satis fying</w>
sat ur
sandwich es</w>
sa il</w>
s sim
s ought</w>
s ick
s ect</w>
s ank</w>
s ali
ru b</w>
ro ts</w>
ri p
rhe tor
restric ted</w>
respon sive</w>
respon ds</w>
respec tful</w>
requ ests</w>
ren ted</w>
remin der</w>
rel uc
regar ded</w>
reg ulated</w>
reg on</w>
refriger ation</w>
refer ences</w>
realiz es</w>
re plied</w>
re m
re generative</w>
re actors</w>
rap h</w>
r ating</w>
quot es</w>
quanti ty</w>
pup pet</w>
pul sion</w>
proto col</w>
prosp ect</w>
pro ving</w>
pro hi
pri zes</w>
predic ts</w>
pra yers</w>
pou red</w>
pos edly</w>
pleas ures</w>
pl au
phra ses</w>
pho bic</w>
perpe tr
perfor man
pen alty</w>
pedestri an</w>
pe ssim
pay off</w>
pa ds</w>
p ne
pne umonia</w>
p he
p acks</w>
out -of-
oun ced</w>
om ist</w>
offic ers</w>
off ensive</w>
obsc ure</w>
oblig ation</w>
o e
nutri tional</w>
note book</w>
nor theast</w>
no vels</w>
no ises</w>
nit ric</w>
nin th</w>
nic us</w>
net t</w>
nes day</w>
ne sts</w>
multi verse</w>
mu ff
motiv ates</w>
mon thly</w>
mod eled</w>
mo ck
mis m</w>
min eral</w>
millen nium</w>
metaphor ical</w>
memor ize</w>
mat ernal</w>
mag g
magg ots</w>
loc k
lo ops</w>
liz ation</w>
lin e
lim itation</w>
life like</w>
liber ty</w>
li ti
leg ged</w>
le gen
lau re
la sted</w>
l ump</w>
l ings</w>
l acking</w>
knoc ked</w>
kno b</w>
ket ball</w>
k u
k ar
jun ction</w>
jud ges</w>
joy ful</w>
it is</w>
is tically</w>
ir man</w>
inv o
introver ts</w>
intrigu ed</w>
intric ate</w>
inter galactic</w>
inter f
interf ere</w>
inten sely</w>
instinc tively</w>
insi st</w>
ingenu ity</w>
infl ation</w>
induc ed</w>
ind ul
inci dence</w>
in qu
in organic</w>
in doors</w>
in ative</w>
imp ose</w>
im port</w>
im por
im itation</w>
il ey</w>
identi ties</w>
ide ological</w>
ide als</w>
i Po
iPo ds</w>
hus bands</w>
hur ricane</w>
humming bird</w>
hu g</w>
hor se
holi stic</w>
hol m</w>
high- resolution</w>
hat ma</w>
har mon
hand ic
ha ired</w>
h our
h o</w>
h ello</w>
h ats</w>
groun ded</w>
groun d
gra zing</w>
gra tification</w>
gra di
gover ned</w>
go lia</w>
gl as</w>
gi raff
gi fted</w>
ger m</w>
genu inely</w>
ge ments</w>
ge ars</w>
gam ma</w>
gam ing</w>
gad gets</w>
g le
g gles</w>
func tionality</w>
fron t-
fore cast</w>
for bi
fol der</w>
flu ids</w>
fit ted</w>
fit ness</w>
fair y</w>
fac ulty</w>
fa x</w>
f MRI</w>
expres sing</w>
explic it</w>
experim entation</w>
ev es</w>
es el
er on</w>
er ase</w>
epilep sy</w>
ener gi
en vision</w>
empower ment</w>
emer gent</w>
elev ation</w>
ei gh</w>
edit ors</w>
econ ds</w>
ea k</w>
e u</w>
e ste
e dible</w>
domes tic
divi d
distur bed</w>
dis cre
diagra ms</w>
di ze</w>
detec tors</w>
desi rable</w>
den y</w>
del usion</w>
d rought</w>
cur ator</w>
cu ad
crow d
cra wl</w>
cr ater</w>
cor related</w>
cook ies</w>
contag ious</w>
confir m</w>
confer ences</w>
con sumer
con den
compe t
comp ul
communi st</w>
comm ands</w>
comb inations</w>
com plain</w>
co res</w>
co chlear</w>
clin ically</w>
ck holm</w>
cigaret tes</w>
char is
ch ester</w>
cent ric</w>
cataly st</w>
casu alties</w>
cartoon ist</w>
cap turing</w>
cap sule</w>
ca stle</w>
ca fe
byp ass</w>
bur ns</w>
bul l</w>
bu z
bu le</w>
broad casting</w>
brilli ance</w>
br ate</w>
bloc king</w>
bl ind
biom imicry</w>
bin ds</w>
bi ome
bee keepers</w>
bas ics</w>
bar a</w>
bal ances</w>
back ward</w>
b und
b lob
b less</w>
b ending</w>
b ats</w>
au top
au g
atmospher ic</w>
astro lab
assem bling</w>
arran gement</w>
arch et
apoc al
apocal yp
ap ol
anz i</w>
announ cing</w>
anci es</w>
amp hi
ambul ance</w>
ali e</w>
al together</w>
aer od
adv anc
adolesc ents</w>
ad jacent</w>
achiev ements</w>
ac commod
ab used</w>
a unt</w>
a ka</w>
Wor k</w>
Wor d</w>
Wed nesday</w>
Wal ter</w>
Wal mart</w>
W r
Ver meer</w>
V on</w>
U shahi
U h</w>
Tru e</w>
Tre ating</w>
T umor</w>
T ric
T N
T D</w>
Sud hir</w>
Sto ckholm</w>
Ser ge
Se x</w>
Schwar z
Sad dam</w>
Sa fe
S low</w>
Res er
Re ed</w>
Ra ise</w>
R el
Po lice</w>
Perf ect</w>
Pau lo</w>
P entagon</w>
P I
O thers</w>
O regon</w>
O liver</w>
O ld</w>
N ollywood</w>
N either</w>
Mur ray</w>
Mis sissippi</w>
Millen nium</w>
Mar yland</w>
Mar shall</w>
Magaz ine</w>
Mach ine</w>
Ma hatma</w>
M olas</w>
M ind</w>
M iller</w>
M es
M a</w>
Le ft</w>
Langu age</w>
Lang ley</w>
L ev
L en
L ater</w>
L ap
L abs</w>
L abor
K T</w>
Jus tice</w>
Ju lian</w>
Jim my</w>
Jas on</w>
Jack son</w>
In i
In formation</w>
I l
I g
I V</w>
Hung arian</w>
Hub ble</w>
Ho locaust</w>
Hiros hima</w>
Hind u</w>
HIV- positive</w>
H ot
H mm</w>
Gre ece</w>
Gir ls</w>
Gi ven</w>
Ge h
G race</w>
G od
Fin anci
F ra
F our
Ex pl
Ex cell
Engin e
E cuad
Du bai</w>
Di plom
Demo cratic</w>
D J</w>
D D
Cor por
Coper nicus</w>
Co ch
Che e
Bri dge</w>
Bon obo</w>
Bi osphere</w>
Ber n
Beli eve</w>
Bec k</w>
Be tween</w>
B oo
B ad</w>
Austri a</w>
Aur ora</w>
Al ready</w>
A I</w>
A .
5 3</w>
5 0th</w>
2 6
199 3</w>
199 2</w>
198 6</w>
198 3</w>
198 2</w>
197 6</w>
197 3</w>
194 9</w>
0- year-old</w>
- year</w>
yo gur
won d
wond rous</w>
whist le</w>
whis per
whi sper</w>
week ly</w>
wea ving</w>
war d
wan a</w>
w w
w ounds</w>
w ob
w ear
visu als</w>
vision ary</w>
visc eral</w>
vir gin
viol ate</w>
vill agers</w>
vie w
vibr ate</w>
veter ans</w>
ver ge</w>
ver bs</w>
v in
v ascular</w>
v as
urban ization</w>
ur anium</w>
up stairs</w>
unic ations</w>
uni form
un s</w>
un related</w>
un ky</w>
un fold</w>
umbrel la</w>
ty ard</w>
tw in</w>
tw i
tur tles</w>
tur tle</w>
tuber cul
tubercul osis</w>
tru sting</w>
transfer red</w>
transduc er</w>
tou rism</w>
tor n</w>
tor ing</w>
tor al</w>
toler ate</w>
to- peer</w>
til t</w>
tic ut</w>
tic king</w>
ti er</w>
three- quarters</w>
the on</w>
ter restrial</w>
ten ding</w>
ten ded</w>
tecton ic</w>
techno logists</w>
teap ot</w>
tax i</w>
t- based</w>
t ucked</w>
t te</w>
t ched</w>
t ans</w>
swe at
surroun ds</w>
sur ge</w>
superno va</w>
super power</w>
sug ars</w>
substan tially</w>
su peri
stun ning</w>
stri pped</w>
stra in</w>
stim ulated</w>
stig ma</w>
sta kes</w>
spon sored</w>
speci alists</w>
sm ug
ski ing</w>
simul ator</w>
side walk</w>
si p</w>
si gh
shore line</w>
shi re</w>
sha dows</w>
sedi ment</w>
se us</w>
se ment</w>
scri p
sched uled</w>
satur ated</w>
sa r</w>
sa iling</w>
s sors</w>
s late</w>
s ari</w>
rub ble</w>
ru shed</w>
ru in</w>
rol l
ro tation</w>
ro om
righ tly</w>
rich ness</w>
rh ino
rewar ded</w>
revel ation</w>
respec ts</w>
respec tive</w>
resem ble</w>
represen tations</w>
ren he
renhe it</w>
refl ecting</w>
ref ers</w>
recei ver</w>
re tri
re sort</w>
re productive</w>
re inventing</w>
re design</w>
rat ings</w>
r ated</w>
que z</w>
quar ks</w>
quanti tative</w>
pur pos
publi sher</w>
prov ince</w>
pros the
progres sive</w>
proce ed</w>
proble m-
pro ves</w>
pro pri
pri mal</w>
pres ent-
preci pit
pre cau
practic ed</w>
prac tition
pra h</w>
pp ines</w>
pos ts</w>
pop ping</w>
po ols</w>
pit ches</w>
pi gmentation</w>
physi ological</w>
per y</w>
par tially</w>
p ag
pag ne</w>
outra ge</w>
ou x</w>
or th
or ch
or angu
oper ators</w>
op ed</w>
op -
on set</w>
om ers</w>
ol er
nur sing</w>
nucle i</w>
ni e</w>
neuro logical</w>
near -
n t</w>
n ical</w>
mun ici
mu tually</w>
motor cycle</w>
mon sters</w>
mon opo
mo des</w>
mis sion
mir ac
min or</w>
migr ate</w>
mess ed</w>
memor ized</w>
mem bran
medi eval</w>
me tics</w>
me e</w>
mathema tically</w>
mast ery</w>
mas ks</w>
margin s</w>
mar sh
mar riages</w>
manufac tured</w>
man- made</w>
man gro
ma ma</w>
m ally</w>
lym ph</w>
loy alty</w>
log ged</w>
lo wered</w>
lo gues</w>
li ans</w>
leis ure</w>
le dge</w>
le af
lam b</w>
la va</w>
la kes</w>
l y
kin dly</w>
ke en</w>
jug gl
j er
it re
it ch</w>
ir onic</w>
inva sion</w>
interven e</w>
inter -
inte stine</w>
ins ula</w>
inj ected</w>
ing es</w>
inf lic
indic ated</w>
in tra
in go</w>
in fer
in ent</w>
in complete</w>
in cl
in ating</w>
im prison
im press</w>
ill in</w>
ic illin</w>
i or
hum idity</w>
hum ara</w>
hil ar
hi o</w>
hi ke</w>
hi gan</w>
he mo
he els</w>
he dron</w>
hand some</w>
ham mad</w>
hall way</w>
h renheit</w>
h ran</w>
guarante ed</w>
graph ical</w>
go od-
gh ost</w>
gh arial</w>
gen ious</w>
gen esis</w>
ge ons</w>
g yrus</w>
g our
g os
g ang
free ze</w>
fra u
fra ming</w>
fr anch
for gi
foc al</w>
flouri shing</w>
floo ding</w>
fla vors</w>
fla shing</w>
fi dd
ff ing</w>
fe at
fa de</w>
f red</w>
f i</w>
f ans</w>
extre mes</w>
extinc tions</w>
explos ions</w>
expend it
exp ands</w>
exist ential</w>
exces sive</w>
excer pt</w>
ex hilar
ex cruci
evolu tion
ev an
este em</w>
er osion</w>
er at
entertain ing</w>
ener ge
en ched</w>
embrac ed</w>
em it
ell ers</w>
e- up</w>
e vers</w>
dys lex
dum ped</w>
dri ed</w>
dre sses</w>
domin ate</w>
do s</w>
divor ce</w>
divi sions</w>
dispos al</w>
dis played</w>
dis c</w>
dis belief</w>
diplom atic</w>
diplom at</w>
dic tator
di vers</w>
di min
deter ior
depres sants</w>
def ending</w>
deci ph
dec e
dang ers</w>
daf -2</w>
d y-
d anced</w>
cut ter</w>
curr ents</w>
cros ses</w>
cro ch
cre epy</w>
cra m
cra fted</w>
cr ust</w>
cour tyard</w>
cost- effective</w>
contribu tions</w>
contex ts</w>
confir med</w>
compos ite</w>
compli cations</w>
compan ion</w>
comp ose</w>
comp act</w>
comm erce</w>
colli de</w>
collabor ator</w>
co bra</w>
co ali
char ts</w>
chap ters</w>
ch r
ch op
certific ate</w>
cen ium</w>
celebr ating</w>
ce l</w>
catalo g</w>
cas ual</w>
carcin ogen
carb ons</w>
car riage</w>
car bs</w>
cap tures</w>
calcul ators</w>
calcul ator</w>
ca tive</w>
c ue</w>
c row</w>
c ils</w>
butter flies</w>
bu g
broad band</w>
br anding</w>
book store</w>
bom bing</w>
bom bar
bo oth</w>
bio tic</w>
ber -
ben ign</w>
beli ever</w>
be ats</w>
be ams</w>
batt les</w>
bas ketball</w>
ban k
ban ana</w>
bal lot</w>
bal let</w>
back grounds</w>
ba o</w>
ba kery</w>
b os
b ins</w>
awar ded</w>
autom ated</w>
auto bio
au ction</w>
ast ounding</w>
arri ving</w>
arran gements</w>
appro val</w>
anthropo logists</w>
anthropo logist</w>
an ism</w>
an gel</w>
alig ned</w>
air -
ag ging</w>
adul thood</w>
adolesc ent</w>
ach ers</w>
accum ulation</w>
ac ker</w>
a than</w>
a j
a humara</w>
Z K</w>
Y ale</w>
Wi red</w>
War ner</w>
Victori an</w>
V agina</w>
Ushahi di</w>
Un der</w>
US DA</w>
Tr ans
To yota</w>
Tit anic</w>
Th ough</w>
Tar ahumara</w>
Tai wan</w>
T own</w>
T ext</w>
T em
Super man</w>
Stu dio</w>
Star bucks</w>
So bule</w>
Si oux</w>
Sa int</w>
S ound</w>
S op
S ci
S atan</w>
S am</w>
Rus sell</w>
Ri ft</w>
Re al</w>
Re ady</w>
R ush</w>
R an
R ab
Pro te
Phili ppines</w>
Ph ys
Palestini ans</w>
Palest ine</w>
PE C</w>
O prah</w>
O PEC</w>
Nor we
Nev ada</w>
Ne umann</w>
Naz i</w>
N ine</w>
N et</w>
N avy</w>
N ar
N O
N I
Mu hammad</w>
Mos cow</w>
Moder n</w>
Mo ving</w>
Mini stry</w>
Mic higan</w>
Mc C
Mag ic</w>
M em
Lu ke</w>
Le ad
Lap top</w>
L is
L evi
L e</w>
Kh mer</w>
Ken yan</w>
Kam en</w>
K S</w>
Ju da
Jord an</w>
J ur
Iraq i</w>
In dependent</w>
I P</w>
I N
I -
Hon ey</w>
Hon dur
H op
H 5
H5 N1</w>
Gu ar
Gre y</w>
Gra ham</w>
Gen ome</w>
Gar den</w>
Fried man</w>
Financi al</w>
Fa ther</w>
Fa hrenheit</w>
F ine</w>
F BI</w>
Excell ent</w>
Environ mental</w>
En ligh
Egyp ti
E. U.</w>
E den</w>
E d</w>
E S</w>
E .</w>
Dou g</w>
Do ha</w>
Dimit ri</w>
Diff erent</w>
Di am
Democr ats</w>
D or
D er
D D</w>
Cu ban</w>
Connec ticut</w>
Con servation</w>
Comm andments</w>
Col orado</w>
Coch rane</w>
Clu b</w>
Cho ir</w>
Chi ef</w>
Ch icken</w>
C ross</w>
C lau
C e
C .
Bulg aria</w>
Bri g
Bra in</w>
Bar bara</w>
Bal k
Bab ies</w>
B and-
Au th
An th
Ama zing</w>
Am ong</w>
Ai mee</w>
Ach illes</w>
A gr
A g
A BC</w>
8 9</w>
7 0,000</w>
6 8</w>
6 2</w>
5 4</w>
197 4</w>
12 th</w>
. 7</w>
y m</w>
x- ray</w>
work shop</w>
woo d
win -
wat t-
warm th</w>
vo res</w>
vivi dly</w>
visit ors</w>
vir gin</w>
vi bration</w>
ver tically</w>
vege tation</w>
ve iled</w>
vag ue</w>
vag inas</w>
va o</w>
v ory</w>
v icious</w>
v als</w>
ut ches</w>
unimag inable</w>
unbeliev ably</w>
un certain</w>
un c
un aware</w>
um ination</w>
ul ates</w>
ucle ar</w>
u tility</w>
u el</w>
type face</w>
tu b</w>
trou bling</w>
trium ph</w>
trig gered</w>
tri fied</w>
treat y</w>
tre ad
transmit ter</w>
trans plants</w>
trans national</w>
tr um
tr ance</w>
to- day</w>
ti um</w>
ti des</w>
thum b
thro wa
thri ve</w>
thre aten</w>
thre ads</w>
thin ess</w>
therap ist</w>
ther wise</w>
testi mony</w>
ter- gather
tem plate</w>
te se</w>
t ally</w>
system ic</w>
swit ching</w>
sw ir
suspec ted</w>
super computer</w>
sup posedly</w>
sub conscious</w>
su shi</w>
su ed</w>
stun ned</w>
streng th
stre aming</w>
strat osphere</w>
str o</w>
standar dized</w>
st ling</w>
spir its</w>
spi kes</w>
speci alize</w>
speci alization</w>
spe eding</w>
sp elled</w>
sor ship</w>
so m</w>
sna ils</w>
sm en</w>
sk ins</w>
sk in
simpli fy</w>
sie ge</w>
shut tle</w>
sh ers</w>
seroton in</w>
ser vers</w>
semin al</w>
self- organization</w>
sel ecting</w>
seas onal</w>
sculp tor</w>
scre en
sci ssors</w>
scenari os</w>
scal able</w>
sc and
sal ad</w>
sa ver</w>
sa ges</w>
sa d
s ound
rul er</w>
ru gu
rugu ay</w>
ru g</w>
rough ness</w>
room mate</w>
ron ym</w>
rig orous</w>
ri pped</w>
ri der</w>
reven ge</w>
requi rement</w>
represen tatives</w>
repor ters</w>
renew ables</w>
reliev ed</w>
recor dings</w>
recep tors</w>
re tail
re ply</w>
re moving</w>
re moves</w>
re invent</w>
re create</w>
re construction</w>
re cl
re ception</w>
re ar</w>
re adily</w>
re acting</w>
re a</w>
rain water</w>
rain bow</w>
ra mi
ra m</w>
r yp
quick er</w>
pur se</w>
pu ppy</w>
protec ts</w>
pros cenium</w>
proph et</w>
projec tor</w>
pro xim
pro tons</w>
pro of
presum ably</w>
predat ory</w>
pre sti
pre serving</w>
pr ince</w>
pp ies</w>
posi tively</w>
pos it
por no
pop -up</w>
poll s</w>
polic emen</w>
pol ite</w>
pl ywood</w>
pl enti
plenti ful</w>
pione ering</w>
pione er</w>
pil gri
pi gmented</w>
photosyn thesis</w>
photograph ing</w>
pha ses</w>
ph y</w>
persu a
pen is</w>
pen icillin</w>
pen ding</w>
peer- to-peer</w>
pe tals</w>
pe l</w>
pas sport</w>
pas sionately</w>
par t-
pal ace</w>
pa vi
p raise</w>
p ore</w>
p au
oxy gen
over l
over fishing</w>
orphan age</w>
organiz ational</w>
on th</w>
on esel
onesel f</w>
on dri
om al
oll en</w>
ograp her</w>
offici ally</w>
occu pa
o is</w>
nutri ent</w>
ni st</w>
ni fer</w>
new s
nes ota</w>
ner dy</w>
nee ding</w>
nanome ters</w>
n acle</w>
mys tical</w>
mon th-
mon k</w>
mo ist
mir acles</w>
min gly</w>
mim ics</w>
milli meters</w>
methodo logy</w>
met ropolitan</w>
mer ging</w>
mean while</w>
me ad
mead ow</w>
mat tered</w>
marsh m
mar ries</w>
manipul ating</w>
mand ate</w>
man ure</w>
make up</w>
main tained</w>
main frame</w>
ma x</w>
m um
m op
m ons</w>
loc king</w>
lob es</w>
loa f</w>
liz es</w>
lit er</w>
ligh test</w>
life times</w>
lic it</w>
li qui
li min
lex icon</w>
lear ner</w>
le ys</w>
le um</w>
le m</w>
la titude</w>
l adder</w>
kni ves</w>
kill ers</w>
k ansas</w>
itre ya</w>
iter ation</w>
it ally</w>
it a</w>
is ing</w>
ir rit
ir onically</w>
ir a</w>
intui tions</w>
inti mid
interpre ted</w>
inter ro
insur gency</w>
inser t</w>
indic ating</w>
in genious</w>
imm unity</w>
imag inations</w>
im a</w>
illustr ates</w>
illi an</w>
ill umination</w>
ignor ant</w>
idi ot</w>
ide alism</w>
i res</w>
hydro carbons</w>
hu b</w>
hos ts</w>
hos tility</w>
honey bees</w>
hi stories</w>
her d</w>
helicop ters</w>
head phones</w>
head ache</w>
he sive</w>
haz ard</w>
hand s-on</w>
ha ul</w>
h oc
h ence</w>
gu ts</w>
great- great-
grass land</w>
gra sp
good bye</w>
gh t-
gh dad</w>
gener ators</w>
gene tici
gen omic</w>
ge ological</w>
ga it</w>
g y-
fundam ent
fu eled</w>
fronti ers</w>
free doms</w>
fra gmented</w>
forgi veness</w>
for um</w>
for getting</w>
for aging</w>
fool ed</w>
fo li
fl utes</w>
fl our</w>
fl ed</w>
fl atten
fire men</w>
finger print</w>
fin s</w>
fil ming</w>
fi ghts</w>
fe e</w>
fashi on
fai ths</w>
fac ade</w>
fabric ation</w>
f ty</w>
extre mism</w>
extra -
expres sive</w>
exp en
exec ute</w>
ex ports</w>
evapor ate</w>
evan ge
ev o</w>
et y-
et ty</w>
establi shment</w>
eri ously</w>
eri e</w>
er r
ep it
ent ries</w>
ent ine</w>
enjo yable</w>
ener gies</w>
en sla
en d-
en berg</w>
em bassy</w>
elu sive</w>
ell ular</w>
ech o</w>
ec tors</w>
ec tom
ec es</w>
e- to-
dy e</w>
dum ping</w>
du g</w>
dri p</w>
dread ful</w>
down hill</w>
don ate</w>
divid end</w>
disper sed</w>
disp ute</w>
disp ar
dispar ate</w>
differenti ate</w>
diagnos tics</w>
di m
di gest</w>
di ary</w>
desper ation</w>
deser ts</w>
deplo yment</w>
denomin ator</w>
den ied</w>
den ed</w>
de va
day- to-day</w>
damag ing</w>
d u</w>
d addy</w>
cul t</w>
cru x</w>
crow d-
croch et</w>
cri tic</w>
cri ses</w>
cre di
crac ies</w>
cor ds</w>
cop s</w>
cool ed</w>
coo lest</w>
conver ting</w>
contribu tes</w>
contem plate</w>
concep tions</w>
concent rations</w>
con fusion</w>
competi tions</w>
commun ity-
collec tor</w>
collec tions</w>
cogni tion</w>
cockro ach</w>
co ins</w>
co ding</w>
co ated</w>
clou dy</w>
cl ed</w>
chi efs</w>
chem ists</w>
cheap ly</w>
che wing</w>
che ated</w>
char ging</w>
cham pagne</w>
cham bers</w>
centr alized</w>
cell ed</w>
care ers</w>
campaig ning</w>
cab in</w>
c one</w>
buil der</w>
brow se</w>
bra kes</w>
br ac
bot tlen
bo t</w>
bo ost</w>
bo ils</w>
bo il</w>
blog osphere</w>
blob s</w>
blo b</w>
ble ssing</w>
black- eyed</w>
bir d
biot ech</w>
bi b
ber ries</w>
be st-
be having</w>
be dro
be ast</w>
be aring</w>
b ell
ax e</w>
awa k
autonom ously</w>
att end</w>
at re</w>
at eral</w>
at er
at -
astron auts</w>
aspi ration</w>
arr anged</w>
ar ises</w>
ar ded</w>
ar c</w>
appl au
appe ti
ap e
announ ce</w>
ani mations</w>
anatom ical</w>
analy tical</w>
an onym
an omal
am y
am ents</w>
am ble</w>
all ed</w>
align ment</w>
algorith mic</w>
al pha</w>
al arming</w>
aj evo</w>
aff ection</w>
advoc acy</w>
adop ting</w>
ad ren
activ ation</w>
ac ronym</w>
a dic</w>
Y o</w>
Won der
Ven ice</w>
V- Day</w>
V s</w>
U ruguay</w>
Tw o-
Tro y</w>
Th ous
Te hran</w>
T ot
T im
Sur vey</w>
Sub -
Su sie</w>
Stu dent</w>
Stan ley</w>
Sou theast</w>
Scienti fic</w>
Sar ajevo</w>
SO PA</w>
S wa
S w
S ort</w>
S hor
S ene
S adly</w>
S E</w>
Ros ling</w>
Ron ald</w>
Ro y</w>
River side</w>
R un
R ice</w>
R and</w>
Pla to</w>
Pi er
Photos hop</w>
PI PA</w>
P .</w>
Or chestr
O ver
O ut
O therwise</w>
O ops</w>
Norwe gian</w>
No ah</w>
Nichol as</w>
Ne tra</w>
Ne il</w>
N u
Mon golia</w>
Mo bile</w>
Mis sion</w>
Min nesota</w>
Mic hel
Mi ami</w>
Mas low</w>
Mand arin</w>
Mal tese</w>
Ma y
Ma itreya</w>
M uch</w>
M s</w>
M ama</w>
Loo ks</w>
Lin d
Li ving</w>
L en</w>
K no
K is
K ir
K anzi</w>
Juda ism</w>
Jon as</w>
Jen nifer</w>
Isa ac</w>
Inno vation</w>
Hund reds</w>
Hom er</w>
Hi sp
He brew</w>
He al
HI N</w>
H ome</w>
H ol
H an</w>
Guar dian</w>
Gu inea</w>
Geh ry</w>
Ge tting</w>
Gall ery</w>
Gal vao</w>
GP HIN</w>
G s</w>
G len
G az
G ary</w>
G B</w>
Fi elds</w>
F ro
F orest</w>
F ly</w>
F ant
F air</w>
Ex xon</w>
Earth- like</w>
EE G</w>
E nd</w>
E is
E igh
E 8</w>
Du ke</w>
Di ana</w>
De pression</w>
DD T</w>
D ev
D av
Corpor ation</w>
Ch ange</w>
Cap tain</w>
Cam eron</w>
C ent
C en
C at
C P</w>
C L</w>
Bro wn
Bo ard</w>
Bi o
Beau tiful</w>
Bat man</w>
Bar bie</w>
Balk ans</w>
Bal i</w>
Ba ghdad</w>
B ring</w>
B om
B its</w>
B -
Austr alian</w>
Ar kansas</w>
Antar ctic</w>
Americ as</w>
Al- Qaeda</w>
Al fred</w>
A ye</w>
A venue</w>
A li
8 4</w>
7 7</w>
7 4</w>
7 3</w>
7 ,
3 5,000</w>
3 ,
2 2
196 7</w>
196 2</w>
19 18</w>
10 th</w>
1, 200</w>
- free</w>
z e-
yogur t</w>
ynam ic</w>
ym ers</w>
yi elds</w>
y elling</w>
x net</w>
wr ong
wor thiness</w>
what not</w>
we ed</w>
w iz
w ears</w>
volunte ered</w>
virtu es</w>
vibr ant</w>
vi ous</w>
veter an</w>
venti lation</w>
ve tica</w>
v on</w>
v age</w>
uti lit
uri ti
ur ine</w>
up load</w>
unexp lored</w>
unemplo yment</w>
under estimate</w>
und ane</w>
un to</w>
un ted</w>
un ra
un limited</w>
un finished</w>
uc ose</w>
u ph
u k
u ing</w>
typ ed</w>
ty ran
tw enty-
tu toring</w>
tu tor</w>
tro pics</w>
tri pled</w>
tread mill</w>
trea ties</w>
tre ats</w>
transforma tions</w>
transcen dent</w>
trans forms</w>
tr unks</w>
tr i</w>
tough er</w>
tou rists</w>
to ken</w>
time- lapse</w>
ti tan
ti sts</w>
ti gers</w>
ti fying</w>
thought ful</w>
thor ough
thi est</w>
the st</w>
tes tic
telec om
te ddy</w>
te am
tab le
t apes</w>
syn chr
synchr ony</w>
sy rin
syrin ge</w>
swe eping</w>
swe ep</w>
swal low</w>
sw ine</w>
super natural</w>
super markets</w>
sup press</w>
sun glasses</w>
subur bia</w>
sub str
sub set</w>
stor ing</w>
sti r
sti ff</w>
stat ues</w>
star tling</w>
stan bu
stanbu l</w>
st- century</w>
st les</w>
ss ly</w>
squ are
spor ting</w>
sp ot
sour ced</w>
sou thwest</w>
soli di
soci etal</w>
snap shot</w>
slaugh ter</w>
sky diving</w>
skir ts</w>
side walks</w>
si ghts</w>
sho res</w>
sho ots</w>
sha de</w>
sh red
sever ely</w>
ser ial</w>
sequ el</w>
self- esteem</w>
sel ectively</w>
secre tary</w>
se ss</w>
se in</w>
sau l
sab ba
s warm</w>
s wana</w>
s nor
s lot</w>
s child</w>
s ands</w>
ru ined</w>
ro w
ro le-
ro foam</w>
ro de</w>
ridic ule</w>
ri sed</w>
rhetor ic</w>
retin al</w>
respec ting</w>
reson ate</w>
rep tiles</w>
rela tional</w>
rel ying</w>
reg ain</w>
rect angle</w>
recipi ent</w>
recei ves</w>
re use</w>
re posit
re flex</w>
re discover</w>
radi o
ra tive</w>
r anges</w>
quot ed</w>
qui z</w>
que ue</w>
quar ter-
pum ping</w>
psychiat rists</w>
prostitu tion</w>
propos ing</w>
prop he
promot es</w>
prom otion</w>
prolifer ation</w>
program m
pro pulsion</w>
pri mate</w>
pres sive</w>
power ing</w>
por tions</w>
pollu ted</w>
pollin ators</w>
pois oning</w>
po o</w>
po ke</w>
plan ners</w>
pla que</w>
pione ers</w>
pill ars</w>
pil low</w>
pi anist</w>
pharmaceu ticals</w>
person ic</w>
persi stent</w>
performan ces</w>
perc us
particip ated</w>
par tis
pan ies</w>
pale onto
pack aged</w>
pa ign</w>
p unch</w>
p ots</w>
p ine</w>
outw ard</w>
ot er</w>
os aurus</w>
optimi st</w>
op t</w>
op pon
ona ire</w>
o logues</w>
no tori
no ted</w>
nine- year-old</w>
neuroscienti sts</w>
neighbor ing</w>
ne west</w>
na tion-state</w>
mur der
mort gage</w>
mon archy</w>
moist ure</w>
modern ism</w>
mit ting</w>
mini ature</w>
mind ful</w>
mim icking</w>
micros econds</w>
meta st
memor able</w>
membran es</w>
mega -
marath on</w>
mar vel</w>
manu el</w>
manife stations</w>
man ned</w>
ma ze</w>
m undane</w>
m ills</w>
m alle
log arith
logarith mic</w>
lim bic</w>
lif ts</w>
liber ated</w>
li p
li king</w>
li d</w>
lever aging</w>
left- handed</w>
lean ing</w>
la stly</w>
l as</w>
know -
kilo s</w>
kidn apped</w>
kid neys</w>
ki os
ke wise</w>
ke f
kef eller</w>
ke eper</w>
jud ged</w>
journ als</w>
jour neys</w>
j ig
irl wind</w>
intui tively</w>
intr insic</w>
inter nationally</w>
inter dependence</w>
int oler
inst ability</w>
inqu iry</w>
inj ecting</w>
influ enz
inf ants</w>
incub ator</w>
inci dents</w>
inc i</w>
inc ere</w>
in stan
in directly</w>
in appropriate</w>
impul ses</w>
impa ir
imag inative</w>
im perfect</w>
im i</w>
illi ant</w>
il bert</w>
identi fication</w>
id al</w>
ici ally</w>
i shes</w>
hyperbo lic</w>
hydro thermal</w>
hy ena</w>
hur ry</w>
hun ter-gather
human ities</w>
horri fying</w>
hoc key</w>
hob by</w>
histor ians</w>
hip pie</w>
high- quality</w>
her tz</w>
he im</w>
hard wired</w>
hand led</w>
han gs</w>
h iring</w>
h en
h ap
gl y
gl ucose</w>
gi ga
geni uses</w>
gen y</w>
gard ening</w>
ga tions</w>
g matic</w>
g ically</w>
g ar</w>
ful fill
fulfill ment</w>
fuc king</w>
fu tu
fre aked</w>
fra g
fr y</w>
fore most</w>
for war
for mats</w>
fli pped</w>
fil tered</w>
fic tional</w>
fi ve
fi able</w>
femin ism</w>
f uss</w>
f uck</w>
explo ding</w>
experim ented</w>
exhibi tions</w>
exclu sively</w>
exc uses</w>
ex tern
ex cav
eu ros</w>
esti mation</w>
esti al</w>
est y</w>
es y</w>
erat ops</w>
enti ce</w>
enti als</w>
enhan ced</w>
encoun ters</w>
en cryp
en closure</w>
en as</w>
em its</w>
em it</w>
ell i</w>
elimin ated</w>
el ope</w>
el and</w>
el -
effici ently</w>
ec ologist</w>
e tic</w>
du m</w>
dri fting</w>
drag line</w>
drag ging</w>
dr ums</w>
down loaded</w>
doc k</w>
discipl inary</w>
disc arded</w>
dis si
dis proportion
dis miss</w>
diff use</w>
di stress</w>
di stil
di os</w>
di al
determin ing</w>
desi red</w>
desc end</w>
den ser</w>
den gue</w>
dele te</w>
defini tions</w>
defen ders</w>
defe ated</w>
decon struc
d well</w>
d urable</w>
d ul
d in</w>
cy matics</w>
custom ized</w>
cu shi
cu bic
cu bes</w>
crocodi le</w>
critici ze</w>
cri ed</w>
cra shing</w>
cra ft
cr abs</w>
cou pled</w>
cos tly</w>
cor n
conver ge</w>
control ler</w>
contain ing</w>
concer ts</w>
con fuse</w>
con dem
comprom ised</w>
compet ence</w>
comp rised</w>
comp ens
commun ism</w>
commit ments</w>
comm ute</w>
comm u
colon ial</w>
colle ges</w>
collap sing</w>
collabor ating</w>
co w
co aster</w>
clos et</w>
classi fied</w>
clas h</w>
claim ed</w>
civi lians</w>
cin ema</w>
champi on
ch k</w>
cent ure</w>
cel estial</w>
ce phal
cat ches</w>
capit alist</w>
bureau cratic</w>
bur sts</w>
bur gl
buc ket</w>
brilli antly</w>
bri qu
br ink</w>
bor rowing</w>
bit ter</w>
bit ten</w>
biomat erials</w>
big -
bi o</w>
ber to</w>
be tting</w>
bas s</w>
ban ker</w>
balcon y</w>
balcon ies</w>
bal last</w>
back pack</w>
bac king</w>
b uck
avi ation</w>
author ized</w>
atten dance</w>
athle tic</w>
at i</w>
astro ph
assum es</w>
arro g
arri val</w>
ari ous</w>
argu ably</w>
ar k</w>
ar ch</w>
ap or</w>
anti dot
an na
ampli fy</w>
all ing</w>
al e
agas car</w>
ag en</w>
aff lu
administr ators</w>
ac qu
a version</w>
a b</w>
Wat er
Wal ker</w>
Wal k</w>
W o
W ent</w>
W I
V inci</w>
U m</w>
Tric eratops</w>
Tre at
Tran sition</w>
Te acher</w>
Ta h
T so</w>
T radi
T op</w>
T ech</w>
T ech
T R</w>
T O</w>
T M</w>
Sup er</w>
Sub- Saharan</w>
Stu xnet</w>
St ay</w>
Schwarz schild</w>
Sam uel</w>
Sa o</w>
S tal
S on
S now</w>
S it</w>
S hu
S c
S ally</w>
S M</w>
Roc kefeller</w>
Ren aissance</w>
R on</w>
R ica</w>
R em
Psy cho
Par ty</w>
P roc
P ink</w>
P L</w>
Ot tom
On line</w>
Odys seus</w>
O scar</w>
O pen
O il</w>
Nor thwest</w>
Nor se</w>
Net work</w>
Net fli
Na j
N ight</w>
Mo MA</w>
Mid west</w>
Mi ster</w>
Mathema tica</w>
Mad agascar</w>
Mac int
M aria</w>
M ap
M BI</w>
M A
Loc al</w>
Lib ya</w>
Li kewise</w>
Li ber
Le o</w>
Lank a</w>
Labor atory</w>
Ker ry</w>
K now</w>
K im</w>
Ju lie</w>
Jo ey</w>
Jes se</w>
Je ep</w>
J ama
J .</w>
Israel is</w>
Iri sh</w>
In uit</w>
In side</w>
Ig bo</w>
I stanbul</w>
I R
Hus sein</w>
Hot el</w>
Hill is</w>
Her bie</w>
Hel vetica</w>
He x</w>
Har lem</w>
H amp
Grou p</w>
Gre g</w>
Govern ments</w>
Gaz a</w>
Gal ax
G illian</w>
Free dom</w>
Fil m</w>
Fif ty</w>
F ish</w>
Every where</w>
Es sex</w>
Enligh tenment</w>
Elec tr
Ecuad or</w>
E ver</w>
E ur
E ss
E ri
E -
D od
D addy</w>
Com panies</w>
Co oper</w>
Co hen</w>
Chan nel</w>
Cam paign</w>
C ru
C lean</w>
C ars</w>
Bur ma</w>
Bu ff
Brown e</w>
Brig ades</w>
Br illiant</w>
Bot swana</w>
Be hind</w>
Be ar</w>
B ollywood</w>
B loo
B lair</w>
B in</w>
B BC</w>
B .
Archit ecture</w>
An onymous</w>
An im
Al li
Al i</w>
Ac centure</w>
AL S</w>
A x
A S</w>
A M
99 .
9 0,000</w>
9 ,000</w>
8 2</w>
7 th</w>
7 8</w>
5 1</w>
40 1</w>
3. 7</w>
3 -
21 st-century</w>
197 8</w>
190 0s</w>
18 00s</w>
12 -year-old</w>
1. 4</w>
,000- dollar</w>
z ra</w>
young sters</w>
yi el
year ning</w>
y- D
y-D oh</w>
y rin
y a
x t
xt apos
wind mill</w>
win- win</w>
wil derness</w>
wh ite
wavel engths</w>
water fall</w>
ward ship</w>
wa king</w>
w elling</w>
vo red</w>
virtu ous</w>
viol ation</w>
veri fy</w>
ver te
ventil ated</w>
ven ues</w>
ve ins</w>
v re</w>
utop ian</w>
utilit arian</w>
uter us</w>
upri sing</w>
up take</w>
understand able</w>
under ing</w>
un touched</w>
un thin
unthin kable</w>
un familiar</w>
ul l
ug os
ugos la
u h</w>
typo graphy</w>
twist ed</w>
twe et</w>
tw ists</w>
tw ater</w>
tur n
tun nels</w>
tu ses</w>
tu alize</w>
transmit ters</w>
transforma tional</w>
trage dies</w>
tra il</w>
tra ded</w>
tough est</w>
tool box</w>
ton ian</w>
to- one</w>
til age</w>
throwa way</w>
thri ving</w>
thi eu</w>
ther ing</w>
theore tically</w>
the astern</w>
termin al</w>
ten ths</w>
temp ting</w>
te stes</w>
ta ke
t- in</w>
t u</w>
t ours</w>
synthe sized</w>
synap se</w>
sy ner
sy na
syna go
swe pt</w>
swe ating</w>
swal lowed</w>
survi ves</w>
sur render</w>
sur ance</w>
suppli ers</w>
supple ment</w>
super hero</w>
suffici ently</w>
subsequ ently</w>
sub stitu
su itable</w>
stric ts</w>
stres ses</w>
streng then</w>
str apped</w>
stell ar</w>
star ve</w>
star ch</w>
st ering</w>
st acking</w>
sprin k
specim ens</w>
spar k
space ship</w>
sovere ign</w>
sovere ign
sor ted</w>
sole ly</w>
sol itary</w>
soc ket</w>
so y</w>
sne ak</w>
sne a
smo oth
slic ed</w>
sky rocke
sk -
sil ks</w>
sigh ted</w>
side- by-
side-by- side</w>
si um</w>
si bly</w>
shred ded</w>
short cut</w>
sh ments</w>
sett le
settle ments</w>
ser t</w>
ser mon</w>
sen sations</w>
seiz ure</w>
seat belts</w>
sear ched</w>
se men</w>
scre wed</w>
scrat ching</w>
sc roll</w>
sav anna</w>
sal twater</w>
sabba tical</w>
sa ma</w>
s warms</w>
s thand</w>
s lam
s incere</w>
s have</w>
s giving</w>
s day</w>
rot ten</w>
rop es</w>
role- play</w>
rol lers</w>
ri sk-
resul ting</w>
resul ted</w>
restor ing</w>
resi dential</w>
rehear sal</w>
regul atory</w>
ree k</w>
reconci le</w>
recomm ended</w>
recla im</w>
real- world</w>
re stored</w>
re served</w>
re pa
re members</w>
re frame</w>
re connect</w>
re building</w>
re bels</w>
ran o</w>
ram p
rac ism</w>
rab bit</w>
ra tionally</w>
ra tic</w>
r y
r ant</w>
ques tioned</w>
puzz ling</w>
purcha sing</w>
purcha sed</w>
psych e</w>
provi ders</w>
proto col
protocol s</w>
pron ounced</w>
pro ton</w>
preven ted</w>
prevail ing</w>
pre tending</w>
pre limin
prelimin ary</w>
pre ference</w>
pre ach</w>
pot tery</w>
post cards</w>
porno graphy</w>
por a</w>
pon te</w>
pois on
poe tic</w>
po s</w>
plug ged</w>
play w
plau sible</w>
plas ticity</w>
pl uri
pl en
pit ched</w>
pir ated</w>
pin nacle</w>
pill ar</w>
pick le</w>
photograp hic</w>
phot ore
phot ons</w>
philanth ropic</w>
periph ery</w>
perform ers</w>
perform er</w>
per sons</w>
per me
pedi atr
pear l</w>
pean ut</w>
pe ek</w>
pe e</w>
patho gen</w>
pan cre
pancre as</w>
pal ms</w>
pal ette</w>
pac kets</w>
pa ins</w>
p pe</w>
p ins</w>
p at</w>
oy sters</w>
over seas</w>
over load</w>
out let</w>
os ph
os h
orth ope
origin ated</w>
on ion</w>
on ian</w>
on co
oll s</w>
old- fashioned</w>
och ondri
obe y</w>
non- violent</w>
non- governmental</w>
non violence</w>
no ve
nes sing</w>
negl ect</w>
nega tives</w>
nan ot
na e</w>
n ug
my ri
mutil ated</w>
multi- touch</w>
mu st
monopo ly</w>
mon ks</w>
mon d</w>
moment ous</w>
moder n-
mod ules</w>
mod ular</w>
mock ing
mobi lize</w>
mo ons</w>
mo on
mic ro</w>
mi xes</w>
mi ti
mi sts</w>
messa ging</w>
mes sen
mer ge</w>
men op
mel ts</w>
mechan ically</w>
mean ings</w>
me ster</w>
mas sage</w>
marshm allow</w>
margin alized</w>
mar in</w>
mar ble</w>
magne tism</w>
mac ro
ma tive</w>
ma ize</w>
ma il
m unications</w>
m mm</w>
m ics</w>
low- tech</w>
loc als</w>
lo os
liti gation</w>
lit ers</w>
life styles</w>
licen sed</w>
lem on</w>
legis l
lea ther
law ns</w>
lat ter</w>
lab yrin
la wn</w>
l yr
kis sing</w>
k s
k not</w>
k man</w>
k ite</w>
jud ging</w>
ju xtapos
jo ints</w>
j ets</w>
j elly</w>
it ated</w>
is ons</w>
is hable</w>
investiga tive</w>
investi gating</w>
inv ites</w>
inter acts</w>
inspi rational</w>
ins ult</w>
inner -
inner- city</w>
initi atives</w>
ing er
influ ential</w>
infl ate</w>
incenti vi
incarcer ation</w>
in trac
in timately</w>
in qui
in habit</w>
in comes</w>
in al</w>
imple mentation</w>
immer sion</w>
im peri
im pe
ill ary</w>
ic acy</w>
hyper text</w>
hyper tension</w>
hyp no
hy gi
hump back</w>
hil i</w>
high- level</w>
hi de
hero in</w>
hea p</w>
harvest ed</w>
ham bra</w>
h ou</w>
h ill
h es
h atch</w>
gro ponte</w>
grap es</w>
gradu ation</w>
gradu al</w>
gra d</w>
gr ind</w>
gr in
gr ace
gover nor</w>
glo wing</w>
geograph ical</w>
ge town</w>
ge ek</w>
gal van
g ym
g gling</w>
g au
g asses</w>
fur n
fun ni
free way</w>
frac tals</w>
fra gr
fr an
foun tain</w>
for wards</w>
for agers</w>
flo p</w>
fli pping</w>
fle et</w>
fla ke</w>
fl y
fire man</w>
fir sthand</w>
fin ity</w>
fin est</w>
fil ing</w>
figh ters</w>
fea thers</w>
favor able</w>
fast- forward</w>
fasc ination</w>
facilit ate</w>
fac e-to-
fa vel
f on
f as
fas ci
eye -
extr ater
extr apol
expres ses</w>
explo rer</w>
experim enter</w>
expendit ure</w>
exp o</w>
exha us
exam s</w>
exam ined</w>
evalu ation</w>
et tes</w>
et -
eri ans</w>
ener gy-
en during</w>
en coded</w>
en code</w>
empath ize</w>
emit ted</w>
embr yo</w>
embo di
embarra ssment</w>
em ala</w>
elimin ating</w>
elev ated</w>
eff icacy</w>
ectom y</w>
echan ical</w>
e- pattern</w>
e ag
dyslex ic</w>
du de</w>
du ardo</w>
drow ned</w>
drop let</w>
dri fted</w>
dre ssing</w>
dre am
dr a</w>
dood le</w>
domin ance</w>
do able</w>
dis son
dis solve</w>
dis comfort</w>
dis abilities</w>
dig itally</w>
diffic ulties</w>
devast ated</w>
dest ined</w>
desc ent</w>
des ks</w>
den i
demon strations</w>
demo cracies</w>
deliber ate</w>
dele gation</w>
del a
deep- sea</w>
dedic ate</w>
decor ation</w>
dec ode</w>
dec lined</w>
de vote</w>
de ss</w>
de partments</w>
de o</w>
de mia</w>
de grade</w>
dd in</w>
dat a
da unting</w>
d- like</w>
d ances</w>
d an</w>
cur v
cryst als</w>
cryst al
cri tics</w>
cred ited</w>
cra y
cra w
cr utches</w>
cr ush</w>
cour ts</w>
coun sel</w>
cou marin</w>
corri dors</w>
cor ros
coordin ated</w>
convic tion</w>
conver ts</w>
contem pt</w>
cont acted</w>
constitu ency</w>
conf ession</w>
conclu ded</w>
concei vable</w>
con sin</w>
con sequ
con cus
complex ities</w>
compar isons</w>
comp ost</w>
com press</w>
com bus
cock pit</w>
clos es</w>
cl one</w>
ci ssi
ci a</w>
check list</w>
cheap est</w>
chan n
ch unks</w>
ch icks</w>
ceram ics</w>
centrifu ge</w>
centi grade</w>
cen sorship</w>
cat astroph
cartoon ists</w>
car tilage</w>
car rots</w>
can ni
cal ving</w>
cal f</w>
c od</w>
bureau cracy</w>
bur ial</w>
bud dy</w>
bu tter</w>
bu ster</w>
bu shes</w>
brea st
bran ching</w>
bra in-
br ute</w>
bor rowed</w>
bo w
blue prints</w>
bloo m</w>
blog ger</w>
bl ance</w>
bl ades</w>
ber ing</w>
ben ch
beha ves</w>
battle field</w>
bas es</w>
bar k</w>
bal ancing</w>
back stage</w>
b uck</w>
b low
b ish</w>
b is
b ends</w>
b ate</w>
aw i</w>
aw a</w>
avo iding</w>
automo tive</w>
atten ded</w>
atro cities</w>
at emala</w>
astrolab e</w>
assign ments</w>
asse ss</w>
asc al</w>
as sured</w>
as pora</w>
as ph
ap pointment</w>
ap pointed</w>
ap min
ap i</w>
antidot e</w>
anti depressants</w>
anten nae</w>
ang el
and an</w>
an ag
am oe
am bassador</w>
alter nate</w>
alli ance</w>
alle vi
aliz es</w>
al tar</w>
al o</w>
al in</w>
aim ed</w>
aggres sion</w>
ag u
aff ec
advi sed</w>
adv ancing</w>
addre sses</w>
ad ore</w>
ad age</w>
activi sm</w>
acous tics</w>
aci di
accum ulating</w>
accoun ted</w>
accommod ate</w>
access ing</w>
a tion-
a tion
a se-
a ins</w>
a ic</w>
Z ambia</w>
Yemen i</w>
Y ugosla
Y ears</w>
Y a
World changing</w>
Wis consin</w>
Wester ners</w>
Victori a</w>
Vi en
V an
V .</w>
Uni verse</w>
Tuni sia</w>
Th ur
T rying</w>
T BP</w>
Swa hili</w>
Sty rofoam</w>
Sky car</w>
Shor tly</w>
Sene gal</w>
Sen ator</w>
Sel f-
Se ver
S ul
S tation</w>
S ounds</w>
S ir
S even
S crip
S F</w>
Roc kett</w>
Reser ve</w>
Red woods</w>
R um
R am
R Hex</w>
R D</w>
Qu es
Q .</w>
Pot ter</w>
Pol and</w>
Po or</w>
Plan et</w>
Pla y-Doh</w>
Pic asso</w>
Pati ent</w>
Pal m</w>
P ope</w>
P ass</w>
P ascal</w>
P ack
Ottom an</w>
Orchestr a</w>
Or leans</w>
O sama</w>
O hio</w>
Nor mally</w>
No w
New tonian</w>
Netfli x</w>
Ne groponte</w>
Naz is</w>
Nat alie</w>
N ation</w>
N BC</w>
Mu sh
Mon ologues</w>
Mo del</w>
Me e
Mat the
Mar ket</w>
Man n</w>
Man agement</w>
Macint osh</w>
Ma o</w>
M s.</w>
M ell
M .
L and
L ab
L OL
Kno wing</w>
Kab ul</w>
K ent
Ju dge</w>
Ju an</w>
Jo han
J ab
Inter face</w>
In finity</w>
Hu ge</w>
Hondur as</w>
Har bor</w>
Gu atemala</w>
Gro ve</w>
Gold man</w>
Glen n</w>
Geor getown</w>
G apmin
Freu d</w>
For tune</w>
Fin land</w>
Fant astic</w>
F red</w>
F ind</w>
F el
F ear</w>
F ace</w>
Ethiop ian</w>
Ess entially</w>
Em manuel</w>
Econ omist</w>
E st
E duardo</w>
E ames</w>
E C
Dou glas</w>
Don nell</w>
Doc tors</w>
Diplom at</w>
Dav is</w>
DV Ds</w>
D ir
D ic
D aw
Cri tic</w>
Com ple
Clar k</w>
Char lot
Ch ariot</w>
Car ter</w>
C el
C all</w>
Bon net</w>
Bo wl</w>
Bil ly</w>
Bil bao</w>
Beat les</w>
B uck
B lu
Aus tin</w>
An n</w>
Alex and
Al hambra</w>
Al g
A vi
A dri
9 th</w>
8 8</w>
8 00,000</w>
7 9</w>
7 50</w>
7 1</w>
5 0
5 -
4 5,000</w>
24 -hour</w>
20 12</w>
2. 3</w>
2 -
198 1</w>
197 9</w>
196 9</w>
196 5</w>
195 7</w>
194 7</w>
18 -
12 -
10 0-
1, 600</w>
zo oming</w>
z we
z oning</w>
yo ga</w>
yl or</w>
y ell</w>
wrink les</w>
world- changing</w>
wo ven</w>
who le-
whist les</w>
wh ol
whol eness</w>
wel com
welcom ed</w>
wea ker</w>
we t
we ep</w>
water front</w>
warri ors</w>
war heads</w>
wan us</w>
wa ving</w>
w ol
vit ality</w>
vis its</w>
viol ated</w>
va il</w>
v or
v ine</w>
v atory</w>
v apor</w>
v aged</w>
us san
ussan i</w>
ur ch
ur ations</w>
up wards</w>
up dated</w>
unemplo yed</w>
under mine</w>
under lies</w>
un pleasant</w>
un necessary</w>
un know
un g
un cover</w>
un consciously</w>
uk emia</w>
twenti eth</w>
tw ined</w>
tun ing</w>
tu ary</w>
tre sp
tre ach</w>
trau matic</w>
trans lations</w>
trans action</w>
traff icking</w>
tra ils</w>
tr ic
tom es</w>
tle Bits</w>
titan ium</w>
tini est</w>
tick le</w>
ti fied</w>
thous and
thorough ly</w>
th- graders</w>
th under</w>
th ical</w>
th en
th al
ten tion</w>
tap ed</w>
tal i
tad pole</w>
tac tile</w>
ta kers</w>
t- to-
t- shirt</w>
t z
t ying</w>
t wit
t ore</w>
t ently</w>
t earing</w>
t as
t ari
synago gue</w>
swe ater</w>
sw ollen</w>
sw o
sw amp</w>
susp ici
survi vor</w>
sur ing</w>
superi or</w>
sun set</w>
sum med</w>
succe eding</w>
substr ate</w>
submer si
submersi bles</w>
su ited</w>
su ite</w>
stu dios</w>
stret ches</w>
stra w
stop her</w>
stimul i</w>
stig ma
sti p
ster oids</w>
ste wardship</w>
ste ep
st al
st acks</w>
squir rel</w>
squ atter</w>
spon sors</w>
spon ge</w>
spirit uality</w>
sp rings</w>
sp en</w>
sp elling</w>
sof tly</w>
sof a</w>
soc ks</w>
so da</w>
sni p
sna il</w>
sm u
slip pery</w>
sky line</w>
simul ations</w>
simul ating</w>
si veness</w>
si form</w>
shu ff
sho ok</w>
shepher d</w>
sh iny</w>
sex uality</w>
sen iors</w>
self- expression</w>
sel fish
sedi ments</w>
se wage</w>
se k</w>
se gre
scul pt</w>
sc ro
sc rap</w>
sc or
sc attered</w>
sav a</w>
sam pling</w>
sam pled</w>
sal es
sa ves</w>
sa ti
run ner</w>
rough out</w>
rot ates</w>
ro yal</w>
ro d</w>
righ te
ri pe</w>
rever sal</w>
restor ative</w>
restor ation</w>
reser vations</w>
resem blance</w>
res in</w>
reposit ory</w>
repe tition</w>
rep licated</w>
ren ov
reluc tant</w>
rela x
rel ent
reg ulating</w>
refriger ator</w>
redund ancy</w>
red- haired</w>
rec ap
rebel lion</w>
re tali
re t</w>
re sts</w>
re st
re me
re ka</w>
re au</w>
re arrange</w>
ran g</w>
rail way</w>
radio active</w>
rac ed</w>
rab bits</w>
ra tionality</w>
ra ging</w>
r um
r entice</w>
r acy</w>
quanti fy</w>
quad ru
purcha ses</w>
pup pets</w>
pup pe
puni shed</w>
punc tu
pun ish</w>
publi shers</w>
psycho -
provo cative</w>
prote omics</w>
propor tional</w>
proph ec
prop elled</w>
proli fic</w>
pro p</w>
pro files</w>
priori tize</w>
pri va
presi dents</w>
pre mature</w>
posi tives</w>
por k</w>
pop ul
polar ized</w>
poison ous</w>
plug ging</w>
playw right</w>
pla shy</w>
pl ots</w>
pl ague</w>
pir ates</w>
pin point</w>
pilgri mage</w>
pic tured</w>
pi g
phot o-
pharm ac
ph osph
pestici de</w>
persu aded</w>
person alization</w>
perpe tual</w>
perf ection</w>
per mits</w>
per mit</w>
pen sion</w>
peace keepers</w>
pe eling</w>
pe d
pavi lion</w>
pas sively</w>
paradig ms</w>
par o
par aph
paraph ra
par ab
paint brush</w>
pa stor</w>
pa sting</w>
pa sted</w>
pa j
p iled</w>
p ace
overwhel mingly</w>
over board</w>
out standing</w>
out doors</w>
ous al</w>
ous a</w>
ou treach</w>
ou ses</w>
ou l</w>
ot er
oter ic</w>
osc ale</w>
os ter</w>
os t
os aurs</w>
orthope dic</w>
org es</w>
oph ys
opa que</w>
op- ed</w>
op tic</w>
on omy</w>
ome ter</w>
om atic</w>
occa sions</w>
occa sional</w>
o ks</w>
o dd
non- verbal</w>
ni al</w>
neuroscienti st</w>
negl ected</w>
ne phe
natur alist</w>
nar cissi
nanot u
nan oscale</w>
n ant</w>
myri ad</w>
mut ant</w>
multi tasking</w>
multi plied</w>
mu ddin</w>
moun tain
monit ors</w>
modi fying</w>
modern- day</w>
mis understood</w>
mis match</w>
mirac ulous</w>
mini stry</w>
mini atur
mind- blowing</w>
milli seconds</w>
mil dness</w>
mid -</w>
metast ases</w>
mer ly</w>
mer it
me en</w>
maxim ize</w>
mar ines</w>
mar ched</w>
maneu ver
man tra</w>
mag ni
m o</w>
m align
long- distance</w>
lin ois</w>
lim it
lig ator</w>
lifel ong</w>
li gi
li ability</w>
level and</w>
le ton</w>
lat ent</w>
lam ps</w>
l one</w>
l ing
juni or</w>
jud ice</w>
jo ins</w>
jig saw</w>
j ur
j arg
jarg on</w>
is ov
ir respective</w>
intimid ating</w>
inter connectedness</w>
inten tionally</w>
intellec tu
ino cul
initi ated</w>
inher ited</w>
ing ed</w>
infl ection</w>
inf eri
indic ator</w>
in visibility</w>
in nate</w>
in mates</w>
in jec
in famous</w>
in effective</w>
in cur
imprison ed</w>
immun ization</w>
imit ate</w>
im probable</w>
im posing</w>
im patient</w>
im mu
im mortality</w>
id es</w>
ic sek</w>
i fer</w>
i b</w>
hypothe ses</w>
hy dra
human e</w>
hu bris</w>
hot test</w>
horri bly</w>
home -
hom icide</w>
hol low</w>
hip po
hili a</w>
high lands</w>
hier arch
hemo glob
hemoglob in</w>
head-tail- head</w>
hab itable</w>
ha y</w>
h ra
h id</w>
guid es</w>
guess es</w>
guess ed</w>
gu est</w>
gro wers</w>
gro om</w>
grass lands</w>
grap e</w>
gram mar</w>
grab bing</w>
gra ding</w>
go ose</w>
go of
gl ut
gener alize</w>
gen it
gee ks</w>
g ators</w>
g ator</w>
fu tures</w>
fu siform</w>
foun ders</w>
fortun es</w>
forbi dden</w>
for- profit</w>
for merly</w>
for ged</w>
for cement</w>
flo ats</w>
fla kes</w>
fl yer</w>
fl ag
fire flies</w>
fil tering</w>
fi shed</w>
fi er</w>
fer tile</w>
fear less</w>
fea sible</w>
fe tuses</w>
fashion able</w>
face-to- face</w>
fa ti
f used</w>
f ences</w>
f aul
eyebro ws</w>
extrac ting</w>
extr action</w>
exquis itely</w>
expos ing</w>
expor ting</w>
explo ited</w>
execu tives</w>
excruci ating</w>
exc ites</w>
ex hal
ex changing</w>
ethn icity</w>
est -
es -
er n
er ings</w>
ep ic</w>
enti ous</w>
enterpri ses</w>
ent ur
ent a</w>
energe tic</w>
end lessly</w>
encryp ted</w>
encoura gement</w>
en forcement</w>
en co
empir ical</w>
embodi ment</w>
ema iled</w>
em itting</w>
em an
ell -
eless ness</w>
el der</w>
educ ators</w>
ed ness</w>
ed E
edE x</w>
echo es</w>
e tern
e go
drop -
doub ts</w>
dou gh
dot com</w>
domin ating</w>
dom ains</w>
doctr ine</w>
do wns</w>
div inity</w>
distr actions</w>
distr action</w>
dise m
dis solved</w>
dis ruption</w>
dis man
dis count</w>
dilem mas</w>
digi tized</w>
dict ators</w>
di re</w>
di p</w>
det ached</w>
der ive</w>
der -
depos ited</w>
depen dency</w>
denti st</w>
demo li
dele ted</w>
dela yed</w>
degra ding</w>
degra dable</w>
dece ased</w>
de x
de light
day care</w>
dar n</w>
dar ker</w>
da zz
d ous</w>
cubic le</w>
cu res</w>
cros s
cre ase</w>
cra dle</w>
cr aters</w>
cr appy</w>
cour t
counter parts</w>
counter intuitive</w>
counsel ing</w>
corri dor</w>
conven tions</w>
contribu tors</w>
contrac tor</w>
contempl ating</w>
consumer ism</w>
consum es</w>
construc tions</w>
constitu tes</w>
consider ably</w>
consi st</w>
confron tation</w>
conflic ting</w>
conduc ive</w>
con str
con serve</w>
con grat
compla int</w>
comp lim
comp elled</w>
comm ander</w>
comm an
comfor ting</w>
comfor tably</w>
combus tion</w>
com pression</w>
colon i
coali tion</w>
co t</w>
co co
co ck</w>
co al
clos e-up</w>
clic ks</w>
clic king</w>
clever ly</w>
clean ers</w>
clari fy</w>
cl er
champi on</w>
cha irman</w>
ch witz</w>
ch ick</w>
cen ter
cellul ose</w>
cele bri
celebri ties</w>
cau sal</w>
carcinogen s</w>
car riers</w>
car ic
car c
cand les</w>
cafe teria</w>
ca de</w>
c .</w>
bum ble
bu yer</w>
bri bes</w>
bre e
bran ded</w>
br and-
brand- new</w>
boun ded</w>
boun cing</w>
boar ding</w>
boar d
bo died</w>
blan ket</w>
bl inking</w>
biome dical</w>
ber gh</w>
benef ited</w>
beli evers</w>
beha ved</w>
bedro ck</w>
be ts</w>
be st
bath tub</w>
bas in</w>
bar gain</w>
ba the</w>
ba king</w>
ba il
b red</w>
b iting</w>
b ites</w>
autobio graphical</w>
au gment</w>
au -
au- Prince</w>
attrac ting</w>
ath ic</w>
at orial</w>
at op
assi st</w>
ass ass
ash ville</w>
as sic</w>
as saul
as pire</w>
art u</w>
arri ves</w>
arch e
ar tis
aqu arium</w>
app rentice</w>
app lic
app er</w>
ap est</w>
anticip ation</w>
ang a</w>
analo gies</w>
an archy</w>
ambi ent</w>
amate urs</w>
am ple</w>
aliz ations</w>
alig n</w>
aim s</w>
aim ing</w>
ag ra</w>
after math</w>
aff or
aerod ynamic</w>
advoc ating</w>
advis ers</w>
advi sing</w>
adul ter
addic tive</w>
ad ders</w>
acqui sition</w>
ach el
aca demia</w>
ac o</w>
aby ss</w>
ab ri
ab a</w>
a x</w>
a verse</w>
a hedron</w>
a e</w>
Zo e</w>
Z E</w>
World Wide</w>
Woo dy</w>
We b
W est
W ag
Vi vian</w>
Vi sion</w>
Vi king</w>
Uni ver
Un clear</w>
US C</w>
UN AIDS</w>
U top
Thous ands</w>
Thank sgiving</w>
Th roughout</w>
Ta ylor</w>
TED Global</w>
T. B.</w>
T ut
T reas
Sy n
Stu dy</w>
Spec ies</w>
Sou th
Sha me</w>
Sha h</w>
Serge y</w>
Ser ra</w>
S un
S ue</w>
S plashy</w>
S mo
S hel
S ear
S ang
S and
S achs</w>
Rom antic</w>
Robo tics</w>
Rob icsek</w>
Re zero</w>
Re ligi
Ral ph</w>
RI ZE</w>
R ot
R ock</w>
R esp
R ag
R ad
R N</w>
Pr inci
Pos t-
Pl an</w>
Par ks</w>
Pan theon</w>
PC Bs</w>
P lat
P eri
P ear
P atr
P at</w>
P ants</w>
P S</w>
P RIZE</w>
O. K.</w>
O ak
O M
Naj muddin</w>
NA TO</w>
N ashville</w>
N ano</w>
N an
Mos tly</w>
Mc Lu
Man chester</w>
Ma yan</w>
MP 3</w>
M ut
M in</w>
M ight</w>
M ey
M all</w>
M ain</w>
M BA</w>
Lind bergh</w>
Levi athan</w>
La y
LOL cats</w>
L aw
L C</w>
Kur zwe
Ku wait</w>
Kis met</w>
Kin sey</w>
Ki va</w>
Ker ala</w>
Kent ucky</w>
Kar l</w>
K now
K ind</w>
K az
K ay</w>
K al
Jac ques</w>
Jab bar</w>
J on</w>
J PL</w>
Islam ist</w>
Il linois</w>
Hum anity</w>
Hop kins</w>
Hind i</w>
Hill ary</w>
Her oes</w>
He ad</w>
Hawai ian</w>
H uck</w>
H ope</w>
H il
H ad</w>
H D</w>
Gu il
Gu ard</w>
Govern ment</w>
Go wanus</w>
Gi ussani</w>
G om
G ame</w>
Frank lin</w>
Fore ign</w>
Fin ding</w>
Fif teen</w>
Fi re</w>
Fi eld</w>
Fa thers</w>
Fa b</w>
F edEx</w>
F -
Ex per
Eng li
El l
Egypti ans</w>
E zra</w>
E vel
E t
E qu
E ff
E S
Do c</w>
Di ego</w>
Develop ing</w>
Den isov
Dar k</w>
DI Y</w>
D y
D um
D ri
D op
D ep
D ays</w>
Cre a
Con tro
Compu ters</w>
Comm on</w>
Com mission</w>
Colom bia</w>
Co de</w>
Clau s</w>
Chri stopher</w>
Ch uck</w>
Ch all
Can al</w>
Cam ero
Ca sey</w>
CE RN</w>
C ultural</w>
C reek</w>
[...]
