#version: 0.2
p o
e s</w>
e n
q u
po s
& a
&a pos
&apos ;</w>
o u
o n
a i
a n
d e</w>
r e</w>
l e</w>
e s
t i
ou s</w>
en t</w>
p a
qu e</w>
n e</w>
e u
o n</w>
l a</w>
e r
e r</w>
l es</w>
e t</w>
t r
e m
p r
o i
c e</w>
c h
es t</w>
a v
o m
i n
a u
e n</w>
t e</w>
u n</w>
e l
on s</w>
o r
i s
l &apos;</w>
d es</w>
u r</w>
ai t</w>
a r
m e</w>
u ne</w>
p l
d &apos;</w>
an s</w>
ai s</w>
o t
i l
d i
v ous</w>
n ous</w>
s e</w>
r i
c om
e z</w>
qu i</w>
a l
on t</w>
é t
s i
c on
an t</w>
em ent</w>
d ans</w>
pa r
E t</w>
pa s</w>
t re</w>
po ur</w>
i l</w>
d é
ti on</w>
r é
v i
t s</w>
l i
j e</w>
u s</w>
qu &apos;</w>
u i
c i
s s
r a
c e
d u</w>
t ou
a u</w>
pr o
a g
r e
qu ot
quot ;</w>
& quot;</w>
t é</w>
a t
pl us</w>
o l
t es</w>
c &apos;</w>
eu x</w>
po u
eu r</w>
r s</w>
e x
a m
c es</w>
i m
f ai
ou v
el le</w>
on n
a i</w>
a b
en d
s ur</w>
n i
n &apos;</w>
m ent</w>
a c
a p
t u
ai n
m es</w>
è s</w>
e c</w>
c i</w>
il s</w>
r es</w>
s ont</w>
c ou
es s
av ec</w>
- -</w>
m on
è re</w>
j &apos;</w>
f i
a tion</w>
é r
oi r</w>
t te</w>
d e
f ait</w>
b i
ch o
s i</w>
é e</w>
t en
au x</w>
p er
g r
J e</w>
é s</w>
en s</w>
p e
j ou
oi s</w>
a ti
m o
s u
ç a</w>
av ons</w>
com me</w>
fai re</w>
eu rs</w>
ce tte</w>
on c</w>
tou t</w>
pa r</w>
C &apos;</w>
c u
po r
ê tre</w>
i e</w>
I l</w>
ai ent</w>
m en
ét ait</w>
qu el
f f
s es</w>
p eu
é ri
s ui
ot re</w>
an d</w>
u s
pou v
c o
p en
qu es</w>
o u</w>
m ais</w>
f or
s &apos;</w>
t er
c a
M ais</w>
é es</w>
t -
an g
N ous</w>
r ai
o s</w>
o y
t er</w>
b l
tr ès</w>
p h
e c
p i
bi en</w>
v er
m i
l u
m ê
o g
em p
pr é
s on</w>
s t
e au</w>
al l
c r
or s</w>
de v
a s
e l</w>
l ement</w>
mon de</w>
g ens</w>
b le</w>
mê me</w>
é l
é n
s er
l eur</w>
e t
ag e</w>
cho se</w>
o b
di t</w>
d is
l à</w>
ét é</w>
p u
tr es</w>
tr av
en ts</w>
a l</w>
e u</w>
pou r
ce la</w>
l is
è me</w>
en ce</w>
per s
an ts</w>
en t
o i</w>
v rai
cou p</w>
c er
en ti
h u
av ez</w>
u ti
oi t</w>
qu and</w>
g ar
o ù</w>
end re</w>
e au
f a
V ous</w>
i r</w>
J &apos;</w>
o p
an ce</w>
par ti
vrai ment</w>
ch e</w>
el les</w>
pr i
u e</w>
ai re</w>
sui s</w>
t ant</w>
t ous</w>
D onc</w>
eau coup</w>
in t
n otre</w>
ss i</w>
m il
L a</w>
ou r
on ne</w>
ai n</w>
l s</w>
an n
peu t</w>
d onc</w>
con s
v oir</w>
i té</w>
av oir</w>
t e
b eaucoup</w>
v oi
cho ses</w>
par ce</w>
tr ouv
j us
an d
t emp
m ar
pen s
v en
is t
d u
ain ten
em i
m on</w>
m u
au ssi</w>
l er</w>
au tre</w>
d eux</w>
er s</w>
uti lis
C e</w>
ainten ant</w>
com men
tu re</w>
c ré
qu oi</w>
d onn
di re</w>
trav ai
i g
m an
L es</w>
v oy
a n</w>
A l
f ois</w>
vi e</w>
é c
v ou
temp s</w>
en tre</w>
quel que</w>
si on</w>
f on
i que</w>
L e</w>
s eu
ol og
a ss
0 0</w>
i ci</w>
il l
pa ss
i t
pe ti
v e</w>
m &apos;</w>
ti ons</w>
s y
en tr
s or
s ou
s om
av ait</w>
ar ri
di ff
Q u
ui s</w>
im por
con n
I ls</w>
oi re</w>
é g
en f
au tres</w>
r es
ab le</w>
c or
v ent</w>
pr emi
s -
s e
mo i</w>
p e</w>
pe u</w>
pouv ez</w>
ai ss
n ouv
v otre</w>
diff ér
o c
ap p
a le</w>
pr ès</w>
n os</w>
pr endre</w>
m in
pers onn
i dé
b u
ati ons</w>
g e</w>
t ement</w>
s o
t h
m é
mil li
l le</w>
a d
c l
m a</w>
ch ang
r ait</w>
l eurs</w>
oi n</w>
s em
a s</w>
O n</w>
E n</w>
l e
oi n
il le</w>
d em
po n
ain s</w>
pro bl
ti que</w>
p uis</w>
m et
Al ors</w>
d er
a y
for m
re gar
jou r
is s
pen se</w>
an te</w>
u r
v is
tr i
C e
f in
vi r
d ui
jou rs</w>
v ais</w>
V oi
pl u
om b
h ist
com ment</w>
fa ç
tr u
som mes</w>
ai ne</w>
é ra
commen c
co re</w>
dé c
pr en
i ne</w>
vou l
pa y
d r
S i</w>
d ont</w>
p end
ver s</w>
c el
en core</w>
v ol
al ement</w>
pl i
ann ées</w>
el lement</w>
è res</w>
u ni
ouv er
al is
ch a
cer t
s ol
ol l
g u
z -
m er
oin s</w>
faç on</w>
m aintenant</w>
su r
si m
cu l
s a</w>
in ter
c ar
t- ce</w>
b es
pré s
b ou
v eux</w>
tou tes</w>
al ors</w>
ain es</w>
jus te</w>
qu es
an c
te ch
n es</w>
or d
an de</w>
v a</w>
j am
an s
a ch
personn es</w>
v re</w>
a t</w>
n u
L &apos;</w>
s se</w>
ai res</w>
enf ants</w>
tr o
f fi
regar d
au t</w>
sy st
r ess
m or
g én
pend ant</w>
bes oin</w>
pri s</w>
ch er
r en
en vir
b li
po in
s ans</w>
hu i</w>
j et</w>
m e
f em
i on</w>
con tr
v eau</w>
p éri
é ch
i ons</w>
pr es
n ent</w>
man i
hu m
é qu
idé e</w>
eu r
is e</w>
b r
g ra
ess ay
s avez</w>
par t</w>
h om
hist oire</w>
mon tr
int ér
sui te</w>
fai s
pay s</w>
n olog
n on</w>
ét u
ti onn
P ar
t és</w>
C h
jam ais</w>
tr ans
travai l
t ent</w>
lu i</w>
t- être</w>
Voi ci</w>
m oins</w>
C om
r em
jour d&apos;</w>
quel ques</w>
so ci
al ité</w>
end r
der ni
ex emp
e ff
l a
i n</w>
c tion</w>
m om
tech nolog
d re</w>
pouv ons</w>
l on
probl ème</w>
li g
a près</w>
par ler</w>
ar d</w>
com pl
f r
f l
v er</w>
tou jours</w>
e z-
seu lement</w>
n o
app el
u re</w>
pro dui
cha que</w>
d es
em ents</w>
p é
v el
s û
av ant</w>
d s</w>
ét aient</w>
in s
I n
pl an
im ag
m ati
es t-ce</w>
e ts</w>
ch er</w>
ê tes</w>
tr ois</w>
E lle</w>
peu vent</w>
voy ez</w>
0 00</w>
s oit</w>
ou r</w>
parti e</w>
fi n</w>
r el
è mes</w>
s ci
f u
ce p
vel op
pers onne</w>
qu elle</w>
au jourd&apos;</w>
peu t-être</w>
jou r</w>
pos si
en te</w>
n omb
il les</w>
c in
exemp le</w>
av ais</w>
t eur</w>
qu el</w>
él é
tou te</w>
dem and
si g
premi ère</w>
ord in
c et</w>
at t
b les</w>
ét ais</w>
ré pon
syst ème</w>
dé velop
commenc é</w>
m al
qu er</w>
mom ent</w>
mani ère</w>
ar g
met tre</w>
m at
ô t</w>
M aintenant</w>
ui t</w>
ra p
d ess
b re</w>
sû r</w>
sem ble</w>
cr oy
r ement</w>
ques tion</w>
travai l</w>
ca pa
v e
g en
v eu
in form
dev en
M er
es p
poin t</w>
mé di
n er</w>
com p
éc ri
tr a
i s</w>
n at
dévelop p
o s
vi ent</w>
b on</w>
is te</w>
intér ess
er re</w>
ph ot
c ation</w>
pu bli
com mu
Mer ci</w>
or g
ci d
q u</w>
cou r
r ou
pl a
tou r</w>
gr and</w>
è ne</w>
en ces</w>
at eur</w>
sor te</w>
v u</w>
pour quoi</w>
ch es</w>
g é
U n</w>
i es</w>
all er</w>
l ent</w>
ass ez</w>
au t
è te</w>
. .</w>
tou r
au r
ri en</w>
ti ques</w>
tru c
f ri
peti t</w>
con ti
ci té</w>
m ag
U ne</w>
s é
t ôt</w>
ch i
i ques</w>
c ô
ex péri
trouv er</w>
jus qu&apos;</w>
Ce la</w>
an ti
si ons</w>
ar s</w>
de puis</w>
gr ande</w>
tr ai
or s
él ec
v es</w>
pos i
org an
cons tr
Par ce</w>
f ont</w>
d ét
u tion</w>
1 0</w>
f s</w>
ar ti
c am
con om
ch é</w>
1 9
t y
ti tu
po li
re c
U ni
Qu and</w>
ci le</w>
ab lement</w>
el s</w>
ni fi
p s</w>
i t</w>
T ou
. ..</w>
technolog ie</w>
é conom
ap par
en ne</w>
ca s</w>
eu re</w>
Ç a</w>
f er
impor tant</w>
étu di
es se</w>
er g
pour rait</w>
gen re</w>
envir on</w>
cer veau</w>
d er</w>
p le</w>
a î
or d</w>
in s</w>
on e</w>
mo y
t u</w>
av aient</w>
a r</w>
cou rs</w>
l é</w>
pe c
for me</w>
milli ons</w>
ê te</w>
mi s</w>
fon c
c ol
t ag
v os</w>
c le</w>
utilis er</w>
ri r</w>
si que</w>
d ou
en tes</w>
D ans</w>
pass é</w>
an tes</w>
v al
v é</w>
u i</w>
app elle</w>
ez- vous</w>
au c
impor t
pa sse</w>
ce ci</w>
f aut</w>
m es
t- il</w>
dev ons</w>
é co
an im
conn aiss
quel qu&apos;</w>
qu ement</w>
f il
e il</w>
com prendre</w>
ch ez</w>
ra i</w>
montr er</w>
j eu
cré er</w>
pr ot
p eux</w>
p es</w>
ab les</w>
in di
u es</w>
parti cu
gr ou
premi er</w>
es pa
donn ées</w>
qu a
ar r
s ais</w>
d oll
tr ain</w>
ai r</w>
t eurs</w>
pu l
m éri
s an
entr e
pl ement</w>
cr ois</w>
nouv eau</w>
il ité</w>
fem mes</w>
f am
voi ci</w>
s ens</w>
em bl
at eurs</w>
g ag
r er</w>
i eu</w>
b onne</w>
5 0</w>
possi ble</w>
fa ce</w>
en suite</w>
ch oi
men t
ag es</w>
ig n
c é
eu se</w>
donn er</w>
an t
a di
sim plement</w>
m er</w>
su l
imag in
di ffi
cel lu
ca r</w>
b as</w>
én erg
pa g
enti fi
i en</w>
su p
l ors
a les</w>
bu t</w>
pens er</w>
& #
&# 9
m ai
pouv oir</w>
la quelle</w>
s au
l aiss
plu tôt</w>
probl èmes</w>
plu part</w>
P our</w>
gr and
ann ée</w>
in f
hom me</w>
c oll
2 0</w>
por t
h ab
doll ars</w>
pro b
c ri
ac ti
j à</w>
qu é</w>
m is
s ouv
vi v
E n
A fri
mo d
en nent</w>
dé jà</w>
é vol
tu res</w>
énerg ie</w>
in es</w>
pa ti
pu is
peti te</w>
organ is
en semble</w>
P our
m et</w>
s ous</w>
es ti
ar i
ré alis
c li
si té</w>
f ér
trav ers</w>
ag it</w>
impor te</w>
ec ti
anc er</w>
sig nifi
m ois</w>
trouv e</w>
th é
ex pl
s avoir</w>
c al
re cher
as se</w>
éri eur</w>
à -
pour r
cor ps</w>
con tre</w>
ui re</w>
ten ir</w>
e aux</w>
pa u
arg ent</w>
ain si</w>
m a
nouv elle</w>
in ci
ven ir</w>
Tou t</w>
tro p</w>
on s-
mi eux</w>
2 0
eu x
in g
c au
pr is
rai son</w>
in croy
gén éra
se con
h eur
c ent</w>
me ill
mod è
gr os</w>
espa ce</w>
min u
all ons</w>
h i
eu ses</w>
u l
lu mi
veu t</w>
v rai</w>
pu iss
a ts</w>
é vi
é li
particu li
b at
cô té</w>
Afri que</w>
équ i
v ont</w>
ra pi
commu n
l les</w>
in st
d oit</w>
ri ons</w>
pl ac
ser ait</w>
sim ple</w>
n our
pass er</w>
pro jet</w>
pla ce</w>
j ets</w>
sui v
r ent</w>
t at
li eu</w>
gra m
v res</w>
pr ise</w>
comp te</w>
dess us</w>
ot s</w>
fem me</w>
c eux</w>
eu res</w>
Uni s</w>
Com ment</w>
s ement</w>
m al</w>
ô le</w>
v ille</w>
lon g
d ent</w>
pro du
g ouver
at ten
chang er</w>
p re</w>
d om
re prés
expéri ence</w>
s oi
u n
endr oit</w>
au tour</w>
E s
nomb re</w>
men ts</w>
gr an
t élé
ar ds</w>
ser a</w>
è rement</w>
vi té</w>
pa s
gé ni
s al
pr inci
gouver n
différ entes</w>
pro pre</w>
enf ant</w>
sci entifi
tat s-
s ons</w>
pres sion</w>
ex tr
envir onn
b o
m ère</w>
idé es</w>
Pour quoi</w>
t ard</w>
con c
tats- Unis</w>
déc ouver
c ess
b a
è ce</w>
ac cor
plan ète</w>
v ement</w>
ré g
r é</w>
n é</w>
cert ains</w>
seu le</w>
m ét
trouv é</w>
oi res</w>
il i
es pri
con t
pr im
qua tre</w>
pro gram
ni veau</w>
e -
im age</w>
ri ez</w>
ré fl
l ang
v ue</w>
r o
dé cid
fon d
è g
- ci</w>
v o
por t</w>
fais ons</w>
oi ts</w>
é tr
lumi ère</w>
f ab
ser v
fai tes</w>
v éri
vi ennent</w>
diffi cile</w>
av ions</w>
ati on
m au
ph y
ons- nous</w>
mar ché</w>
mê mes</w>
san té</w>
h aut</w>
s truc
è tres</w>
vi dé
commun au
ré alité</w>
ty pe</w>
si eurs</w>
n ée</w>
i r
en se
an ces</w>
n et</w>
mal adi
qu i
mon di
en ten
r ob
con cep
b e</w>
as si
d oi
ch au
ter re</w>
po pul
constr uire</w>
all ez</w>
sul t
produi t</w>
én or
int el
ver s
- même</w>
par l
t on</w>
nat ure</w>
parti r</w>
N e
res te</w>
lors que</w>
t ez</w>
cu ri
ve ill
prob ablement</w>
essay er</w>
m ou
voul ez</w>
Ce tte</w>
ac t
Qu &apos;</w>
si è
ré s
3 0</w>
ti n
souv ent</w>
p er</w>
arri ve</w>
an ci
éco le</w>
pl e
mai son</w>
R e
E h</w>
seu l</w>
og ra
mu l
b ra
A u
m ach
cellu les</w>
A u</w>
cr o
m oi
commenc er</w>
ch e
su jet</w>
si onn
pro ch
fab ri
ég alement</w>
par le</w>
j eu</w>
grou pe</w>
C es</w>
c ap
l og
travail ler</w>
p u</w>
cr oi
s avons</w>
on es</w>
milli ards</w>
ér er</w>
regard ez</w>
Voi là</w>
m ang
in v
t omb
é po
t ellement</w>
t able</w>
b â
ar t</w>
ser vi
si r</w>
soci été</w>
li b
hom mes</w>
voi là</w>
t i</w>
T E
s c
l à-
l o
A n
i d
di s</w>
accor d</w>
ré sult
D e</w>
espri t</w>
dev ez</w>
c ra
d onne</w>
h y
è tement</w>
vi vre</w>
D &apos;</w>
s pé
B on</w>
A méri
différ ents</w>
l es
ex pli
ré e</w>
nomb r
in d
ac tion</w>
ac c
chang ement</w>
t ons</w>
t es
ri g
pres que</w>
donn é</w>
n i</w>
E lles</w>
é du
B ien</w>
uni vers</w>
r is
pro cess
ai lle</w>
conti nu
i ez</w>
h o
ch am
épo que</w>
par tag
g l
arr ê
l l
m ain</w>
li vre</w>
cul ture</w>
at te
s éri
moy en</w>
nouv elles</w>
nour ri
co û
cin q</w>
s enti
ogra ph
hum ains</w>
cau se</w>
ab or
é cou
res pon
fonc tionn
S u
spé ci
di rec
y eux</w>
r u
phot o</w>
ap prendre</w>
O ui</w>
vis i
réfl éch
pren d</w>
h é
h eures</w>
em pl
regard er</w>
con si
t ation</w>
compl ètement</w>
au g
po s</w>
D es</w>
hum ain</w>
b al
int érieur</w>
ex ac
sor ti
f our
pouv ait</w>
eu sement</w>
Ce ci</w>
demand é</w>
compl ex
signifi e</w>
lig ne</w>
em ment</w>
plu sieurs</w>
lon g</w>
1 00</w>
ou ti
gu erre</w>
répon se</w>
pens é</w>
b res</w>
peti ts</w>
environn ement</w>
olog ie</w>
enten du</w>
ai mer
ti ve</w>
fam ille</w>
rem ar
m ouv
ap pro
si tu
r endre</w>
posi tion</w>
ordin ateur</w>
ch im
t ête</w>
ai se</w>
dé but</w>
commen ce</w>
derni ère</w>
pro f
er a</w>
en s
ati que</w>
N on</w>
anim aux</w>
ri s</w>
p ère</w>
intéress ant</w>
Q ue</w>
rap p
f ais</w>
ar ch
s tr
process us</w>
vis ion</w>
b an
oc é
In de</w>
ré s</w>
b on
ti f</w>
r end
dis ent</w>
si e</w>
au rait</w>
or i
o ci
ra con
mat éri
intel lig
hab i
ê t</w>
it és</w>
nourri ture</w>
voy ons</w>
ver sité</w>
b ar
ac tu
us tr
sci ence</w>
por te</w>
u m</w>
bâ ti
ai me</w>
ai der</w>
voi ture</w>
sem bl
pro pos</w>
oi te</w>
atte in
D ieu</w>
par tout</w>
appel é</w>
ai de</w>
er s
è ces</w>
ren contr
modè le</w>
fon d</w>
e tte</w>
vidé o</w>
trans form
T erre</w>
em ble</w>
O K</w>
si te</w>
mu sique</w>
ap pris</w>
ques tions</w>
ch ac
n ation
mar che</w>
indi vi
d ement</w>
v oit</w>
b ilité</w>
20 0
is me</w>
ç ons</w>
minu tes</w>
développ ement</w>
voul ais</w>
h au
entr er</w>
tri bu
le quel</w>
TE D</w>
arri v
s ec
mon tre</w>
auc un</w>
ni e</w>
recher che</w>
capa cité</w>
Com me</w>
inform ation</w>
m ement</w>
â ce</w>
ven u</w>
mes ure</w>
conn ec
r èg
c ent
su b
dé fin
hist oires</w>
t ée</w>
p an
il leur</w>
M on</w>
A in
pris es</w>
é v
am éri
améri c
ab ord</w>
Es t-ce</w>
exac tement</w>
a x
mé de
m é</w>
f ac
communau té</w>
cert aines</w>
por ter</w>
me illeur</w>
e ter</w>
curi té</w>
Ain si</w>
pré ci
jou er</w>
all ait</w>
oc cu
l ég
ex iste</w>
ré ellement</w>
no m</w>
décid é</w>
aî tre</w>
eux i
derni er</w>
al im
inform ations</w>
derni ères</w>
ba se</w>
r ez</w>
publi c</w>
deven ir</w>
In ter
pri x</w>
o re</w>
fil m</w>
t ot
am is</w>
s ait</w>
o x
a f
t t
ra di
li mi
écri t</w>
voul ons</w>
quel les</w>
l oin</w>
incroy able</w>
dé f
d ois</w>
cons ci
pos e</w>
mor t</w>
in g</w>
rapi dement</w>
pas sion</w>
o -
travail l
ét at</w>
ç u</w>
n or
g au
des ig
s av
g er</w>
auc une</w>
i c
c ancer</w>
1 5</w>
A v
vi ol
pos é</w>
pos er</w>
on d
en voy
eff et</w>
c elle</w>
r ant</w>
imag es</w>
télé ph
poli tique</w>
3 ;</w>
1 ;</w>
&#9 3;</w>
&#9 1;</w>
fér ence</w>
cu le</w>
ai l
découver t</w>
bou t</w>
arri ère</w>
vou dr
iss ent</w>
ress emble</w>
peti tes</w>
n éc
mer veill
m i</w>
gr âce</w>
ch ar
étr ang
com b
a ff
p eur</w>
s our
ra ss
a de</w>
ouv rir</w>
h an
cré é</w>
vi t
ress embl
endr oits</w>
cons tru
choi x</w>
évol ution</w>
t ur</w>
regar de</w>
ou i</w>
long temps</w>
gran des</w>
g n
fu tur</w>
c entre</w>
am en
Ne w</w>
grand s</w>
c an
a que</w>
o t</w>
con fi
arri ver</w>
su c
i er</w>
commu ni
- là</w>
se p
el on</w>
sol ution</w>
siè cle</w>
gau che</w>
for ce</w>
er r
capa ble</w>
différ ence</w>
vi e
pou ss
onn es</w>
it ec
si x</w>
mati que</w>
e ffi
u res</w>
É tats-Unis</w>
popul ation</w>
milli ers</w>
f ille</w>
élec tr
syst èmes</w>
ob tenir</w>
pr om
habi tu
is tes</w>
ense ign
om e</w>
cons om
vi te</w>
consi dé
j u
et tes</w>
enti er</w>
él è
t an
t aille</w>
or er</w>
T r
b ri
arri vé</w>
é ti
qu anti
con cer
arch itec
él e
dem ande</w>
thé or
t end
av en
am éli
aimer ais</w>
produi re</w>
per met
or ig
c y
ti é</w>
struc ture</w>
er ait</w>
de vient</w>
Y or
veu lent</w>
jeu nes</w>
import ante</w>
atten tion</w>
mar ch
énor me</w>
m ots</w>
desig n</w>
am our</w>
è nes</w>
in er</w>
ess enti
m p
no v
meill eure</w>
is tr
gra ph
dé mo
O u</w>
édu cation</w>
économ ie</w>
pren nent</w>
gouvern ement</w>
com pris</w>
er t
cel ui</w>
b é
ab ilité</w>
par fois</w>
mo t</w>
dev ant</w>
al i
6 0</w>
Ch ine</w>
des c
Inter net</w>
per met</w>
mil ieu</w>
all é</w>
A r
fu t</w>
con ten
arti s
O h</w>
éch elle</w>
n om
att end
dev rait</w>
croi ss
sur face</w>
s pec
vi ens</w>
par lé</w>
re g
r ais</w>
scientifi ques</w>
heur eux</w>
s ti
ci el</w>
ter mes</w>
princi pa
l ar
fai te</w>
différ ent</w>
sor tes</w>
produi ts</w>
fr on
dr oite</w>
c at
s elon</w>
ple in</w>
particuli er</w>
ex tra
o r</w>
m ètres</w>
hum aine</w>
Améri que</w>
voudr ais</w>
v illes</w>
sé curité</w>
sal le</w>
quel s</w>
al y
é di
â ge</w>
ra tion</w>
ent ation</w>
t el</w>
sou ff
puis se</w>
extr ê
ch ance</w>
P as</w>
mach ine</w>
fa cile</w>
utilis e</w>
ci r
ob ten
m ol
com m
b as
4 0</w>
pens ez</w>
par ents</w>
P ar</w>
ra g
o ff
ati ve</w>
respon s
mau v
ec tion</w>
ai rement</w>
Yor k</w>
étudi ants</w>
mouv ement</w>
is er</w>
n eur
h or
h eure</w>
d euxi
chac un</w>
ap pli
M on
technolog ies</w>
com bien</w>
cert ain</w>
œ u
t aux</w>
h ors</w>
ce voir</w>
pi e
k il
er ie</w>
aug men
C on
pens ons</w>
a fin</w>
ri ère</w>
h ô
a jou
équi pe</w>
deven u</w>
com pag
é mo
e y</w>
d û</w>
P uis</w>
rel ig
op éra
d ez</w>
ê tres</w>
ti onne</w>
ré c
jeu ne</w>
demand er</w>
b es</w>
phy sique</w>
imagin er</w>
fin alement</w>
com por
v ari
prés ent</w>
jour n
con st
8 0</w>
effi ca
chi ff
program me</w>
ch an
am ent
iss ons</w>
ati s
déc is
è rent</w>
t or
rap port</w>
mor ce
di rig
am ment</w>
a -
l ai
in ven
doi vent</w>
d o
chang é</w>
voi e</w>
se aux</w>
r ê
r an
utilis é</w>
tr oi
situ ation</w>
nat ur
f au
con dui
maladi e</w>
g la
dr oit</w>
contr ôle</w>
a m</w>
poin ts</w>
mol é
for mes</w>
bé b
bu re
t- ils</w>
sy n
p les</w>
secon de</w>
péri o
s ex
inv esti
au -
A D
tech ni
pro pr
con v
ér o</w>
p ai
dé s
su per
pé tro
li tt
au tant</w>
E ur
sorti r</w>
m ée</w>
ins pi
in nov
c t</w>
é tions</w>
r om
n uit</w>
mondi ale</w>
moi tié</w>
in géni
deuxi ème</w>
a z
li vres</w>
im pli
ti ss
esp èce</w>
vi es</w>
pren ez</w>
mis sion</w>
g al
ér alement</w>
ter me</w>
médi cam
méde ci
con di
cher ch
a k
AD N</w>
re tour
pi èce</w>
T u</w>
J o
ress our
ra n</w>
pens ent</w>
n eu
extra ordin
c les</w>
as tique</w>
ré dui
ra y
pro gr
li re</w>
fi er</w>
ré sou
com mer
ter ri
pro fon
fonc tionne</w>
cu les</w>
ur g
pouv ais</w>
fond ament
fin i</w>
cert aine</w>
ca le</w>
montr é</w>
ez- moi</w>
chang e</w>
v ill
sem aines</w>
Eur op
vir us</w>
f illes</w>
différ ente</w>
constr uit</w>
car te</w>
c ès</w>
phot os</w>
ph ère</w>
en ter</w>
r on
m y
am i</w>
s er</w>
l y
ca l</w>
bâti ment</w>
ati f</w>
ab sol
é tique</w>
sem aine</w>
En suite</w>
rai sons</w>
m ot
m em
là- bas</w>
end s</w>
esp ère</w>
propr es</w>
nouv eaux</w>
m ess
esp èces</w>
ordin ateurs</w>
is ation</w>
dis par
ang l
C ert
ét és</w>
si ème</w>
g ri
entre prise</w>
der rière</w>
œ ur</w>
ér o
o o
gr av
compor tement</w>
ui ts</w>
néc ess
en n
t ait</w>
d ang
croiss ance</w>
ét ap
cons équ
essay é</w>
cent aines</w>
Re gar
théor ie</w>
ob ser
conti n
ap pr
un s</w>
tra di
contr ô
b er
étu de</w>
pour rions</w>
ex t
en gag
écri re</w>
ob jet</w>
is ent</w>
con f
élec tri
sou s-
ma j
com par
ail leurs</w>
t él
dé plac
av i
è se</w>
troi sième</w>
gar s</w>
ex te</w>
travai lle</w>
sui vre</w>
partag er</w>
ob jets</w>
for t</w>
sol eil</w>
racon ter</w>
dis ait</w>
ai m
m us
laiss er</w>
vis u
ti rer</w>
rés eau</w>
ré el</w>
pren ons</w>
pl ai
j eux</w>
aven ir</w>
val eur</w>
soi ent</w>
outi ls</w>
d é</w>
9 0</w>
scientifi que</w>
pl an</w>
im pression</w>
fais ant</w>
w e
hu man
di men
si n</w>
qu ent</w>
océ an</w>
démo cra
dom aine</w>
r aient</w>
pi re</w>
c ations</w>
1 2</w>
y n
résou dre</w>
pour riez</w>
li t</w>
fais ait</w>
f é
cel ui
v ois</w>
truc s</w>
ten ti
r ons</w>
n ég
mati ère</w>
gu es</w>
es po
résult at</w>
parti ci
car act
aut or
vit esse</w>
so l</w>
s ent
com passion</w>
t ab
ré u
ét ant</w>
rel ation</w>
ac cep
économ ique</w>
z one</w>
s tu
re ven
quanti té</w>
olog ique</w>
entre prises</w>
a ci
ét oi
p sy
j ecti
du l
P eu
G o
maladi es</w>
conn u</w>
tru c</w>
résult ats</w>
con férence</w>
aur a</w>
pourr aient</w>
o li
gr é</w>
expli quer</w>
cu is
a h
O u
ê ts</w>
voi x</w>
nombr euses</w>
in c
im pa
ain ement</w>
ér é</w>
dé pend
bl an
2 5</w>
ur er</w>
ti fs</w>
pétro le</w>
l anc
at oire</w>
règ les</w>
pr eu
pati ents</w>
on g
nombr eux</w>
jour née</w>
gl ob
premi ers</w>
oi e</w>
développ er</w>
ag ri
ach eter</w>
D e
ins titu
ren du</w>
pou vi
mat hé
ai e</w>
a te</w>
évol u
u ment</w>
travail lé</w>
ré vol
remar qu
m ains</w>
in qui
déc ri
dis cu
d i</w>
b én
a y</w>
M ar
réfléch ir</w>
produ ction</w>
par mi</w>
m an</w>
c ains</w>
tend ance</w>
pi t
pi er</w>
il li
assi s</w>
ad ap
Qu el
Europ e</w>
utilis ant</w>
ra ge</w>
ou bli
f ant
I ci</w>
in i
h eur</w>
com pos
ressour ces</w>
P l
E tats-Unis</w>
prot ég
por tu
po tenti
ai l</w>
sep t</w>
ci t
ti e</w>
pro jets</w>
f as
en reg
I s
voul ait</w>
ty pes</w>
qu alité</w>
pe au</w>
f ils</w>
espo ir</w>
com pli
ter min
pré c
ec tu
a ffi
sig n
r a</w>
pério de</w>
ci ens</w>
b ons</w>
titu de</w>
prof ess
modè les</w>
men er</w>
ve aux</w>
t as</w>
phy si
ni té</w>
in ten
c entr
bra s</w>
b onnes</w>
B i
vi vent</w>
ti ent</w>
mau vais</w>
l abor
dem ment</w>
m ation</w>
lang age</w>
cré e</w>
ét onn
représ ent
e té</w>
v él
su ff
mo der
ecti vement</w>
dét er
C A</w>
rapp el
grou pes</w>
gr o
b act
bact éri
t- on</w>
s équ
pro pri
op portu
kil om
et c</w>
cl asse</w>
cal cu
ré uni
es si
vis age</w>
sc ène</w>
sav ent</w>
généra l</w>
è tre</w>
v il
réalis é</w>
mati n</w>
A près</w>
tu r
t â
ser ont</w>
mul ti
ai son</w>
Qu i</w>
étu des</w>
voy age</w>
téléph one</w>
pati ent</w>
il ler</w>
extrê mement</w>
emi n</w>
anim al</w>
ag ir</w>
M i
sour ce</w>
pour tant</w>
ob jecti
o l</w>
milli on</w>
enreg istr
dev rions</w>
ch emin</w>
b il
attein dre</w>
L e
ren d</w>
parti es</w>
en -
bon heur</w>
5 00</w>
ê me</w>
sou h
s en
d us</w>
oi rs</w>
fi ci
ex am
constru ction</w>
am us
suc cès</w>
ot h
mar i
fr oi
d el
an aly
a ï
voi tures</w>
ré p
re ction</w>
généra tion</w>
cré ati
s on
ox y
cher cher</w>
ac tions</w>
mag nifi
inf lu
ass oci
pouv aient</w>
l è
bén é
M a</w>
è de</w>
z ones</w>
trav ers
tr an
l et
confi ance</w>
cel le
b elle</w>
t age</w>
g ène</w>
chau ff
R i
7 0</w>
2 00</w>
re l</w>
qu it
nor m
mauv aise</w>
impa ct</w>
dis ant</w>
cl é
absol ument</w>
S h
véri té</w>
ustr ie</w>
trai tement</w>
pau vres</w>
meill eurs</w>
in ez</w>
dé cl
acc ès</w>
P r
Go og
pe ine</w>
mang er</w>
lors qu&apos;</w>
import ance</w>
bure au</w>
al lu
utilis ent</w>
ré es</w>
ob serv
eu e</w>
conc entr
c œur</w>
a dul
élé ments</w>
ç on</w>
uni que</w>
res t
connaiss ance</w>
ind ustrie</w>
f il</w>
capa bles</w>
t elle</w>
déc ouvrir</w>
c er</w>
ter r
séri e</w>
sup er</w>
suff is
moy enne</w>
mi cr
m s</w>
id enti
g e
appro che</w>
ver sion</w>
représ ente</w>
pa ge</w>
gla ce</w>
ex is
de vi
cou leur</w>
as pec
ré us
ra m
de dans</w>
éra ture</w>
é mer
g ènes</w>
cr ise</w>
at tr
o le</w>
en nes</w>
em ent
av ion</w>
ain c
tri ce</w>
heur eusement</w>
expéri ences</w>
end ant</w>
e in
aî t</w>
angl ais</w>
tr ou
s phère</w>
rou ge</w>
particuli èrement</w>
mar cher</w>
acti vité</w>
t aire</w>
re venir</w>
phot ograph
m am
empl oy
consci ence</w>
S e
Goog le</w>
vol on
sy m
rapi de</w>
n oir</w>
morce au</w>
g a
eff ectivement</w>
chi r
è tes</w>
souv en
ris que</w>
pens ais</w>
doi g
Av ec</w>
é ment</w>
spec t
cli matique</w>
éc an
vi eux</w>
po i
nu clé
inst ant</w>
concep tion</w>
cap it
au di
Peu t-être</w>
1 1</w>
ouver t</w>
l ui
ac cu
ét ab
v é
recher ches</w>
po ni
pa pier</w>
lui -même</w>
les quelles</w>
ist an</w>
ec t
c ti
éc ran</w>
tot alement</w>
ag er</w>
t em
rass embl
arrê ter</w>
réu ssi</w>
rob ot</w>
ent end
dé m
dis poni
complex e</w>
C a</w>
ér is
réc emment</w>
per du</w>
del à</w>
chir urg
att a
gal ax
fai ts</w>
enti ss
aut om
N e</w>
proch aine</w>
li ons</w>
hab it
extraordin aire</w>
ex ist
ent endre</w>
c ot
M al
I mag
v end
v ac
so ph
pa th
on -
investi ss
fr an
di rection</w>
alim ent
pré par
po l
ph én
de hors</w>
appel ée</w>
puiss ance</w>
m él
m écan
il o
er ai</w>
eff or
at h
af fai
a- t-il</w>
C o
étudi er</w>
étap e</w>
rai n</w>
r ôle</w>
qu ant</w>
pro fi
nu méri
mon tag
l ors</w>
vill age</w>
v éc
utilis ons</w>
h uit</w>
chang ements</w>
éco les</w>
suiv ante</w>
pens ée</w>
litt éralement</w>
g o
senti ment</w>
qu és</w>
merveill eux</w>
mati ques</w>
le v
res ter</w>
o w
im possible</w>
de viennent</w>
cé ré
Cert ains</w>
us tri
s ent</w>
rég ion</w>
ré si
r y
possi bilité</w>
p ê
lis te</w>
es t-
d ur</w>
cid ent</w>
M ême</w>
é pi
re qu
r ue</w>
pré h
n ot
exemp les</w>
conc lu
ang e</w>
Regar dez</w>
véc u</w>
t ements</w>
phén om
lang ue</w>
incroy ablement</w>
eau té</w>
déf i</w>
direc tement</w>
Su d</w>
N otre</w>
sé par
qu ée</w>
mer ci</w>
b one</w>
vrai e</w>
uti ons</w>
m ur</w>
m eu
ext érieur</w>
du ra
continu er</w>
a h</w>
g g
cr oire</w>
conn aître</w>
co de</w>
b eau</w>
viv ant</w>
gra t
développ é</w>
chiff res</w>
t al
ss es</w>
servi ce</w>
po m
plan tes</w>
nu m
déter min
dé b
du rant</w>
celui -ci</w>
appar eil</w>
F r
t a</w>
po is
mess age</w>
el le
dou te</w>
cré ation</w>
J us
souh ai
soci étés</w>
si mil
re çu</w>
oc k
n er
ex ion</w>
en fin</w>
e illes</w>
dé sor
c s</w>
c elles</w>
bi z
sur tout</w>
oin dre</w>
kilom ètres</w>
j et
inter nation
conv ainc
c k
Pl us</w>
C ar
travail lent</w>
trai ter</w>
rencontr é</w>
n aiss
ind ustri
commenc ent</w>
1 8</w>
éle v
ter rain</w>
médicam ents</w>
lar ge</w>
cré at
secon des</w>
re té</w>
poli tiques</w>
le ver</w>
esp ér
dis ons</w>
cont ac
av ère</w>
L i
G r
Al l
tionn elle</w>
ser t</w>
f av
er té</w>
car bone</w>
B eaucoup</w>
Au jourd&apos;</w>
prof es
f ou
dis tribu
d in
concep t</w>
ant age</w>
alis ation</w>
Jo h
D é
res pec
psy ch
matéri aux</w>
long ue</w>
l oc
se in</w>
pag ne</w>
intér êt</w>
im médi
es t-il</w>
tionn el</w>
n é
mo di
ins tru
h onn
dev ait</w>
condi tions</w>
commer ci
a po
é p
uni quement</w>
ti s
t ap
par avant</w>
fi que</w>
faç ons</w>
car di
br an
ér a</w>
ti ves</w>
s avais</w>
s ac
ment ation</w>
labor atoire</w>
h ér
es c
envoy er</w>
ci en</w>
av antage</w>
affai res</w>
Ch aque</w>
trouv ent</w>
pr ét
mon ter</w>
mi cro
dis t
d en
cons titu
br ill
M o
- mêmes</w>
yn am
tes -
sim ples</w>
pro che</w>
per mettre</w>
hau te</w>
er ci
ar bres</w>
électri cité</w>
u t</w>
préh en
premi ères</w>
par ti</w>
moy ens</w>
l oi</w>
intéress ante</w>
grand -
au paravant</w>
appr entiss
Ch ris</w>
él oi
ni es</w>
human ité</w>
emp ê
ci tés</w>
bi ologie</w>
as h
ai ses</w>
te z-
sol aire</w>
re tour</w>
pr ati
or ité</w>
fas cin
e ons</w>
défin i
d ès</w>
ch in
bi o
str at
s in
cert ainement</w>
biz ar
architec ture</w>
uni versité</w>
rou te</w>
rem on
fon ction</w>
di tes</w>
ap préci
a c</w>
L ors
vi t</w>
v as
so li
s ai
innov ation</w>
i k
di ver
c é</w>
apprentiss age</w>
répon dre</w>
ré ci
p ie</w>
n on-
g es</w>
ex per
béb é</w>
préc is
mét ho
log i
er ont</w>
cellu le</w>
b our
N ord</w>
étoi les</w>
viv ons</w>
tour ner</w>
t oi
soci al</w>
pr ouv
par ten
organis ation</w>
m asse</w>
indivi dus</w>
essenti ellement</w>
contin ue</w>
comm un</w>
P endant</w>
D i
écou ter</w>
révol ution</w>
pouss er</w>
mu si
f eu
améli orer</w>
s oir</w>
ré cu
pourr ais</w>
por té</w>
p tion</w>
n ant</w>
l am
ce v
bl o
T ous</w>
vol er</w>
soci ale</w>
réalis er</w>
pr atique</w>
pos s
p é</w>
mor ts</w>
import antes</w>
fabri quer</w>
es s</w>
en cou
e in</w>
dét ec
co eur</w>
19 9
ti ens</w>
re ç
prot é
pe in
ord re</w>
a w
soci aux</w>
port able</w>
pit al</w>
mo de</w>
h ou
gag ner</w>
f eu</w>
cor respon
cha î
aur ais</w>
amen er</w>
ad op
struc tures</w>
pau v
fin anci
essay ons</w>
cont exte</w>
con cevoir</w>
coll abor
char ge</w>
al og
Qu el</w>
L aiss
1 8
uti le</w>
rel ations</w>
om es</w>
médi as</w>
jus ti
g es
g am
fin ir</w>
dr og
dess ous</w>
d ynam
cl in
cep tion</w>
celle -ci</w>
ti ers</w>
t oi</w>
su gg
répon du</w>
m eur
il ement</w>
déc en
di ag
av anc
ai sse</w>
visi ble</w>
spect ac
ress ent
in tro
ga z</w>
d oc
cour ant</w>
comb in
com préhen
av an
a fri
C ar</w>
sou ris</w>
on ique</w>
four ni
ense ig
e ils</w>
cl air</w>
cin s</w>
bo î
b eauté</w>
Imag inez</w>
t ar
lib erté</w>
di c
d ents</w>
cid ent
ci les</w>
V i
équ ili
mi d
f ré
démocra tie</w>
all ée</w>
R o
P u
v ag
pauv reté</w>
opéra tion</w>
nat u
mach ines</w>
k m</w>
fai ble</w>
f allait</w>
e ant</w>
all ais</w>
P h
. 000</w>
suiv ant</w>
sau ver</w>
pie d</w>
n ou
en d</w>
di versité</w>
dem i</w>
L à</w>
sex u
rob ots</w>
re venu</w>
pai x</w>
oc ca
dang er
con tribu
tri b
transform er</w>
st y
si ez</w>
regard é</w>
pré si
olog iques</w>
moi -même</w>
id entifi
er ez</w>
dé s</w>
coû t</w>
a st
a ce</w>
t est</w>
s é</w>
organis mes</w>
neu f</w>
le ad
entr aî
dé tr
caract éris
ay ant</w>
ab and
- je</w>
san g</w>
natu rel</w>
mou rir</w>
mo ti
m ise</w>
is é</w>
fil ms</w>
f en
er t</w>
dimen sions</w>
am es</w>
oy ez</w>
os au
graph ique</w>
am p</w>
we b</w>
si ne</w>
ré com
os si
médeci ne</w>
li bre</w>
communau tés</w>
attr ap
t é
profes sionn
imagin ez</w>
géni al</w>
Tr ès</w>
s onn
ouv re</w>
n és</w>
fam ili
expl or
em b
di x</w>
cr u
cor rec
ai ls</w>
évi demment</w>
s élec
po issons</w>
pe l</w>
minu te</w>
inter net</w>
es sion</w>
aff ec
P ers
C or
strat ég
profess eur</w>
pie ds</w>
per mis</w>
o k</w>
l ancer</w>
iss ez</w>
int é
form ation</w>
f ra
car tes</w>
ca ss
améli or
S te
temp érature</w>
ré seaux</w>
pé ti
potenti el</w>
hô pital</w>
du is
d or
con vers
ca f
O ù</w>
N &apos;</w>
A p
milli ard</w>
indivi du
di pl
conten u</w>
at ement</w>
ass embl
all és</w>
tomb er</w>
sol utions</w>
rédui re</w>
pass ent</w>
mp ;</w>
f lu
essay e</w>
em pr
dr oits</w>
chan son</w>
c élè
actu ellement</w>
V I
&a mp;</w>
vi n</w>
senti r</w>
répon ses</w>
d ons</w>
d an
coll è
al ités</w>
viol ence</w>
ver rez</w>
r ont</w>
pro cé
nécess aire</w>
ad ore</w>
T h
utilis ation</w>
trai te</w>
s oins</w>
opportu nité</w>
océ ans</w>
ini ti
ess aie</w>
concer ne</w>
comp ét
che v
c h</w>
au x
arti cle</w>
a d</w>
vé hi
pr ends</w>
mé tr
h on
gén étique</w>
fac ilement</w>
f aux</w>
décis ions</w>
di g
aut o-
Qu elle</w>
A f
tr e
t ées</w>
séri eux</w>
rest aur
r entr
orig ine</w>
mot eur</w>
l in
f us
créati vité</w>
che f</w>
c a</w>
au- delà</w>
arri vent</w>
G e
t &apos;</w>
ré ser
qu arti
man que</w>
endr a</w>
dé mar
communi cation</w>
ch arg
bes oins</w>
M ars</w>
Com bien</w>
t o
posi tif</w>
plai sir</w>
pl astique</w>
outi l</w>
magnifi que</w>
l ab
ins ec
en vers</w>
désor mais</w>
b re
av is</w>
S &apos;</w>
Lors que</w>
val eurs</w>
ti en</w>
servi ces</w>
o eu
expl oi
en té</w>
effica ce</w>
di vis
com port
choi sir</w>
ca les</w>
étrang e</w>
sen si
sci ences</w>
ré gu
pi èces</w>
ouver ture</w>
moder ne</w>
li n</w>
li en</w>
les quels</w>
condui t</w>
at mo
é mis
ven ue</w>
st atis
prés ent
prim er</w>
pois son</w>
oy er</w>
op ti
inven té</w>
inform atique</w>
il l</w>
g i
fin al</w>
en t-
cuis ine</w>
compag nie</w>
ci vil
bat tre</w>
am bi
éra tion</w>
ui te</w>
ry th
particu les</w>
p ain</w>
mil it
c en
ver t</w>
tâ che</w>
s ens
puiss ent</w>
pi ra
mi ne</w>
cour t</w>
bactéri es</w>
î t</w>
th èse</w>
pré cé
pay s
oi seaux</w>
ob lig
l ec
l eau</w>
i me</w>
habitu de</w>
fi é</w>
fi cation</w>
enti r</w>
attein t</w>
voul aient</w>
voi ent</w>
t- elle</w>
sau v
pro vo
por ts</w>
met tent</w>
m ainten
intér esse</w>
g ou
at el
B o
rem pl
personn el</w>
pers pec
pay er</w>
décis ion</w>
dis tin
dis cours</w>
d a</w>
complex ité</w>
ai ment</w>
Af g
re j
nuclé aire</w>
mor t
l our
gouvern ements</w>
fron ti
fais aient</w>
d ra
cl airement</w>
cam pagne</w>
bou te
blan c</w>
b omb
alis te</w>
3 00</w>
t aient</w>
obser ver</w>
numéri que</w>
médeci n</w>
march és</w>
grand i</w>
for ces</w>
att endre</w>
alis er</w>
ver si
progr ès</w>
poi ds</w>
objecti f</w>
o h</w>
num éro</w>
f o
f es
dé e</w>
d on
br û
bl ess
appel ons</w>
J u
publi que</w>
preu ve</w>
parl ons</w>
mem bres</w>
limi tes</w>
immédi atement</w>
for mid
enti èrement</w>
dev raient</w>
cit oy
c ée</w>
appel er</w>
ad or
ab ord
S ur</w>
H u
1 6</w>
te -
pr êt</w>
lanc é</w>
gar der</w>
dé fi
G u
écri v
voul u</w>
u nes</w>
t h</w>
suiv i</w>
si tes</w>
prés entation</w>
oxy gène</w>
n ord</w>
n oire</w>
n e
in é</w>
fi x
err eurs</w>
do cu
connaiss ez</w>
aur aient</w>
an tique</w>
aband onn
H om
évi ter</w>
è que</w>
u er</w>
pl at
pa ri
fré qu
dém ie</w>
din osau
consom mation</w>
af faire</w>
Pers onne</w>
M an
E x
z aines</w>
sor ti</w>
par lent</w>
men é</w>
hy po
entre pren
découver te</w>
dé pen
connaiss ons</w>
bat eau</w>
améric ains</w>
Tou tes</w>
électr ique</w>
ur b
ui e</w>
télé vision</w>
protég er</w>
plac er</w>
permet tent</w>
ot y
molé cules</w>
lo t</w>
cu r
contac t</w>
co pi
bl ement</w>
b ois</w>
au- dessus</w>
améric ain</w>
é ma</w>
è n
ver ti
ven ant</w>
tr ou</w>
sec r
s oi</w>
s cul
ri ch
prés enter</w>
pouvi ons</w>
per dre</w>
o ti
naiss ance</w>
mom ents</w>
g ner</w>
form er</w>
dé bar
du ction</w>
donn ent</w>
béb és</w>
acc él
O k</w>
D A</w>
éc lai
v endre</w>
tr om
som met</w>
ri tu
princi pe</w>
m â
inf ra
e ille</w>
compréhen sion</w>
co pe</w>
ch u
c oin</w>
atmo sphère</w>
équi p
véri table</w>
ven ait</w>
sou d
fér ences</w>
fam illes</w>
ar bre</w>
é ment
su d</w>
sol d
pris on</w>
pren ant</w>
ph ra
pass ait</w>
intellig ence</w>
im pres
for te</w>
eff ets</w>
dé cou
différ ences</w>
commen çons</w>
cham bre</w>
c ens
S A</w>
ter a</w>
techni que</w>
tab leau</w>
sy mp
ser aient</w>
s ch
ri di
puiss ant</w>
poli ce</w>
mondi al</w>
iss ait</w>
g â
bi le</w>
ati ves</w>
at ti
ar mée</w>
al li
al g
t tes</w>
ré su
respons abilité</w>
p ann
on ie</w>
nou s-
import ants</w>
dé part</w>
dev ais</w>
chim iques</w>
ch ets</w>
as tr
x im
ter n
rê ve</w>
ri che</w>
h as
g ui
di r</w>
d on</w>
cou leurs</w>
chau ss
bl eu</w>
b ord</w>
av iez</w>
a des</w>
VI H</w>
2 4</w>
z- vous</w>
v ê
relig ion</w>
mi que</w>
m ères</w>
conc entrer</w>
ch ent</w>
adul tes</w>
L ond
C el
C O
Afg han
tu er</w>
reven us</w>
regard ant</w>
phénom ène</w>
lig nes</w>
l u</w>
justi ce</w>
f e</w>
err eur</w>
dist ance</w>
ch al
br u
bizar re</w>
artis tes</w>
a se</w>
y a</w>
ver re</w>
sau f</w>
s il
ré sol
mathé matiques</w>
j ec
eux -mêmes</w>
dis aient</w>
derni ers</w>
con fron
Afghan istan</w>
é par
su péri
ri ches</w>
natur elle</w>
fonctionn er</w>
enti ère</w>
en g
cour se</w>
complex es</w>
coll ecti
S i
1 4</w>
évolu é</w>
élé ment</w>
ven us</w>
su jets</w>
ré vél
p pe</w>
oy ons</w>
obten ez</w>
neur ones</w>
l arg
int ui
institu tions</w>
cl é</w>
bil ités</w>
ac compl
a che</w>
Améri cains</w>
équili bre</w>
à- dire</w>
y p
ques -
produ isent</w>
pouv ons-nous</w>
oy au
oc cident
go û
deven ue</w>
connaiss ent</w>
con ç
con que</w>
collè gues</w>
chi en</w>
ar mes</w>
ar di
Laiss ez-moi</w>
vidé os</w>
tu m
tro ph
su s
récu p
no tion</w>
mét ap
maj orité</w>
lai sse</w>
l ois</w>
d g
bu r
bou ger</w>
ann on
C ali
éch anti
vo l</w>
regard ons</w>
mé m
montr ent</w>
mes urer</w>
laiss é</w>
ilo soph
fant astique</w>
est- à-dire</w>
er ons</w>
dura ble</w>
ap pel</w>
an g</w>
échanti ll
vir tu
scul p
s titu
qu ées</w>
possi bilités</w>
imagin ation</w>
ex pression</w>
dé li
d os</w>
co ol</w>
ass es</w>
Cali for
C et</w>
ven tion</w>
tez- moi</w>
servi r</w>
ryth me</w>
ph ilosoph
orig in
it h
is ol
im pl
hor ri
gén ome</w>
g enti
er res</w>
eff ectu
défini tion</w>
con çu</w>
bâti ments</w>
ati fs</w>
ac qu
P er
Ch ar
étudi ant</w>
équi val
énor mes</w>
tél é</w>
tou cher</w>
sup pl
on g</w>
jour d</w>
ist ance</w>
iss ant</w>
gran dis
fais ais</w>
expl orer</w>
dét ails</w>
att ach
ati ques</w>
ap er
I ra
H ar
élè ves</w>
t oire</w>
seu ls</w>
ré chauff
ri re</w>
relig i
re cu
pl ong
nu lle</w>
moti v
mort alité</w>
il lu
ent hou
dé ment</w>
du c
cô te</w>
calcu l</w>
ca s
bi bli
arri ver
ap porter</w>
Ri ch
R é
N o
Lond res</w>
2 000</w>
éch ou
è ge</w>
vi s</w>
pas sionn
pa l
ob s
n ez</w>
jou e</w>
int ég
es thé
e ill
créat ures</w>
cer veaux</w>
aliment aire</w>
én er
travaill ons</w>
si as
ri ent</w>
profon dément</w>
pens ait</w>
n av
mani fes
gag né</w>
en vie</w>
dou leur</w>
boî te</w>
ad ol
D eux</w>
év én
éle vé</w>
trouv ez</w>
sym bo
remar qué</w>
pré occu
produ c
pro fond</w>
op ie</w>
lè ve</w>
desc end
conséqu ences</w>
chaî ne</w>
caf é</w>
aspec t</w>
améric aine</w>
am a</w>
alis me</w>
actu elle</w>
O c
En core</w>
évi dent</w>
émis sions</w>
tes- vous</w>
sou viens</w>
sor t</w>
règ le</w>
program mes</w>
matéri el</w>
j au
is tre</w>
inté gr
has ard</w>
g é</w>
et t
enthou sias
ent ement</w>
célè bre</w>
conn ais</w>
chin ois</w>
Califor nie</w>
CO 2</w>
ô me</w>
statis tiques</w>
proch aines</w>
par fait</w>
oti di
ni veaux</w>
k e
is se</w>
identi té</w>
hum aines</w>
di a</w>
dev riez</w>
dev oir</w>
cul aire</w>
com péti
com man
ay ons</w>
vi tés</w>
rapp elle</w>
meill eures</w>
m assi
logi ciel</w>
in dépend
gro sse</w>
gar çons</w>
for êt</w>
ex ci
er ais</w>
dé rou
cou rir</w>
conf lit</w>
choi si</w>
ch em
bal e
1 0
œ il</w>
tou rs</w>
t ations</w>
qu otidi
por tent</w>
pag es</w>
contrô ler</w>
c â
Joh n</w>
z éro</w>
tr ait</w>
tes ts</w>
s atis
s ang
rencontr er</w>
r al
plan ètes</w>
occa sion</w>
n ation</w>
mouv ements</w>
mar que</w>
m oindre</w>
li eux</w>
hist or
fai tement</w>
f all
di té</w>
d rait</w>
émo tions</w>
ç ant</w>
tr a</w>
tem bre</w>
techni ques</w>
re -
pri v
pass ant</w>
méde cins</w>
h s</w>
décl ar
ce -
artis te</w>
C an
B on
1 ,
évi d
vi cti
t aires</w>
si mul
quel ques-
pouvi ez</w>
peu ple</w>
pau vre</w>
par faitement</w>
met tez</w>
merveill euse</w>
m ètre</w>
jam bes</w>
is ons</w>
inv ent
gén é
er n
ci vi
ach et
P ro
v enti
v aut</w>
tomb e</w>
suppl ément
suffis amment</w>
s ant</w>
preu ves</w>
pr êts</w>
o k
my st
log ique</w>
inf ec
im men
gar çon</w>
g ne</w>
for d</w>
er aient</w>
coû te</w>
coll ec
and a</w>
am ène</w>
S ou
N ation
Es t</w>
B re
ét aire</w>
v aiss
ti ennent</w>
t ables</w>
secon d</w>
sec teur</w>
s avait</w>
ré action</w>
res pi
ra l</w>
posi tive</w>
l ée</w>
emi -
déplac er</w>
diffi ciles</w>
c arrière</w>
av ance</w>
aiss ent</w>
a me</w>
S I
A t
1 3</w>
vi de</w>
ré par
pol lu
pla ît</w>
per man
ouv ri
o d
insec tes</w>
ing ton</w>
i quement</w>
espa ces</w>
cul tures</w>
étab li
éro ï
trouv ons</w>
tr ad
st ade</w>
s pati
r ues</w>
perspec tive</w>
p én
indivi du</w>
im es</w>
h a</w>
ex position</w>
dé chets</w>
dynam ique</w>
du re</w>
dirig e
cri tique</w>
chac une</w>
bu dg
av ez-vous</w>
ati vement</w>
an e</w>
ajou ter</w>
B u
u sine</w>
ter ie</w>
ten ce</w>
prot ection</w>
me -
m és</w>
inc lu
enseign ants</w>
eff on
dé si
deven us</w>
consom mat
con serv
cham pi
c ain</w>
am i
ac k
ab eilles</w>
P ren
C am
19 8
som me</w>
ris ques</w>
mém oire</w>
let tres</w>
le vé</w>
formid able</w>
fav or
envoy é</w>
di rais</w>
de -
cou che</w>
conti ent</w>
chang ent</w>
ch ant</w>
avi d</w>
O N
D avid</w>
4 00</w>
1 7</w>
v ul
tr ement</w>
ti tre</w>
ressembl ent</w>
r ar
prés ente</w>
po ll
ple ine</w>
onn ement</w>
mani ères</w>
m at</w>
i ers</w>
gén ér
cham p</w>
br uit</w>
au quel</w>
Par fois</w>
D ar
A sie</w>
œu vre</w>
étudi é</w>
éri eure</w>
è le</w>
prési dent</w>
prés ence</w>
médicam ent</w>
l and</w>
inst all
in tr
hi er</w>
galax ies</w>
doig ts</w>
di zaines</w>
contr aire</w>
consi d
cam éra</w>
av ancer</w>
augmen ter</w>
Rich ard</w>
Pr emi
O rient</w>
M oy
éti ez</w>
z o
ven ez</w>
s ins</w>
r i</w>
pres se</w>
ni que</w>
h er
gri ppe</w>
g o</w>
entr ée</w>
cour be</w>
cl av
ce in
capa cités</w>
ca dre</w>
au jourd</w>
agri culture</w>
a re</w>
ti me</w>
rappel er</w>
p y
p il
met tons</w>
mauv aises</w>
hér os</w>
h ar
f rag
f ou</w>
expl o
el l</w>
diag no
conn exion</w>
compli qué</w>
c o</w>
av eu
aug mentation</w>
as sique</w>
ang le</w>
al l</w>
Uni versité</w>
ég or
s ag
quarti er</w>
p ent</w>
montag ne</w>
mai sons</w>
inter vie
ign or
en t-ils</w>
e- t-il</w>
dom in
d ans
convers ation</w>
bi ologique</w>
b all
ay ez</w>
anci en</w>
SI DA</w>
P au
Ce pendant</w>
sembl ent</w>
respons able</w>
puis que</w>
préci s</w>
pon t</w>
nous- mêmes</w>
n an
mus ée</w>
mor ale</w>
mat hs</w>
fl ot
f asse</w>
de au</w>
compét ences</w>
ci eux</w>
at es</w>
arriv ée</w>
appar eils</w>
amen é</w>
ab il
W e
An g
- tu</w>
ë l</w>
vou s-
t eau</w>
sou ches</w>
s- je</w>
pê che</w>
oo d</w>
om ie</w>
nation al</w>
mil le</w>
mal gré</w>
m ons</w>
ingéni eurs</w>
fonctionn ent</w>
fall u</w>
dé bu
cat égor
caractéris tiques</w>
c enti
augmen te</w>
appel ait</w>
apo n</w>
ach eté</w>
ac cro
a si
Y ou
V otre</w>
Quel qu&apos;</w>
J apon</w>
ç ais</w>
ven ons</w>
remarqu able</w>
re conn
princi pes</w>
parl ait</w>
or ge</w>
lang ues</w>
in titu
impres sionn
for ment</w>
en nu
déb at</w>
dan se</w>
cl assique</w>
bou che</w>
bl og
bibli oth
aur ons</w>
as troph
all aient</w>
B e
s oin</w>
ri vi
poss ède</w>
mom ent-
min istr
m as
l é
intel l
f rapp
f er</w>
exis tence</w>
elle -même</w>
discu s
cat astroph
M S</w>
sur vivre</w>
proch ain</w>
pos sé
personn age</w>
olog ues</w>
n éra
four n
dé jeu
doig t</w>
danger eux</w>
céré bra
P ouv
uni vers
tiss u</w>
terr or
t at</w>
s h
rég ions</w>
morce aux</w>
molé cule</w>
ex ique</w>
dé sir</w>
di e</w>
connec ter</w>
communi quer</w>
bou lot</w>
b eaux</w>
an th
al tern
S ol
L u
v ot
uni versi
téléph ones</w>
st and
som bre</w>
sep tembre</w>
s col
re vient</w>
pré fér
proté ines</w>
port ée</w>
popul aire</w>
or bi
mem bre</w>
intro dui
intellig ents</w>
g rés</w>
dinosau res</w>
di rait</w>
cot é</w>
cons iste</w>
co s
chau d</w>
chal eur</w>
aut on
ass urer</w>
ac te</w>
W ash
P e
4 5</w>
ét h
é val
visi te</w>
ur ent</w>
sup pose</w>
st at
rem erci
possi bles</w>
port ables</w>
journ al</w>
inter prét
fourni r</w>
fer me</w>
empl oi</w>
décid er</w>
cher che</w>
ai s
ag é</w>
N os</w>
M u
M a
C ol
ré col
ren contre</w>
p â
p el
o eil</w>
l ait</w>
fon ds</w>
fer a</w>
ex cel
co le</w>
citoy ens</w>
ap prennent</w>
alis tes</w>
Wash ington</w>
î le</w>
tin g</w>
t ox
t ais</w>
t ablement</w>
s tique</w>
s ach
propri été</w>
ograph ie</w>
nom mé</w>
mu ni
l ation</w>
j oie</w>
j eter</w>
incroy ables</w>
in fi
im prim
i a</w>
flu x</w>
eff ray
décri re</w>
con férences</w>
civil isation</w>
ch ron
ax e</w>
aveu g
arriv és</w>
S on</w>
N at
M c
F in
ét end
édi e</w>
ul aire</w>
sty le</w>
stu pi
st ock
prot oty
obten u</w>
différ emment</w>
dang er</w>
cy cle</w>
c k</w>
aspec ts</w>
alis é</w>
ai ll
M I
Av ant</w>
1 50</w>
sorti e</w>
publi é</w>
principa lement</w>
pos ée</w>
per te</w>
mu sul
min us
man u
intell ectu
ingéni erie</w>
ho re</w>
g érer</w>
froi d</w>
fran ch
essenti el</w>
ess ence</w>
ent ôt</w>
employ és</w>
demand ez</w>
d avantage</w>
cul tur
col ère</w>
bi en-
amus ant</w>
N ig
M es</w>
De puis</w>
A h</w>
A d
â tre</w>
vul néra
vi ande</w>
sold ats</w>
sim pli
sc ann
rai sonn
radi o</w>
r entrer</w>
nég oci
n oirs</w>
métho de</w>
ment ale</w>
fr ère</w>
fai m</w>
cli ents</w>
cir cul
cherch eurs</w>
al ie</w>
D r</w>
ét ats</w>
vol u
us in
séqu ence</w>
su ffi
simil aire</w>
retour ner</w>
pro ches</w>
pos ent</w>
l entement</w>
influ en
galax ie</w>
ess ais</w>
enseign ement</w>
disponi ble</w>
des sin</w>
des ign
d y</w>
arti fici
analy se</w>
Nation al</w>
équival ent</w>
é cu
viv ants</w>
sui t</w>
sag esse</w>
rég ime</w>
ré férence</w>
ress entir</w>
pré fé
profon de</w>
principa l</w>
pass age</w>
organis ations</w>
nour rir</w>
meur ent</w>
mag az
li ts</w>
l av
jou ent</w>
intellig ent</w>
g ence</w>
f rap
dom aines</w>
cir c
M e
7 5</w>
é sie</w>
volon té</w>
utilis ée</w>
tes ter</w>
s me</w>
s atel
satel li
ri er</w>
re ti
pro fond
m ène</w>
lon gu
li qui
is és</w>
is es</w>
inst ein</w>
es cal
di a
dess in
de grés</w>
condui re</w>
comm and
co g
char bon</w>
cardi aque</w>
br ou
ar ts</w>
ap pl
alg or
adol esc
ad ministr
ab s
H é</w>
B l
te x</w>
s ing
principa le</w>
mu rs</w>
intéress é</w>
fabri cation</w>
di minu
ch es
b ande</w>
astr on
ass e
ap prend</w>
ang i
affi r
P ens
N A
M .</w>
E instein</w>
B r
è mement</w>
tu e</w>
tour n
spéci fi
signifi c
par adi
nav ig
matéri au</w>
mag ie</w>
li ens</w>
le terre</w>
grand- mère</w>
fé min
en tou
diffi cul
ci er</w>
ch és</w>
b att
aî tr
aur ont</w>
ar ra
algor ith
R ien</w>
Au c
Ang leterre</w>
é m
travers er</w>
tr ag
ter res</w>
t els</w>
secr et</w>
s si
puiss ante</w>
précis ément</w>
pass és</w>
par tage</w>
p ing
im meu
gn ons</w>
four mis</w>
enf ance</w>
déjeu ner</w>
défi s</w>
dis ais</w>
cor tex</w>
convainc re</w>
ch ée</w>
ap i
anti -
R ob
K en
Jus te</w>
Ira k</w>
F ran
B er
éra pie</w>
tu é</w>
tr ous</w>
soci ales</w>
organ es</w>
om ique</w>
mé ment</w>
men tionn
me ts</w>
là- dessus</w>
fin anc
enseig ner</w>
dépen d</w>
considé rer</w>
connaiss ances</w>
comport ements</w>
commer ce</w>
com pren
c lu
bi e</w>
b elles</w>
ai tre</w>
ag issent</w>
économ iques</w>
w in</w>
vê tements</w>
vie il
trans par
qu eue</w>
pr ess
personn elle</w>
pays age</w>
oi s
occu per</w>
ob es</w>
nation ale</w>
let tre</w>
laiss ez-moi</w>
fen être</w>
débar rass
dé sert</w>
du rée</w>
disponi bles</w>
compl et</w>
acti ve</w>
acc essi
T i
S t
Hom me</w>
év èn
ét er</w>
éch ec</w>
â g
z z
x i
utilis és</w>
us age</w>
transform ation</w>
t exte</w>
souff r
s pi
ri ez-vous</w>
ri e</w>
ress or
re cevoir</w>
on iques</w>
nom s</w>
moment- là</w>
investiss ement</w>
el l
diagno sti
d emi-
continu é</w>
commenc ez</w>
com prend</w>
cli mat</w>
b aiss
ai t-il</w>
ag ue</w>
T u
S an</w>
6 00</w>
é pou
représent ent</w>
r ang
qu ête</w>
pris onn
p ill
m ain
influ ence</w>
effor t</w>
conséqu ent</w>
clin ique</w>
chauss ures</w>
bas é</w>
ati onn
ar m
aim ons</w>
ai g
R oyau
MI T</w>
éner gé
écri ture</w>
tour ne</w>
sur prise</w>
stratég ie</w>
sing es</w>
sign aux</w>
si ve</w>
ré elle</w>
quit té</w>
posi tions</w>
poli ti
pens ées</w>
op in
mari age</w>
intéress antes</w>
h éri
h éli
généra tions</w>
expl ique</w>
essay ez</w>
effon dr
cré ent</w>
correc tement</w>
ch ons</w>
cer cle</w>
cam p</w>
aur ez</w>
ar gu
anci enne</w>
Pu bli
F or
v rais</w>
usin ess</w>
ti n</w>
ter res
ter ait</w>
ten u</w>
sur vie</w>
sou tenir</w>
sign al</w>
qua si
pro pag
pourr a</w>
pan z
pa tion</w>
ob tient</w>
limi te</w>
fer ait</w>
exist ent</w>
ess es</w>
décen nies</w>
dem ain</w>
com prennent</w>
chim panz
chiff re</w>
ab sor
a pon
F ai
B ri
écou te</w>
termin er</w>
sol é</w>
rédui t</w>
réchauff ement</w>
rich esse</w>
ressembl er</w>
requ ins</w>
rend ent</w>
rem et
rec y
qu ez</w>
pré serv
poin te</w>
per ception</w>
oi vent</w>
ni tés</w>
men ace</w>
mainten ir</w>
is ter</w>
feu ille</w>
environn ement
empê cher</w>
effor ts</w>
dis ci
dev rais</w>
cri min
compos ants</w>
chim ie</w>
c élé
bi entôt</w>
ardi n</w>
an i
ag ré
S y
Ne w
électri ques</w>
w it
vie ille</w>
v an
tou che</w>
terri ble</w>
suffi t</w>
sour ces</w>
sex e</w>
secon d
pl uie</w>
my th
m our
lég èrement</w>
f ossi
ch ass
béné fi
am our
am ie</w>
Publi c</w>
éli min
vél o</w>
vieil lis
ver se</w>
trav er
sembl ait</w>
rê ves</w>
racon te</w>
qu ette</w>
prob able</w>
ping ou
o ï
mi té</w>
ly cée</w>
lab o</w>
h i</w>
fa ces</w>
f t</w>
extr ait</w>
empl ois</w>
dess iner</w>
conf lits</w>
che veux</w>
c tique</w>
boute ille</w>
bi olog
ad a</w>
3 D</w>
établi r</w>
épi démie</w>
vou lions</w>
vi er</w>
t onnes</w>
t ex
s able</w>
regard ent</w>
profess eurs</w>
pou sse</w>
pi que</w>
pi le</w>
organis me</w>
montag nes</w>
mal heureusement</w>
lis e</w>
le çon</w>
infi r
hon te</w>
h t</w>
gar de</w>
espri ts</w>
effica cité</w>
effica ces</w>
direc teur</w>
demand ent</w>
de bout</w>
cog ni
au rions</w>
arr ête</w>
W or
U ni</w>
N or
M exique</w>
ti er</w>
rép and
qu ons</w>
pi erre</w>
phra se</w>
path ie</w>
partici per</w>
ou est</w>
opportu nités</w>
mi de</w>
mag a
loc aux</w>
jou é</w>
jou eurs</w>
ig e</w>
exper ts</w>
en tour
décri t</w>
ci ne</w>
bien- être</w>
bal l</w>
at oires</w>
ac cident</w>
O b
M in
A m
ô mes</w>
électr onique</w>
truc tions</w>
t elles</w>
ser ez</w>
ré solution</w>
regar d</w>
re pas</w>
re fl
ouver te</w>
ou rs</w>
nor mal</w>
métap hore</w>
mél ang
l ant</w>
h ori
engag ement</w>
em mener</w>
croy ons</w>
conti nent</w>
c eux
c aux</w>
ar d
ac teurs</w>
Pens ez</w>
D u</w>
D euxi
énor mément</w>
voul oir</w>
sti mul
re trouver</w>
re fus
puis sions</w>
pos ons</w>
particuli ère</w>
oin t</w>
ob st
n ett
larg ement</w>
instru ments</w>
identifi er</w>
hy drog
grav ité</w>
fronti ères</w>
for mu
end rait</w>
défin ir</w>
déf en
découver tes</w>
déc ouv
distribu tion</w>
di eu</w>
desc endre</w>
bi ens</w>
b us</w>
En fin</w>
3 5</w>
ét ein
équip ement</w>
éc l
uni té</w>
ti vement</w>
off rir</w>
no te</w>
neur o
mon te</w>
mi r
mar i</w>
lead ers</w>
j ardin</w>
heur euse</w>
généra le</w>
f oie</w>
dét es
diff us
cô tés</w>
budg et</w>
ag ent</w>
adul te</w>
H e
Cert aines</w>
B ar
A l</w>
étap es</w>
uti onn
tri ème</w>
sub st
spectac le</w>
soi e</w>
s- là</w>
ra le</w>
pré f
norm ale</w>
lumi ères</w>
intervie w
h e
gén éralement</w>
e ch
dou bl
d ames</w>
con ser
arrê té</w>
anci ens</w>
In di
vi a</w>
trai ts</w>
t om
rou ges</w>
restaur ant</w>
publi cité</w>
o ca
ill ustr
décen nie</w>
const amment</w>
conn ue</w>
concer nant</w>
compl ète</w>
col on
c tu
c re
c ents</w>
aux quels</w>
as tiques</w>
ab ond
a éro
T imes</w>
Per met
é pau
victi mes</w>
vas te</w>
tum eur</w>
ten sion</w>
t ats</w>
s oyez</w>
réus site</w>
représ entation</w>
rel i
ra cont
pro por
par faite</w>
olog ue</w>
obst ac
modi fi
micr obes</w>
mal ade</w>
maga sin</w>
li ne</w>
laiss ez</w>
l ou
l et</w>
jau ne</w>
it aire</w>
internation ale</w>
in vi
gr ès</w>
g ol
g ent</w>
f ol
encou rag
e d</w>
dr ôle</w>
dev aient</w>
cons eil</w>
chim ique</w>
ch ances</w>
av oca
alim entation</w>
Permet tez-moi</w>
P ak
O r
G ol
19 6
1 000</w>
ô tre</w>
étrang er</w>
v in
tri ces</w>
suc re</w>
sou tien</w>
sig ne</w>
pr ê
po ly
ot tes</w>
or ches
off re</w>
o te</w>
micr os
lo cal</w>
liqui de</w>
k a</w>
is ant</w>
h ui
fabri qué</w>
essay ant</w>
dé pl
disci pl
d il
d ge</w>
correspon d</w>
car ré</w>
béné fici
au riez</w>
att aque</w>
anc s</w>
an ni
an a</w>
acti vités</w>
acti f</w>
Pour tant</w>
Mal heureusement</w>
z e</w>
vers aire</w>
ver te</w>
v ing
uti les</w>
travaill ant</w>
tran si
ten ter</w>
ri v
qua trième</w>
prouv er</w>
ph ase</w>
lu n
journ aux</w>
it y</w>
inven ter</w>
hydrog ène</w>
horri ble</w>
hori z
ess ai</w>
empr ein
doll ar</w>
compag nies</w>
com prends</w>
chirurg ie</w>
ass ur
ag issait</w>
a trice</w>
a dé
We b</w>
R u
Oc cident</w>
NA SA</w>
F a
B ill</w>
An der
9 9</w>
étoi le</w>
éc ra
è ses</w>
y w
tru ction</w>
th ème</w>
sélec tion</w>
spi ritu
régu li
ré ment</w>
ru ption</w>
ressembl ait</w>
pos és</w>
nouv el</w>
mo tif</w>
ju g
j ui
intér êts</w>
gu erres</w>
gr aines</w>
entrepren eurs</w>
consid ère</w>
choi s
cal cul
ca d
ar me</w>
appro pri
ac k</w>
Wor l
Sol eil</w>
K e
Ge orge</w>
G al
B ro
v ard</w>
t al</w>
sy métr
re connaître</w>
r og
quit ter</w>
organis er</w>
objecti fs</w>
mi ra
ke ting</w>
k e</w>
instru ment</w>
infra structure</w>
infir mi
graph ie</w>
goû t</w>
es clav
direc t</w>
design ers</w>
cru ci
compéti tion</w>
bo ok</w>
b usiness</w>
b oite</w>
appli cation</w>
actu el</w>
W ik
Royau me-
Ou ais</w>
Ken ya</w>
E ss
Ander son</w>
étonn ant</w>
utilis ateurs</w>
tor t</w>
sû rement</w>
siè ge</w>
récom pense</w>
physi ques</w>
pens aient</w>
on t-ils</w>
ois eau</w>
mél ange</w>
mar keting</w>
li é</w>
is ti
fr ères</w>
fondament alement</w>
ex primer</w>
cul ti
concep ts</w>
con for
com prenons</w>
c ab
au teur</w>
at omes</w>
at er</w>
appel lent</w>
an o</w>
Royaume- Uni</w>
P I
K i
Har vard</w>
Char les</w>
v ég
v ues</w>
spéci al</w>
sens ation</w>
pour cent
pl at</w>
peu t-on</w>
parti s</w>
o sité</w>
o ffi
norm alement</w>
ni ques</w>
min i
mam an</w>
ma xim
histor ique</w>
grat ui
détermin er</w>
dé gra
dispar u</w>
di ale</w>
connec té</w>
con d
chev al</w>
cen tres</w>
bl eu
biblioth èque</w>
au trement</w>
artis tique</w>
ar ab
anc êtres</w>
ach es</w>
Tou te</w>
N i
Dar win</w>
Bon jour</w>
éri e</w>
tot al</w>
ti r</w>
thé âtre</w>
spec tre</w>
s pon
réuni on</w>
ré di
rivi ère</w>
qu et</w>
pro vis
per d
min im
m ans</w>
là- dedans</w>
longu eur</w>
l as
in ti
hy per
gr en
fondament ale</w>
décl en
donn ée</w>
dirige ants</w>
dem an
croi ent</w>
consommat eurs</w>
combin aison</w>
cha t</w>
ba ses</w>
Tr ois</w>
L in
In stitu
19 7
vous- même</w>
utilis ez</w>
tâ ches</w>
trav aux</w>
termin é</w>
séri eusement</w>
senti ments</w>
ré ti
plan i
not es</w>
mo dé
l une</w>
l i</w>
inspi ration</w>
in fin
fac teurs</w>
ex ions</w>
cons ac
conclu re</w>
celui -là</w>
c ouverture</w>
ball on</w>
b ill
alis és</w>
ai mer</w>
adap ter</w>
S a</w>
M es
L os</w>
édu c
véhi cules</w>
visu el</w>
tr iste</w>
t o</w>
sous- mar
s k
rassembl er</w>
photograph ie</w>
par c</w>
o tique</w>
o ph
mess ages</w>
is co</w>
immen se</w>
im i
glob ale</w>
fonc tions</w>
ex erci
donn ez</w>
cul aires</w>
comb us
cham ps</w>
cap tu
bu l
bat terie</w>
a qu
T o
S al
Pau l</w>
P aci
Ch ac
Bi g</w>
, 5</w>
véhi cule</w>
vis ages</w>
sch éma</w>
ru p
ray ons</w>
quel qu</w>
prob abilité</w>
pri vil
pli er</w>
mécan ique</w>
micro -
mes ur
is ée</w>
ges tion</w>
extraordin aires</w>
en du</w>
dé mon
coû ts</w>
consci ent</w>
chimpanz és</w>
ch rom
ce pendant</w>
bi om
T ur
Is ra
Fa ce
A ustr
trans forme</w>
soud ain</w>
si f</w>
s te</w>
s ac</w>
re ts</w>
quasi ment</w>
prés enté</w>
pl eur
opéra tions</w>
mot eurs</w>
lon gues</w>
inven tion</w>
hau teur</w>
fr ais</w>
engag er</w>
empr un
em bar
dou ble</w>
croy ez</w>
conclu sion</w>
av er
au près</w>
ap porté</w>
Wik i
T wit
N ouv
Fr anc
é change</w>
tionn els</w>
th er
tag es</w>
t oit</w>
si eur</w>
si ble</w>
réfl exion</w>
ri ons-nous</w>
rel ativement</w>
re trouve</w>
re traite</w>
pass ée</w>
par ole</w>
ordin aire</w>
oll yw
oeu vre</w>
n oy
mét al</w>
la m</w>
l ettes</w>
ins cri
i le</w>
habit ants</w>
gén érer</w>
g ig
ent ends</w>
el lu
des truction</w>
d î
cour te</w>
appli quer</w>
ai lles</w>
agré able</w>
Face book</w>
B ou
All em
voi sins</w>
utilis ées</w>
tan dis</w>
supplément aires</w>
su bi
spéci fique</w>
re cev
pourcent age</w>
personn ages</w>
parl ez</w>
on y</w>
o som
o f</w>
néc es
lu t
investi r</w>
impl ique</w>
géné tiques</w>
dé p
dr a</w>
condi tion</w>
co m</w>
chu te</w>
choi si
ch ers</w>
c ac
bl eue</w>
b er</w>
b aisse</w>
a pr
TE D
R us
At l
ç ait</w>
tél es
ti bles</w>
symp a</w>
res tent</w>
relig ions</w>
pa re</w>
onn er</w>
mor al</w>
mi di</w>
magaz ine</w>
li té</w>
l â
l ande</w>
i ens</w>
gran dir</w>
fr ustr
fondament al</w>
fonctionn ement</w>
fer mi
fac teur</w>
expl os
ex posé</w>
ex cep
e illi
d ate</w>
comman de</w>
collabor ation</w>
chrom osom
br er</w>
appli cations</w>
al é
Qu oi</w>
Jus qu&apos;</w>
2 1</w>
- nous</w>
éth ique</w>
éch app
volu me</w>
tiss ement</w>
technolog ique</w>
sur pris</w>
st on</w>
souffr ance</w>
soph isti
situ ations</w>
simil aires</w>
ré tro
respons ables</w>
ra mener</w>
pingou ins</w>
parl ant</w>
ou x</w>
ol i</w>
ob é
mon ie</w>
mag ique</w>
m age</w>
j apon
inspi ré</w>
hi ver</w>
g yp
expli cation</w>
ex i
entr ain
e ait</w>
dess ins</w>
de gré</w>
cor ruption</w>
cl ass
ci els</w>
ci de</w>
cent aine</w>
capit al</w>
bri tan
bas ée</w>
anni versaire</w>
am b
alis ée</w>
abord er</w>
W al
Twit ter</w>
Th e</w>
S ans</w>
Pren ez</w>
P eu</w>
Mi cha
L eur</w>
D u
B en
0 .000</w>
éri r</w>
é vo
visi bles</w>
trai tements</w>
ten te</w>
ten t
t ère</w>
sui vent</w>
rem plac
ra c
pro s
po che</w>
parten aires</w>
nécess aires</w>
n oc
médi a</w>
mathé mati
h am
extr aire</w>
endr ez</w>
dis positif</w>
dis e</w>
di o</w>
devi ons</w>
conséqu ence</w>
che fs</w>
architec te</w>
alim ents</w>
ai gu
ag o</w>
ac compag
V oyons</w>
Quel ques</w>
Pak istan</w>
A b
1 9</w>
élec tro
y r
tr ac
tem por
tag ne</w>
t êtes</w>
sou ci
soli de</w>
quanti tés</w>
profond eur</w>
posi tifs</w>
po ign
pen sions</w>
par aly
p és</w>
omb re</w>
m aîtr
li e</w>
le y</w>
inter rog
ing rédi
inf anti
ill age</w>
f oi</w>
ex écu
en v
ech nolog
di alog
créat ure</w>
cr u</w>
co pie</w>
cellu l
c alement</w>
bat aille</w>
attrap er</w>
P o
I ran</w>
C eux</w>
An ge
évolu er</w>
é mission</w>
è tent</w>
voi re</w>
trans port</w>
tour né</w>
t ères</w>
sc én
répar er</w>
respec t</w>
procé dé</w>
pro vient</w>
po ésie</w>
pens ant</w>
on y
mu ler</w>
mo bile</w>
ingéni eur</w>
in visible</w>
hy dr
géni e</w>
gu re</w>
fossi les</w>
fascin ant</w>
f leurs</w>
en cein
dé place</w>
cré ée</w>
cri me</w>
comp ter</w>
ci tation</w>
centr ale</w>
b or
aveug le</w>
au th
atta quer</w>
arti cles</w>
all ant</w>
W i
Paci fique</w>
Micha el</w>
Is lam</w>
G en
énergé tique</w>
vo te</w>
ven aient</w>
trai té</w>
souven ir</w>
ré pli
rem placer</w>
poli o</w>
pann eaux</w>
opti mis
oi se</w>
nomb res</w>
n ations</w>
montr ant</w>
mis es</w>
mes ures</w>
maj eure</w>
magnifi ques</w>
lég u
là- haut</w>
lu tte</w>
inter action</w>
ing ue</w>
for cé
forcé ment</w>
f urent</w>
commerci al</w>
ci n</w>
c anc
c aine</w>
ban que</w>
bal le</w>
autom o
ai dé</w>
accep ter</w>
Mon diale</w>
M il
Deuxi èmement</w>
Cel ui
è che</w>
tri ne</w>
tradi tion</w>
tou ché</w>
tot ale</w>
stupi de</w>
ss ent</w>
souhai te</w>
réus sir</w>
rési l</w>
ra cin
r av
psych ologie</w>
pann eau</w>
p ilo
opti m
op é
natur ellement</w>
médi cal</w>
moder nes</w>
milit aires</w>
inter agir</w>
im p
fréqu ence</w>
ez- le</w>
endr ont</w>
em por
d -
cul tu
cul teurs</w>
cré ons</w>
conn aît</w>
chi ens</w>
bale ines</w>
av ons-nous</w>
at ur
ap pu
an ie</w>
amour eux</w>
ai dent</w>
S tre
Premi èrement</w>
Franc isco</w>
Fin alement</w>
B résil</w>
Ange les</w>
ét endre</w>
échantill ons</w>
véri tablement</w>
vill ages</w>
ve ille</w>
us h</w>
u m
tomb é</w>
tiss us</w>
scann er</w>
quelques- uns</w>
py ra
pi res</w>
pari tion</w>
p in
or eilles</w>
oli e</w>
motiv ation</w>
mon des</w>
m aire</w>
li és</w>
intégr er</w>
industri elle</w>
ic k</w>
i rs</w>
hypo thèse</w>
h os
fou le</w>
f f</w>
essay ent</w>
er ies</w>
débarrass er</w>
donn ant</w>
dimen sion</w>
bi les</w>
b ét
auth enti
an alog
afri cains</w>
PI B</w>
P or
J ames</w>
Ch ic
Can ada</w>
1 7
èg es</w>
vég ét
voy ager</w>
ve iller</w>
trans mettre</w>
tradi tionnelle</w>
toi le</w>
t ori
t a
syst é
s avions</w>
récup érer</w>
requ in</w>
ra ger</w>
ra ce</w>
pul sion</w>
pré dire</w>
profi t</w>
pon enti
pl ans</w>
nécess airement</w>
ne ige</w>
mil i
li que</w>
jam be</w>
infanti le</w>
in évi
imag ine</w>
i Ph
héri tage</w>
honn ête</w>
ex ponenti
dirig er</w>
cé der</w>
con vi
civi le</w>
c és</w>
ast éroï
arri ères</w>
architec tes</w>
aper çu</w>
al titude</w>
P ri
M oi</w>
G re
C l
2 1
élé ph
visu elle</w>
v ez</w>
tr im
sor tent</w>
sil ence</w>
ren ouv
remon te</w>
re produire</w>
qui conque</w>
puis siez</w>
pré -
prim é</w>
pos ez</w>
pollu tion</w>
per form
ner veux</w>
k ing</w>
h am</w>
for êts</w>
fi ant</w>
fau drait</w>
exci tant</w>
espér ons</w>
emi s</w>
e k
détec ter</w>
dé pression</w>
dé penser</w>
cou ches</w>
cor des</w>
con fort</w>
circul ation</w>
at tirer</w>
Pouv ez-vous</w>
I R
B an
Au ssi</w>
véri fier</w>
ven du</w>
vac cin</w>
syn thé
sur prenant</w>
ridi cule</w>
rel e
re froi
qu ait</w>
puiss ants</w>
prati quement</w>
pourr ez</w>
pilo te</w>
pi taux</w>
personn alité</w>
pa ttes</w>
oubli é</w>
orbi te</w>
o w</w>
ni g
mécan isme</w>
mo tifs</w>
min istre</w>
men ter</w>
l ob
j ect
in vité</w>
hô tel</w>
hui le</w>
g lis
f re
explor ation</w>
e h</w>
doc teur</w>
discus sion</w>
di d
d d
conn ait</w>
col or
ci ers</w>
c tions</w>
bl ancs</w>
aux quelles</w>
apr è
ag ne</w>
aci er</w>
V ir
Se con
S ci
N é
Moy en-
Fr ance</w>
Chic ago</w>
Bre tagne</w>
éra di
vers er</w>
vaiss eaux</w>
trouv ait</w>
t us</w>
re p
qu ali
profon des</w>
produ cti
par all
oxy de</w>
mang e</w>
m én
lu min
inter face</w>
i di
hô pitaux</w>
gra s</w>
explo sion</w>
en vis
donn ait</w>
di ez</w>
cy ber
considé ra
conn us</w>
con cur
com prenez</w>
cl és</w>
cin éma</w>
chan ter</w>
blan che</w>
bactéri e</w>
b asse</w>
avan tages</w>
arr y</w>
aprè s-
ac cou
Uni on</w>
Ste ve</w>
Joh n
Gu erre</w>
Allem agne</w>
0 ,
évén ement</w>
tionn elles</w>
symp t
résol u</w>
rés istance</w>
res se</w>
représ enter</w>
remet tre</w>
pré d
prototy pe</w>
propri étés</w>
progr ess
pri vé</w>
pon s</w>
pi ques</w>
pass e-t-il</w>
on de</w>
nu age</w>
n étique</w>
médi caux</w>
médi cale</w>
iss ement</w>
is mes</w>
glob al</w>
gag n
f oc
f ar
ex pé
eur opé
eu il</w>
détr uire</w>
démon str
dispar aître</w>
di ab
cor ail</w>
cli ent</w>
chirurg ien</w>
bure aux</w>
blo g</w>
augmen té</w>
ati quement</w>
at tribu
and ais</w>
acti fs</w>
S tan
P i
Gr and</w>
E m
6 5</w>
200 8</w>
élè ve</w>
éloi gn
éco système</w>
è nent</w>
vi enne</w>
vi demment</w>
v us</w>
tu de</w>
transform é</w>
tr embl
ti ré</w>
th é</w>
th i
t y</w>
séqu en
syn thèse</w>
som me
somme il</w>
ser ons</w>
sent i</w>
scén ari
s port</w>
ré fu
ra re</w>
r ence</w>
prom is</w>
pro j
pl ait</w>
pi ers</w>
pass ons</w>
p es
or eille</w>
om étr
nuclé aires</w>
n ement</w>
métho des</w>
mét é
mes -nous</w>
lo cale</w>
li ez</w>
gratui tement</w>
fronti ère</w>
fran çais</w>
exam iner</w>
ex pan
emp s</w>
em pathie</w>
em me</w>
dipl om
den sité</w>
d ait</w>
con ver
con cev
cer titude</w>
centr al</w>
calcu ls</w>
ber g</w>
atten d</w>
appar emment</w>
ap parti
am pou
ain t</w>
T hom
P al
No ël</w>
î les</w>
évén ements</w>
équ ation</w>
ven te</w>
tél éch
souff le</w>
réu ss
reç oivent</w>
reç oit</w>
publi cs</w>
pres sions</w>
po ème</w>
on des</w>
ollyw ood</w>
o les</w>
nu tri
mé mor
mor te</w>
ment al</w>
litt érature</w>
is tique</w>
idé o</w>
g in
g as
feu illes</w>
f oyer</w>
extrê me</w>
exerci ce</w>
env ah
em ain</w>
d o</w>
connec tés</w>
com posé</w>
cho col
car t
bou ge</w>
appar aître</w>
aim ez</w>
ad mettre</w>
accompl ir</w>
ac teur</w>
V idéo</w>
Ou est</w>
O x
G ran
F l
Ch in
C r
B en</w>
Austr alie</w>
. com</w>
émo tion</w>
économ ies</w>
è ve</w>
y on</w>
vo le</w>
vis ions</w>
transi tion</w>
ti le</w>
si fs</w>
satelli te</w>
s and
ré duction</w>
pourr ons</w>
poll en</w>
ot te</w>
opin ion</w>
o ss
m and
jou eur</w>
ir a</w>
intui tion</w>
intellig ente</w>
inst aller</w>
innov ations</w>
impli qué</w>
honn eur</w>
gag ne</w>
f ête</w>
f aut
ex cu
dét ail</w>
d enti
cr â
c ts</w>
c end
bi ologiques</w>
b oi
appu y
a éri
You Tu
élev és</w>
vieillis sement</w>
ter s</w>
t ante</w>
sur veill
prom en
pl ante</w>
per for
ouver ts</w>
orches tre</w>
mon té</w>
milit aire</w>
mi r</w>
mi f
mar qu
mam mif
le z-vous</w>
immeu ble</w>
hi p</w>
gri m
g ê
g on
form é</w>
fond ation</w>
expé di
eu t</w>
en voie</w>
di ons</w>
desc end</w>
cou ps</w>
contr e
col lis
clin iques</w>
cir const
champi gnons</w>
ch ou
cel les
autom atiquement</w>
ans ons</w>
al ph
a ques</w>
YouTu be</w>
Moyen- Orient</w>
H aw
Ap ple</w>
A R
éval u
vol ant</w>
vag ue</w>
trouv erez</w>
tra ject
stand ard</w>
souven ez</w>
siè cles</w>
sculp ture</w>
qu antique</w>
principa les</w>
prim i
popul ations</w>
plan ter</w>
pen ses</w>
par tement</w>
par a
od eur</w>
obser ve</w>
multi pli
met tant</w>
le çons</w>
intitu lé</w>
im ent</w>
grav e</w>
gouvern ance</w>
gam me</w>
g né</w>
g el
fin it</w>
exploi tation</w>
excel l
ern elle</w>
er te</w>
enten d</w>
en lever</w>
ec h</w>
e x</w>
e e
duc teur</w>
di min
d au
coû t
car bu
cam éra
aut o
attend ez</w>
arriv ait</w>
V rai
Thom as</w>
Mi cro
Con grès</w>
Bo ston</w>
All ez</w>
2 50</w>
19 90</w>
ég al</w>
é puis
â me</w>
vrai es</w>
ui tes</w>
tu ellement</w>
tu be</w>
tran qu
tend ances</w>
t ol
symétr ie</w>
sou rire</w>
sin on</w>
simpli cité</w>
ser ais</w>
sal les</w>
s avaient</w>
s aison</w>
rou tes</w>
res té</w>
r entre</w>
proté ine</w>
ph il
perman ence</w>
partici p
ograph i
obser vé</w>
natur els</w>
ment aire</w>
men ac
mathé matique</w>
is -je</w>
intéress ants</w>
identi ques</w>
iPh one</w>
gar anti
g non</w>
fu sion</w>
ex tin
entend ez</w>
encou rager</w>
el les
dis me</w>
di am
des ti
cri ption</w>
cr oit</w>
cou rage</w>
cher ché</w>
ch ansons</w>
bre f</w>
ban li
aven ture</w>
as pi
artifici elle</w>
arriv ez</w>
ap prenons</w>
ann u
ai s-je</w>
a tre</w>
Voi la</w>
V en
O r</w>
N ations</w>
H ist
F e
B ush</w>
ég lise</w>
économ istes</w>
è dent</w>
tionn aire</w>
ti ble</w>
sû re</w>
stu pé
st ation</w>
seu les</w>
sent ez</w>
sau ter</w>
s œur</w>
ré v
religi eux</w>
prés ents</w>
pourr ont</w>
pou let</w>
posi tives</w>
plat e
pl age</w>
pau x</w>
par cour
mir oir</w>
mang ent</w>
légu mes</w>
lin é
lib érer</w>
li er</w>
jus qu</w>
is su
han e</w>
han di
fl exi
f our</w>
ex ig
espér ance</w>
enseign ant</w>
em bre</w>
développ ent</w>
dé solé</w>
donn ons</w>
diff u
des tin
dau ph
d ant</w>
cré atif</w>
cr eu
convainc u</w>
conn exions</w>
comb at</w>
cl aire</w>
caract ère</w>
c oin
at titude</w>
at terr
ar chi
ar aig
appar aît</w>
appar aissent</w>
an moins</w>
ag ents</w>
ac céder</w>
Vrai ment</w>
Quel que</w>
K o
G ar
A ss
200 5</w>
2 3</w>
ô les</w>
éra l</w>
ér aux</w>
téléch arg
toi lettes</w>
t ax
sus cep
stu dio</w>
s quel
remar quer</w>
ray on</w>
quel conque</w>
pyra mide</w>
pré vu</w>
port ait</w>
philosoph ie</w>
personn ellement</w>
per ç
per d</w>
pein ture</w>
parten ari
pa lu
optim iste</w>
o se</w>
minus cule</w>
march ent</w>
li v
in jec
ill é</w>
f al
expli qué</w>
et c
en ter
défen se</w>
difficul té</w>
cy cl
cu ler</w>
conv enti
com pati
carbu rant</w>
calcu ler</w>
c ement</w>
bou ton</w>
bomb e</w>
bl oc
atta ques</w>
ass u
araig née</w>
analy ser</w>
ai t-ce</w>
aff ron
accessi ble</w>
Uni es</w>
D H</w>
2 2</w>
œu rs</w>
étudi e</w>
é cr
è re-
vari ole</w>
v ache</w>
travail leurs</w>
sugg ère</w>
sor i
sec tion</w>
s ante</w>
répon d</w>
ré pu
ré actions</w>
rig ht</w>
retour né</w>
re trouv
re tirer</w>
re connaissance</w>
re connaiss
ram ass
prépar er</w>
pr on
potenti ellement</w>
politi ciens</w>
p ée</w>
oin t
n ey</w>
méri te</w>
manu el</w>
limi té</w>
l oint
k er</w>
journ aliste</w>
is té</w>
is ez</w>
inter vention</w>
inst ant
im provis
illu sion</w>
graph iques</w>
g re
expan sion</w>
enseig ne</w>
enn em
dévelop pe</w>
du res</w>
dou ce</w>
co -
cid ents</w>
ci te</w>
ci des</w>
cer s</w>
cens é</w>
bi ais</w>
autor ité</w>
aut eurs</w>
au d
ass ise</w>
amélior ation</w>
accep té</w>
Su ède</w>
L une</w>
Celui -ci</w>
A B</w>
9 5</w>
3 2</w>
2 7</w>
élev ée</w>
électr oniques</w>
éle ver</w>
tionn é</w>
ti re</w>
sur faces</w>
so ft</w>
ser re</w>
s és</w>
pén étr
prim aire</w>
permet tant</w>
paradi g
ot echnolog
organis é</w>
ograph ique</w>
obten ons</w>
mét ab
mus cles</w>
mon tée</w>
modi fier</w>
ma z
institu tion</w>
ins tin
h an</w>
gu er</w>
franch ement</w>
fl ui
err y</w>
emprein te</w>
e- là</w>
démonstr ation</w>
démar rer</w>
dou lour
di ction</w>
cré ateurs</w>
cou pe</w>
con tent</w>
comm une</w>
collecti ve</w>
celle -là</w>
bu lle</w>
bra ss
b oire</w>
b ab
autor ou
appel l
ap pren
an esthé
all em
alis e</w>
ac h</w>
Stre et</w>
R es
Par is</w>
D is
D G</w>
Com men
C ity</w>
200 4</w>
ul time</w>
trad uire</w>
tr é
ti tres</w>
tab le
t s-
sé duis
soi -même</w>
s u</w>
s ph
réser ve</w>
ré un
re vi
préfér é</w>
pouss é</w>
pos te</w>
pi ano</w>
perfor man
palu disme</w>
oubli er</w>
ni s</w>
merveill euses</w>
lun ettes</w>
lec ture</w>
las er</w>
l end
lend emain</w>
inten tion</w>
indi que</w>
in fini</w>
gou tte</w>
fr uits</w>
for cer</w>
f ous</w>
environn ements</w>
emb au
di que</w>
d ame</w>
con duis
circonst ances</w>
c ouv
blog s</w>
appar u</w>
ag e
a j
Worl d</w>
P A</w>
Ox ford</w>
ON U</w>
N ob
Micro soft</w>
M us
G ro
C ap
B F</w>
Auc un</w>
200 7</w>
ét end</w>
épau le</w>
vou d
v oc
travaill ait</w>
tionn er</w>
terror isme</w>
super -
son t-ils</w>
sent ent</w>
scol aire</w>
sang u
s- tu</w>
renouv el
rempl i</w>
ra les</w>
pâ te</w>
pro venant</w>
pri or
pouv ez-vous</w>
pos ées</w>
par eil</w>
observ ation</w>
myst ère</w>
multi ples</w>
mi ques</w>
logi ciels</w>
interprét ation</w>
in verse</w>
gouvern ement
gam in</w>
fau sse</w>
fai sions</w>
fab ul
exper t</w>
etc .</w>
entou re</w>
ec s</w>
e f</w>
déplac ent</w>
dé gâ
câ ble</w>
cou l
considé ré</w>
col onie</w>
can did
ca deau</w>
après- midi</w>
anth ro
altern ative</w>
ad ress
S ar
Ar t</w>
A c
évid ence</w>
étab lis
ét aires</w>
é chang
É tat</w>
z aine</w>
voy ait</w>
voi sin</w>
v or
trans mission</w>
traject oire</w>
tra fi
ti ez</w>
th érapie</w>
terres tre</w>
symbo le</w>
stat ut</w>
spectac ulaire</w>
seu il</w>
sembl able</w>
sau ce</w>
réuni ons</w>
réser ves</w>
remon ter</w>
re grou
rap ports</w>
quelques- unes</w>
professionn el</w>
princi paux</w>
pour rai
physi quement</w>
pay é</w>
parten aire</w>
os phère</w>
organ ique</w>
mus cle</w>
milli er</w>
mes u
jeu n
it aires</w>
instant an
inqui ète</w>
in car
gro sses</w>
fi és</w>
es -
ennem i</w>
enf er
elles -mêmes</w>
diag ram
cé li
cultur elle</w>
confron tés</w>
ci ble</w>
cau ses</w>
av e</w>
ar ité</w>
appar ence</w>
algorith mes</w>
ai mé</w>
ai der
agri culteurs</w>
adop ter</w>
acti v
abs ence</w>
S er
Rus sie</w>
Nob el</w>
M at
Li fe</w>
B ang</w>
A ra
8 00</w>
étend ue</w>
élec tions</w>
él ég
él abor
éclai rage</w>
échou é</w>
vou liez</w>
viv aient</w>
vie illes</w>
vi ons</w>
v an</w>
simul ation</w>
sen sori
sand w
ré veill
recy cl
re trouvé</w>
r oi</w>
pron on
progr essi
pour cent</w>
par cours</w>
ot a</w>
nour r
natur elles</w>
mes sieurs</w>
labor atoires</w>
l és</w>
jus que</w>
jou ets</w>
inter actions</w>
impli quer</w>
gyp te</w>
g er
formu le</w>
fin ance</w>
fi ée</w>
fi e</w>
fer mé</w>
er ia</w>
entr é</w>
en velop
em mené</w>
dét ach
dés as
dégâ ts</w>
dé es</w>
discu ter</w>
dig nité</w>
d j
cré ant</w>
cou r</w>
constr uite</w>
chocol at</w>
bl é</w>
bi don
bale ine</w>
baiss er</w>
avanc ée</w>
attend ent</w>
appréci er</w>
ap proch
ap porte</w>
ai gn
ag ement</w>
P ay
Ob ama</w>
M ad
L a
IR M</w>
H eur
D an</w>
Bi ble</w>
éri a</w>
ég alité</w>
échantill on</w>
viv ante</w>
tradi tionnel</w>
tot alité</w>
tomb ée</w>
technolog iques</w>
sympt ômes</w>
si ff
s tiques</w>
ressour ce</w>
respi rer</w>
qu ettes</w>
qu art</w>
qu alités</w>
précé d
pro cu
pri me</w>
plac é</w>
pl on
pi es</w>
perform ance</w>
partag eons</w>
parl ais</w>
ordin aires</w>
numéri ques</w>
n avi
musul mans</w>
mar ques</w>
li ées</w>
l ing</w>
l ati
is tant</w>
inc en
in habitu
fer ont</w>
enregistr é</w>
enregistr ement</w>
dî ner</w>
dépend ance</w>
déc lin</w>
diver tissement</w>
diver ses</w>
de- Bretagne</w>
curi eux</w>
cour bes</w>
contr ain
cont empor
co p
circ uit</w>
caméra s</w>
bio tiques</w>
b a</w>
asse oir</w>
arr ang
arab e</w>
alph ab
ali b
al er</w>
aimer ions</w>
ad er</w>
S im
Rob ert</w>
Nig eria</w>
M or
H y
Gran de-Bretagne</w>
G han
û t</w>
ï s</w>
équi pes</w>
éc ar
é gar
voi es</w>
utilis ateur</w>
tionn ellement</w>
théor ies</w>
terri blement</w>
supéri eur</w>
s ée</w>
s oyons</w>
ressent i</w>
re tenir</w>
re production</w>
rar es</w>
quotidi en</w>
précis ion</w>
producti vité</w>
pouss ent</w>
pour suivre</w>
por tant</w>
pass ez</w>
ord -
op tion</w>
oc y
obs curité</w>
musi ciens</w>
men a
ma ïs</w>
lo cales</w>
k g</w>
japon ais</w>
is i
int emps</w>
ingrédi ents</w>
in aire</w>
grat uit</w>
glob e</w>
for ts</w>
ff e</w>
ex ception</w>
esti me</w>
esc ence</w>
dém én
dé ser
dr ome</w>
di able</w>
cor por
concentr ation</w>
ck et</w>
ch ées</w>
ch aise</w>
ceux -ci</w>
catégor ies</w>
cardi aques</w>
canc ér
c on</w>
bl ague</w>
b erg
b arrière</w>
as h</w>
argu ment</w>
arch ie</w>
ai les</w>
abandonn er</w>
ab ri</w>
Mon de</w>
Chin ois</w>
œu fs</w>
épar gne</w>
ég ale</w>
é s
x e</w>
u le</w>
trib us</w>
travaill ais</w>
titu des</w>
tis me</w>
tap is</w>
t on
t ob
t am
sti qu
spati al</w>
sec teurs</w>
réfléch i</w>
ri ge</w>
ral entir</w>
racin es</w>
ra ti
pério des</w>
program m
pau se</w>
pass er
p aire</w>
mou stiqu
modé lis
micros cope</w>
mani pul
mani pu
mammif ères</w>
kil os</w>
install ations</w>
hor mon
g nent</w>
financi er</w>
fai bles</w>
fa ciles</w>
ex u
er ge</w>
ennu yeux</w>
dis position</w>
cou per</w>
constru isent</w>
confi r
cond am
co ch
chin oise</w>
catastroph e</w>
car rés</w>
cap teurs</w>
britan nique</w>
bou cle</w>
ber t</w>
at a</w>
assembl er</w>
arriver a</w>
anci ennes</w>
all ons-nous</w>
aim ait</w>
administr ation</w>
abil ités</w>
ab outi
a jus
W at
T it
R w
R B</w>
P lu
Cor ée</w>
C al
u t
tu y
traver se</w>
trans porter</w>
st é
st able</w>
sin ge</w>
sangu ins</w>
sang ui
sai sir</w>
réfléch issez</w>
rend ue</w>
re cor
rapi des</w>
précé dent</w>
préc ise</w>
pos t-
pi c</w>
phot o
ph arm
pharm ac
par ad
p è
p eurs</w>
om ni
obé sité</w>
nég atif</w>
mé tri
li ée</w>
j oli</w>
intéress er</w>
infra structures</w>
ic h</w>
hu r
honn ê
frap pe</w>
fen êtres</w>
et h
développ és</w>
dr ess
dom es
di ront</w>
d ence</w>
cons eils</w>
con tro
compar é</w>
ca n</w>
blo c</w>
arriv ons</w>
arri ère-
ari a</w>
an z
am in
ai sons</w>
ai -je</w>
affec te</w>
ad mi
ac ou
Stan ford</w>
S ouv
S o
S ch
S an
Rw anda</w>
J e
Hist oire</w>
H aï
En vir
Chac un</w>
B ron
évèn ement</w>
étrang es</w>
éri que</w>
émo tionnelle</w>
élimin er</w>
virtu el</w>
vac cins</w>
urg ence</w>
tal ents</w>
sensi bles</w>
s eur</w>
réus si
rési dent</w>
récom penses</w>
rel â
rar ement</w>
radi calement</w>
r ot
publi ques</w>
pu ce</w>
prot h
propri étaire</w>
pro pose</w>
priv ée</w>
pr u
pou ssi
poss èdent</w>
poi trine</w>
phra ses</w>
p ères</w>
ou n
ot es</w>
or ale</w>
occident ale</w>
obstac les</w>
molé culaire</w>
lev ez</w>
l enti
l an
jour -là</w>
intellig entes</w>
imagin é</w>
imag erie</w>
frapp é</w>
fi ction</w>
ers hip</w>
ennu y
end om
dét ection</w>
déc ès</w>
direc tions</w>
croy ances</w>
conn ues</w>
con verti
con cours</w>
communi cations</w>
cho c</w>
ch asse</w>
ch ap
catégor ie</w>
caractéris tique</w>
c ui
bou le</w>
b e
av éré</w>
automo bile</w>
ai rs</w>
ac cent</w>
absor b
abond ance</w>
ab str
S om
R os
Moy en</w>
D ès</w>
C in
Afri cains</w>
î tre</w>
éc ologique</w>
èg ue</w>
z- y</w>
voy ages</w>
urb ain</w>
ti s</w>
suffis ant</w>
soi gner</w>
sil en
ser ai</w>
s es
réfu gi
ré cep
re vue</w>
r y</w>
profi ter</w>
op tions</w>
mâ le</w>
men té</w>
li c
la c</w>
inspi rer</w>
ili er</w>
i ez-vous</w>
hypo th
hi r
gol f</w>
fo ot
fai t-il</w>
f ati
exist ait</w>
et n
dem ie</w>
céré ales</w>
cor ré
convers ations</w>
contribu er</w>
contr airement</w>
commen cer
co hér
cl assi
charg es</w>
celles -ci</w>
c oins</w>
bou g
bi ère</w>
aéro port</w>
auton ome</w>
ant a</w>
al lions</w>
adolesc ents</w>
W illi
T or
S k
S au
Qu elles</w>
O k
Mes dames</w>
M arti
K ar
Heur eusement</w>
Haï ti</w>
2 9</w>
2 8</w>
19 5
ér ons</w>
ég oï
ç aient</w>
vulnéra bilité</w>
ver ts</w>
th e</w>
t onn
t ale</w>
spécifi ques</w>
signifi cation</w>
sig nes</w>
sensi ble</w>
second aires</w>
sau vé</w>
s ois</w>
réalis te</w>
restaur ants</w>
rentr é</w>
remerci e</w>
racon té</w>
pu re</w>
pe dia</w>
pays ages</w>
path og
paradig me</w>
p iste</w>
n ôtre</w>
mil l
me tte</w>
maxim um</w>
m m</w>
lu e</w>
l ées</w>
j ac
inter ne</w>
in noc
ig nent</w>
h att
gig ant
gag nent</w>
g anda</w>
fr ont</w>
fil tr
faut euil</w>
fant ôme</w>
exis ter</w>
ess aient</w>
entr ent</w>
enregistr er</w>
en c
demand ais</w>
curi osité</w>
considé rons</w>
conser ver</w>
compar aison</w>
com battre</w>
can cers</w>
bre v
br o
associ é</w>
appar ten
ap o</w>
an vier</w>
ajou té</w>
ac cidents</w>
S eu
R ome</w>
Q u</w>
Man hatt
I tal
Gr ande</w>
Ghan a</w>
G én
F ond
D er
An tar
A tt
7 00</w>
200 9</w>
2 6</w>
19 60</w>
évèn ements</w>
ér ance</w>
y m
vol é</w>
viv ez</w>
viv ait</w>
venti ons</w>
vaiss eau</w>
v o</w>
us ines</w>
tra î
tr on</w>
th on</w>
ter ies</w>
t ants</w>
sû rs</w>
supplément aire</w>
su n
str ess</w>
sou lig
s onne</w>
rés ist
réc ente</w>
qu e
pu b</w>
professionn els</w>
pr intemps</w>
po log
pi erres</w>
peti ts-
par ent</w>
par ach
organ e</w>
ob sé
nu ages</w>
mo biles</w>
mat ch</w>
l o</w>
kilom ètre</w>
k s</w>
inten se</w>
in ement</w>
in a</w>
i m</w>
gé ant</w>
gro ss
grand- père</w>
gigant es
gas pill
g ris</w>
financi ers</w>
f leur</w>
exam en</w>
entr ez</w>
end or
en lève</w>
eilli r</w>
dé pla
dé chi
dimen sionn
diab ète</w>
di rige</w>
di apo</w>
desig ner</w>
d ossi
continu ent</w>
coll ègue</w>
co les</w>
cl asses</w>
chau de</w>
ch api
cas ca
car re
bénéfi ces</w>
b ain</w>
b ag
atten te</w>
atten du</w>
assur ance</w>
as tu
ar a</w>
an ten
an at
al u
ajou te</w>
ag res
a ou
V oyez</w>
Manhatt an</w>
L A</w>
D onn
Antar ctique</w>
4 7</w>
200 6</w>
200 1</w>
19 50</w>
ét ér
écou té</w>
vag ues</w>
utionn aire</w>
travaill ez</w>
transpar ence</w>
tomb ent</w>
table aux</w>
soud ainement</w>
ser vent</w>
s ain</w>
résu mer</w>
retour ne</w>
rej oindre</w>
re cette</w>
puis qu&apos;</w>
provo que</w>
pou mons</w>
pom mes</w>
po table</w>
peu ples</w>
petits- enfants</w>
per cevoir</w>
partici pation</w>
par venir</w>
pa quet</w>
p èse</w>
p a</w>
orig ami</w>
ord s</w>
ob ti
néces site</w>
n ager</w>
mécan ismes</w>
musi cale</w>
minus cules</w>
lead ership</w>
jeun esse</w>
it t
is ations</w>
introdui t</w>
intr ig
initi ative</w>
inform atiques</w>
in t</w>
hi ér
gé ométr
gl amour</w>
fourni t</w>
four mi</w>
ex clu
essenti elle</w>
es pé
en z
effray ant</w>
effectu er</w>
dé pendant</w>
divis er</w>
dipl ô
dia positive</w>
di te</w>
demand ant</w>
crâ ne</w>
cruci al</w>
cr ist
cou tez</w>
comport ement
compar er</w>
circ uits</w>
ch ol
ch ant
c m</w>
bomb es</w>
bl er</w>
bi en
b y</w>
ass ist
angi og
aliment aires</w>
al e
acqu is</w>
a tr
a k</w>
Regar dons</w>
R ou
Mo ore</w>
Li b
L E
B C</w>
Al ex
1 5
1 20</w>
œu vres</w>
él arg
volon taire</w>
vac cin
vac ances</w>
universi tés</w>
tro pi
travers é</w>
tra duction</w>
tent ative</w>
super be</w>
st abil
sach ant</w>
réuni r</w>
remerci er</w>
re pose</w>
re construire</w>
pé ni
prati ques</w>
pr ête</w>
por tes</w>
pi t</w>
performan ces</w>
per tin
partag ent</w>
p t</w>
op tique</w>
oi es</w>
occu pe</w>
num ér
mé tier</w>
min es</w>
mi gr
li s</w>
it ation</w>
intéress és</w>
infirmi ères</w>
im muni
il lement</w>
idé al</w>
her be</w>
habit at</w>
grandis sent</w>
fér er</w>
fra c
fol le</w>
fi t</w>
fi bres</w>
fer mer</w>
est- elle</w>
esclav age</w>
endom mag
encein te</w>
en i
développ ée</w>
dépen ses</w>
dé montrer</w>
dé di
den se</w>
créati fs</w>
cré dit</w>
cons truc
compli quée</w>
cha ts</w>
cha os</w>
c ouvrir</w>
bu lles</w>
biolog istes</w>
b o</w>
aug ment
arrê t</w>
anim ation</w>
ang h
am an</w>
ag ran
afri cain</w>
Ph ili
Ou ganda</w>
Ital ie</w>
Europ é
E tat</w>
C elle
Bron x</w>
évid ente</w>
ér ant</w>
voy ant</w>
uni tés</w>
u ri
tu n
trou pes</w>
tre fois</w>
tob re</w>
t- elles</w>
syn drome</w>
st ati
souh ait</w>
signifi ait</w>
sec rets</w>
sal aire</w>
s inc
ri z</w>
rempl ir</w>
re tard</w>
quarti ers</w>
pro position</w>
pro cès</w>
prisonn iers</w>
pos ant</w>
photograph i
pens ez-vous</w>
p p
or ange</w>
oc k</w>
o p</w>
myst éri
mondi alisation</w>
mati ères</w>
m ées</w>
lib é
laiss ent</w>
ju ridi
ins tructions</w>
im pré
ic s</w>
h allu
gén éti
gén oci
froi de</w>
frap per</w>
expéri ment
es cent</w>
er o</w>
er iez</w>
désas tre</w>
dés espé
discus sions</w>
discipl ine</w>
diffu sion</w>
di eux</w>
croy ais</w>
cre v
cor de</w>
conç us</w>
ca cher</w>
bri dge</w>
bour se</w>
b is
b at</w>
ag i
ad resse</w>
a sion</w>
V er
To m</w>
S atur
K B</w>
Isra ël</w>
Institu t</w>
E ar
0 0
- -
écriv ain</w>
économ iser</w>
y l
xi ème</w>
voi la</w>
ven d</w>
vari été</w>
v en</w>
v allée</w>
ur ban
univers el</w>
téles cope</w>
té m
trag édie</w>
symbo les</w>
supéri eure</w>
sup porter</w>
subst ance</w>
ss é</w>
spon tan
sou ten
som mes-nous</w>
so eur</w>
si èges</w>
sembl er</w>
sem ents</w>
second aire</w>
sauv ages</w>
sac ri
rég l
ré agir</w>
rem pli
puis -je</w>
pro posé</w>
pro poser</w>
privil ège</w>
po t</w>
pl er</w>
per su
partag é</w>
par aître</w>
oth érapie</w>
onn é</w>
off ert</w>
oeu vres</w>
océ an
o pi
n al</w>
métab ol
mét hane</w>
mo b
massi ve</w>
mal ades</w>
lon s-
k y</w>
journ alistes</w>
is ées</w>
intr ins
in connu</w>
h éroï
gren ou
fé dé
fu sionn
for tes</w>
extin ction</w>
ex cité</w>
entr opie</w>
end rai</w>
em ar
effondr ement</w>
démocra tique</w>
dé pensé</w>
doc teurs</w>
di oxyde</w>
devi enne</w>
d y
contr adi
concep teurs</w>
con cr
com porte</w>
co stu
co opération</w>
cellul aire</w>
ca t</w>
brill ant</w>
bleu s</w>
b arrières</w>
avan t-
arti fi
appar tement</w>
anti biotiques</w>
an che</w>
ac cr
T ex
Nat ure</w>
M ac
Ju li
J am
I m
D el
Ch ris
Ban que</w>
Av ez-vous</w>
Auc une</w>
étonn ante</w>
éc art</w>
zo om
volon taires</w>
vari ations</w>
vag in</w>
té moi
ty pique</w>
trai tés</w>
tor tu
temp éra
t ech</w>
séqu ences</w>
sur monter</w>
suiv antes</w>
sub i</w>
sté ré
souven irs</w>
scénari o</w>
sac ré</w>
résu mé</w>
rés ili
rom an</w>
recu l</w>
re jet
qu is</w>
prépar é</w>
pré dic
prom ouv
por te-
pla fond</w>
physi cien</w>
personn elles</w>
per dez</w>
paradi s</w>
par aît</w>
p us</w>
ni d</w>
n ar
métr o</w>
mon s
meur t</w>
mat ernelle</w>
lég er</w>
internation al</w>
intellectu elle</w>
install ation</w>
inf ection</w>
industri el</w>
impli qués</w>
il i</w>
human itaire</w>
hor log
hallu cin
g h</w>
g ang</w>
g ang
fu mée</w>
financi ère</w>
fant astiques</w>
fa ssent</w>
exam in
escal ier</w>
entr ain</w>
en quête</w>
dé com
doc tor
di es</w>
des cription</w>
d aient</w>
câ bles</w>
cou pa
conventi onn
concer t</w>
collis ion</w>
ch ère</w>
ch age</w>
cal me</w>
bio diversité</w>
aut o</w>
attend ant</w>
ari enne</w>
ar es</w>
anti ci
ang les</w>
acti vis
Voi x</w>
U SA</w>
S in
ON G</w>
M aman</w>
I I</w>
Gol fe</w>
G ra
G ore</w>
Commen çons</w>
B al
ê tes-vous</w>
è ques</w>
trafi c</w>
tradi tions</w>
tour née</w>
ti r
t oci
toci ne</w>
sub mer
su re</w>
sig ner</w>
serv i</w>
sac s</w>
s ez</w>
réalis e</w>
ress ent</w>
remarqu ables</w>
program mer</w>
pom me</w>
plong ée</w>
pharmac eu
permet tez-moi</w>
parad ox
ori ent
ori de</w>
ons- le</w>
on cle</w>
on al
mondi aux</w>
march ait</w>
mam mo
mag nétique</w>
m ez</w>
m ass
m ant</w>
lis ez</w>
liné aire</w>
l ance</w>
ist ère</w>
investiss ements</w>
inter rom
inter médi
in fl
hu mi
ges te</w>
foot ball</w>
fond é</w>
fabri que</w>
f ur</w>
f is
exploi ter</w>
excel lent</w>
enthousias me</w>
endr ons</w>
empê che</w>
ellu les</w>
e aient</w>
diagnosti c</w>
di ts</w>
conti ennent</w>
const ante</w>
consci ents</w>
cons tructions</w>
connaiss ait</w>
condui te</w>
cl am
ce au</w>
c esse</w>
brou ill
bar re</w>
at ar</w>
associ ation</w>
asse y
architec tu
V ou
Sou d
Sci ence</w>
S tu
P résident</w>
Marti n</w>
K ing</w>
D o
D es
Con go</w>
- s
étonn amment</w>
éc ologie</w>
è vre</w>
âg ées</w>
vi endra</w>
vi des</w>
v as</w>
ur ant</w>
tém oin</w>
trou bles</w>
travaill aient</w>
trans ports</w>
ti ne</w>
thi opie</w>
syn chron
spéci alement</w>
spati ale</w>
soi gn
siè mement</w>
se cours</w>
répon dent</w>
réci fs</w>
rou e</w>
ress ens</w>
rend us</w>
rel ier</w>
re cru
rap proch
qu ie</w>
qu ar
pré vention</w>
pré su
pré co
provo quer</w>
prot oc
pen te</w>
p uits</w>
oy ers</w>
or ph
op posé</w>
ogra m
ocy tocine</w>
oblig é</w>
nor mes</w>
nom mée</w>
n u</w>
mill én
mar ine</w>
mar cher
mang é</w>
maj eur</w>
m ac
lib res</w>
l ac
jou et</w>
immuni taire</w>
i ère</w>
i h
habitu és</w>
fi gure</w>
fer ai</w>
ex c
ex ag
essay ais</w>
esp érer</w>
entour é</w>
en ver
employ er</w>
effi cac
efficac ement</w>
dé montré</w>
dé charge</w>
dynam iques</w>
dipl ôme</w>
difficul tés</w>
cérébra l</w>
cultu rel</w>
cu e</w>
cré ateur</w>
commerci aux</w>
coll ection</w>
co qu
cl o
ch ait</w>
cer ti
centi mètres</w>
bran che</w>
b el</w>
ay a</w>
av ou
appel s</w>
a ses</w>
a la</w>
W il
V all
P ass
H ow
H er
Fl oride</w>
F i
Cor an</w>
5 000</w>
200 3</w>
20 10</w>
19 80</w>
1 6
- t-il</w>
éloi gner</w>
écou tez</w>
éco systèmes</w>
éc la
vol ent</w>
vi ez</w>
vi c
ven ais</w>
u é</w>
trib ue</w>
trib u</w>
tr au
to p</w>
ter ont</w>
t sun
sur vécu</w>
sur g
stratég ies</w>
st abilité</w>
souff rent</w>
son ge</w>
sauv age</w>
s ond
s age</w>
ro se</w>
rend ez-vous</w>
rele ver</w>
re prendre</w>
r ent
puiss antes</w>
psy cho
préf ère</w>
préci eux</w>
pré voir</w>
program mation</w>
produi te</w>
pom pe</w>
pl om
per cu
pass ées</w>
par courir</w>
pan démie</w>
orig ines</w>
offi ci
n s</w>
mé du
mod el
mi gra
meu bles</w>
mati quement</w>
mal heureux</w>
lut ter</w>
lu cra
l ap
inter agissent</w>
inqui éter</w>
in et</w>
i cô
hau ts</w>
hau tement</w>
h ol
h ect
génoci de</w>
fi bre</w>
fi able</w>
fermi ers</w>
fam ine</w>
exam iné</w>
essay ait</w>
end ez</w>
elle -
ec k
di ra</w>
deven ues</w>
consom mer</w>
confor table</w>
com pr
co pes</w>
cin qui
cer cles</w>
cam ion</w>
brill ants</w>
br uits</w>
bloc s</w>
bi ne</w>
b ar</w>
au trefois</w>
astéroï de</w>
arra teur</w>
appro visi
an xi
ach ète</w>
Tur quie</w>
Tex as</w>
Qu atre</w>
P DG</w>
Is lam
I r
Cin q</w>
Cel ui</w>
Cam bridge</w>
C enter</w>
B ur
Alex and
2 ,
éval uer</w>
énerg ies</w>
éch ecs</w>
é ni
è vement</w>
è les</w>
É videmment</w>
vi eil</w>
vers é</w>
v ap
v aches</w>
universi taire</w>
terri toire</w>
ten d</w>
t aine</w>
sup port</w>
subi r</w>
sol aires</w>
signific ative</w>
s tri
réuni s</w>
rég ler</w>
rend s</w>
ra ph
quotidi enne</w>
propor tion</w>
poussi ère</w>
pi onn
photograph e</w>
par tant</w>
p ur</w>
ouver tes</w>
otechnolog ie</w>
norm aux</w>
mâ les</w>
multi -
man che</w>
li br
lar mes</w>
l at
intéress ent</w>
introdui re</w>
int esti
ing s</w>
impressionn ant</w>
hum our</w>
géni ale</w>
ges tes</w>
gen ces</w>
g ue</w>
form és</w>
fav eur</w>
f oyers</w>
exponenti elle</w>
ex pressions</w>
ex er
entrepren eur</w>
engag é</w>
em plac
déter mine</w>
détec teur</w>
démar ré</w>
dé passé</w>
dor mir</w>
distin guer</w>
dis pu
dimin ue</w>
di vers</w>
devi ez</w>
de z-
cérébra le</w>
cuis iner</w>
cou rag
contin ents</w>
co u</w>
co or
ci ter</w>
ch et</w>
ban ques</w>
avoca t</w>
attend s</w>
atten tes</w>
ati e</w>
apparti ent</w>
anth r
am pli
allem and</w>
affi che</w>
a té</w>
Vall ey</w>
T ri
S elon</w>
Par mi</w>
How ard</w>
H ollywood</w>
Gr âce</w>
C onn
C A
B ra
évol ue</w>
év rier</w>
éti sme</w>
émo tionnel</w>
écri te</w>
é oli
visi ter</w>
ven tre</w>
vap eur</w>
uni ques</w>
trom per</w>
terres tres</w>
tap er</w>
t oits</w>
sépar er</w>
sé v
sub ti
struc tu
ss on</w>
sold at</w>
si muler</w>
si er</w>
ser ions</w>
sent ais</w>
sembl ables</w>
s ées</w>
s ation</w>
rob otique</w>
ri l</w>
respi ration</w>
res tait</w>
re voir</w>
re di</w>
re cours</w>
re connu</w>
préfé rés</w>
pré venir</w>
prouv é</w>
promouv oir</w>
po int
pleur er</w>
plate forme</w>
physi ciens</w>
personn els</w>
parti tion</w>
ou tre</w>
ou t
ot o</w>
origin al</w>
om iques</w>
neur one</w>
nett oyer</w>
n ées</w>
myth e</w>
mag as
lam pe</w>
l ons</w>
is o
intég ration</w>
individu elle</w>
indi enne</w>
in utile</w>
héli cop
hau tes</w>
gr ille</w>
gam ins</w>
fabri c
eng in</w>
encou rage</w>
en levé</w>
emp il
défin i</w>
docu ment</w>
dinosau re</w>
diminu er</w>
dig it
diam ètre</w>
dialog ue</w>
diagram me</w>
culti ver</w>
cri tiques</w>
cr ain
continu ons</w>
constru isons</w>
const ater</w>
consommat eur</w>
commerci ale</w>
commen ça</w>
comb iner</w>
com promis</w>
civil isations</w>
cinqui ème</w>
chromosom e</w>
cherch ons</w>
ch anc
cass e-
cap ture</w>
cal or
ca ché</w>
c ateur</w>
boute illes</w>
bat eaux</w>
avoca ts</w>
avanc ées</w>
attend ais</w>
ass istance</w>
as te</w>
anthro polog
annon ce</w>
ador ent</w>
ac tes</w>
ab sur
Wiki pedia</w>
Sh ak
S E
Pu is
Pren ons</w>
P S</w>
M et
M ah
M ag
5 5</w>
étab li</w>
ér on
édu quer</w>
échapp er</w>
vol s</w>
tsun ami</w>
th ons</w>
ta tou
sur pren
sou ri
soli des</w>
se y</w>
satelli tes</w>
répand re</w>
rou ler</w>
re gr
regr et</w>
radi cale</w>
ra ts</w>
r h
préco ce</w>
pré ser
pro viennent</w>
pl ain
per tes</w>
per dent</w>
pen siez</w>
particip ants</w>
par am
p tions</w>
occident al</w>
o par
né anmoins</w>
non- nulle</w>
ner fs</w>
mor tes</w>
mon sieur</w>
mo bil
minim um</w>
men songe</w>
magas ins</w>
m ég
lucra tif</w>
insec te</w>
in visibles</w>
in j
ih ad</w>
horiz on</w>
g an
fra î
fr om
fourn iss
famili er</w>
f li
extrê mes</w>
ex prim
ex cit
e k</w>
dérou le</w>
déc ouvre</w>
dura bles</w>
du es</w>
dra peau</w>
d ation</w>
cy cles</w>
croy ance</w>
cons ist
connaiss ais</w>
concur rence</w>
commun aut
col onne</w>
captu rer</w>
cam ions</w>
c ées</w>
c rai
c ouvert</w>
bat teries</w>
banli eue</w>
avanc é</w>
atel ier</w>
appro cher</w>
amus er</w>
ampou le</w>
am as</w>
ai mais</w>
afri caine</w>
affron ter</w>
aci des</w>
abandonn é</w>
Sh angh
Satur ne</w>
S oit</w>
P ense
Mon ter
M y
Indi ens</w>
G i
Envir on</w>
E d
Bro w
Bo b</w>
8 5</w>
3 3</w>
étein dre</w>
écriv ains</w>
x -
voy ais</w>
ving t</w>
vi étique</w>
ver rons</w>
tu elle</w>
tra ces</w>
tr ap
tionn aires</w>
sy métri
sous-mar in</w>
sorti s</w>
ser iez</w>
s ab
rom antique</w>
rap pro
ra t</w>
ra men
ra jou
qu ante</w>
prés entes</w>
prédic tions</w>
préci pi
professionn elle</w>
probl é
pos ait</w>
plat e-
per f
pein dre</w>
parach u
par king</w>
pa piers</w>
ori quement</w>
n ord-
met tait</w>
mentionn é</w>
mathémati ciens</w>
march an
m onn
lev ée</w>
lead er</w>
laiss ons</w>
j oy
inté gré</w>
internation ales</w>
immeu bles</w>
im mu
im er</w>
illu min
ill ages</w>
i Po
handi cap
gén ère</w>
grav es</w>
gen oux</w>
fu si
fri g
for tement</w>
fondament aux</w>
fin s</w>
fin issent</w>
fau dra</w>
fai tes-vous</w>
fa c</w>
es te</w>
entraî ner</w>
déc oll
déc ol
dé tru
dé partement</w>
dé cor
du isent</w>
drog ue</w>
dispar aissent</w>
dic tionnaire</w>
dev iner</w>
d ingue</w>
d am</w>
cré ez</w>
cri cket</w>
cour ants</w>
consci emment</w>
col le</w>
ch ement</w>
cas que</w>
bâ ton</w>
br ut</w>
boî tes</w>
bou ts</w>
bou le
bizar res</w>
ban des</w>
bal les</w>
au dis
appr ouv
appar ue</w>
ap parition</w>
an ony
alib ans</w>
ach ètent</w>
Secon d</w>
S mi
S cot
S W</w>
Qu els</w>
P ap
P a
Mon sieur</w>
M as
L ad
J H</w>
Fai tes</w>
En f
E tats</w>
D r
Au x</w>
3 000</w>
21 ème</w>
- dessus</w>
ô ts</w>
ér u
équ ations</w>
écri s</w>
éch elles</w>
é pan
é changer</w>
yn man</w>
y pe</w>
voy ez-vous</w>
vou drait</w>
vot er</w>
vis it
ver be</w>
ver b
urb aine</w>
trembl ement</w>
trag ique</w>
tra ce</w>
t el
t ales</w>
sup posé</w>
sugg érer</w>
spéci ale</w>
se ign
sandw ich</w>
s- ci</w>
s ession</w>
ressor t</w>
ressent ez</w>
ress enti
remarqu erez</w>
recor d</w>
re cul
raisonn able</w>
ra s</w>
qu oi
pu zz
pré diction</w>
prom esse</w>
progressi vement</w>
profi ts</w>
pro pul
port ons</w>
poign ée</w>
plon ger</w>
ple ins</w>
per tur
partenari at</w>
parl aient</w>
pa ce</w>
op érer</w>
op position</w>
op e</w>
observ ant</w>
néc essi
nutri tion</w>
nett oy
moustiqu aires</w>
mo elle</w>
mo des</w>
mira cle</w>
ment aires</w>
mar ins</w>
mang eons</w>
mammo graphie</w>
lég i
lu xe</w>
log o</w>
lec teurs</w>
j olie</w>
inter pr
inst allé</w>
indi en</w>
im primer</w>
hypoth èses</w>
horlog e</w>
ho p</w>
h ack
gu ration</w>
grim per</w>
gr aisse</w>
gon fl
from age</w>
fonctionn ait</w>
f assi
fassi ez</w>
extr é
esti mation</w>
es h</w>
envis ager</w>
em men
déclar ation</w>
dé rang
dou zaine</w>
dirig é</w>
cré és</w>
croy ait</w>
connec te</w>
concentr é</w>
commun s</w>
commen çait</w>
commen taire</w>
collecti f</w>
ci pa
chanc eux</w>
ch eurs</w>
catastroph es</w>
caract ères</w>
c éra
bénéfi ce</w>
b ot
autorou te</w>
atten tivement</w>
archi ves</w>
angi ble</w>
an ec
ag ers</w>
ab ri
R ock
Pr in
P C</w>
Mar k</w>
G and
Fe ynman</w>
C ou
C D
Bou dd
B ab
A maz
3 ,
19 70</w>
. S
éti quette</w>
émer gence</w>
écr ans</w>
è r
v ôtre</w>
tum eurs</w>
trouv ée</w>
sépar ation</w>
s ale</w>
s ache</w>
répu tation</w>
réguli èrement</w>
récol ter</w>
rend ez</w>
rend ant</w>
ren voy
rej oint</w>
regard ais</w>
re viens</w>
re ine</w>
ra t
r oy
r eur</w>
produ is
process eur</w>
pren ait</w>
pla que</w>
pl astiques</w>
phénom ènes</w>
pe aux</w>
parall èle</w>
par tent</w>
par don</w>
pan ne</w>
p ement</w>
ord en</w>
op ée</w>
obstac le</w>
not er</w>
n ait</w>
n age</w>
mi enne</w>
mar qué</w>
limi tée</w>
le ts</w>
laiss ant</w>
jui n</w>
jou ant</w>
inter rup
int érieure</w>
influen cer</w>
gla ci
gigantes que</w>
g s</w>
fondament ales</w>
ex ter
et h</w>
esti ni
es pe
entraî nement</w>
enseign é</w>
endr ais</w>
em pi
eff ac
détr uit</w>
dét aill
dés espoir</w>
dé prim
dé mi
dist ances</w>
dev oirs</w>
demand ait</w>
cô tes</w>
cultur elles</w>
cri ti
cot on</w>
con ducteur</w>
clu b</w>
cherch ent</w>
chaî nes</w>
chapi tre</w>
ceux -là</w>
ce ttes</w>
brill ante</w>
az z</w>
artifi ciel</w>
allu mer</w>
al ign
adop tion</w>
adap tation</w>
accél érer</w>
accessi bles</w>
ab eille</w>
a- t-elle</w>
a tro
S ur
Peu t-on</w>
P res
P an
Fran k</w>
E ver
Atl antique</w>
Améri cain</w>
étrang ère</w>
étrang ers</w>
émer ger</w>
É tats</w>
we ek
voy ag
vou lez-vous</w>
victi me</w>
vend redi</w>
tu és</w>
tu eux</w>
transpar ent</w>
trans ist
trans cend
tour nant</w>
ti ème</w>
th éra
tal ent</w>
séqu oi
systé matiquement</w>
suscep tibles</w>
sul f
satis faire</w>
s aine</w>
réfugi és</w>
ré ag
rou es</w>
ri es</w>
ressent ent</w>
res tée</w>
re viennent</w>
re ten
re bon
rassembl é</w>
pétro li
pro jec
pr ême</w>
pr ai
pi quement</w>
pai rs</w>
pa pa</w>
p aires</w>
ot t
os exu
or th
on ale</w>
ob tiennent</w>
nég lig
no ci
neu tr
navi re</w>
n d</w>
n a</w>
mou stiques</w>
mor alité</w>
mis si
mi -
man ie</w>
m èmes</w>
m en</w>
ly m
lav er</w>
k ins</w>
k in
jam in</w>
j e
interview er</w>
interprét er</w>
indépend ance</w>
in vite</w>
in certitude</w>
in attend
impli cations</w>
g ée</w>
fron tal</w>
fond ations</w>
fin ale</w>
fem elle</w>
expéri menter</w>
expédi tion</w>
eu es</w>
et t</w>
esthé tique</w>
er ions</w>
ent i</w>
enn emis</w>
em brass
em br
e p
déf endre</w>
dj ihad</w>
di rai</w>
di ens</w>
desc endu</w>
dauph ins</w>
dans er</w>
cri mes</w>
conç ue</w>
constitu ent</w>
const até</w>
comp tes</w>
commen taires</w>
combus tibles</w>
col line</w>
ch ants</w>
brû ler</w>
bru y
bi o-
bat tent</w>
b s</w>
b ords</w>
b anc
audi ence</w>
ar aign
appl ique</w>
annon cé</w>
analog ie</w>
all ong
algorith me</w>
ai le</w>
ah arienne</w>
a ï</w>
Uni vers</w>
U S</w>
T ony</w>
Su per</w>
Pe ti
Pass ons</w>
M I</w>
J os
H en
Ear th</w>
De v
Bre f</w>
Ben jamin</w>
An gl
Al lons-
Ad am</w>
A i
A bra
4 8</w>
évol uti
épan ou
électr om
éduc atif</w>
é ven
é meu
é curité</w>
u les</w>
tun n
tu bes</w>
tranqu ille</w>
trad uit</w>
ti se</w>
terri bles</w>
tempéra tures</w>
t oires</w>
t ari
surveill ance</w>
super marché</w>
soulig ner</w>
sou l
sexu elle</w>
sensi bilité</w>
s cep
s bur
réalis ation</w>
ré cent</w>
regard ait</w>
ra tionnel</w>
ra ff
pé dia</w>
publi er</w>
préfé rée</w>
préd ateurs</w>
prom et
pro st
pouv oirs</w>
possé der</w>
pl as
phénom én
phil anthr
permet tra</w>
pass era</w>
p ées</w>
ouvri ers</w>
o v
mo des
met tr
mesur é</w>
mem bran
mal aria</w>
j eté</w>
j ette</w>
inqui ét
incen die</w>
in su
im pulsion</w>
ig h
fourn issent</w>
fix e</w>
financ ement</w>
fau te</w>
es ti</w>
es tation</w>
es -tu</w>
enc re</w>
emb all
em ail</w>
dét our
dé voi
dé v
du rer</w>
du quel</w>
dou cement</w>
docu ments</w>
do te</w>
dis que</w>
di n</w>
dess iné</w>
des tin</w>
d at
cou pé</w>
contribu tion</w>
contr ac
constitu é</w>
conn ecti
con sult
com édie</w>
colon ies</w>
chromosom es</w>
chirurg iens</w>
chim i
chap eau</w>
cap teur</w>
ca dr
bless ures</w>
blan ches</w>
bal ay
atti ré</w>
ationn el</w>
at ter
at er
assembl age</w>
as cens
araign ées</w>
améli ore</w>
all er
adolesc ence</w>
acti ves</w>
aci de</w>
Wiki pédia</w>
Vi etn
V oy
T es
Si x</w>
R ay</w>
M ur
K y
Gand hi</w>
F ord</w>
E u
Dé solé</w>
Del hi</w>
D en
C i
B ay</w>
200 2</w>
20 ème</w>
ét age</w>
éléph ant</w>
éloi gné</w>
élec tion</w>
échang es</w>
é prouv
è ches</w>
y o</w>
viv antes</w>
vi bra
vari ation</w>
trans mis</w>
tra jet</w>
tr ain
tour nent</w>
tionn ée</w>
tex tes</w>
ter ais</w>
t acti
sépar és</w>
su d-
spécifi quement</w>
souff re</w>
son de</w>
silen cieux</w>
sexu els</w>
s œurs</w>
s aut</w>
réti ne</w>
rép ète</w>
réci t</w>
ré els</w>
remar que</w>
re prises</w>
ram ène</w>
r us
qu ets</w>
psych ologues</w>
précéd ente</w>
prior ités</w>
popul aires</w>
po ches</w>
ou ais</w>
orph el
op éra</w>
ogram me</w>
occident aux</w>
nu trim
noy au</w>
n ons</w>
mété o</w>
métabol isme</w>
mét aux</w>
mu tuellement</w>
mo bilité</w>
mer de</w>
manipu ler</w>
mag i
m asses</w>
m ait</w>
lic ence</w>
l er
l andais</w>
ir ont</w>
inévi table</w>
int on</w>
inspi rés</w>
imi ter</w>
im mer
ic a</w>
horiz on
hi p
he imer</w>
géométr ie</w>
gén éré</w>
gri mp
g lu
fra ction</w>
fonctionn é</w>
fl éch
fin ancer</w>
fil et</w>
fi ers</w>
fi chi
f or</w>
ext érieure</w>
exac t</w>
espe are</w>
en voient</w>
em porter</w>
e e</w>
démén agé</w>
dé faut</w>
doubl é</w>
do se</w>
dil emme</w>
de tte</w>
célé brer</w>
cou cher</w>
cor rig
contr e-
contr at</w>
comp tent</w>
comman des</w>
com position</w>
chev aux</w>
cam ps</w>
c av
bét ail</w>
bri èvement</w>
bran ches</w>
bou lang
bon ob
autom ne</w>
authenti que</w>
at ts</w>
ap titude</w>
alé atoire</w>
al gues</w>
ai ent-ils</w>
acti ver</w>
accep table</w>
a hu
Vietn am</w>
T er
Shak espeare</w>
P eter</w>
L ong</w>
John son</w>
H A</w>
E ri
C .</w>
3 50</w>
ét ages</w>
épou se</w>
électr ons</w>
vis eur</w>
ver sions</w>
ven tes</w>
ui té</w>
tox iques</w>
ti ère</w>
t abilité</w>
séri euse</w>
su is-je</w>
si ques</w>
sexu elles</w>
ses -là</w>
se cou
sal on</w>
s per
ré péti
rou lant</w>
remarqu ez</w>
religi euses</w>
radi os</w>
r on</w>
puzz le</w>
pu ni
pon ts</w>
plan té</w>
perspec tives</w>
particu le</w>
partici pé</w>
parl erai</w>
ow n</w>
oubli ez</w>
ol u
ol s</w>
ographi c</w>
oc a</w>
no ver</w>
n oi
métap hor
muni cipa
min ce</w>
mentionn er</w>
mari onn
man te</w>
mai l</w>
lég ère</w>
lég is
lé opar
lour d</w>
j oindre</w>
inv enti
individu el</w>
indi ce</w>
ign orer</w>
horri bles</w>
har monie</w>
ham bur
généti quement</w>
gar age</w>
fu ture</w>
for cé</w>
fil tre</w>
fascin é</w>
fac ul
f i</w>
f action</w>
et ti</w>
envelop pe</w>
effectu é</w>
ect ées</w>
démo graphique</w>
déc é
dé riv
dé co
dé ci
donn és</w>
divis é</w>
deven ez</w>
destin ation</w>
d re
cré ative</w>
cou ple</w>
cor beaux</w>
contribu é</w>
conten te</w>
constitu e</w>
cons eill
cho ses-là</w>
cherch eur</w>
ch ères</w>
ca -
c ouvre</w>
br iser</w>
auton omie</w>
augmen tent</w>
ath an</w>
as pira
ar bi
ap prise</w>
and s</w>
and ert
an or
an i</w>
all ez-vous</w>
adop té</w>
accu mu
San té</w>
R om
Nouv elle-
New ton</w>
Mal gré</w>
M e</w>
L ou
L G</w>
Jam ais</w>
Hom o</w>
H on
H ey</w>
E thiopie</w>
Con se
Cl inton</w>
C entr
Angl ais</w>
évolu ent</w>
étr oi
étonn antes</w>
ém as</w>
éli te</w>
y &apos;</w>
visu aliser</w>
v al</w>
utilis aient</w>
univers elle</w>
um éro</w>
u p</w>
travers ée</w>
ti lis
ti g
th e
t an</w>
sup primer</w>
sub s
ss ant</w>
spéci alistes</w>
son ore</w>
sol s</w>
situ e</w>
signific atif</w>
sig nature</w>
se g
sangui n</w>
sacri fi
s ors</w>
ré frig
ré elles</w>
rob e</w>
rem bour
recher cher</w>
re trouvent</w>
radi cal</w>
péri ph
psy chi
progr ession</w>
pou ce</w>
por c</w>
poll in
po ète</w>
ple inement</w>
plate- forme</w>
pl ie</w>
ph al
peu t-il</w>
pathog ènes</w>
pas si
par oles</w>
pa tri
ot er</w>
observ ons</w>
négoci ations</w>
nutrim ents</w>
monn aie</w>
mondi ales</w>
micr o</w>
m ènent</w>
m ations</w>
ju ge</w>
j azz</w>
iss aient</w>
infirmi ère</w>
infec tés</w>
inclu t</w>
in corpor
hé mis
gri bou
grandis sant</w>
grand eur</w>
gran dit</w>
g our
fon dre</w>
fa n</w>
f œ
extra -
excell ente</w>
err a</w>
environnement aux</w>
ent- elles</w>
en- dessous</w>
employ é</w>
e la</w>
déplac ement</w>
défin it</w>
dé passer</w>
doulour eux</w>
direc te</w>
diminu é</w>
di arr
diarr h
cont empl
col n</w>
co ï
ch aine</w>
cein ture</w>
cass é</w>
capit ale</w>
cam ar
bar res</w>
at ure</w>
approvisi onnement</w>
ap prenez</w>
alis ées</w>
aff r
ad r
achet ez</w>
accompl i</w>
W ow</w>
T as
T alibans</w>
Su per
Shangh ai</w>
S es</w>
Re venons</w>
Pri x</w>
P ôle</w>
N uméro</w>
Monter ey</w>
L eurs</w>
J im</w>
H ong</w>
Gro en
Bl anche</w>
Ar ctique</w>
4 2</w>
3 6</w>
2 ,5</w>
19 ème</w>
étein t</w>
é cha
z heimer</w>
yr us</w>
xim ité</w>
voy agé</w>
visu alisation</w>
ven ues</w>
vas tes</w>
v ons</w>
tr i</w>
ti l
sépar é</w>
sé ment</w>
sous- jac
s èche</w>
rép éter</w>
réfléch it</w>
ré tiens</w>
ré serv
ro che</w>
représ enté</w>
ren on
religi euse</w>
refl ète</w>
recycl age</w>
re penser</w>
re command
rappel é</w>
rappel ez-vous</w>
ra cine</w>
ra ble</w>
pè ler
prom o
pro ximité</w>
pro ph
pren ne</w>
plani fication</w>
plan étaire</w>
plan tation</w>
perd ue</w>
per p
per mission</w>
parcour u</w>
or a</w>
opin ions</w>
oo k</w>
olu min
occu pé</w>
o po
naiss ent</w>
n y</w>
mini um</w>
maîtr ise</w>
manu els</w>
ma jeu
majeu res</w>
m ec</w>
long s</w>
lis tes</w>
lin gu
lib ération</w>
li tres</w>
k i</w>
juridi que</w>
jug ement</w>
j oli
inv esti</w>
inti mité</w>
internation aux</w>
inter venir</w>
inter dit</w>
inten sité</w>
industri es</w>
in ég
in ée</w>
illustr er</w>
identi que</w>
hy gi
hy bri
h é</w>
gui der</w>
genti ll
fon dée</w>
fo ssé</w>
f ê
f uite</w>
explos é</w>
ex empl
et age</w>
en rich
em e</w>
e iller</w>
e g
débu ts</w>
dé ri
dé passe</w>
dossi er</w>
donn era</w>
distribu er</w>
distin ction</w>
devi endra</w>
dev rions-nous</w>
de la</w>
de aux</w>
danger euses</w>
coul oir</w>
correspon dent</w>
correc t</w>
cor aux</w>
converti r</w>
contrain tes</w>
connecti vité</w>
connec tée</w>
connec t
combus tible</w>
ci gar
chirurg i
cherch ant</w>
ch eur</w>
capit alisme</w>
can opée</w>
ca p</w>
c -
bless ure</w>
b ête</w>
at omique</w>
arri va</w>
ar i</w>
anz anie</w>
ans as</w>
angl aise</w>
andert al</w>
an é
alu minium</w>
altern atives</w>
al cool</w>
agri coles</w>
affi cher</w>
ad h
ad di
acou stique</w>
accél ère</w>
ab att
ab at
a trices</w>
W ol
V os</w>
T anzanie</w>
Su p
Su isse</w>
Smi th</w>
Sal ut</w>
S oyez</w>
P ow
P M</w>
M aison</w>
Lin coln</w>
J ui
Groen land</w>
G ates</w>
Es pagne</w>
D onal
Conse il</w>
Att endez</w>
Ar ist
Al zheimer</w>
Abra ham</w>
4 9</w>
, 000</w>
és us</w>
épar gner</w>
éloi gne</w>
él u</w>
ég i
éc ologiques</w>
w ay</w>
vulnéra bles</w>
vo les</w>
ur gences</w>
télécharg er</w>
ty piquement</w>
tradi tionnels</w>
tra -
tis te</w>
ti nent</w>
tex ture</w>
ter ons</w>
ter mine</w>
te aux</w>
t éri
suiv ez</w>
subst ances</w>
statis tique</w>
som bres</w>
si en</w>
sav iez</w>
révél é</w>
réuss issent</w>
rép ét
rob us
ri té</w>
rem édi
re t
raisonn ement</w>
r emis</w>
qu in
précis es</w>
pré dit</w>
protég és</w>
propri étaires</w>
pro long
pri t</w>
pou mon</w>
po lar
po ils</w>
pl eur</w>
pay és</w>
organ iques</w>
olog istes</w>
occu p
nouv eauté</w>
mél o
mé tique</w>
mé chant</w>
mena ces</w>
man quer</w>
li on</w>
jou ait</w>
is lam
invi ter</w>
inter ag
initi ale</w>
in ond
in capable</w>
imprim ante</w>
im mob
illu sions</w>
ill et</w>
ili con</w>
il ée</w>
i p
honnê tement</w>
hiér archie</w>
hect ares</w>
habitu ellement</w>
gén omes</w>
gui de</w>
grand s-
gr ossi
go sses</w>
g ad
formid ables</w>
fix er</w>
fer mes</w>
fer ais</w>
fau sses</w>
fati gu
fai l
fabri qués</w>
f évrier</w>
extr ater
extrater res
ex tension</w>
ex ic
ex e</w>
esti mer</w>
ess ai
enz y
engag és</w>
en èse</w>
dét en
déc ouvri
dé vou
dé pensons</w>
dé pensent</w>
dé fici
drog ues</w>
dou zaines</w>
dou x</w>
domes tique</w>
do pa
dis pers
dis parition</w>
direc teurs</w>
différ en
dev rai
des truc
célè bres</w>
crimin els</w>
coï n
cour ante</w>
coupa ble</w>
corré lation</w>
contrô lée</w>
conserv ateurs</w>
connec tions</w>
con sul
commen çant</w>
co chons</w>
classi ques</w>
cid ence</w>
chem ins</w>
cat aly
béné voles</w>
bure auc
bri ques</w>
bou gent</w>
bomb ar
bleu es</w>
bi o</w>
aéri enne</w>
az ote</w>
aveug les</w>
associ és</w>
assi ette</w>
ass ure</w>
appréci e</w>
ang es</w>
am pleur</w>
alli ez</w>
ali ens</w>
al -
aigu ille</w>
ag ence</w>
adé qu
ad hé
act ée</w>
acqu érir</w>
accu eill
a o</w>
a a
X X
Tit an</w>
S ing
S ilicon</w>
Pap a</w>
N orden</w>
Ko so
K ong</w>
J ésus</w>
J ack</w>
F er
D ou
D an
Ch ili</w>
Celle -ci</w>
Bro ok
Arist ote</w>
7 2</w>
20 20</w>
.S .</w>
éra ble</w>
équip ements</w>
É gypte</w>
vit am
virtu elle</w>
v én
trouv aient</w>
trans forment</w>
th èmes</w>
terror istes</w>
terr ains</w>
ten té</w>
t asse</w>
symétri es</w>
stéré oty
spéci aliste</w>
souhai tez</w>
sor tez</w>
soi rée</w>
sch émas</w>
sac rée</w>
s ter
s por
s pira
s ili
s anc
révél er</w>
résu me</w>
rés ister</w>
rédui te</w>
récol te</w>
réci f</w>
ré -
rivi ères</w>
ri ers</w>
res pira
rend ement</w>
rend ait</w>
rencontr és</w>
re z-vous</w>
ramass er</w>
radi ation</w>
r ange</w>
qu aient</w>
péri té</w>
présent ent</w>
prépar ation</w>
prototy pes</w>
prost ate</w>
pros périté</w>
profond eurs</w>
procé dure</w>
pro li
pro jet
port ez</w>
por tés</w>
perman ente</w>
pen h
penh ague</w>
pati ence</w>
par fu
pa ci
ouv rez</w>
ol et</w>
occa sions</w>
observ ez</w>
ob s</w>
né o
nourri t</w>
nor me</w>
navig uer</w>
n œu
n aître</w>
modi fié</w>
mo s
m ers</w>
ly n</w>
libr ement</w>
l y</w>
investiss eurs</w>
intitu le</w>
instantan ément</w>
inhabitu el</w>
infec tions</w>
inf érieure</w>
inclu re</w>
in dépendant</w>
impli cation</w>
immen ses</w>
im pul
ig ne</w>
i ce
héli um</w>
hon or
hom osexu
histor iques</w>
habitu des</w>
habi tant</w>
h al
gr ains</w>
gentill esse</w>
genti l</w>
gen res</w>
g no
fœ tus</w>
frag ile</w>
fi ante</w>
fem elles</w>
fav ori
ez- les</w>
entraî ne</w>
entour ent</w>
en sem
en qu
em mène</w>
e re</w>
déclar é</w>
débu té</w>
dé marche</w>
dopa mine</w>
dis tr
dirig eant</w>
d ot
d ent
cul ose</w>
creu ser</w>
costu me</w>
cor rom
conç ues</w>
consid èrent</w>
conc entre</w>
comp il
clav ier</w>
cl u</w>
ci bles</w>
cher chez</w>
chang eant</w>
car g
calor ies</w>
biolog iste</w>
bi t</w>
bi olumin
b aie</w>
audi tion</w>
ass ass
arrê tent</w>
ari um</w>
appar ait</w>
an es</w>
améric aines</w>
all ées</w>
ak e</w>
ail ler</w>
agri cole</w>
affi chage</w>
ad esh</w>
ach e
abstr ait</w>
absol u</w>
W h
V al
Seu lement</w>
Scot t</w>
S én
S e</w>
Nig éria</w>
N u
M é
M ère</w>
L arry</w>
Ir lande</w>
Institu te</w>
In dus</w>
I ran
Hen ry</w>
Ge ographic</w>
F emme</w>
D V
Co penhague</w>
Ch e
C yrus</w>
C er
C entre</w>
Bri an</w>
Ber lin</w>
B G</w>
Au trement</w>
Ar ch
A li
3 ème</w>
évalu ation</w>
émer g
é met</w>
âg és</w>
É coutez</w>
z a</w>
voy aient</w>
voi le</w>
vers ée</w>
vend ent</w>
v ée</w>
travers ent</w>
trans fer
tr ott
ti fication</w>
sur veiller</w>
sur ement</w>
sulf ure</w>
stupi des</w>
str ess
st op
st ar</w>
squel ette</w>
si dé
sexu el</w>
sex y</w>
s ong
s ec</w>
s chi
rés on
réc ession</w>
ré d
ritu els</w>
ritu el</w>
respec ter</w>
refus é</w>
rat trap
rass emble</w>
ran g</w>
ra bles</w>
r oyau
qui ert</w>
préserv atifs</w>
préser ver</w>
produc teurs</w>
pr endra</w>
pou belle</w>
por trait</w>
pla ts</w>
photographi é</w>
permet tait</w>
per cep
pein tures</w>
pein t</w>
pas sions</w>
partag ée</w>
parachu te</w>
pai e</w>
pa tron</w>
pa st
op en</w>
on i
oli ne</w>
og ène</w>
n uits</w>
n ag
mu tation</w>
mor tel</w>
molé culaires</w>
moder n
mis sions</w>
mis sionn
mi t</w>
mi les</w>
loint ain</w>
log ement</w>
lis ses</w>
lin dre</w>
larg es</w>
k i
jus tement</w>
jau nes</w>
j ong
j anvier</w>
institu t</w>
infin ie</w>
in cl
idi ot</w>
iPo d</w>
hélicop tère</w>
hau sse</w>
h ein</w>
gl oire</w>
fon t-ils</w>
fl eu
fi ne</w>
famili al</w>
fai ll
f us</w>
eur re</w>
espér ant</w>
espa gno
en rou
emplac ement</w>
em pire</w>
dé pense</w>
dy s
du ré</w>
du rs</w>
doctor at</w>
dis positifs</w>
dev inez</w>
desti né</w>
danger euse</w>
cérébra les</w>
céli bat
cycl op
cy lindre</w>
coût eux</w>
cour tes</w>
cos m
convi ction</w>
contin u</w>
constitu er</w>
considé rez</w>
consci ente</w>
communi quent</w>
collè ge</w>
co pier</w>
co ck
ci um</w>
chimi othérapie</w>
chang ez</w>
ch ari
ch aises</w>
ca se</w>
c lig
c ateurs</w>
béné fique</w>
bri n</w>
bour g</w>
bis c
biom asse</w>
bill et</w>
bi osphère</w>
ber culose</w>
b el
avi aire</w>
audi o</w>
attrap é</w>
attrap e</w>
att le</w>
ati vité</w>
ar ith
appropri ée</w>
appro xim
appro fon
app uie</w>
ap pe</w>
amb ass
am s</w>
am ateurs</w>
aim aient</w>
accu mul
absol ue</w>
a éron
W all</w>
Tr oi
T V</w>
Sau f</w>
S or
Puis que</w>
Pense z-y</w>
Par tout</w>
Par k</w>
O cé
Mu sul
Mi ch
Man dela</w>
M au
Lors qu&apos;</w>
I MS</w>
F re
Ever est</w>
D oc
D E
Co la</w>
Car oline</w>
C rai
B os
B as</w>
A ch
A S</w>
3 7</w>
20 50</w>
œu f</w>
ô tres</w>
éti qu
ét ales</w>
ét ag
éra teur</w>
ép aiss
égoï ste</w>
édi tion</w>
économ iste</w>
ç à</w>
Ê tre</w>
zo ph
val ait</w>
v ainc
utilis ait</w>
un g
téles copes</w>
tu ent</w>
trouv és</w>
transform ée</w>
tox ique</w>
tor ture</w>
tol érance</w>
ther mique</w>
ten ez</w>
ten ant</w>
te fois</w>
t axe</w>
synthé tique</w>
sou pe</w>
sou p
sor tant</w>
schi zoph
rob o
reç ois</w>
rel ie</w>
re tours</w>
re pousser</w>
re faire</w>
re commencer</w>
re au</w>
r and
qui tte</w>
quel que
pu t
psych ologique</w>
préd ateur</w>
provo qué</w>
prot o
prisonn ier</w>
pou dre</w>
port aient</w>
pol aire</w>
po èmes</w>
ple ines</w>
plai san
passionn é</w>
p ez</w>
ouvri ères</w>
oc tobre</w>
oc ar
observ ations</w>
néces sité</w>
neuro sciences</w>
musul man</w>
mou stique</w>
mou che</w>
mor ales</w>
mili eux</w>
massi f</w>
marqu eurs</w>
mar ée</w>
manifes tement</w>
man n</w>
m ie</w>
m b
lib éraux</w>
le tte</w>
lanc ement</w>
j us</w>
ir ons</w>
inf érieur</w>
individu els</w>
hu mil
h aï
gé vité</w>
grav it
gag nant</w>
g ie</w>
fusi l</w>
for mul
fi le</w>
fa ce-
f ère</w>
extré mité</w>
expli cations</w>
ex posés</w>
envir ons</w>
entre -
entr és</w>
el son</w>
détermin ation</w>
dé gag
dé cro
dé brou
dui t</w>
dui re</w>
duc teurs</w>
dispar aît</w>
dis sement</w>
dev int</w>
demand ons</w>
célé bri
cré ations</w>
cro quis</w>
conten ts</w>
concev ons</w>
compor tent</w>
com ics</w>
collec ter</w>
coin cé</w>
cl on
citoy en</w>
ci ca
choisi s</w>
ch ante</w>
ch air</w>
cellul aires</w>
ca chée</w>
c age</w>
bureauc ra
bou e</w>
bidon ville</w>
batt u</w>
b u</w>
av ril</w>
atter rir</w>
attend ons</w>
ationn elle</w>
appuy er</w>
appel és</w>
aper ç
anesthé sie</w>
al le</w>
al ien</w>
ai t-elle</w>
ag ences</w>
adap té</w>
ac cess
T ime</w>
T ant</w>
T I</w>
Souv en
Secon de</w>
Se attle</w>
S w
S am
R appel
R I
Plu tôt</w>
P rob
P en
O p
Mus ée</w>
Mes sieurs</w>
Le w
Laiss ez</w>
L oi</w>
Is land</w>
Imag in
E li
D urant</w>
D isons</w>
Chac une</w>
Cam bo
C eux
C D</w>
B ir
B ell</w>
B at
B angl
A mer
A K</w>
1 4
étudi ent</w>
ét endu</w>
éri ques</w>
éradi quer</w>
épi démi
épau les</w>
ép iso
écri ts</w>
échou er</w>
é tin
é man
èg re</w>
y ons</w>
y -
w ell</w>
voi tu
visu elles</w>
vi endrait</w>
vend us</w>
ve illes</w>
val ent</w>
v ant</w>
ul aires</w>
trau mati
trans férer</w>
tr onc</w>
tr ains</w>
tomb és</w>
ti ser</w>
ten ais</w>
temp le</w>
t ac
sé min
syn ap
stock age</w>
ss ons</w>
sou tenu</w>
simul tan
si bles</w>
scol aires</w>
sc and
satis faction</w>
sal aires</w>
s el</w>
révél ation</w>
régu lation</w>
réci ts</w>
ré sul
ré duis
royau me</w>
rencontr ent</w>
rem ise</w>
rel s</w>
reconn aitre</w>
re tte</w>
ral enti
rac cour
ra té</w>
qu eurs</w>
pê cheurs</w>
publi cit
pu ces</w>
préf èrent</w>
promo tion</w>
progress er</w>
prob abilités</w>
priv és</w>
prim or
pren aient</w>
pl anc
planc ton</w>
pi ét
particuli ers</w>
pari e</w>
param ètres</w>
pal estini
or es</w>
olog iste</w>
nous- même</w>
mu tations</w>
mon tent</w>
mir oirs</w>
mar ches</w>
mang ez</w>
ma trice</w>
m y</w>
m ai</w>
lumin eux</w>
lon gévité</w>
li p
lec teur</w>
j ard
j a</w>
intéress ée</w>
intervie w</w>
inter faces</w>
int ègre</w>
inqui et</w>
individu elles</w>
indi quer</w>
indi quent</w>
in time</w>
in cré
in connus</w>
in connue</w>
imp éra
ill us
i onn
hémis phère</w>
hu a</w>
her bes</w>
gu érir</w>
gu er
gr ain</w>
gl ac
fu tu
fr o-
form at</w>
fl am
fi d
fau d
fascin ante</w>
far deau</w>
fais able</w>
f eux</w>
explos er</w>
ex prime</w>
ex al
déc embre</w>
don ateurs</w>
dom i
distin c
dis es</w>
diplom atie</w>
diarrh ée</w>
di raient</w>
deven ait</w>
des sine</w>
d ale</w>
cu be</w>
cré di
cr é</w>
cou teau</w>
cou sins</w>
cos mo
cor po
contradi ction</w>
constr uits</w>
constr uites</w>
considéra ble</w>
conn ais
con tenir</w>
communaut aire</w>
commenc ement</w>
comb att
com porter</w>
col onnes</w>
co opéra
cli p</w>
cli matiques</w>
ci v
ci euse</w>
chois issent</w>
charg er</w>
can aux</w>
cal end
bénéfici er</w>
bu ts</w>
bou se</w>
autor ités</w>
attend ait</w>
astéroï des</w>
associ ée</w>
assi n</w>
as me</w>
arti san
arriver ait</w>
appro ches</w>
appel ées</w>
ap portent</w>
ambi ti
ajou tez</w>
aiss ait</w>
ag n
adol escent</w>
accr o</w>
W right</w>
Ti m</w>
T ra
T ok
Sy l
Ste ven</w>
Ste ph
P ho
N ik
Mo z
Mil o</w>
Le go</w>
LE D</w>
K enn
Jos hua</w>
H el
Gen e</w>
G lob
G PS</w>
Fai sons</w>
Europé enne</w>
E l
DV D</w>
Co ca-
Brow n</w>
Ber k
A us
A ctu
3 8</w>
2 5
199 9</w>
1 30</w>
év ent
évent ail</w>
ét ern
électro des</w>
é veill
é nique</w>
è quement</w>
z u
vot é</w>
visi onn
viol ent</w>
ven t-ils</w>
van che</w>
v ents</w>
uni forme</w>
ui r</w>
tuy au</w>
tu berculose</w>
trouv ais</w>
trai tons</w>
tradi tionnelles</w>
tou chent</w>
tionn és</w>
théra pies</w>
tez- vous</w>
ten ait</w>
te té</w>
t ui
t endre</w>
suc c
stati sti
st e
st atique</w>
spira le</w>
sou tient</w>
sex es</w>
sent ons</w>
sembl aient</w>
sau te</w>
s ter</w>
rév èle</w>
résol us</w>
réfléch issons</w>
récep teur</w>
ré formes</w>
reven ons</w>
ren seign
remédi er</w>
rem ède</w>
rel ève</w>
regard aient</w>
re vanche</w>
re cettes</w>
ray onnement</w>
rap proche</w>
quoi que</w>
qu ants</w>
protég ées</w>
proj ection</w>
pris ons</w>
pos tu
poli ciers</w>
plat eau</w>
pla ques</w>
pi x
philanthr opie</w>
per tinent</w>
per dons</w>
pay sans</w>
partici pent</w>
paradox e</w>
pa l</w>
p éch
p is
ouv rent</w>
or te
ograph e</w>
négoci er</w>
nourr issent</w>
nig éri
mâ ch
mou ches</w>
mon tant</w>
mathémati cien</w>
mar in</w>
mar gin
mar ge</w>
magaz ines</w>
lè vent</w>
l ez</w>
l ements</w>
ju ger</w>
ju di
jou ez</w>
j oint</w>
j al
invent eur</w>
intesti n</w>
inj ection</w>
infin iment</w>
indi ens</w>
in hi
ill ez</w>
i les</w>
humi dité</w>
hormon es</w>
han che</w>
h aine</w>
gé ants</w>
gâ teau</w>
gr ise</w>
g ère</w>
fl èche</w>
fermi er</w>
f ur
f oi
f el
exam ens</w>
ex port
eng endr
en cyclop
ellu le</w>
e d
e ais</w>
détermin é</w>
désespé rément</w>
dé cide</w>
dé chiff
dou leurs</w>
dis pose</w>
di vision</w>
di rent</w>
di manche</w>
di en</w>
curi euse</w>
cu re</w>
coû tent</w>
cour ses</w>
cou te</w>
copi que</w>
copi es</w>
continu ellement</w>
confron té</w>
conclu sions</w>
concentr és</w>
compos és</w>
compli qués</w>
compar able</w>
com pare</w>
cl ô
chem ise</w>
chauff eur</w>
chass eurs</w>
cham eau</w>
cham bres</w>
ch s</w>
casse- têtes</w>
can al</w>
cal i
c aill
bét on</w>
br on
bou tique</w>
bill ets</w>
bi ts</w>
ban qui
au tisme</w>
au rai</w>
au be</w>
attach é</w>
at ome</w>
astron omie</w>
ascens eur</w>
appl audis
amélior é</w>
al erte</w>
al bu
actu els</w>
actu alité</w>
ac adé
a por
Tok yo</w>
SE TI</w>
S oci
S avez-vous</w>
S MS</w>
Ré fléch
Pro jet</w>
P itt
N elson</w>
J er
Islam ique</w>
For ce</w>
F aire</w>
Dé velop
Coca- Cola</w>
Char lie</w>
C ré
Bri tan
Bangl adesh</w>
B ang
An dre
A y
20 e</w>
2 .
199 8</w>
199 4</w>
- --</w>
œ u</w>
ï que</w>
ér aire</w>
émer ge</w>
ém en</w>
éléph ants</w>
édi teur</w>
écri vent</w>
viol ents</w>
vi erge</w>
vi ce</w>
ver tes</w>
v œu</w>
v étér
v ation</w>
ul tr
trai tent</w>
tr ein
ti rée</w>
tacti le</w>
t une</w>
sy l
sur vivent</w>
suiv ons</w>
stand ards</w>
spéci aux</w>
sond age</w>
si ers</w>
ser ait-il</w>
ser ait-ce</w>
sculp tures</w>
s w
s tes</w>
s sions</w>
s cri
rég imes</w>
ré per
ré pan
ré agissent</w>
res tri
res trein
regar der
rappro cher</w>
radi o
publi cation</w>
préfé rées</w>
pré visions</w>
pré visible</w>
proth èse</w>
proch ains</w>
priv ées</w>
pos ter</w>
plai sante</w>
pi eu
pertur b
p esti
ordin ation</w>
olog ies</w>
oc ra
nu l</w>
neu tre</w>
ner veu
nan om
n oires</w>
n aï
my céli
mus ées</w>
mou tons</w>
mi en</w>
men tir</w>
march ant</w>
maj eurs</w>
mai ll
m eurs</w>
lenti lles</w>
le vier</w>
jet ons</w>
inévi tablement</w>
intro duction</w>
intrins èquement</w>
intermédi aire</w>
indi ces</w>
in vités</w>
in i</w>
impa cts</w>
im a</w>
ill égal</w>
humil ité</w>
hallucin ations</w>
h is
gin ie</w>
gad g
ga re</w>
g h
fréqu ences</w>
four ni</w>
form ations</w>
financ é</w>
fer ons</w>
famili ers</w>
fais ons-nous</w>
fac ili
fabul eux</w>
fabri quent</w>
fa ci
expli quent</w>
exper tise</w>
exac te</w>
ex traits</w>
ex cités</w>
ess eur</w>
ensem bles</w>
eni x</w>
endr aient</w>
em pois
el ey</w>
ec teur</w>
dé range</w>
dé pit</w>
dé l
dé fil
domi cile</w>
discu té</w>
dessin ée</w>
descend ent</w>
de o</w>
d ue</w>
d ance</w>
cuis in
cu l</w>
contrô lé</w>
contrô lent</w>
contr aste</w>
con tribue</w>
compréhen sible</w>
compos it
com bler</w>
cli quer</w>
cit ations</w>
chang eons</w>
champi gnon</w>
ch ô
ch aient</w>
centr ales</w>
centi mètre</w>
cens és</w>
cau chem
car ton</w>
cam pus</w>
bri col
bidon villes</w>
bal ance</w>
atti re</w>
atterr iss
atterr i</w>
ati ne</w>
ash a</w>
arg ile</w>
arab es</w>
appar tements</w>
annon cer</w>
ann ing</w>
anc être</w>
allu me</w>
all ég
ag an</w>
affec tent</w>
Y émen</w>
Vir ginie</w>
Tr ouv
T ro
Syl via</w>
S ach
S S</w>
Prob ablement</w>
Pitt sbur
Pay s</w>
P oint</w>
Ok ay</w>
N arrateur</w>
Mon tan
Mc Donal
M ac</w>
Lew is</w>
L ors</w>
Koso vo</w>
J our
H im
Fond ation</w>
Doc teur</w>
Cambo dge</w>
B M</w>
All ons</w>
A ca
3 4</w>
3 1</w>
ét han
éthan ol</w>
écha faud
é preuve</w>
é pouv
é on
ç age</w>
â mes</w>
véri fi
vulnéra ble</w>
vo eu</w>
vin t</w>
verti cal</w>
v au
ur é</w>
tunn el</w>
tu el</w>
transfer t</w>
ti vité</w>
ti les</w>
termin ée</w>
temp ête</w>
t z
t eux</w>
super fici
sty lo</w>
stupé fiant</w>
st ér
st ations</w>
souven ez-vous</w>
sou mis</w>
sou lève</w>
soign eusement</w>
sk i
sig né</w>
si xième</w>
servi ette</w>
sauv etage</w>
s log
rê ver</w>
révol utionnaire</w>
réson ance</w>
répon ds</w>
récu r
réalis ée</w>
reti ré</w>
ressor tir</w>
représent ations</w>
ren con
rec t
re construction</w>
rag es</w>
ra tionnelle</w>
ra mené</w>
r emi
prê ter</w>
pré lever</w>
problé matique</w>
pro vin
pro stitu
privil égi
pi tié</w>
pi ter</w>
pi ge
philosoph ique</w>
peu pl
perp étu
pay e</w>
pati ente</w>
para site</w>
par lions</w>
par faits</w>
par ait</w>
par -dessus</w>
pag os</w>
pa pill
p neu
ori entation</w>
or g</w>
oi ff
ob e</w>
nég ative</w>
nég atifs</w>
nom mer</w>
n et
mycéli um</w>
musi cien</w>
mo re</w>
millén aires</w>
migra tion</w>
mi x
mi el</w>
mer veille</w>
me aux</w>
mas cu
marchan dises</w>
mar rant</w>
manifes te</w>
ma quette</w>
m aître</w>
lég al</w>
lè vres</w>
loc alement</w>
k in</w>
issu e</w>
is tres</w>
inv asi
inter actif</w>
inten tions</w>
intellectu el</w>
initi al</w>
ini ère</w>
in sul
in attendu</w>
ill ent</w>
grenou illes</w>
grand- chose</w>
gram mes</w>
gram me</w>
g us
fu ri
fu n
fil tres</w>
fil mer</w>
fi g
ff es</w>
fer iez</w>
faç onn
extraordin airement</w>
explor é</w>
exc essi
essenti els</w>
essay aient</w>
es tion</w>
enthousias tes</w>
entend ent</w>
emprun ter</w>
emprein tes</w>
e dy</w>
e ball</w>
détes te</w>
détec teurs</w>
décou pe</w>
décid ent</w>
dis posons</w>
diffus er</w>
di vor
di al</w>
deven ons</w>
den ses</w>
cur seur</w>
cul pa
cré ées</w>
croy aient</w>
cri tères</w>
cra yon</w>
cr i</w>
cour u</w>
constru is
consom me</w>
conserv ation</w>
consac rer</w>
conn aitre</w>
compos ent</w>
commen çaient</w>
coch on</w>
char ité</w>
ch anti
cat ho
cancér euses</w>
bon us</w>
bi jou
bas és</w>
b ai
autor isé</w>
aud aci
atte ignent</w>
atte ign
astu ce</w>
as t</w>
arti cul
appréci é</w>
appropri é</w>
ap titudes</w>
anxi été</w>
ann é
amus ante</w>
ampou les</w>
ambi tion</w>
all en
ajou tons</w>
aiss ance</w>
affec ter</w>
accél éré</w>
accu eil</w>
ac compli
a pour</w>
Z él
Worl d
W est</w>
W K</w>
V ol
T C
Sing apour</w>
S écurité</w>
S ir</w>
S cho
Rappel ez-vous</w>
R évolution</w>
Premi er</w>
Pouv ons-nous</w>
Pittsbur gh</w>
Pho enix</w>
P ra
Ne andertal</w>
Montan a</w>
Min istère</w>
Lad en</w>
Ke vin</w>
K h
Ju piter</w>
J ones</w>
J eff
In don
In croy
H ou
H am
F ri
En tre</w>
D em
D al
Ch am
Ceux -ci</w>
C oca</w>
C E
Brook lyn</w>
Br un
B onne</w>
Atl anta</w>
Ar rê
Al ph
A ri
A ir
0, 000</w>
établis sement</w>
ét ou
éro sité</w>
ér ez</w>
épouv ant
épaiss eur</w>
ép il
ég aux</w>
é b
zoom er</w>
z ler</w>
véri tables</w>
ving taine</w>
vic toire</w>
ver ra</w>
v a-t-il</w>
uti lité</w>
ui es</w>
témoi gn
trou bl
troi sièmement</w>
tr ist
th ur</w>
terr eur</w>
ter ai</w>
tam bou
sus pend
sugg éré</w>
su prême</w>
stri c
stock er</w>
spiritu elle</w>
spiritu el</w>
sign al
si rs</w>
ser ingue</w>
sc ènes</w>
sai s
sach iez</w>
s pag
spag h
s emi-
s aut
résili ence</w>
rép and</w>
réci pi
réalis ent</w>
ré forme</w>
ru rales</w>
restaur er</w>
res pire</w>
ren verser</w>
qua re</w>
préserv ation</w>
proth èses</w>
propag er</w>
produc teur</w>
pro jeter</w>
premi èrement</w>
prati quer</w>
pol aires</w>
po ts</w>
plong é</w>
plan che</w>
pi ège</w>
pi ration</w>
pi g
ph one</w>
perf ec
per ni
per cev
pass erait</w>
par cs</w>
pa tions</w>
p ist
or dures</w>
oo h</w>
on a</w>
oi ent</w>
o ût</w>
nég atives</w>
navig ation</w>
n us</w>
médi atique</w>
musul man
mor telle</w>
mo tive</w>
mal in</w>
mainten ance</w>
magi cien</w>
lo w</w>
lib ère</w>
lev ure</w>
iss ante</w>
isol é</w>
ir onie</w>
invi tation</w>
inventi ons</w>
intég rité</w>
interview s</w>
inst ants</w>
indépend amment</w>
in ées</w>
in au
im probable</w>
identifi é</w>
ice berg</w>
hor reur</w>
hom mage</w>
gén érosité</w>
gé ographique</w>
grat uits</w>
gra du
gr aiss
gar dé</w>
g née</w>
fémin in</w>
fus ée</w>
frustr ation</w>
frag ments</w>
form ée</w>
fonctionn el</w>
fo ot</w>
fer mement</w>
facul té</w>
f -
expéri mentation</w>
exist aient</w>
exis té</w>
est- ce-
esclav es</w>
es tom
enti ers</w>
entend ue</w>
encein tes</w>
embrass er</w>
em ails</w>
effondr er</w>
dépla çant</w>
déli v
défin ie</w>
découv rons</w>
dr ôles</w>
dou és</w>
donn erait</w>
domin ante</w>
desti née</w>
demand aient</w>
dauph in</w>
cultu rels</w>
croy ant</w>
cr ises</w>
cos mique</w>
contac ts</w>
constru isez</w>
consist ait</w>
connaiss aient</w>
con tag
compét ence</w>
compos ée</w>
cogni tives</w>
cogni tive</w>
cir culer</w>
ci enne</w>
cess er</w>
cass er</w>
casca de</w>
candid ats</w>
cam pag
bru te</w>
bas eball</w>
bas ant</w>
b asses</w>
authenti cité</w>
astron omes</w>
ast h
ass isté</w>
arriv ant</w>
arri vais</w>
ani el</w>
anec dote</w>
amin és</w>
alé atoires</w>
al en
ajus ter</w>
adé qua
actu elles</w>
activis tes</w>
accor ds</w>
abord able</w>
Wat son</w>
V an</w>
Tes zler</w>
T ar
T al
Steph en</w>
S ho
R éc
Q ui
O lym
N ami
Mi ke</w>
M os
Le vez</w>
La b</w>
John ny</w>
J ac
Indi en</w>
I A</w>
H ig
F ille</w>
F ar
Enf ant</w>
E gypte</w>
Dis ney</w>
D aniel</w>
Crai g</w>
Cr oy
C oll
Ar thur</w>
Alph a</w>
Allons- y</w>
Al ex</w>
9 7</w>
1, 5</w>
-s aharienne</w>
- à-
- M
évol utionn
évo que</w>
étrang ères</w>
ét e
ét at
éra le</w>
ér i</w>
équ it
émer gent</w>
élev ées</w>
élec teurs</w>
écri vais</w>
écla té</w>
É g
voc ab
vitam ine</w>
vis ité</w>
ver riez</w>
vend eur</w>
vari able</w>
val or
urb aines</w>
un g</w>
u ba</w>
tui les</w>
trom pe</w>
tri angle</w>
trans met
tox ines</w>
ti rez</w>
ti rent</w>
ti enne</w>
théor ique</w>
tes té</w>
ter ez</w>
ter aient</w>
techni ciens</w>
t esti
symbo lique</w>
suscep tible</w>
suiv ants</w>
sub stitu
sti mu
spéci ales</w>
spontan ément</w>
soup ç
sembl ant</w>
s- Bas</w>
rési dents</w>
rég i
règ ne</w>
rest au
rencontr ez</w>
ren forcer</w>
ren for
rempl ie</w>
regar diez</w>
recu eill
recev ez</w>
re tar
re fu
ral entiss
rai t-il</w>
ra d
publi ée</w>
psych ologiques</w>
présent ations</w>
préoccu per</w>
préci euses</w>
prot es
produc tive</w>
produc tif</w>
pri orité</w>
pres cri
pren iez</w>
pr endrait</w>
pou lets</w>
pom piers</w>
pollu ants</w>
poign et</w>
pi les</w>
pens eurs</w>
passionn ant</w>
pass ante</w>
par ent
par ab
optimis me</w>
ol ym
oi rement</w>
obs ession</w>
o m</w>
not amment</w>
nom in
méri tent</w>
mystéri eux</w>
mu r
moti ver</w>
manifes tations</w>
manifes tation</w>
m all
lib ellules</w>
le -
l ot
l or
l oi
jou ons</w>
j ung
j oin
isol és</w>
is son</w>
intég rée</w>
inter ventions</w>
int éri
instin ct</w>
inqui ets</w>
inf os</w>
indépend ants</w>
in o
imp ôts</w>
ill y</w>
icô ne</w>
hos pit
hist oriquement</w>
hir t</w>
heur euses</w>
h ey</w>
h e</w>
génér eux</w>
gé ante</w>
gu éris
gla ciers</w>
gen tes</w>
gal erie</w>
futu rs</w>
fonc é</w>
flui de</w>
fi che</w>
fal aise</w>
espagno l</w>
es t
enver gure</w>
entr ons</w>
enthousias te</w>
entend ons</w>
ent endrez</w>
en lev
emb ê
effon dre</w>
eff ond
eau -
dév ast
déli cieux</w>
découv rez</w>
dr oi
doubl er</w>
dirig ent</w>
dia pos</w>
di vi
cont es
constru isant</w>
constr ui
considé ration</w>
connect ome</w>
con g
compli quées</w>
compar ez</w>
commu nes</w>
col ler</w>
cogni tif</w>
co ordination</w>
co di
clo che</w>
chauff er</w>
chass er</w>
chari ot</w>
ch â
ce tera</w>
casca des</w>
cart ograph
carre aux</w>
car ottes</w>
cab inet</w>
ca che</w>
c aines</w>
br a</w>
boi tes</w>
bless és</w>
biblioth èques</w>
banc aire</w>
ba siques</w>
ba sique</w>
b ê
b inaire</w>
autom atique</w>
ath ée</w>
associ er</w>
arm ées</w>
argu ments</w>
ar ou
ar ien</w>
aqu arium</w>
appli qué</w>
ap por
ané anti
ann y</w>
angiog enèse</w>
anat omie</w>
amen és</w>
am or
am bul
allu re</w>
all on
aim ant</w>
affir mer</w>
ad o</w>
acti vement</w>
ac cident
absur de</w>
ab us</w>
a chat</w>
W om
W ar
Th e
Tas manie</w>
S top</w>
S erg
S ain
S ah
R en
Pay s-Bas</w>
Or gan
Océ an</w>
O s
Nouv elle</w>
Nat asha</w>
Musul mans</w>
M ass
Kenn edy</w>
K ur
J ane</w>
Indon ésie</w>
I V</w>
G rou
Ess ayons</w>
Ess ayez</w>
Dé partement</w>
C .
Berk eley</w>
B J</w>
Al as
Actu ellement</w>
A h
A .</w>
5 8</w>
4 3</w>
21 e</w>
19 0
1 60</w>
- tech</w>
û te</w>
ï ne</w>
évo quer</w>
ét al
émer gé</w>
éloign és</w>
égar d</w>
ég raph
écou tent</w>
éclai ré</w>
é tiques</w>
é nig
â gé</w>
z- moi</w>
z ab
y lon
véri tés</w>
vé cue</w>
virtu els</w>
viol ente</w>
vie ill
vi vais</w>
ver rou
v ait</w>
universi taires</w>
ultr as
ul tra-
tu ées</w>
tri ct</w>
tran ches</w>
tab ac</w>
séquen cer</w>
sé cher
symétr ique</w>
syl van
sur viv
sub ventions</w>
sper me</w>
sous- sol</w>
sou viennent</w>
sophisti qué</w>
so r</w>
sec tions</w>
sau té</w>
s éch
s ouver
s am
rési de</w>
répan du</w>
réc entes</w>
ré veiller</w>
ru ral</w>
ru b
rot ation</w>
ris qué</w>
res tes</w>
rentr ent</w>
rent able</w>
rel ativité</w>
recy c
recu eillir</w>
rec s</w>
re y</w>
rassembl ent</w>
ral enti</w>
ra b
r ène</w>
qu eur</w>
pénétr er</w>
prét end
protoc ellule</w>
profes sion</w>
prof il</w>
produi tes</w>
pro f</w>
primi tive</w>
pr ie</w>
possé dons</w>
pos tes</w>
por traits</w>
poin tes</w>
plom b</w>
pli age</w>
pil e-
pi n</w>
ph o
ph ases</w>
permet tr
particuli ères</w>
para sites</w>
pan ique</w>
p ôle</w>
p ant
ow s</w>
ou rag
ou e</w>
origin ale</w>
origin aire</w>
organ ise</w>
no tions</w>
ni k</w>
nation aux</w>
n g</w>
médi cales</w>
mâch oire</w>
myst ères</w>
mou ton</w>
mou sson</w>
mou le</w>
mor aux</w>
model er</w>
mis ère</w>
mi er</w>
mass ac
mari ée</w>
man qué</w>
man qu
main tient</w>
mag es</w>
m ème</w>
liv rer</w>
lis ent</w>
lenti lle</w>
lanc ée</w>
jug és</w>
ist an
is tiques</w>
ir aient</w>
interrup teur</w>
inter -
indépend ante</w>
industri els</w>
in juste</w>
in fr
infr arou
in clin
impul sions</w>
illustr ation</w>
illi s</w>
i ères</w>
i de</w>
hé si
hau t-
habitu elle</w>
habi te</w>
guéris on</w>
gre ffe</w>
gouvernement ales</w>
g orge</w>
g ob
flu ctu
flexi ble</w>
fix é</w>
financi ères</w>
ff re</w>
fen se</w>
favor i</w>
fail li
f at
ez- nous</w>
ext éri
excit ante</w>
ex o
eth niques</w>
er son</w>
entre pris</w>
entraî né</w>
enf er</w>
en cl
embar rass
eck o</w>
ec k</w>
détes tent</w>
dépend ent</w>
défin issent</w>
dédi é</w>
dé bit</w>
dé battre</w>
du r
do ses</w>
divis e</w>
discipl ines</w>
descend ez</w>
de z-vous</w>
d eux
cui vre</w>
cruci ale</w>
cri er</w>
contempor ain</w>
cons eiller</w>
connais sions</w>
conf us</w>
condam né</w>
concer nés</w>
con vient</w>
con tourner</w>
compren ait</w>
combin aisons</w>
collec te</w>
cl ef</w>
chim iste</w>
car bon
capit aine</w>
campag nes</w>
calcul é</w>
britan niques</w>
brev et</w>
bran cher</w>
br isé</w>
br ins</w>
bon d</w>
blog u
blo quer</w>
bi otechnologie</w>
bag u
b assin</w>
b ack</w>
aw a</w>
avou er</w>
avan çons</w>
av or
auton omes</w>
attr action</w>
at éri
ass oir</w>
arrê tait</w>
ap prises</w>
anten ne</w>
anim és</w>
analy sé</w>
ami tié</w>
alphab et</w>
al tru
ag isse</w>
ador é</w>
accél ération</w>
a hi
Voi e</w>
V én
T re
T hé
T am
St ar</w>
Souven ez-vous</w>
Souv ent</w>
So viétique</w>
Sin on</w>
Se pt</w>
Sar ah</w>
S us
S R
S O
S D</w>
R ick</w>
Par lons</w>
P é
P enn
P E
Nor v
Min istre</w>
Je ff</w>
J A</w>
Fran k
F o
Car aï
C ri
C re
C lar
B el
B P</w>
Am y</w>
Alas ka</w>
Al bert</w>
9 8</w>
6 000</w>
5 2</w>
5 0
4 6</w>
19 00</w>
1 80</w>
1 500</w>
. org</w>
évol utionnaire</w>
évid entes</w>
étroi tement</w>
énergé tiques</w>
émeu tes</w>
électrom ag
électr on</w>
é o
ç aise</w>
âg ée</w>
y e</w>
w i
w e</w>
w atts</w>
vê tement</w>
vél os</w>
vrai sembl
vous- mêmes</w>
voudr aient</w>
visu els</w>
vibra tion</w>
vi ve</w>
vi rale</w>
ver té
us ale
usale m</w>
ultras ons</w>
u se</w>
tuy aux</w>
tri che</w>
transform ant</w>
trac er</w>
tr ique</w>
tou fl
tou chée</w>
tin ation
ti ères</w>
ti ll
ten tent</w>
te in
tax i</w>
t- s
t- là</w>
t ê
séduis ant</w>
sé di
sylvan ie</w>
sui cide</w>
suffis ante</w>
subi t</w>
sous-mar ins</w>
souff rir</w>
sol enn
sexu alité</w>
ser pen
sep h</w>
sens ations</w>
sembl é</w>
sembl erait</w>
s ér
s pl
s at
réussi t</w>
réun i</w>
ressembl era</w>
respons abilités</w>
représent és</w>
rep érer</w>
renouvel able</w>
rend ons</w>
re poser</w>
re d
rappel ez</w>
rap pel</w>
racon tent</w>
r -
péni ble</w>
publi cités</w>
précé demment</w>
préci euse</w>
pré férence</w>
programm eurs</w>
profon ds</w>
pro pulsion</w>
pourrai t-il</w>
politi quement</w>
pl anning</w>
photograph es</w>
pharmaceu tique</w>
pesti cides</w>
passer elle</w>
pass aient</w>
partenari ats</w>
par tez</w>
p ant</w>
oss euse</w>
orte ils</w>
ord res</w>
olog iquement</w>
ob sol
norm ales</w>
mélang er</w>
médu se</w>
médi tation</w>
musi cal</w>
mul tination
mou tar
mot o</w>
modes te</w>
min éraux</w>
micro bi
mes dames</w>
ment ors</w>
ment ales</w>
mari ages</w>
marcher a</w>
mar ron</w>
mar ath
mag né
m û
léopar d</w>
lour ds</w>
lob e</w>
lav e</w>
l ente</w>
kin son</w>
judi ci
ju illet</w>
intég rés</w>
intui tif</w>
insu line</w>
ins pec
influen cé</w>
inf ecti
indi ennes</w>
inclu ant</w>
in o</w>
in nover</w>
in er
imagin iez</w>
idé ale</w>
hé dra
h all</w>
gén omique</w>
grat uite</w>
graph e</w>
gob el
gla cier</w>
genti ls</w>
gel é</w>
gang s</w>
g el</w>
fédé ral</w>
fu tures</w>
franch ir</w>
fossi le</w>
fol les</w>
fil mé</w>
fichi er</w>
fi erté</w>
fer aient</w>
fas sions</w>
face- pile-
extr émis
exci tation</w>
ex pul
europé enne</w>
esti mé</w>
ess or</w>
espo irs</w>
entr ant</w>
enti tés</w>
ens us</w>
em boute
e go</w>
déplac é</w>
démocra tiques</w>
démar re</w>
déli cat</w>
déb ris</w>
dura bilité</w>
dra matique</w>
docu mentaire</w>
diplô més</w>
deuxi èmement</w>
de l</w>
céré monie</w>
cuis son</w>
cui r</w>
cu eill
croy ez-moi</w>
courag eux</w>
conv ain
conserv ateur</w>
connec tées</w>
cli ché</w>
ci ons</w>
chi ps</w>
chauss ure</w>
charg é</w>
chan teurs</w>
ch rétiens</w>
centi mes</w>
capit aux</w>
can ard</w>
cal cule</w>
ca ts</w>
c entre-
bur ants</w>
bless er</w>
bl ag
ber té</w>
bat tant</w>
bal ad
b et</w>
b ass
b ap
b allons</w>
auc on</w>
au tru
au ssi
au ré
attribu ts</w>
ath l
ass ister</w>
artis tiques</w>
arrê tés</w>
arr os
ar y</w>
anti corps</w>
anten nes</w>
ann eaux</w>
ambi g
al arme</w>
ag u
ag og
afri caines</w>
acti vé</w>
accu muler</w>
accro cher</w>
abouti r</w>
a- t-on</w>
Zél ande</w>
W ind
Vi ens</w>
U S
Sy st
Ste w
Si erra</w>
S tar
S quare</w>
Réc emment</w>
Rou ge</w>
Ro ver</w>
R emar
R a
Qu e
Pro f
Premi ère</w>
Peti t</w>
Ou ah</w>
Norv ège</w>
Nami bie</w>
N eu
M iss
M is
M ath
M ai
M ach
M T</w>
L yn
Jo seph</w>
Jo e</w>
J ér
Is lande</w>
Inter national</w>
H arry</w>
H ans</w>
Gén éral</w>
Eri c</w>
En semble</w>
Eli zab
D émo
Con sidé
Col om
Boudd ha</w>
B omb
Au tre</w>
Ara bie</w>
9 00</w>
4 50</w>
4 4</w>
év ac
étudi ons</w>
ér os</w>
épil ep
ép in
ép ais</w>
élé mentaire</w>
ég yp
écl at
é pon
é mouv
è vres</w>
x -tu</w>
w in
voud rions</w>
voud riez</w>
vol ution</w>
vol can
vocab ulaire</w>
visi bilité</w>
vis er</w>
vis -à-
vis-à- vis</w>
viol on
vi tre</w>
vi ol</w>
vi endront</w>
vari ables</w>
u és</w>
u x</w>
téléph onique</w>
télé vis
tra duc
tr o</w>
tori um</w>
tomb ez</w>
tom ate</w>
ti lité</w>
th er</w>
terror iste</w>
ten sions</w>
ten ons</w>
tem po
techni quement</w>
séri es</w>
sé pare</w>
sym ph
sus pen
sur rection</w>
sub -saharienne</w>
su spec
su sci
sti g
st op</w>
squel et
sph ères</w>
souffr ances</w>
sou mettre</w>
soi rs</w>
so eurs</w>
slog an</w>
sk i</w>
situ é</w>
sin gu
si vement</w>
si s</w>
seg ment</w>
satis fait</w>
s ain
répéti tion</w>
récup éré</w>
ré jou
ré générer</w>
ré alités</w>
rus se</w>
ron d</w>
ri t</w>
reven ue</w>
ressent ons</w>
ressembl erait</w>
res tez</w>
res tant</w>
renouvel ables</w>
rem et</w>
rej oi
rassembl ement</w>
ra y</w>
py right</w>
publi cations</w>
présu me</w>
pré frontal</w>
protég ée</w>
prot ège</w>
propag ande</w>
promen er</w>
produ ise</w>
prim aires</w>
prai ries</w>
pouss ant</w>
pos aient</w>
po res</w>
plain dre</w>
pla te</w>
pil ules</w>
pharmaceu tiques</w>
permet trait</w>
per dues</w>
paraly sé</w>
parall èles</w>
pant al
pal ais</w>
oubli ons</w>
oth er
op ère</w>
on c
occu pés</w>
o ff</w>
noi x</w>
métaphor es</w>
mélo die</w>
mu re</w>
mor ph
mon u
mon tage</w>
min orité</w>
milli mètre</w>
mer veilles</w>
men tent</w>
massi ves</w>
mar ier</w>
mal nutrition</w>
main tes</w>
mag n
m uti
m aux</w>
lég ers</w>
lè vement</w>
lun di</w>
lour de</w>
limi ter</w>
jou aient</w>
jard ins</w>
iss ais</w>
isol er</w>
is siez</w>
is ses</w>
ir ri
inqui étude</w>
ing er</w>
inattend ues</w>
in gues</w>
impres sions</w>
im it
im bab
illus tre</w>
ig no
ig n</w>
ic k
i ve</w>
i rait</w>
hum eur</w>
hu mili
hambur ger</w>
hack ers</w>
gé o-
gross esse</w>
gr aine</w>
gon f
gar dez</w>
fémin ine</w>
fr ot
fourniss eurs</w>
form ées</w>
for estation</w>
fond ateur</w>
fonctionn elle</w>
flu or
flot te</w>
flexi bilité</w>
fl èches</w>
fl ash</w>
fil am
fi ées</w>
exécu ter</w>
expli qu
excu se</w>
ex poser</w>
eu ils</w>
es sionn
es carg
envoy és</w>
envoy ée</w>
environnement ales</w>
entr ées</w>
enti ères</w>
enregistr ements</w>
encyclop édie</w>
en voyez</w>
en gr
em prisonn
em mes</w>
e a</w>
e Bay</w>
dét éri
désor dre</w>
dési rs</w>
dés accord</w>
dépend ants</w>
déc entr
domin ant</w>
dom mages</w>
diver si
dis si
dimin ution</w>
demi- heure</w>
deman des</w>
dem ents</w>
dd h
dans eurs</w>
cur s
créati ves</w>
crimin alité</w>
cr ête</w>
cr yp
corrig er</w>
cor alli
conv ul
contin uité</w>
cons entement</w>
confron ter</w>
confi guration</w>
condui ts</w>
compos ante</w>
compos ant</w>
comportement ale</w>
commerci ales</w>
combin é</w>
co pyright</w>
ci e</w>
ci bl
chol éra</w>
chois issons</w>
cher ie</w>
chau ds</w>
chau des</w>
chan té</w>
ch èque</w>
ch orale</w>
cess é</w>
car it
c oiff
bâti r</w>
brû le</w>
brev ets</w>
br é</w>
bo sse</w>
bless é</w>
bl ou
bijou x</w>
bi n</w>
batt ements</w>
bas culer</w>
az e
automo biles</w>
aussi tôt</w>
au tes</w>
att én
arriv ées</w>
architectu rale</w>
arbi tr
appel ez</w>
ap s</w>
antici per</w>
anim ale</w>
alli és</w>
albu m</w>
affir me</w>
acqu ise</w>
accep te</w>
a oût</w>
Willi am</w>
Wi de</w>
Vir g
Tr av
Su d-
Sou th</w>
S aou
S aint</w>
S I</w>
Regar de</w>
R it
Prof esseur</w>
Penn sylvanie</w>
P ou
P ai
P ad</w>
N et
M édi
M r</w>
M ont</w>
M me</w>
M A</w>
Lou is</w>
L actée</w>
Ki b
J ay</w>
J .
H oll
H -
G l
F ul
F G</w>
E videmment</w>
E l</w>
E co
Dé fense</w>
D AR
Ch ez</w>
Caraï bes</w>
Can yon</w>
C li
C elle</w>
C as
Bra d</w>
Bos nie</w>
B ul
Ara be</w>
Ali ce</w>
4 000</w>
3 9</w>
2 ème</w>
199 5</w>
18 ème</w>
1 .
. ...</w>
- y</w>
év asion</w>
étudi ante</w>
étr oite</w>
état -
éradi cation</w>
épou s
égar ds</w>
édi fi
écou tant</w>
écl air</w>
é pa
é met
Ê tes-vous</w>
x on</w>
vi f</w>
v és</w>
v esti
us ées</w>
uni s</w>
ul trav
ultrav i
tu es</w>
trou peau</w>
travail leur</w>
tr ale</w>
ti es</w>
tend ent</w>
tap ez</w>
t we
t esse</w>
t au
sup prim
stimul ation</w>
spect ateurs</w>
spect ateur</w>
spagh etti</w>
souff ert</w>
si es</w>
serpen ts</w>
sens é</w>
scénari os</w>
s ho
s ains</w>
rê vé</w>
révol utions</w>
répon dit</w>
répon d
répli quer</w>
ré veille</w>
ré conc
revi endrai</w>
reti re</w>
res tera</w>
rencon tres</w>
ren voie</w>
rem porté</w>
re définir</w>
rap porter</w>
radi ations</w>
ra ser</w>
r ôles</w>
qua si</w>
pé d
pu e</w>
protég é</w>
prom esses</w>
procu rer</w>
prim ates</w>
pou le</w>
pla ces</w>
pil ule</w>
philosoph e</w>
pen cher</w>
pen che</w>
pen -
pas sive</w>
out chou
outchou c</w>
oubli e</w>
os ph
os cope</w>
or y</w>
op posée</w>
oo m</w>
onn és</w>
onn ée</w>
on to</w>
om ph
ol oc
oblig és</w>
néo cortex</w>
nom me</w>
ni enne</w>
nat ale</w>
n ais</w>
mété or
modélis er</w>
merveill eusement</w>
men ée</w>
membran e</w>
maîtr iser</w>
maz ou
mar di</w>
manipul ation</w>
mag iques</w>
m èn
lâ cher</w>
lu ci
lib éré</w>
lib er
li ques</w>
jus tes</w>
jui f</w>
j o</w>
j ail
iss us</w>
is ra
infec té</w>
inf ectées</w>
indépend antes</w>
individu ellement</w>
indi rec
in é
improvis ation</w>
immob ilier</w>
imagin ons</w>
ill és</w>
ill et
hô te</w>
honnê teté</w>
handi cap</w>
généra teur</w>
gé o
gen ou</w>
ge ant</w>
gaspill age</w>
garanti r</w>
gar diens</w>
g éré</w>
g ecko</w>
g al</w>
fra m</w>
fr uit</w>
fon te</w>
fon du</w>
fer ions</w>
fai t-on</w>
exter ne</w>
explo se</w>
excu ses</w>
et ts</w>
environnement ale</w>
entre p
enn uis</w>
end a</w>
en a</w>
emar k</w>
effi ci
e p</w>
dévelop pons</w>
dérou ler</w>
dépl oy
défin is</w>
déb ats</w>
donn aient</w>
domes tiques</w>
distribu é</w>
disponi bilité</w>
dispar us</w>
dig ne</w>
dev ra</w>
desc ente</w>
de viens</w>
d ar
cé cité</w>
croiss ante</w>
cro ître</w>
cr ème</w>
cour ri
cosmo s</w>
correc te</w>
coqu ille</w>
contribu ent</w>
conten us</w>
conten ter</w>
constitu tion</w>
const ant</w>
considéra blement</w>
con ducteurs</w>
con ci
commen çais</w>
collabor ative</w>
coin cés</w>
cock t
cli c</w>
ci r</w>
chu té</w>
chou ette</w>
choisi t</w>
chois issez</w>
chev au
cau sé</w>
can ap
calend rier</w>
ca outchouc</w>
ca chés</w>
c is
budg ets</w>
brû lé</w>
bruy ant</w>
br oc
bou tons</w>
bou ddh
b uti
b ad
aï que</w>
av al
autorou tes</w>
audi toire</w>
attein ts</w>
attach ement</w>
atta qué</w>
ass er</w>
aspira tions</w>
as -tu</w>
ant aine</w>
ang oi
am én
am ateur</w>
alis es</w>
alim enter</w>
alen tours</w>
al ore</w>
aimer ait</w>
agri n</w>
ag os</w>
affec té</w>
ac croiss
a pl
Z imbab
Wol fram</w>
Wh it
Ven ez</w>
U V</w>
U C
Tor onto</w>
TC HA</w>
Som mes-nous</w>
Si b
Se p
Scho ol</w>
S t</w>
S id
S anta</w>
Ré publi
Ri o</w>
Prin ce</w>
Pres que</w>
Par fait</w>
P in
P TCHA</w>
Organ isation</w>
O CD
OCD E</w>
Né anmoins</w>
N ot
Me dia</w>
Mass ach
M ot
M ol
Lu ther</w>
L ig
L aw
L ama</w>
Kib era</w>
K en</w>
K ath
K ansas</w>
Ira q</w>
Incroy able</w>
I BM</w>
Him al
H un
H all</w>
Gol d
Glob al</w>
F li
Elizab eth</w>
Dan emark</w>
D ata</w>
D .
Ch r
Car l</w>
CA PTCHA</w>
C hu
Bl ack
Bang alore</w>
B ru
B ot
Andre w</w>
Afri cain</w>
Ab sol
A g
9 6</w>
5 .000</w>
4 ,
20 11</w>
199 7</w>
19 45</w>
17 ème</w>
év apo
éti quettes</w>
ét ale</w>
équi vaut</w>
équ ité</w>
épou ser</w>
épiso de</w>
ép ing
élé mentaires</w>
élabor er</w>
édi teurs</w>
édi es</w>
écriv ait</w>
économ iquement</w>
è bre</w>
vol ants</w>
virtu ellement</w>
viol on</w>
vi brer</w>
ver tu</w>
vend eurs</w>
ven ance</w>
ve illement</w>
val oir</w>
v alise</w>
v ain
trouv era</w>
tri omph
trai rement</w>
tourn ons</w>
tour bill
tou t-
ti mide</w>
te- t-il</w>
tap e</w>
t angible</w>
séduis ante</w>
supéri eurs</w>
stéréoty pes</w>
ster dam</w>
stat ue</w>
sou ple</w>
sou lever</w>
si ens</w>
si da</w>
sav oi
rétro -
réser voir</w>
réper toire</w>
réalis ons</w>
ré tré
ré partition</w>
ré n
ré fér
ré ception</w>
ru sses</w>
rig our
retour née</w>
ressembl aient</w>
res tés</w>
représent ant</w>
refroi dissement</w>
refroi dir</w>
re trouvez</w>
re produisent</w>
rati on
rassembl és</w>
rap porté</w>
racont ons</w>
ra f
ra ci
r établir</w>
r ure</w>
r os
qu e-
qu ad
périph érie</w>
préserv atif</w>
présent ée</w>
protoc ellules</w>
proj eté</w>
produ isons</w>
produ isant</w>
procé der</w>
pro page</w>
pro c
pren ions</w>
pr êtes</w>
potenti elle</w>
pois on</w>
plate formes</w>
plani fier</w>
pl ique</w>
pl eure</w>
pl eu
pix els</w>
pis cine</w>
pira tes</w>
photograph ier</w>
peu vent-ils</w>
perd ant</w>
per mette</w>
past eur</w>
passionn és</w>
p per</w>
p iller</w>
p aient</w>
ourag an</w>
organis és</w>
organis ée</w>
org asme</w>
opéra teur</w>
op èrent</w>
ons- y</w>
ol l</w>
off rent</w>
off en
oeu fs</w>
nord- est</w>
ner f</w>
nation ales</w>
nar ration</w>
n ess</w>
motiv ations</w>
montr ait</w>
mon i
mo du
mesu rée</w>
ment aux</w>
ment alement</w>
mascu lin</w>
mas que</w>
mar chez</w>
man agement</w>
mam maire</w>
main tien</w>
mai ls</w>
mach in
m alement</w>
limi tés</w>
lib rai
le ge</w>
l age</w>
jung le</w>
ju meaux</w>
j ur
isi tion</w>
invent ée</w>
intégr ante</w>
inti mid
inspi re</w>
inscri t</w>
inci ter</w>
in utiles</w>
in conv
inconv éni
imprim é</w>
impli quée</w>
impli quent</w>
imagin aire</w>
im étisme</w>
il la</w>
il d</w>
igno re</w>
i tu
i o</w>
i enne</w>
héli ce</w>
hyper -
hos tile</w>
habit ent</w>
grenou ille</w>
grand ement</w>
glis ser</w>
gl ori
gal eries</w>
g az
fi èvre</w>
fi ère</w>
fi cations</w>
favori te</w>
favor is</w>
famili ale</w>
fabric ants</w>
fabric ant</w>
fabri quons</w>
f ût</w>
f esti
ez- y</w>
excep tionnel</w>
ex ige</w>
europé ens</w>
esti mations</w>
escal ade</w>
es sions</w>
envoy ait</w>
entrain er</w>
entend ues</w>
en sement</w>
en contre</w>
em porte</w>
e di</w>
déser tification</w>
décol ler</w>
déclen che</w>
déclar ations</w>
dé primé</w>
dé faill
dor mi</w>
dis trict</w>
dis ques</w>
dis iez</w>
dis cr
diplô mé</w>
di riez-vous</w>
demand a</w>
d iner</w>
célébri té</w>
crev ettes</w>
cour ent</w>
cou ples</w>
coralli ens</w>
convi ctions</w>
continu era</w>
cont ex
const at
considé rée</w>
connec tent</w>
concentr ent</w>
con e</w>
con duisent</w>
con clu</w>
collabor er</w>
collabor ateurs</w>
coll ines</w>
coll ectivement</w>
co des</w>
class ement</w>
cl ou
civi que</w>
civi les</w>
cin quante</w>
chô mage</w>
cherch ait</w>
cha tou
ch èvre</w>
ch e-
ch allen
ch agrin</w>
ch a</w>
cau ser</w>
cat hédra
cartograph ier</w>
cart ographi
car ic
cal cium</w>
cal am
cab ane</w>
ca st
c y</w>
c able</w>
bou ill
blag ues</w>
biolumin escence</w>
b ottes</w>
b ac
autru i</w>
autor isés</w>
at on</w>
ass ises</w>
artifici els</w>
arrê tez</w>
arrê taient</w>
arrière- plan</w>
arri ve
arch é
ar che</w>
approuv é</w>
ap h
ann eau</w>
ang er</w>
allu mé</w>
al t
agran dir</w>
aff am
adi s</w>
adap tés</w>
ad mis</w>
ab i
Zimbab we</w>
Z ip
Wind ows</w>
Voy ez-vous</w>
Ti bet</w>
Soud an</w>
Sh e
S ir
S J</w>
Ros s</w>
R and
R W</w>
Pai x</w>
P as
O L
Nor man</w>
M an</w>
Le e</w>
K le
Jeff erson</w>
J on
J et
J apon
J anvier</w>
Haw aï</w>
H ier</w>
G é
F O
Ex ac
E t
E r
E ast</w>
Démo cra
Di x</w>
Des ign</w>
De an</w>
D éc
D ra
D anny</w>
Col lege</w>
C O</w>
Ass oci
Am sterdam</w>
Al -
AR N</w>
3 0
199 6</w>
10 0.000</w>
1 40</w>
- up</w>
étr oit</w>
étou ff
ér ou</w>
épous toufl
émer gentes</w>
éli tes</w>
élev age</w>
él an</w>
écri tes</w>
écra ser</w>
écr ou
échafaud age</w>
é pai
è ner
É cole</w>
zu ela</w>
y s</w>
w or
vit ale</w>
vit al</w>
ver sement</w>
ver ront</w>
ve tte</w>
v ar
ut ér
us etts</w>
urb ains</w>
tropi cales</w>
tropi cale</w>
tri angles</w>
trans mettent</w>
tran che</w>
trai tée</w>
tr ons</w>
tr on
tr ente</w>
tr emp
tortu es</w>
tis é</w>
tionn ement</w>
ti on
ti nu
ti m
thi um</w>
tent atives</w>
temp s-là</w>
tambou r</w>
tal en
sé cu
sym b
sur prendre</w>
supéri eures</w>
super marchés</w>
stratég ique</w>
st a</w>
spectac les</w>
sophisti quées</w>
soli taire</w>
sinc èrement</w>
sent ait</w>
sensori elles</w>
scientifi quement</w>
savoi r-
savoir- faire</w>
sav our
sangui ne</w>
s- toi</w>
s pr
s aient</w>
rév è
récep teurs</w>
ré inventer</w>
rup ture</w>
robus te</w>
ro ches</w>
ro cher</w>
retrouv és</w>
retour nons</w>
rempli s</w>
reli é</w>
reg ret
reconnaiss ant</w>
re pris</w>
re dress
re aux</w>
ray onn
rap porte</w>
racont ée</w>
r ock</w>
qu ise</w>
qu in</w>
psych ologue</w>
préoccu pe</w>
précéd entes</w>
prom ets</w>
procu re</w>
pri ère</w>
pouv ant</w>
pour suit</w>
por n
po graphie</w>
plac és</w>
pl uies</w>
pl eut</w>
pil otes</w>
ph ar
pes sim
per dus</w>
pen- source</w>
pel ou
passi onne</w>
pass agers</w>
paraly sie</w>
pa tte</w>
pa quets</w>
pa n</w>
p ing</w>
oi ne</w>
occu pent</w>
occu pation</w>
occa sionn
obsé dé</w>
oblig ation</w>
o pen-source</w>
numér os</w>
nerveu se</w>
n ette</w>
mé fi
musi cales</w>
moutar de</w>
min istres</w>
mi gnon</w>
ment or</w>
ma qu
lé sions</w>
li thium</w>
l exique</w>
joy eux</w>
journ alisme</w>
j oi
it h</w>
it alien</w>
is ion</w>
is h
is ateurs</w>
inég alités</w>
intui tive</w>
interview é</w>
innov ateurs</w>
ingrédi ent</w>
inform er</w>
incl us</w>
in imagin
in age</w>
impli quées</w>
impl ants</w>
immédi ate</w>
immédi at</w>
ill ée</w>
ili ation</w>
il -
igh -tech</w>
i d</w>
habitu el</w>
grands- parents</w>
gr ottes</w>
glob alement</w>
g ers</w>
fémin iste</w>
fus ées</w>
flui des</w>
fl or
fl ag
fer mée</w>
fer ez</w>
faç ade</w>
famili ères</w>
f éli
f ee
exécu tion</w>
expéri menté</w>
excep tions</w>
ex primé</w>
ex cès</w>
eur os</w>
eu s</w>
eu m</w>
ess er</w>
erg ie</w>
er landais</w>
environnement al</w>
entre tenir</w>
enti té</w>
entend ais</w>
enseig nent</w>
engr ais</w>
en de</w>
en co
emboute illages</w>
ell y</w>
e m</w>
développ ées</w>
dépl oyer</w>
dépl oi
dép ôt</w>
défini tivement</w>
déf ens
déco r</w>
dé poser</w>
dé libé
dou é</w>
donn a</w>
di ves</w>
di tes-
dessin ées</w>
dang ers</w>
d res</w>
cé phal
culpa bilité</w>
cu bes</w>
cou ler</w>
conventionn elle</w>
convainc us</w>
contrô les</w>
cont amin
conn aisse</w>
cond ens
concep teur</w>
con te</w>
con su
chron ique</w>
charg ée</w>
ch èvres</w>
certi fi
catho lique</w>
captu ré</w>
candid at</w>
canap é</w>
cad res</w>
ca ïne</w>
ca deaux</w>
c œurs</w>
brouill ard</w>
bri que</w>
bl esse</w>
bil an</w>
bi a</w>
banli eues</w>
b onnement</w>
b al</w>
aï da</w>
av atar</w>
autom atis
audi torium</w>
aud ace</w>
atti r
attein te</w>
assi mil
arriv aient</w>
ar tères</w>
appar ues</w>
ann e
anim é</w>
analy ses</w>
amélior ations</w>
ambiti eux</w>
allong é</w>
all as</w>
alim ente</w>
aider a</w>
ai dés</w>
ai des</w>
affr eux</w>
adap tée</w>
ach è
accro ché</w>
ac tique</w>
ab î
ab ou
a pagos</w>
You tube</w>
X I
Uni versi
T el
T T
Syst ème</w>
Sup posons</w>
Soud ain</w>
Sah ara</w>
S ony</w>
S el
Remar quez</w>
Re agan</w>
R oi</w>
Pow er
Ph il
Pers onn
Par don</w>
P ère</w>
P y
P os
Oc cident
Ob serv
O MS</w>
N 1</w>
Massach usetts</w>
M id
M el
Lin ux</w>
L ang
Ky oto</w>
Ki ri
K elly</w>
Jér usalem</w>
Jui fs</w>
Jer sey</w>
J ill</w>
J ack
Himal aya</w>
Gal apagos</w>
Fran çais</w>
Dévelop pement</w>
D it
D ick</w>
Con trairement</w>
Con tinu
Cam er
C at
C N
Bi en
Be ach</w>
Ar genti
Al ab
A ir</w>
A ge</w>
A IMS</w>
7 6</w>
199 1</w>
- 2</w>
éveill é</w>
éth iques</w>
étend ues</w>
ét ernelle</w>
éra tions</w>
épilep sie</w>
épi cer
émer veillement</w>
élé vation</w>
éco ss
éch o</w>
éc lo
é en</w>
Ég lise</w>
yr int
yl an</w>
y n</w>
week -
w a</w>
vraisembl ablement</w>
volu mes</w>
visit eurs</w>
viol er</w>
vi vions</w>
verti cale</w>
vas culaires</w>
vas culaire</w>
vari antes</w>
utilis able</w>
us ages</w>
téléph oniques</w>
tu me</w>
trou ble</w>
trott oir</w>
tro poli
trist esse</w>
tri cher</w>
transist or</w>
tr illi
tour nés</w>
tour isme</w>
testi cules</w>
tes- le</w>
t onne</w>
t nik</w>
t ect
t antes</w>
t aches</w>
séquoi as</w>
séquoi a</w>
symb ol
sym pas</w>
surpren ante</w>
sup posons</w>
sui vis</w>
sub venti
su cré</w>
struc tur
str e
st éri
st ein</w>
st ades</w>
squelet tique</w>
sour c
soci alement</w>
sexu ellement</w>
servi ettes</w>
sensi bil
secr ète</w>
se ins</w>
sav ez-vous</w>
sau ve
sam edi</w>
sal ée</w>
sai sons</w>
s core</w>
révol utionn
réguli ère</w>
réguli er</w>
réfléch issant</w>
ré plique</w>
ré confort</w>
rub an</w>
ru rale</w>
rou tine</w>
ro ses</w>
reven ez</w>
retrouv ée</w>
retour nés</w>
ressent ais</w>
rentr ée</w>
remplac ement</w>
remon tent</w>
remarqu ablement</w>
rem place</w>
rel ative</w>
regar dions</w>
refl et</w>
reconnaiss ante</w>
reconn aît</w>
recher chons</w>
re pli
re connaissent</w>
rav i</w>
rappel lent</w>
rapi dité</w>
ra tions</w>
ra ces</w>
r ents</w>
r endra</w>
quasi -
pê cher</w>
prési denti
pré li
préli min
prot èg
pronon cé</w>
program més</w>
professionn elles</w>
produi ra</w>
procé dures</w>
pren ais</w>
pour suite</w>
pour rai</w>
pou tnik</w>
possé dait</w>
por cs</w>
poll o</w>
pla ce
pingou in</w>
photograph ies</w>
philosoph es</w>
personn alités</w>
perman ent</w>
pel li
par faites</w>
pan ier</w>
pa c
p ér
oubli erai</w>
os h
org ie</w>
op es</w>
ony me</w>
ons- les</w>
omb res</w>
om at
ol o</w>
ograph iques</w>
not ation</w>
navig ateur</w>
n ôtres</w>
n ob
n es
n ect
nect ar</w>
n age
mé d
mé chants</w>
myth ologie</w>
myth es</w>
mul titude</w>
mu n
motiv és</w>
mons tre</w>
modélis ation</w>
modifi cations</w>
min istère</w>
microbi enne</w>
mi n</w>
men u</w>
men song
maxim ale</w>
massi fs</w>
mar s</w>
m oin
loc alisation</w>
lati ne</w>
lam pes</w>
l ots</w>
l an</w>
k ais</w>
ju gé</w>
jet ez</w>
jal ou
istan ais</w>
issu es</w>
ir onique</w>
ir ais</w>
inven te</w>
intrig ue</w>
inter val
inter nes</w>
intellectu els</w>
inst able</w>
ins ens
inhabitu elle</w>
infl ation</w>
inf lig
imi te</w>
im pose</w>
illi r</w>
ignor ance</w>
idi ots</w>
identifi cation</w>
icô nes</w>
i ème</w>
i i
i Pad</w>
hydr ocar
hybri de</w>
gén érique</w>
genti ment</w>
gag nez</w>
gadg ets</w>
g a</w>
fu g
form ons</w>
fleu ve</w>
fin ie</w>
filtr er</w>
fil ets</w>
fer més</w>
favor iser</w>
fas t</w>
fal aises</w>
fai siez</w>
fabul euse</w>
f ood</w>
f olie</w>
exist antes</w>
exis tant</w>
ex traver
ex pres
ex positions</w>
eu ri
eu h</w>
eu d</w>
estom ac</w>
es tre</w>
er iez-vous</w>
entre tien</w>
en e</w>
en di
el as</w>
e- t-on</w>
dép ist
dép endre</w>
dégra dation</w>
déf end
décou rag
dé missionn
du nes</w>
dom mage</w>
dis sou
dimensionn el</w>
di xième</w>
di vin
dev in
desc endant</w>
d ôme</w>
câ bl
croi x</w>
cro codi
cro chet</w>
crain te</w>
cra ck</w>
cou ss
cor ti
copi ne</w>
conver gence</w>
contrac ter</w>
continu ait</w>
conten ant</w>
consac ré</w>
cons ensus</w>
compl ètes</w>
comp té</w>
comp tabilité</w>
com té</w>
com mis</w>
com ité</w>
colon i
co que</w>
co caïne</w>
cl ar
civ ils</w>
cin é
cha otique</w>
ch or
ch lor
ch ir</w>
centre- ville</w>
cataly seur</w>
capit al-
can on</w>
can adi
cal ottes</w>
cad av
ca sse</w>
c ave</w>
bul le
bru t
brill antes</w>
br ille</w>
boug ie</w>
bi er</w>
bat i</w>
bas ées</w>
bas k
ban c</w>
b la</w>
b av
b amb
aven tures</w>
au ste</w>
attein tes</w>
arrê tée</w>
arrive -t-il</w>
ar ch</w>
apparti ennent</w>
appar us</w>
appar aitre</w>
ap préh
an dis</w>
amélior ent</w>
am pu
alis ant</w>
ag enda</w>
ad é</w>
achet ons</w>
accompag né</w>
abstr action</w>
a fro-
Zip car</w>
Wil son</w>
W oo
W hi
Troi sièmement</w>
Sim on</w>
Sib érie</w>
S poutnik</w>
Re cherche</w>
RI SD</w>
Q atar</w>
Pr ot
Plu sieurs</w>
Pe p
Par kinson</w>
P C
O l
Nik e</w>
New -
Mus eum</w>
Moz art</w>
Mo ï
Mil ieu</w>
Mar y</w>
Mad ame</w>
Le one</w>
L es
L agos</w>
Kiri bati</w>
K er
K atr
Jo el</w>
Isra el</w>
Hig gs</w>
H C</w>
G ui
For t</w>
Fli ck
F oun
Exac tement</w>
E coutez</w>
Der ni
Dar four</w>
D ylan</w>
D ame</w>
D allas</w>
Cr oi
Bien venue</w>
Bab ylon
B ol
B S</w>
B L</w>
At ten
Ar m
Alab ama</w>
Al an</w>
Absol ument</w>
A ur
A pollo</w>
A -
8 3</w>
6 4</w>
5 7</w>
20 15</w>
2. 0</w>
196 8</w>
-M art</w>
û tes</w>
éven tuellement</w>
étag ère</w>
ét hi
ét er
éra n</w>
épouvant able</w>
électromag nétique</w>
écriv ez</w>
é rée</w>
é dois</w>
é cho
è bres</w>
â ges</w>
z ine</w>
w ar
w an</w>
voi sin
visi blement</w>
vi ral</w>
vi able</w>
venti l
ve -
vari abilité</w>
vaccin ation</w>
v este</w>
v es
utér us</w>
u y
u rie</w>
trouv ées</w>
tri -
transist ors</w>
transform ations</w>
trans portent</w>
trans met</w>
tra zine</w>
tis ée</w>
ti quement</w>
ti ge</w>
thé â
terri fiant</w>
tap is
sév ère</w>
séquen çage</w>
sécu ris
sécher esse</w>
sur plus</w>
sur -
sugg èrent</w>
sub jecti
sou cier</w>
sou che</w>
sorti es</w>
sor mais</w>
son ores</w>
soi -
simultan ément</w>
sign aler</w>
serv eur</w>
serv ant</w>
sandw i
s h</w>
s cor
réun issent</w>
répand ue</w>
rép été</w>
régl em
réchauff e</w>
réalis és</w>
ru che</w>
ro chers</w>
ridi cu
rich esses</w>
reven di
reven ant</w>
remplac é</w>
refus er</w>
recyc ler</w>
rec ensement</w>
re fait</w>
re créer</w>
re commande</w>
rattrap er</w>
rai sin</w>
ra sse</w>
r hu
r avis</w>
quin ze</w>
qu e-là</w>
pén urie</w>
pèler ins</w>
pu bs</w>
pré vision</w>
pré mat
pré cau
provin ce</w>
proto cole</w>
propr ement</w>
propag ation</w>
procé dés</w>
process eurs</w>
pr oie</w>
pr in
pour rions-nous</w>
pour cents</w>
pom pes</w>
po t
plu ri
pl ages</w>
pionn iers</w>
pi zz
pi cs</w>
permet tez</w>
pens és</w>
pein tre</w>
partag eant</w>
par venus</w>
par aissent</w>
pan i
p h</w>
p air</w>
oï de</w>
ouver tures</w>
osau re</w>
orches tres</w>
optimis tes</w>
oli que</w>
océan ique</w>
ni trique</w>
mét ast
mé tiers</w>
montr ons</w>
modifi e</w>
missi les</w>
millén aire</w>
mess ag
ment alité</w>
mb ai</w>
mazou tés</w>
matéri els</w>
mas cul
mar ées</w>
mar t</w>
mar quer</w>
mar ines</w>
man teau</w>
man quait</w>
mal heur</w>
légis l
légi ti
lég ale</w>
log arith
lis se</w>
lin ge</w>
lab yrint
justi fier</w>
ju m
jou ais</w>
japon aise</w>
j ure</w>
j o
is t</w>
ir ré
ir ez</w>
inten sifs</w>
int angible</w>
int ac
instantan ée</w>
ins isté</w>
ins ister</w>
inquiét ez</w>
inform é</w>
in égalité</w>
in justice</w>
in hér
in cident</w>
in certain</w>
in capables</w>
impéra tif</w>
impré visible</w>
imprim erie</w>
il it
ig er</w>
i te</w>
hyper bo
h igh-tech</w>
gén èrent</w>
gé ographie</w>
gu ise</w>
gribou illage</w>
gr otte</w>
goû ter</w>
gol fe</w>
gar s-là</w>
gar dent</w>
fusionn er</w>
fré quent</w>
fond ement</w>
foc alisés</w>
flot tant</w>
fl u</w>
fi gu
fi ables</w>
fee d
faç onné</w>
faç onner</w>
facili ter</w>
fa î
f an
exempl aires</w>
exam ine</w>
eux -tu</w>
essenti elles</w>
er ect
erect us</w>
ent eur</w>
eng endre</w>
eng age</w>
embau ché</w>
el d</w>
eg as</w>
développ eurs</w>
développ ements</w>
déplac ements</w>
défici t</w>
décé dé</w>
découv rent</w>
décou per</w>
décou le</w>
débrou iller</w>
dé pour
dé forestation</w>
donn ais</w>
domin ation</w>
do do</w>
diver tiss
diver gence</w>
distinc tes</w>
dis sémin
dirig eons</w>
digit ale</w>
dic tionnaires</w>
dic t
descend us</w>
dent aire</w>
deman dés</w>
dem eure</w>
de x</w>
d ay</w>
cul te</w>
cu b
croiss ant</w>
cro ît</w>
crist all
cour rier</w>
cou de</w>
contag i
condi tionné</w>
conci erge</w>
concer ts</w>
concer nent</w>
concentr ons</w>
con vention</w>
compren ne</w>
composit eur</w>
communi que</w>
commen cions</w>
command é</w>
com pose</w>
com esti
cin g</w>
ci ment</w>
chimpanz é</w>
char te</w>
ch érie</w>
caract ér
car burants</w>
cab ine</w>
ca chées</w>
c ez</w>
c ans</w>
bâ tons</w>
broc oli</w>
boug ez</w>
bonob os</w>
bonob o</w>
bisc uits</w>
bar rage</w>
baiss é</w>
b êtes</w>
aze era</w>
auto- organisation</w>
au ts</w>
au str
atéri aux</w>
atterriss age</w>
attend aient</w>
attach er</w>
at or</w>
asth me</w>
assu rément</w>
associ ées</w>
assembl ée</w>
ass emble</w>
arr en</w>
ard o</w>
ar th
aqu atique</w>
apparten ance</w>
apo gée</w>
anim er</w>
amus antes</w>
alphab éti
all o
alis ent</w>
al ier</w>
aigu illes</w>
ag no
aff lu
adress er</w>
adh érer</w>
adap te</w>
accumul ation</w>
accu eillir</w>
accro ître</w>
accompl issement</w>
acadé mique</w>
ab y
a trazine</w>
Z o
Z ero</w>
Wom en</w>
Wal -Mart</w>
V as
U N
Tra de</w>
T ul
T e
Sur tout</w>
Stew art</w>
Som alie</w>
Sk ype</w>
Sh er
Saou dite</w>
SR AS</w>
S ous</w>
Ru sses</w>
Ro se</w>
R ach
Pé kin</w>
Por tu
Ph ot
Oc tobre</w>
N ai
Mu mbai</w>
Moï se</w>
M ay
M P
Katr ina</w>
Japon ais</w>
J obs</w>
J im
J azeera</w>
In t
I van</w>
Hu man
H it
H an
G h
Foun dation</w>
Flick r</w>
FO X
F il
F DA</w>
E st
E conom
Di tes</w>
Deuxi ème</w>
Com té</w>
Col um
Chr ist
Ch a
Cal tech</w>
C uba</w>
C ass
B lue</w>
Argenti ne</w>
Amaz on</w>
All en</w>
Alexand re</w>
A s
5 9</w>
5 6</w>
4 0
198 5</w>
18 00</w>
10 0
10 .000</w>
1 .000</w>
0 .
- D
év an
étonn é</w>
ét ait-ce</w>
éru ption</w>
équ ateur</w>
ép inière</w>
élec tor
élarg ir</w>
él o
édifi ce</w>
écou le</w>
échou ent</w>
éc lip
é rées</w>
é min
é mettre</w>
z ona</w>
végét aux</w>
végét ation</w>
voy iez</w>
vot es</w>
voitu rette</w>
voisin age</w>
vi en
vi br
vers ez</w>
val ve</w>
val able</w>
vainc re</w>
v ont-ils</w>
v ecteur</w>
v ais-je</w>
urban isation</w>
u che</w>
témoign age</w>
tribu nal</w>
tri pl
tri er</w>
trans plantation</w>
trai tes</w>
tis tes</w>
ten nis</w>
ten du</w>
tab ou</w>
t én
sépar ées</w>
sé ance</w>
syn esthé
sym path
sur vivants</w>
sup posés</w>
suiv ait</w>
sui cid
str ong</w>
stock s</w>
stimul ant</w>
st ars</w>
spectac ulaires</w>
sou vient</w>
sophisti qués</w>
soi- disant</w>
serv eurs</w>
se z-moi</w>
sav ane</w>
s én
s qu
s pe
s pa
s ages</w>
réveill é</w>
réci pro
réalis ateur</w>
ré tr
ré férences</w>
ré agit</w>
ry n</w>
ru iss
ru gu
rou pies</w>
rou g
rob i</w>
représent ants</w>
représent ait</w>
renon cer</w>
reli és</w>
rec ouvert</w>
re z-
re trait</w>
re tenu</w>
re port
report age</w>
re partir</w>
ralenti t</w>
rai ne</w>
ra p</w>
r ois</w>
quotidi ennes</w>
puni tion</w>
pul mon
pu rement</w>
préoccu pations</w>
pré férences</w>
pru dence</w>
projec teur</w>
produis ait</w>
pr être</w>
pour riez-vous</w>
pos ture</w>
port ées</w>
pol é
po p</w>
po n</w>
plon ge</w>
pli s</w>
plaisan terie</w>
pil ot
pig mentation</w>
pieu vre</w>
physi ologie</w>
ph i
persu ader</w>
perni c</w>
percep tions</w>
pay ez</w>
passionn ante</w>
par lement</w>
p i</w>
oy al</w>
or ique</w>
op tiques</w>
ong les</w>
on d</w>
og g
obsé dés</w>
obser vent</w>
oblig ations</w>
o c</w>
nœu ds</w>
numér iser</w>
nour ri</w>
non- violence</w>
noc tur
ni ons</w>
ne gie</w>
navi res</w>
mét alli
mou sse</w>
moti vé</w>
mos quée</w>
mo dul
mira cles</w>
mi ons</w>
mi graines</w>
mesur ons</w>
mensong es</w>
me di
march ais</w>
mar teau</w>
man quent</w>
mal adr
mai l
m ar</w>
m aient</w>
ly cé
log istique</w>
lo w
li tre</w>
li m
lang u
lanc ez</w>
labyrint he</w>
l étales</w>
l aient</w>
k o</w>
jalou sie</w>
j ar
iss er</w>
is ha</w>
investiss ons</w>
intéress ait</w>
intr us</w>
inti mement</w>
intermédi aires</w>
inter agit</w>
inst alle</w>
inspi rée</w>
inqui étant</w>
inond ations</w>
injec ter</w>
infecti euses</w>
indi qué</w>
indi gènes</w>
inci tations</w>
incen dies</w>
in capacité</w>
in at</w>
in -
impressionn ante</w>
im possibles</w>
im poser</w>
im patients</w>
ik i</w>
ignor ent</w>
hab illé</w>
h étér
h ir</w>
h aches</w>
génér aux</w>
gé ologique</w>
gri ffes</w>
gou dr
gobel ets</w>
gn ant</w>
gar des</w>
fréqu emment</w>
flot tent</w>
flexi bles</w>
flam mes</w>
financi èrement</w>
fin i
fi ent</w>
fer tilis
favor ise</w>
fau t-il</w>
fau ne</w>
fascin antes</w>
fai lle</w>
f actu
extra- terrestres</w>
extr action</w>
exter nes</w>
expéri mental</w>
expl ore</w>
exci te</w>
eth nique</w>
es cope</w>
er as</w>
enzy mes</w>
envah ir</w>
entrepren euri
entend us</w>
ent és</w>
enseign ements</w>
enqu ê
enfer mé</w>
en voyons</w>
embr y
embau cher</w>
emball age</w>
em pires</w>
dés équilibre</w>
déli cat
défini tive</w>
déc al
dé press
dé montre</w>
du rent</w>
dou che</w>
dossi ers</w>
donn erai</w>
distribu teur</w>
dispu te</w>
dis pens
dis crimin
dialog uer</w>
dia positives</w>
di vin</w>
di riez</w>
dev rons</w>
dev ons-nous</w>
d son</w>
d en</w>
céré br
cérébr aux</w>
créati onn
cri t</w>
crev et
cra be</w>
coût euse</w>
coû té</w>
coû terait</w>
coïn cidence</w>
couv rent</w>
cou lisses</w>
copi é</w>
coor données</w>
concentr ée</w>
compli cations</w>
compati ssant</w>
compar ons</w>
compar ant</w>
com parti
co c
clar té</w>
civi ques</w>
chron iques</w>
cho qué</w>
cherch aient</w>
chem inées</w>
champi onn
ch u</w>
ch is</w>
ch i</w>
cen sion</w>
ce ton</w>
cat alog
carre au</w>
canc éri
camar ades</w>
cal c
cac ahu
c aver
c arrières</w>
c ann
br ise</w>
br iller</w>
bou ge
batt us</w>
bar il</w>
bar be</w>
banqui ers</w>
ban jo</w>
ban g</w>
ban anes</w>
ban al</w>
bamb ou</w>
b and
aî tres</w>
avi ation</w>
aut op
atten tif</w>
atta che</w>
ath lè
at an</w>
astron omique</w>
associ ations</w>
ass istant</w>
as cension</w>
ar dis
appuy ant</w>
appli quée</w>
appl audi
aper cev
anony me</w>
anci s</w>
amen de</w>
am en</w>
aller -
al s</w>
al pin
ajou tant</w>
ail lé</w>
ail lent</w>
ai dez</w>
ag issons</w>
admi ration</w>
adhé sif</w>
accumu lent</w>
acc ab
abs traite</w>
abord é</w>
abat tre</w>
ab us
ab ad</w>
a par
Y ves</w>
W arren</w>
Vou lez-vous</w>
V egas</w>
Sim plement</w>
S tir
S ad
S T</w>
S D
Re ine</w>
R og
R adi
Q I</w>
Prin ceton</w>
P â
P ol
O tt
O n
Nor malement</w>
Nation ale</w>
Nai robi</w>
Mar ie</w>
Mag az
M oins</w>
M exic
M W</w>
L ui</w>
L o
L ind
L an
L ak
Kath ryn</w>
K a
J eux</w>
J erry</w>
I M</w>
H ir
Fr ancis</w>
F MI</w>
Es t-il</w>
Em pire</w>
Em ma</w>
E mil
E T</w>
Dé sormais</w>
Com mand
Co sta</w>
Chris t</w>
Cass ini</w>
Car negie</w>
CN N</w>
C ro
Bomb ay</w>
B ow
B MW</w>
B A</w>
Au jourd</w>
Associ ation</w>
Arm strong</w>
Ari zona</w>
Amer i
A cu
A V</w>
8 ,
20 30</w>
2 4
évoluti ve</w>
équit able</w>
épicer ie</w>
éoli enne</w>
énig me</w>
élég ant</w>
édu qués</w>
é niques</w>
èg le</w>
è gr
z ero</w>
y land</w>
week end</w>
vé ni
vol ée</w>
vol t
vol cans</w>
vit esses</w>
vi ce-
vari étés</w>
uti li
ui ent</w>
u ant</w>
trouv a</w>
trou viez</w>
trou peaux</w>
trom pé</w>
tro s
trim oine</w>
trai tées</w>
trac é</w>
tr ines</w>
tr ie</w>
tr e-
tou chés</w>
tou chant</w>
tor tue</w>
ti c</w>
ten ue</w>
ten tant</w>
tempor elle</w>
tempor aire</w>
temp êtes</w>
tatou age</w>
tapis ser
talen tueux</w>
t o-
t ailles</w>
sév ères</w>
séri euses</w>
sélec tionner</w>
sédi ments</w>
synap ses</w>
sur f</w>
ste ak</w>
ssi s</w>
souhai tons</w>
souci s</w>
sou tiennent</w>
sou levé</w>
sou ci</w>
sor tait</w>
som me-
somme- non-nulle</w>
sol ée</w>
so viétique</w>
sili cone</w>
sho w</w>
schizoph ré
sav ons-nous</w>
satis faits</w>
san s-
sai si</w>
s t</w>
s ports</w>
s li
s ines</w>
s ap
résou t</w>
rés istant</w>
réfl exions</w>
récol tes</w>
récipi ent</w>
ré nov
ré acteurs</w>
ryth mes</w>
ru di
ru ches</w>
rou le</w>
rig ation</w>
ri ve</w>
restau ration</w>
représent ée</w>
ren om
relâ che</w>
reg rets</w>
recu eilli
reconn ait</w>
re trouvons</w>
re quiert</w>
re prise</w>
re belles</w>
rajou ter</w>
rai ls</w>
ra tionnels</w>
ra fraî
r ô
quelque fois</w>
qu ins</w>
qu erait</w>
pério dique</w>
présent ant</w>
prépar és</w>
précé dents</w>
prot ec
prom ot
program mé</w>
pro venance</w>
pro positions</w>
primor dial</w>
primi tif</w>
pouss ée</w>
poss ession</w>
por tions</w>
por te
plan étaires</w>
piét ons</w>
pige on</w>
pi ce</w>
phénomén al</w>
photo synthèse</w>
peu t-elle</w>
pers ist
per çu</w>
pen di
pelli cule</w>
pay ons</w>
passer ait-il</w>
pass ages</w>
par vient</w>
papill ons</w>
paci fique</w>
origin elle</w>
or ateurs</w>
or ateur</w>
op s</w>
omni présent</w>
omb e</w>
om in
ol ab
offici elle</w>
oc cident</w>
o zone</w>
négoci ation</w>
noy aux</w>
no ble</w>
neur ologiques</w>
nanom ètres</w>
nan otechnologie</w>
n on
n ets</w>
n az
n arrateur</w>
médu ses</w>
musulman e</w>
multination ales</w>
montr és</w>
minim iser</w>
min uit</w>
mil lis
millis e
millise con
marqu eur</w>
marionn ettes</w>
mari é</w>
mang eait</w>
man ette</w>
m ont</w>
légi time</w>
lu dique</w>
lors qu</w>
log ements</w>
lo se</w>
lis ant</w>
lingu istique</w>
limi tées</w>
liber tés</w>
larg eur</w>
lanc ent</w>
la r</w>
la h</w>
l ents</w>
k s
ju véni
journ ées</w>
it ali
iss ants</w>
isra éli
ir rigation</w>
invasi ve</w>
inv asion</w>
intégr alité</w>
inten sément</w>
inst allés</w>
inspi rent</w>
infrarou ge</w>
inform és</w>
incorpor er</w>
in conscient</w>
impressionn é</w>
im planter</w>
im patient</w>
im itation</w>
ili ers</w>
ig ner</w>
idé ologie</w>
i tin
hô tels</w>
géné alog
gu eur</w>
graiss es</w>
gra titude</w>
goû ts</w>
ger mes</w>
gar et</w>
g érons</w>
g ation</w>
g ains</w>
g ain</w>
frapp ant</w>
fran çaise</w>
formu ler</w>
for um</w>
for tune</w>
for age</w>
fonctionn alité</w>
fon ce</w>
faî tes</w>
fac ilit
f u</w>
f s-
extraterres tres</w>
extraterres tre</w>
exist ants</w>
exis tenti
exerci ces</w>
ex près</w>
eu ph
est-ce- pas</w>
espa ce-
espace- temps</w>
envah i</w>
entr ainement</w>
end er</w>
en tion</w>
en sol
en com
empê chent</w>
empil er</w>
em bra
ek s</w>
effac er</w>
ectu eux</w>
e tre</w>
dévoi ler</w>
détaill ée</w>
déf auts</w>
décor ation</w>
déclen cher</w>
déchiff rer</w>
débu tant</w>
dé gu
dé bou
donn eur</w>
docu menter</w>
distin cts</w>
dis on</w>
diffus é</w>
diagram mes</w>
di m
deven ant</w>
dem eur
dat ant</w>
d eur</w>
d ente</w>
célé bra
cyber -
croy ez-le</w>
cro ûte</w>
cro w
cri s</w>
crai e</w>
cour ts</w>
cou le</w>
contro verse</w>
conten ait</w>
contempor aine</w>
considé rés</w>
cons piration</w>
confron tée</w>
conduis ant</w>
con qu
con fér
compati bles</w>
compag non</w>
comp tons</w>
com mission</w>
com bine</w>
cohér ente</w>
co opérer</w>
clô ture</w>
cli chés</w>
cigar ettes</w>
ci eusement</w>
ci bler</w>
chor égraph
chirurgi cale</w>
che tte</w>
chauff age</w>
chan tent</w>
cham eaux</w>
ch ais</w>
centr i
cel ade</w>
ce aux</w>
cas cad
carbon ate</w>
car avan
cam era</w>
calc aire</w>
cal yp
ca pri
c él
c us</w>
c ouverts</w>
br is
boulang erie</w>
boi ssons</w>
bo sses</w>
bo l</w>
biolog iquement</w>
bar ils</w>
ban isha</w>
b rés</w>
b ars</w>
aver tissement</w>
avanc és</w>
avanc ez</w>
av o</w>
av es</w>
atti rent</w>
atten tifs</w>
attach és</w>
attach ée</w>
atro ce</w>
ati n</w>
athlè tes</w>
ath ées</w>
ass er
as y
arrang er</w>
ar der</w>
ar c
appréci ent</w>
applaudi r</w>
app éti
ap port</w>
annu el</w>
anim ations</w>
ang ulaire</w>
an om
an iste</w>
an ique</w>
an des</w>
amen ée</w>
ambass ad
am bu
altru isme</w>
alphabéti sation</w>
allo cu
aliment ée</w>
ak er</w>
aim ants</w>
ag rég
affir mation</w>
affec tés</w>
adéqu at</w>
ador ais</w>
ador able</w>
acqu isition</w>
ach ar
accroiss ement</w>
accou pler</w>
accor de</w>
accep tation</w>
acc élé
absor ber</w>
abor de</w>
abandonn és</w>
Z éro</w>
Vén us</w>
VI H-
V illage</w>
V ic
U tilis
U sh
Tr ans
Th aï
T y
T oy
T echnolog
T ai
Sy rie</w>
Sus an</w>
Stir ling</w>
Sid a</w>
Sep tembre</w>
Sch war
S pi
Rom o</w>
R O
R G</w>
Pâ ques</w>
Portu gal</w>
Phili p</w>
Pan banisha</w>
P érou</w>
Ou bli
Ni cole</w>
Ni chol
McDonal d</w>
Mar garet</w>
Mal dives</w>
Magaz ine</w>
M illi
M ari
M O</w>
M A
Lin ke
L itt
Ke pler</w>
Ke ith</w>
K in
K han</w>
Juli a</w>
J a
J C</w>
I le</w>
I .
Hu b
Haw king</w>
H uit</w>
H ad
H I
Grou nd</w>
G recs</w>
F i</w>
Ex cel
Es p
En celade</w>
Emil y</w>
Ed w
E van</w>
E ff
E du
E E
Dr oits</w>
DAR PA</w>
D or
Co pernic</w>
Ch i
Cer tes</w>
Centr ale</w>
Centr al</w>
Cap it
C la
C P</w>
Bul gar
Bu d
Boudd h
Bon d</w>
Babylon e</w>
B as
Ass ez</w>
Ap par
Alexand er</w>
Acu men</w>
A voir</w>
A sh
A gence</w>
A ct</w>
3 .
198 6</w>
198 4</w>
19 75</w>
- moi</w>
œu v
étrang ement</w>
étonn ants</w>
étern ellement</w>
ér os
équip és</w>
épai sse</w>
émo tionnellement</w>
élég ante</w>
élè vent</w>
éloign ées</w>
él astique</w>
édi ction</w>
éclai r
éch appe</w>
écar ter</w>
é tri
y og
y me</w>
y an</w>
w est</w>
voudr ont</w>
volon tiers</w>
vol ts</w>
voc ation</w>
vo cale</w>
viv ement</w>
visi tes</w>
viol ences</w>
viol ation</w>
vi rage</w>
vi etn
verti s</w>
verti calement</w>
vers ant</w>
ver bes</w>
vend ait</w>
vel t</w>
ve il</w>
val i
v apor
v aient</w>
uni r</w>
u ms</w>
téléph on
té moins</w>
tu euse</w>
transcend ance</w>
trans porté</w>
trans porte</w>
trans mise</w>
tou tefois</w>
tou chez</w>
tor n
ti mi
the id</w>
tes tés</w>
techni cien</w>
tax es</w>
t z</w>
t ons-nous</w>
t airement</w>
t ain</w>
systé matique</w>
synthé tis
suiv aient</w>
suffis ance</w>
succ essi
sub tile</w>
stabil iser</w>
st ag
ss ement</w>
sph érique</w>
sous-mar ine</w>
sour cing</w>
soul agement</w>
souhai ts</w>
souhai terais</w>
souci ent</w>
sou str
sor tons</w>
sol o</w>
soi x
soi f</w>
so ja</w>
sim pl
signifi ent</w>
si vité</w>
si ves</w>
si t
ses sions</w>
ser ingues</w>
ser ais-je</w>
se velt</w>
sci en
scien ce-
scep tique</w>
sc ur</w>
sc ot
sau ve</w>
sab b
s oc
s ms</w>
réus sites</w>
réus sie</w>
réuni es</w>
répon daient</w>
répli cateur</w>
répar ation</w>
régu ler</w>
rég lé</w>
réfléch issent</w>
rédui ts</w>
récup ération</w>
réc ents</w>
réalis tes</w>
ré publi
ré percu
ré parti</w>
ré duc
ré clam
ré acteur</w>
roy al</w>
ri te</w>
ri deau</w>
requ is</w>
représent atif</w>
renseign ements</w>
rencontr ée</w>
rempli t</w>
regar dée</w>
recru ter</w>
re produit</w>
re pos</w>
re connaissons</w>
re connaissez</w>
rati o</w>
rang ée</w>
ran e</w>
ramass é</w>
racont ait</w>
raccour ci</w>
quali fié</w>
qu ais</w>
pé tri
publicit aire</w>
publi és</w>
publi ées</w>
pu n
pu berté</w>
précau tion</w>
pré vue</w>
pré pare</w>
pré levé</w>
pré jugés</w>
pré al
protèg ent</w>
pros p
proli f
progr esse</w>
produc tions</w>
pro fs</w>
pri ères</w>
prai rie</w>
pour suivi</w>
pour -
pom pier</w>
poli cier</w>
po ètes</w>
pneu monie</w>
pli n</w>
plai sant</w>
pi quer</w>
photo volt
peti t-
pertin ente</w>
pass e-
pass e
paraly sés</w>
par viennent</w>
par venu</w>
par tait</w>
pa t
p ôles</w>
p s
p o</w>
p istes</w>
p aille</w>
ou er</w>
ot on
os c
ori enté</w>
ori enter</w>
org es</w>
ord on</w>
optimis er</w>
oo sevelt</w>
on der</w>
om ètre</w>
off res</w>
oc t
obsol ète</w>
ob scur</w>
ob li
o pa
nu isi
nov embre</w>
nomb rables</w>
neuro science</w>
nan o-
n ers</w>
n app
mystéri euse</w>
moy ennes</w>
moustiqu aire</w>
montr erai</w>
mon tez</w>
mon tait</w>
mon opo
mobil iser</w>
messag erie</w>
men te</w>
mas ques</w>
mari és</w>
mari ju
mariju ana</w>
marcher ait</w>
mar re</w>
mal heureuse</w>
maj or
magné tiques</w>
magnifi quement</w>
machin erie</w>
légis lation</w>
lumin euse</w>
lot erie</w>
lis ais</w>
lev és</w>
lar ves</w>
lanc és</w>
laiss és</w>
lac s</w>
la me</w>
l également</w>
l and
k it</w>
ju ges</w>
jet ée</w>
j i</w>
isol ement</w>
invi tée</w>
intrins èque</w>
interrog er</w>
inter ven
inter n
int ègr
int ol
infec ter</w>
inf éri
in verser</w>
in nombrables</w>
in efficace</w>
in cul
immu n
im pos
im mobile</w>
i z
i um</w>
i f</w>
i ci
humi des</w>
hou tan</w>
honn êtes</w>
hom in
ho ven</w>
histor ien</w>
handicap és</w>
habit ats</w>
h h
h en</w>
h ar</w>
gê ne</w>
géné rée</w>
gre c</w>
grat te-
gou ttes</w>
gou ffre</w>
glu cides</w>
gen s-là</w>
gel ée</w>
ge eks</w>
gal actique</w>
g y
g ants</w>
froi des</w>
for cés</w>
fin issez</w>
feed back</w>
faut euils</w>
fai blesse</w>
f uir</w>
f ray
f issu
expéri mentale</w>
expédi tions</w>
explo sions</w>
expli quant</w>
exempl aire</w>
exci tée</w>
eur s-
et hoven</w>
esti ne</w>
ert o</w>
envis ag
entrep ôt</w>
enreg istre</w>
en racin
en levez</w>
embry onn
eff ecti
détr esse</w>
détermin ée</w>
déploi ement</w>
déplac és</w>
dégra d
défini tions</w>
déf avor
décri vent</w>
décoll é</w>
décid a</w>
déchi ré</w>
dé passent</w>
droi tes</w>
dra peaux</w>
dr ont</w>
donn eurs</w>
distin gu
discu tons</w>
dis sant</w>
dis poser</w>
dipl ômes</w>
dim bourg</w>
dic tat
diagnosti quer</w>
diagno stique</w>
devrai s-je</w>
deven aient</w>
dev ise</w>
descend ants</w>
dans ent</w>
d ing</w>
célibat aires</w>
célibat aire</w>
crédi ble</w>
cré ait</w>
criti quer</w>
cra tère</w>
cr ou
cr eux</w>
cr av
cr ains</w>
coût euses</w>
cour t-
coul oirs</w>
correspon dre</w>
copi ques</w>
continu um</w>
continu ez</w>
consult ation</w>
consul ter</w>
cons écu
conduis ez</w>
concentr ez</w>
con grès</w>
con fin
con cert
compren ais</w>
compos antes</w>
compl ét
command er</w>
com press
com poser</w>
com mo
com mettre</w>
collec tionn
coch lé
co eurs</w>
cl airs</w>
circul ent</w>
cir culaire</w>
cigar ette</w>
chim istes</w>
chi ez</w>
chanti er</w>
chang era</w>
certifi cat</w>
cer tes</w>
cer f-
cauchem ar</w>
cathédra le</w>
cart ographie</w>
cap su
camar ade</w>
c uire</w>
c eur</w>
bénéfici ent</w>
bâ ti</w>
bur g</w>
bour ge
bou m</w>
bou cli
bou cles</w>
bon jour</w>
bizar rement</w>
bi s</w>
berg er</w>
bal ancer</w>
bagu ette</w>
aéron au
aéro ports</w>
ay er</w>
avant- garde</w>
auto- assemblage</w>
auto bi
augmen tant</w>
audi ble</w>
au ne</w>
at oirement</w>
astr olab
as cend
arriver ons</w>
arr og
appell erais</w>
api ens</w>
aper cevoir</w>
ant i</w>
ani c</w>
ami flu</w>
ambi ante</w>
am ènent</w>
am ies</w>
alli ance</w>
all ons-y</w>
alim enté</w>
alg èbre</w>
aimer aient</w>
aider ait</w>
ag raph
aff ection</w>
adéqua te</w>
activ ation</w>
accu sé</w>
accro che</w>
accou plement</w>
accor der</w>
absor be</w>
a tri
a p</w>
Y R</w>
XI X
W in
Ush ahi
Universi ty</w>
U r
Tro p</w>
Thaï lande</w>
T enn
T andis</w>
T amiflu</w>
T S</w>
Sén at</w>
Su d
Sain t-
S ook</w>
S ec
S am</w>
Ré publique</w>
Res e
R oosevelt</w>
R .S.</w>
Pu is-je</w>
Pour riez-vous</w>
Personn ellement</w>
Pep si</w>
Pa tri
P ot
P eux-tu</w>
P H</w>
Olym piques</w>
No w</w>
New- York</w>
Nat ur
N ord-
N athan</w>
N a
Mat t</w>
Man i
Mah at
M ul
M oun
M ou
Law rence</w>
L éon
Jour nal</w>
Jack son</w>
J oy
J our</w>
J eu
In tel</w>
In d
Hy un</w>
Hu dson</w>
H ind
Gal ois</w>
Gal ilée</w>
G ordon</w>
Fri ed
F u
Ex cu
D imi
D ig
D J</w>
Colum bia</w>
Cl airement</w>
Chris ti
C M
C IA</w>
Brun o</w>
Bon o</w>
Be ethoven</w>
Bar ack</w>
B rig
B houtan</w>
B arry</w>
B I</w>
Améri caine</w>
Ameri can</w>
9 2</w>
7 3</w>
5 3</w>
4 1</w>
3 ,5</w>
198 9</w>
198 2</w>
19 30</w>
1, 3</w>
1 10</w>
. A</w>
î tres</w>
évoluti f</w>
éthi opi
ér ence</w>
én on
émerg ents</w>
éduc atifs</w>
écra sé</w>
éb au
é mis</w>
é mettent</w>
è dre</w>
véri fié</w>
voudr a</w>
volon tairement</w>
vol ati
viol entes</w>
vill age
vi elle</w>
ver sa</w>
ve té</w>
vari ées</w>
urban isme</w>
télé commande</w>
ty pographie</w>
tu eur</w>
traumati sme</w>
transpar ente</w>
trans fé
tranqu illement</w>
tr istes</w>
tr ent
trent aine</w>
tox i
toi -même</w>
to stér
tostér one</w>
to fu</w>
tig re</w>
ti cité</w>
th a</w>
tes tostérone</w>
tes te</w>
ten tation</w>
tel lig
sér oton
séquen cé</w>
sélec tionné</w>
synesthé sie</w>
syn onyme</w>
suspend ue</w>
suspen du</w>
sur vit</w>
sup primé</w>
sui tes</w>
suc res</w>
su pers
su ey</w>
stric tement</w>
stig mati
spé cul
spon sor
spiritu alité</w>
son t-elles</w>
som mets</w>
soli tude</w>
solenn el</w>
soci o-
situ és</w>
sinc ère</w>
si enne</w>
ser s</w>
sensori el</w>
sem ences</w>
scol ar
science- fiction</w>
schizophré nie</w>
scep tiques</w>
sav on</w>
sau mon</w>
sat u
san itaire</w>
sal ut</w>
sabb atique</w>
s- le</w>
s pores</w>
s co
s can</w>
s auc
s aines</w>
s ables</w>
rétro action</w>
résist ants</w>
réglem entation</w>
réconc iliation</w>
réalis ez</w>
ré gr
rou l
ron yme</w>
rhu me</w>
renvoy er</w>
rentr és</w>
rencontr ées</w>
rejoi gnent</w>
recul é</w>
rect angle</w>
re por
re ins</w>
re dou
re commence</w>
ram me</w>
rai e</w>
r o</w>
r ante</w>
quotidi ens</w>
quanti t
qu a</w>
puni r</w>
pul v
pu r
psychi atr
prét end</w>
préoccu pé</w>
prémat u
préci pit
préc iser</w>
prouv e</w>
prot ons</w>
propor tions</w>
promet tre</w>
proj ette</w>
produis aient</w>
prob ation</w>
pr é</w>
pr endrais</w>
pp ines</w>
pourr i</w>
pou les</w>
potenti els</w>
por teur</w>
pon ctu
poly mère</w>
politi cien</w>
plu me</w>
pleur é</w>
plan tations</w>
plac ée</w>
pla qué</w>
pizz a</w>
pi ég
phar ma
ph ones</w>
ph on
ph ie</w>
pers év
pend ent</w>
pen ché</w>
pathog ène</w>
pass ais</w>
parfu m</w>
par eilles</w>
par eille</w>
or ch
or ages</w>
opéra teurs</w>
op er</w>
ons- en</w>
onn ent</w>
on cles</w>
oi ses</w>
og ènes</w>
observ ateur</w>
obs essionn
o ch
nœu d</w>
nouv eau
noci vité</w>
ni r</w>
net tement</w>
nan o
n ui
n euses</w>
métho d
my stique</w>
mou d</w>
mot or
mons tres</w>
mon tés</w>
moi ne</w>
modi fication</w>
mo quer</w>
mo che</w>
missi le</w>
milli mètres</w>
micros copique</w>
mi- chemin</w>
mi le</w>
mi ers</w>
met tiez</w>
men ées</w>
matéri elles</w>
mat ern
massi vement</w>
mar t
mar is</w>
mang eaient</w>
main -
mai tr
m exic
m ale</w>
lour des</w>
logarith mique</w>
loc aliser</w>
li r</w>
lar ité</w>
lap s</w>
lang ages</w>
l os</w>
l eur
l auré
l aire</w>
k id
k en</w>
jur y</w>
joli es</w>
j on
isol ation</w>
is aient</w>
invent eurs</w>
intro vertis</w>
interven ants</w>
interval le</w>
interrom pu</w>
inter férence</w>
inter ess
inter dépendance</w>
intac t</w>
int end
instru ction</w>
instin cti
innov ants</w>
innoc ent</w>
ingéni osité</w>
indi cateur</w>
inconvéni ents</w>
inau guration</w>
in és</w>
in vit
in connues</w>
in cidence</w>
in aires</w>
in acceptable</w>
improvis er</w>
impl ant</w>
im passe</w>
ign eur</w>
idé aux</w>
i j
hé mo
hydrocar bu
hy dra
hu îtres</w>
hu mor
hist ori
hack er</w>
géni ales</w>
grim pe</w>
gratui tes</w>
grandis sante</w>
gran di
gonf ler</w>
gn ez</w>
glac ée</w>
gagn ants</w>
g or
fémin isme</w>
furi eux</w>
fu mer</w>
frustr és</w>
fran c</w>
frag iles</w>
fourniss eur</w>
formu les</w>
for cée</w>
fond ateurs</w>
fon der</w>
foi s-ci</w>
flot ter</w>
fin is</w>
fin ances</w>
fid èle</w>
fam eux</w>
failli te</w>
fac ilité</w>
f re</w>
f rai
f esses</w>
extin ctions</w>
explor ateurs</w>
expli cite</w>
exig ences</w>
ex -
europé ennes</w>
et y</w>
et own</w>
ess ee</w>
es ter
envoy ées</w>
entou rés</w>
entend ait</w>
enseign ons</w>
enregistr ée</w>
enqu êtes</w>
ennuy euse</w>
enn eté</w>
end ur
encourag eant</w>
en cadr
emprun té</w>
em par
em mén
em an</w>
el phie</w>
effondr é</w>
ec t</w>
e zuela</w>
e able</w>
détermin ent</w>
détec te</w>
démo graphie</w>
défen ses</w>
déb ord
dé ç
dé posé</w>
dé nomin
dou ze</w>
dom iné</w>
divis ent</w>
distin gue</w>
différ enti
diffus ée</w>
di ques</w>
dev ront</w>
der a</w>
deman dez-vous</w>
d une</w>
d rag
d og
cô té
curi eusement</w>
cueill eurs</w>
cu mul
cré es</w>
cré dits</w>
cra yons</w>
cr ot
coû tait</w>
cou sin</w>
cont am
construc teurs</w>
construc teur</w>
confér en
confor tables</w>
confir mer</w>
concur rents</w>
concr et</w>
con gé</w>
comportement al</w>
compl ément
compar aisons</w>
comp teur</w>
commencer a</w>
combatt ants</w>
com prise</w>
com posi
com a</w>
collis ions</w>
cockt ail</w>
co l</w>
cli que</w>
cl and
ci on</w>
choi sie</w>
cho quant</w>
cho p</w>
cherch ais</w>
ch réti
centri fug
cens ée</w>
cau sée</w>
catastroph ique</w>
cardi ologie</w>
car otte</w>
car net</w>
bu ck
bron ze</w>
brill ent</w>
br us
bour ses</w>
bou siers</w>
bou sier</w>
bon bons</w>
bo om</w>
bio tique</w>
bi p
ban quise</w>
avanc ent</w>
av ait-il</w>
autor isation</w>
att el
athl ète</w>
atel iers</w>
at t</w>
associ e</w>
assembl é</w>
aspi ration</w>
artisan at</w>
ar mement</w>
appréci ez</w>
approxim ativement</w>
approch ant</w>
appren ait</w>
appr ends</w>
apar theid</w>
anti qu
anthropolog ie</w>
ani um</w>
an tiques</w>
amour euse</w>
ambi gu
ambi e</w>
allon ger</w>
al itaires</w>
al i</w>
ak s</w>
aimer iez</w>
ai sie</w>
ad elphie</w>
access oire</w>
ac tionnaires</w>
ac ronyme</w>
aband onne</w>
ab ris</w>
Yor ker</w>
W it
Vas -y</w>
V enter</w>
V a</w>
Ushahi di</w>
UC LA</w>
Tou tefois</w>
Tenn essee</w>
TED Tal
T yr
T our
T A
St ate</w>
Serg io</w>
Se igneur</w>
SD F</w>
S ri</w>
S il
Réfléch issez</w>
Rog er</w>
Ro b</w>
Rese arch</w>
Res te</w>
Rach el</w>
R ot
Phil adelphie</w>
Par ti
P at
O oh</w>
O li
O ffi
O &apos;</w>
Né pal</w>
N ick</w>
N i</w>
N av
Mé de
Mur ray</w>
Mol as</w>
Mani fes
Mah moud</w>
Ma x</w>
M iller</w>
M er</w>
Léon ard</w>
Lu mi
Lib éria</w>
Lib an</w>
Le on
L is
L atine</w>
L as</w>
L ar
L am
Juli an</w>
Jim my</w>
In tellig
Imagin ons</w>
He al
H ill
Gé orgie</w>
Gr èce</w>
Fond ament
FOX O</w>
F aucon</w>
Eu h</w>
Ess enti
E d</w>
E B</w>
Di ff
Der rière</w>
D s</w>
D ave</w>
D T</w>
D P</w>
Co ch
Celle -là</w>
C our</w>
C le
Br oth
Ber tie</w>
Ben ki</w>
B oy
B or
B ag
Atten tion</w>
Arrê tez</w>
Arch ie</w>
Am anda</w>
Al b
A im
A M</w>
9 9
8 7</w>
8 6</w>
7 8</w>
7 7</w>
6 2</w>
4 ème</w>
199 3</w>
197 3</w>
1 25</w>
ô te</w>
évi te</w>
éro tique</w>
éri eusement</w>
éra teurs</w>
épuis é</w>
épin eux</w>
épi ph
ép ines</w>
éni al</w>
él us</w>
éclai rer</w>
éc ologistes</w>
èn ement</w>
è tr
è lement</w>
É cri
zo o</w>
y a
w ood</w>
w ini
vrai semblable</w>
voy age
voul ant</w>
volcan ique</w>
viol ée</w>
village ois</w>
vie illir</w>
veu ille</w>
ver ait</w>
var ie</w>
vaccin er</w>
v on</w>
v elle</w>
utilis ais</w>
us h
ur anium</w>
ultravi olet</w>
u ent</w>
u el</w>
trib utions</w>
travers ant</w>
tran se</w>
trai tait</w>
tr y</w>
tour nez</w>
tour istes</w>
tou chées</w>
toi les</w>
tionn ées</w>
tig res</w>
ti rant</w>
ti ck
thé ière</w>
terri fiés</w>
ter ran
tatou ages</w>
tap é</w>
t-s hirt</w>
t are</w>
sû res</w>
séroton ine</w>
sur vient</w>
sur f
superfici e</w>
sui vie</w>
subst anti
stéri le</w>
stop per</w>
stati onnement</w>
stand ardis
st ables</w>
spéci alisation</w>
spati aux</w>
souff rait</w>
sol li
simpli fier</w>
signifi er</w>
si t</w>
si a</w>
sh all</w>
senti er</w>
senti e</w>
sensori elle</w>
scann ers</w>
s éro
s elle</w>
s aurez</w>
s angl
rétro spec
résist antes</w>
rési dence</w>
répét ée</w>
régi on
réfléch is</w>
réfl exe</w>
récu père</w>
réalis ateurs</w>
réag issons</w>
ré tien</w>
ré f
ru ines</w>
riv age</w>
ri ne</w>
reven ait</w>
retour nent</w>
respira toires</w>
respec te</w>
res tons</w>
rentr ez</w>
rencontr ons</w>
ren de</w>
remi x</w>
relâ cher</w>
rel ax
rel ais</w>
rej oin
rej eté</w>
rej eter</w>
reg istre</w>
red ond
recu ler</w>
recor ds</w>
recev ons</w>
re plier</w>
rad ar</w>
racon tant</w>
rac isme</w>
pé dia
pulmon aire</w>
publicit aires</w>
publi quement</w>
prê té</w>
prét endre</w>
préoccu pent</w>
préfér ez</w>
pros père</w>
projec tions</w>
progress é</w>
problé matiques</w>
pro posent</w>
prati qué</w>
pp i</w>
pou ls</w>
post- conflit</w>
pos ais</w>
porte feuille</w>
por tion</w>
poin ter</w>
poi v
plong eurs</w>
plan tée</w>
plai sirs</w>
plac ez</w>
pionn ier</w>
pin ceau</w>
pil oter</w>
phénomén ale</w>
perç us</w>
perç oivent</w>
per les</w>
pel uche</w>
path ologies</w>
path ologie</w>
pass a</w>
parti sans</w>
partag ées</w>
parab ole</w>
par aitre</w>
par agraph
pan cré
pancré as</w>
oth èque</w>
ot u
osh ima</w>
os h</w>
organis ent</w>
or donn
opéra tionnel</w>
op éré</w>
op per</w>
onn ées</w>
onn et</w>
on t-elles</w>
olym piques</w>
ollyw oo
oli ve</w>
ock hol
ockhol m</w>
occu r
occu pée</w>
occident ales</w>
obs cu
ob èses</w>
ob èse</w>
ob tiens</w>
o dor
not é</w>
neur on
nav ette</w>
n ue</w>
n aît</w>
n au
métri ques</w>
mémor iser</w>
mémor i
méfi ance</w>
médi ter</w>
mé ni
mus culaires</w>
multi plier</w>
montr ées</w>
montr ée</w>
montr ez</w>
modifi ée</w>
min g</w>
min eurs</w>
mi gnons</w>
meur tre</w>
meu te</w>
menac ées</w>
me er</w>
me dia</w>
mat ures</w>
marchan dise</w>
m ér
m ous</w>
m aîtres</w>
m anne
lâ che</w>
lou er</w>
long -
loc ation</w>
litt éraire</w>
lig née</w>
librai rie</w>
li èrement</w>
li vrai
le z-y</w>
lati n</w>
lab os</w>
la ïque</w>
l enteur</w>
ki os
jui ve</w>
jug ements</w>
jec t</w>
jar din
jam bon</w>
j arg
it é
isol ée</w>
is si
is ie</w>
ionn eur</w>
intui tions</w>
inter vient</w>
instin cts</w>
inqui études</w>
initi atives</w>
inimagin able</w>
ing o</w>
industri elles</w>
indi cateurs</w>
incré du
imagin ant</w>
im puissant</w>
illet tr
ignor é</w>
ig h</w>
ig an</w>
idé s</w>
i f
i con
i ble</w>
hyper tension</w>
hybri des</w>
hab iller</w>
h r
h ou</w>
h ot
h ind
géométr ique</w>
gâ chis</w>
gu ér
gra ffi
gr ois</w>
gouvernement aux</w>
gam ma</w>
g rec
g olie</w>
froi ds</w>
fri ction</w>
fourn issant</w>
fou lée</w>
fou iller</w>
fon dent</w>
fluctu ations</w>
fl ot</w>
financ és</w>
fin an
ff er</w>
fer tile</w>
fer iez-vous</w>
favor ables</w>
favor able</w>
fa x</w>
f uites</w>
f ill
extrémis me</w>
ex cé
eux -même</w>
eu f</w>
esp éré</w>
escal iers</w>
err on
erg es</w>
er al</w>
er -
enzy me</w>
entr ait</w>
entr aient</w>
ent ag
ensol eill
enn ement</w>
engag ent</w>
en voler</w>
embar qué</w>
effray antes</w>
effray ante</w>
eff ace</w>
e- mail</w>
détéri or
désespé rée</w>
déprim és</w>
dépress eurs</w>
dépend ait</w>
démo graphiques</w>
délibé rément</w>
dél ai</w>
dégra de</w>
défens eurs</w>
déclar er</w>
décid ez</w>
déb att
dé lég
dé faite</w>
drog ués</w>
dou tes</w>
dot és</w>
dom iner</w>
dimensionn elle</w>
diffu se</w>
di zaine</w>
dez- moi</w>
deux -
des quelles</w>
d af
céra le</w>
cy matique</w>
cy c
cul teur</w>
cuisin ier</w>
cri ptions</w>
cr oc
courri el</w>
cour b
coupa bles</w>
cou teaux</w>
cou pée</w>
cou pes</w>
cor ne</w>
cor n</w>
coor donner</w>
conver ti</w>
contrô l
contrain te</w>
consom mé</w>
consom mons</w>
conser vé</w>
concr ètement</w>
concep tu
con tes</w>
con fusion</w>
con fu
compren iez</w>
compren aient</w>
complét ement</w>
compati ble</w>
com ète</w>
com put
color és</w>
color é</w>
collecti vités</w>
col oss
co se</w>
co ali
clu bs</w>
cli n</w>
class er</w>
cl ari
cin tres</w>
ci tement</w>
ci re</w>
ches ter</w>
chang erait</w>
centr é</w>
cen sure</w>
celles -là</w>
cel à</w>
cau s
cass ettes</w>
cap e</w>
cal mer</w>
caill oux</w>
caf ét
c aisse</w>
bu g</w>
brû lent</w>
bran ché</w>
boulang er</w>
bat ailles</w>
bass ins</w>
ball et</w>
bal ader</w>
ba o</w>
b oy
b erry</w>
b en</w>
b ec
b ancs</w>
b aign
aï ques</w>
aîtr ont</w>
autor itaire</w>
audaci eux</w>
au tiste</w>
atti rés</w>
atten tats</w>
ationn elles</w>
at ures</w>
assu mer</w>
asi s</w>
asi atique</w>
ar tère</w>
ar ctique</w>
ar c-
appréci ation</w>
apo calyp
api culteurs</w>
ap prenant</w>
ap portons</w>
ap pe
ap ai
anz i</w>
anti angiog
and er</w>
an ine</w>
an ier</w>
amén agement</w>
amen ant</w>
ambig ü
am èn
am use</w>
am er</w>
alpin istes</w>
alis ez</w>
alim ent</w>
ajou tée</w>
aimer ai</w>
ai es</w>
ah ah
agno stique</w>
agn eau</w>
agi t-il</w>
ag as
af g
adap tées</w>
activis te</w>
accompag ne</w>
absorb ent</w>
abord ables</w>
abond ante</w>
a tout</w>
Y u
World chang
Willi ams</w>
W is
W ho
Virg in</w>
Ver meer</w>
Ven ezuela</w>
V erte</w>
V ers</w>
Tr an
Tit anic</w>
T é
T im
T exte</w>
T en
T ed</w>
Super man</w>
Sud hir</w>
St ockholm</w>
Sci ences</w>
Sad dam</w>
S érieusement</w>
S un</w>
S un
S pace</w>
S A
Re ed</w>
Re d</w>
Re d
R ègle</w>
R em
R am
Pour rions-nous</w>
Phili ppines</w>
Peu t</w>
Pau lo</w>
P rés
P le
P entag
P L</w>
New s</w>
N ollywood</w>
N oir</w>
N M</w>
Miss issi
Mas low</w>
Mar shall</w>
Mahat ma</w>
Linke d</w>
Lang ley</w>
L évi
L ab
K al
K -
J ord
J amie</w>
I DE
IDE O</w>
Hub ble</w>
Hit ler</w>
Hir oshima</w>
H oloc
H arri
Gi u
Gar çon</w>
Gar dez</w>
G énial</w>
G race</w>
G o</w>
Fondament alement</w>
Fo x</w>
F ais</w>
F BI</w>
Ex pl
E tes-vous</w>
E .</w>
Do ha</w>
Dimi tri</w>
De ep</w>
D aw
D DT</w>
Considé rez</w>
Com p
Celui -là</w>
C y
C uri
Bru ce</w>
Bat man</w>
B our
B eck</w>
Au triche</w>
Arch itec
Ar ts</w>
Appar emment</w>
An th
Al- Q
Afri caine</w>
A z
A fin</w>
9 3</w>
8 9</w>
7 4</w>
6 8</w>
5 4</w>
197 6</w>
19 49</w>
1, 2</w>
évo qué</w>
évan ou
év apor
étudi ais</w>
éter nité</w>
établi e</w>
étab lit</w>
ét ang</w>
éro sion</w>
équival ente</w>
épon ge</w>
épidémi es</w>
épanou issement</w>
ég lis
églis es</w>
écou tons</w>
écou tais</w>
écou lement</w>
échapp é</w>
é jec
é ens</w>
é changent</w>
É coute</w>
x ta
week- end</w>
we en
vétér ans</w>
voul ons-nous</w>
vol can</w>
vis c
vis ant</w>
vir ul
vir ent</w>
vir aux</w>
vi ème</w>
vi cieux</w>
verté bra
vers és</w>
ver a</w>
ventil ateur</w>
v ins</w>
v eur</w>
v ada</w>
uri té</w>
urg ent</w>
uni on</w>
u ons</w>
téléph onie</w>
tur bul
tu eurs</w>
tu aire</w>
trou pe</w>
tro piques</w>
tripl é</w>
triomph e</w>
tri cherie</w>
tre ya</w>
transform és</w>
trans portée</w>
traduc trice</w>
tr oit</w>
tourn age</w>
tis h</w>
ti tan
ti cket</w>
thé ori
thé on</w>
tal ons</w>
t oir</w>
t aill
t ache</w>
sépar ément</w>
sén ateur</w>
sym pathie</w>
surg it</w>
super no
superno va</w>
sup position</w>
sup poser</w>
sud- ouest</w>
su res
su el</w>
sty rène</w>
stimu le</w>
statisti quement</w>
ss ez</w>
spéci alisés</w>
souten ue</w>
sous-jac ente</w>
sous- vêtements</w>
sourc ils</w>
soupç onne</w>
souff ler</w>
souci e</w>
sor tais</w>
sond ages</w>
soli d
signifi erait</w>
ser pent</w>
sai sonn
sai sit</w>
sai sie</w>
s tru
s ob
s o</w>
s cin
s ari</w>
s apiens</w>
révè lent</w>
résul te</w>
réser vé</w>
répand ent</w>
réfrig ération</w>
réfléch issiez</w>
réalis ées</w>
réalis able</w>
ré partis</w>
ré confor
ruiss eau</w>
ru ée</w>
rou tière</w>
rou lé</w>
rom ans</w>
rob inet</w>
ris quent</w>
rig ide</w>
ri que</w>
ri des</w>
respira toire</w>
rend ues</w>
rend aient</w>
ren aissance</w>
remet tent</w>
rem pla
rem or
rejet ée</w>
reg on</w>
refl ètent</w>
rec ouv
re père</w>
re in</w>
re d</w>
re constituer</w>
re commencé</w>
rar eté</w>
ra me</w>
quar ks</w>
quali fiés</w>
qu o</w>
pê ches</w>
pétroli ère</w>
pétroli ers</w>
puiss ances</w>
prê tent</w>
préoccu pés</w>
propag ent</w>
prolif ération</w>
produc tifs</w>
pro verbe</w>
primi tifs</w>
pri er</w>
pri ent</w>
pr ah</w>
pou ces</w>
plan cher</w>
plac ées</w>
plac ard</w>
pl omb
pira tage</w>
pi voter</w>
pi aniste</w>
peu x-tu</w>
personn aliser</w>
personn alisation</w>
perf ection</w>
percev ons</w>
passionn ée</w>
pass ager</w>
partici pati
parti cul
partag és</w>
par u</w>
par o
par leur</w>
par les</w>
par ess
par aissait</w>
pai ement</w>
pa lette</w>
os hop</w>
orphel ins</w>
or ie</w>
or ang
or ado</w>
op posées</w>
op ping</w>
ol ets</w>
offici ellement</w>
offi ciel</w>
oeu f</w>
ob by</w>
o la</w>
o culaires</w>
né erlandais</w>
nourri s</w>
ni tude</w>
nett oie</w>
nes ota</w>
n appe</w>
n an</w>
mê ler</w>
mén age</w>
mélang és</w>
médi um</w>
mé pris
mur mu
multi tâche</w>
mour ut</w>
mor alement</w>
monopo le</w>
mon étaire</w>
moment- même</w>
mira cul
minim ale</w>
min uti
micros copiques</w>
mi gré</w>
met taient</w>
mesu rable</w>
ment ée</w>
ment i</w>
men ant</w>
massac re</w>
marionn ette</w>
march aient</w>
marath on</w>
mar ais</w>
mar a</w>
mand s</w>
man us
main- d&apos;</w>
mag nitude</w>
ma tri
m mm</w>
lu eur</w>
lo ok</w>
lo cu
lis ait</w>
li tés</w>
lev ées</w>
langu age</w>
laiss ée</w>
k ings</w>
k et
ju xta
jou es</w>
jet ables</w>
jet able</w>
is h</w>
investi s</w>
intéress ons</w>
intègr ent</w>
intro duis
interrog é</w>
interpr ète</w>
inter section</w>
inter galactique</w>
int éra
int acte</w>
instincti vement</w>
ins tr
innov antes</w>
initi alement</w>
ini tié</w>
ini ers</w>
inform ati
influen cent</w>
influ ences</w>
inclu ent</w>
inc esse</w>
in ets</w>
in erte</w>
in défin
indéfin iment</w>
in duit</w>
in dispens
in audible</w>
immer sion</w>
imagin ent</w>
im patience</w>
im min
im i</w>
illumin ation</w>
illi ne</w>
ill égale</w>
identifi e</w>
identi tés</w>
héroï ne</w>
hé ré
hydrocarbu res</w>
horizon tale</w>
horiz ons</w>
hi re</w>
hi o</w>
hambur gers</w>
hab il
h ache</w>
géo- ingénierie</w>
géni es</w>
grav er</w>
gr ill
go sse</w>
gla ces</w>
gi v
ge ek</w>
gas piller</w>
g ym
g ay</w>
g avi
g all
fron tale</w>
fre d</w>
frapp ée</w>
frag ilité</w>
frac tales</w>
four rure</w>
formul aire</w>
form ant</w>
fon taine</w>
fon dées</w>
fon dements</w>
fo ss
fl ûtes</w>
fissu res</w>
fichi ers</w>
fati gue</w>
fascin ée</w>
far ine</w>
famili ère</w>
fam euse</w>
fai s-tu</w>
faci ales</w>
fac ture</w>
fabri quant</w>
f êtes</w>
f la
f ans</w>
expériment ations</w>
export ations</w>
exponenti ellement</w>
exploi té</w>
exclu sivement</w>
excell ence</w>
examin ons</w>
eur -
esthé tiques</w>
entr aine</w>
enti n</w>
enter ré</w>
ent ass
enseign ait</w>
enregistr ées</w>
enn uie</w>
eni um</w>
enf re
enf lam
endommag é</w>
en- ciel</w>
en n</w>
en chères</w>
employ ons</w>
emp le</w>
emball ages</w>
ec teurs</w>
e- t-elle</w>
e t-
détour ner</w>
détermin ant</w>
dési re</w>
dépl oie</w>
dépist age</w>
dépend ons</w>
dém o</w>
délicat es</w>
découver ts</w>
décoll age</w>
décid eurs</w>
dé vor
dé signer</w>
dé faire</w>
doulour euse</w>
dor ment</w>
divis ions</w>
divi den
distr action</w>
dis sent</w>
dis posent</w>
dirig ée</w>
diplom ate</w>
digit al</w>
différen ci
diagnosti qué</w>
di t-il</w>
di fication</w>
devi endront</w>
devi endrait</w>
destin és</w>
des quels</w>
demi- million</w>
demand era</w>
deman dée</w>
dem y</w>
daf -2</w>
d al
cé dé</w>
cultur ellement</w>
cu t</w>
cu es</w>
cré atrice</w>
cru el</w>
croy ez-vous</w>
croy ants</w>
croi sent</w>
cri e</w>
cre di</w>
crain dre</w>
cra sh</w>
cou pez</w>
cou lé</w>
costu mes</w>
cosm ologie</w>
contrô lés</w>
contro versée</w>
contre plaqué</w>
contr ats</w>
contr ari
contempl er</w>
consom ment</w>
conseill ers</w>
confi g
conduis ait</w>
con ven
compr endrez</w>
compar ée</w>
commun isme</w>
combus tion</w>
com édi
com pression</w>
cli quez</w>
cli ps</w>
cl aires</w>
cis eaux</w>
cir con
cica trices</w>
ci tron</w>
chu tes</w>
cho t</w>
chlor o
cher cher
chant ait</w>
challen ge</w>
ch euse</w>
centr ée</w>
cau sent</w>
caravan e</w>
calam ar</w>
ca m</w>
c ots</w>
c ons</w>
c isme</w>
bulle tin</w>
bru tes</w>
boucli er</w>
bor ne</w>
bon homme</w>
bo euf</w>
bio énergie</w>
bien faits</w>
bi que</w>
bes ti
batt ait</w>
bas cule</w>
bar a</w>
ba z
ba c</w>
b ins</w>
aéron ef</w>
aéri en</w>
av ènement</w>
augment ée</w>
audi tif</w>
au- dessous</w>
au rait-il</w>
attr ay
attend rait</w>
atro cités</w>
at omiques</w>
astron autes</w>
assembl ent</w>
as pire</w>
artifici elles</w>
artifici ellement</w>
ari at</w>
architectu ral</w>
arch ét
ar ène</w>
ar téri
aqu atiques</w>
appréh ender</w>
appl i</w>
appar tenir</w>
apl ati
aperç us</w>
ap probation</w>
ap portait</w>
anthropolog ues</w>
anthropolog ue</w>
anné e-là</w>
anim ales</w>
an c</w>
ambassad eur</w>
altern atif</w>
all y</w>
alis ations</w>
al ine</w>
al d</w>
ais ance</w>
ai s-tu</w>
agres sif</w>
ag ée</w>
ag on
affi ché</w>
ador ons</w>
acti vent</w>
ache vé</w>
accueill i</w>
accu eille</w>
accep tée</w>
ac quiert</w>
absor ption</w>
a tres</w>
a chats</w>
a b</w>
Z K</w>
Wit ness</w>
Whi te</w>
Wal ter</w>
Wal mart</w>
Vic tori
V in
Toy ota</w>
T ah
T -s
T &apos;</w>
Sho ots</w>
Sec r
Schwar z
S ween
S pe
S LA</w>
S B</w>
Ru ss
Royau me</w>
Rou ges</w>
Ro ots</w>
Ri res</w>
R oyal</w>
R ica</w>
R ic
Quel ques-
Pro ject</w>
Pri ze</w>
Power Point</w>
Phot oshop</w>
Peti te</w>
Pentag one</w>
Pal estine</w>
P ur
P rom
O regon</w>
O prah</w>
Nouvelle- Zélande</w>
Nouv eau</w>
No v
Neu mann</w>
Ne vada</w>
Mos cou</w>
Mo la</w>
Mississi ppi</w>
Mis sion</w>
Min nesota</w>
Mich igan</w>
Mar yland</w>
Manifes tement</w>
Mai treya</w>
M ill
L aur
Kh mers</w>
K ir
K S</w>
Jus ti
Ja son</w>
I t
I II</w>
H 5
H5 N1</w>
Gre en</w>
Gre en
Gra ham</w>
Gen eral</w>
Gar y</w>
G er
Fried man</w>
F ant
Excel lent</w>
Ex xon</w>
Europé ens</w>
Es pace</w>
E lec
E le
E cole</w>
E D</w>
Dé pression</w>
Dou g</w>
Dit es-
Diff ér
Di ana</w>
De troit</w>
D re
D L</w>
Cré er</w>
Con str
Com par
Colom bie</w>
Col orado</w>
Coch rane</w>
Ch ang
C oo
C lu
Bulgar ie</w>
Bi bli
Bar bie</w>
Bar bara</w>
Bal k
B usiness</w>
B il
B all
Ap pl
Ap pel
An dy</w>
Al lez-y</w>
Ach ille</w>
Aca démie</w>
Aca demy</w>
Ab u</w>
A vi
A vel
A gn
A T
A G</w>
A BC</w>
A A</w>
9 4</w>
199 2</w>
198 3</w>
197 4</w>
19 47</w>
œ str
évi dents</w>
étudi antes</w>
étin celle</w>
éti ez-vous</w>
étend ent</w>
éte ign
état- nation</w>
étag ères</w>
ér aient</w>
équili brer</w>
émo tionnelles</w>
ém u</w>
éloi gnée</w>
écriv ons</w>
écl ater</w>
é méni
é ments</w>
é cur
é blou
z oom</w>
z er</w>
w are</w>
végét arien</w>
voy ants</w>
vor es</w>
vol ante</w>
vis e</w>
viol ées</w>
vieill esse</w>
vibra tions</w>
vi enn
vertébra le</w>
versi de</w>
venti lation</w>
vend ue</w>
vend ez</w>
vend aient</w>
vari és</w>
val id
val et</w>
vag ins</w>
v endant</w>
v ase</w>
utilis erons</w>
utilis ations</w>
un isson</w>
ul tra</w>
tu ée</w>
tu ons</w>
trou vions</w>
tron cs</w>
trom pés</w>
trom pent</w>
trilli ons</w>
tri vi
traî ner</w>
traver sons</w>
trans planter</w>
trans mises</w>
trans actions</w>
tra ducteur</w>
tr è
tori al</w>
tonn erre</w>
tol érer</w>
tin s</w>
tick ets</w>
tez- le</w>
tes tées</w>
ter ne</w>
ter iez</w>
tect oniques</w>
te ts</w>
tal on</w>
t éra
t ance</w>
t .</w>
symph onie</w>
sures ti
super bes</w>
sugg estion</w>
subti ls</w>
su eur</w>
sty les</w>
stupé fiante</w>
stu di
strat osphère</w>
stat u</w>
st ock</w>
st atiques</w>
st ase</w>
spéci alisé</w>
sph in
sphin x</w>
spec tros
sous- tend</w>
sour d</w>
souhai tent</w>
sou tiens</w>
sou fre</w>
sor taient</w>
sophisti quée</w>
soci ologues</w>
sli de</w>
sin istre</w>
simul ateur</w>
si us</w>
ser vir
ser ré</w>
ser mon</w>
sep tième</w>
sensibil isation</w>
secr étaire</w>
sculp teur</w>
scot ch</w>
sauv ées</w>
sau tent</w>
sacrifi ce</w>
sach ions</w>
s en</w>
s cru
s aura</w>
s antes</w>
résist ante</w>
répli cation</w>
répercu ssions</w>
réfrig érateur</w>
réfléch issais</w>
réduis ez</w>
ré verb
ré généra
ré former</w>
rugu ay</w>
ru go
rugo sité</w>
rou x</w>
ron de</w>
rob es</w>
ris quer</w>
rh ét
rh ino
retour nez</w>
res terait</w>
rend rait</w>
regrou per</w>
regard s</w>
recy clés</w>
rassembl ées</w>
rappel l
rand onnée</w>
raf es</w>
rac cro
r ènes</w>
r eurs</w>
r enfer
quar ante</w>
qu arts</w>
péni c
pénic illine</w>
pén ètre</w>
péd agog
pâ tu
pul l</w>
pu cer
psycho path
prési dente</w>
prési dence</w>
présent ait</w>
prépar ent</w>
prépar ais</w>
préoccu pation</w>
pré val
pré jugé</w>
proph ète</w>
prom et</w>
profi té</w>
profi tent</w>
prin ce</w>
pr oies</w>
pouss és</w>
pour- cent</w>
pos té</w>
pos tales</w>
poly styrène</w>
poly mères</w>
pollin isateurs</w>
po te</w>
plu mes</w>
plong ées</w>
place bo</w>
perç oit</w>
per ro
per ie</w>
per dr
per cer</w>
per a</w>
pen sion</w>
pen seriez</w>
pe -
pay ent</w>
pau me</w>
partici pe</w>
parti ellement</w>
parl era</w>
pari er</w>
par ts</w>
par tons</w>
par kings</w>
par celle</w>
pai sible</w>
pa trimoine</w>
p étales</w>
p ins</w>
p ait</w>
oyau té</w>
ouv rière</w>
orphel inat</w>
or é
or m
orm eau</w>
or anges</w>
opti mal</w>
op pos
onal d</w>
on dul
ométr ique</w>
olog ne</w>
oli th
ol d</w>
off rant</w>
océan iques</w>
obti endrez</w>
oblig atoire</w>
ob ule</w>
o v</w>
nécessi tent</w>
numéri quement</w>
nui t-là</w>
nourr issons</w>
noctur ne</w>
nigéri an</w>
ni ds</w>
neuro transmet
neuro scientifiques</w>
neur ologique</w>
neu vième</w>
neu ve</w>
nettoy age</w>
ne w
natur aliste</w>
n e-
n agé</w>
métast ases</w>
még aw
médi oc
multipli é</w>
multipli ez</w>
mort els</w>
montr aient</w>
mon archie</w>
mini atur
min ces</w>
min able</w>
migra tions</w>
migr ants</w>
migr aine</w>
mi to
mi te</w>
menac és</w>
menac er</w>
mati née</w>
mat urité</w>
mari ées</w>
mand ar
man ch
mainten u</w>
main tiennent</w>
ma quettes</w>
ma ce</w>
m o</w>
m ants</w>
léopar ds</w>
lég ende</w>
lym ph
lu x
longu eurs</w>
loint aine</w>
loi sirs</w>
livrai son</w>
litt éral</w>
liqui des</w>
lic ences</w>
[...]
